<pad>	0
<unk>	0
<s>	0
</s>	0
,	-3.4117
▁the	-3.50213
▁of	-4.14922
▁to	-4.27867
।	-4.40642
▁(	-4.61211
▁है	-4.68373
▁is	-4.74878
)	-4.75869
▁के	-4.76157
▁and	-4.76301
▁in	-4.83948
▁I	-5.01123
▁में	-5.03452
▁a	-5.05079
s	-5.05839
▁की	-5.09071
▁:	-5.09304
▁that	-5.14863
:	-5.21608
▁on	-5.27119
▁से	-5.34943
▁को	-5.40822
▁The	-5.45307
▁not	-5.4543
▁और	-5.48858
Interruptions	-5.50255
▁this	-5.5351
▁का	-5.54617
▁be	-5.56296
▁for	-5.572
▁have	-5.57339
▁are	-5.63333
▁हैं	-5.6653
▁MR	-5.70807
▁it	-5.73188
▁कि	-5.83221
▁...	-5.85969
▁has	-5.86296
▁नहीं	-5.89923
▁by	-5.90377
▁SPEAKER	-5.91742
▁पर	-5.94036
▁you	-5.9814
▁SHRI	-5.9946
▁will	-6.018
▁Government	-6.05945
▁was	-6.06485
▁महोदय	-6.08261
▁क	-6.13935
▁लिए	-6.14867
▁	-6.15559
▁श्री	-6.15583
▁Sir	-6.16119
▁Shri	-6.22285
▁as	-6.22628
▁we	-6.2358
▁इस	-6.24519
▁)	-6.24525
?	-6.25741
▁भी	-6.26472
▁सरकार	-6.26839
▁Minister	-6.27967
▁यह	-6.28121
▁been	-6.38499
▁with	-6.39536
▁मैं	-6.40176
▁House	-6.42955
▁हो	-6.45777
▁न	-6.47124
▁व्यवधान	-6.49384
▁To	-6.50629
▁should	-6.50743
ing	-6.50854
▁कर	-6.50965
▁जी	-6.51442
▁from	-6.51457
▁would	-6.51873
▁which	-6.53197
▁there	-6.54358
▁Need	-6.55094
▁एक	-6.56129
▁Of	-6.57787
▁"	-6.58829
▁also	-6.59512
▁जो	-6.59715
▁):	-6.60723
▁In	-6.61101
▁hon	-6.62193
▁करने	-6.62633
▁at	-6.62838
▁किया	-6.63362
▁It	-6.6343
d	-6.64105
/	-6.65279
▁all	-6.65508
▁हूं	-6.66252
▁ने	-6.69211
ed	-6.69647
▁र	-6.72351
▁आप	-6.73493
▁अध्यक्ष	-6.74464
▁am	-6.75438
▁Bill	-6.76046
▁Sabha	-6.768
▁do	-6.76957
ी	-6.79886
▁an	-6.81063
▁or	-6.81525
▁A	-6.82333
▁तो	-6.84269
▁Lok	-6.8545
▁they	-6.85707
▁can	-6.87145
▁he	-6.87191
▁गया	-6.89641
▁We	-6.89883
▁मंत्री	-6.90074
▁very	-6.90774
▁India	-6.91616
▁म	-6.92875
क	-6.94025
ों	-6.94187
ा	-6.94515
▁take	-6.94835
▁ह	-6.95632
▁your	-6.95739
▁This	-6.96122
▁our	-6.96409
▁दिया	-6.9829
’	-6.98744
र	-7.00788
▁people	-7.02161
;	-7.03015
▁Members	-7.03259
▁State	-7.03626
▁like	-7.04398
▁time	-7.05381
ल	-7.0612
▁स	-7.07215
▁up	-7.07634
▁चाहिए	-7.10294
▁No	-7.10396
▁Title	-7.10402
▁रहे	-7.11329
▁व	-7.11392
▁country	-7.11806
▁जा	-7.11991
▁one	-7.12092
▁Debates	-7.13121
▁no	-7.13485
A	-7.13598
न	-7.14008
▁CHAIRMAN	-7.14566
▁only	-7.15091
▁था	-7.15941
▁other	-7.15988
▁बात	-7.16038
▁P	-7.16274
▁about	-7.16373
▁रहा	-7.16623
▁You	-7.17044
▁S	-7.17158
▁सिंह	-7.17636
▁Please	-7.17865
▁any	-7.19237
i	-7.19846
▁my	-7.19864
▁but	-7.21757
e	-7.22632
"	-7.23663
▁what	-7.25183
▁तक	-7.25896
▁given	-7.26209
▁ही	-7.26968
▁प	-7.27273
▁now	-7.27348
▁me	-7.2753
▁these	-7.27534
o	-7.28014
▁लेकिन	-7.28859
▁under	-7.29247
म	-7.30595
त	-7.31009
▁go	-7.31505
स	-7.31836
▁per	-7.31915
▁रही	-7.3203
▁हम	-7.32054
▁their	-7.32261
▁were	-7.32463
▁*	-7.32965
▁some	-7.33212
▁करना	-7.33297
▁देश	-7.34089
r	-7.34484
▁who	-7.34509
▁।	-7.34842
▁बहुत	-7.34846
▁had	-7.35127
▁कोई	-7.3548
▁his	-7.36117
ly	-7.36178
▁said	-7.36364
▁जाए	-7.36661
c	-7.36667
th	-7.36725
▁लोगों	-7.37561
▁द	-7.379
▁But	-7.37908
'	-7.37983
▁taken	-7.40984
▁वह	-7.40988
▁Mr	-7.41139
®	-7.41444
▁DEPUTY	-7.42387
▁ज	-7.43223
▁तथा	-7.43882
▁क्षेत्र	-7.44223
▁matter	-7.44616
▁so	-7.44635
▁2	-7.44743
▁He	-7.45588
े	-7.46155
a	-7.46372
al	-7.46875
▁because	-7.47699
▁...(	-7.47935
▁made	-7.48012
▁Speaker	-7.48482
▁There	-7.49738
▁एवं	-7.4991
व	-7.49932
▁want	-7.5045
▁year	-7.50891
▁may	-7.51839
▁माननीय	-7.52329
▁K	-7.52427
▁being	-7.52557
É	-7.52876
▁साथ	-7.53189
t	-7.53322
u	-7.53332
▁know	-7.53499
▁गई	-7.53611
▁M	-7.53637
▁out	-7.53649
▁them	-7.53687
▁issue	-7.53888
▁Rs	-7.54034
▁If	-7.54084
k	-7.54125
▁त	-7.54441
▁राज्य	-7.54542
▁say	-7.5471
▁more	-7.54806
द	-7.54972
▁if	-7.55147
▁सदन	-7.55157
▁सभापति	-7.55496
प	-7.57416
▁प्रदेश	-7.57423
▁speak	-7.58181
▁लोग	-7.58985
ि	-7.59668
h	-7.61051
▁करता	-7.61141
▁समय	-7.6121
▁उपाध्यक्ष	-7.61748
▁Central	-7.62095
▁into	-7.62209
▁please	-7.62274
▁question	-7.62743
▁us	-7.63152
▁द्वारा	-7.63363
▁हुआ	-7.63365
▁So	-7.63388
▁Act	-7.63528
▁him	-7.63547
▁For	-7.63713
▁चाहता	-7.63911
▁1	-7.64604
▁वहां	-7.64843
▁come	-7.65148
▁C	-7.65379
▁OF	-7.65581
▁On	-7.67902
▁3	-7.67995
▁किसानों	-7.6825
▁point	-7.68435
▁here	-7.68476
2	-7.6909
▁then	-7.69122
ट	-7.69325
▁Now	-7.6984
ो	-7.70016
▁ल	-7.70025
▁यहां	-7.70184
▁They	-7.7074
▁5	-7.71025
l	-7.71229
▁4	-7.71693
ज	-7.71696
्	-7.7206
▁after	-7.7232
▁Pradesh	-7.7292
▁cent	-7.72937
▁give	-7.73276
p	-7.73573
▁December	-7.73928
▁order	-7.74002
▁वे	-7.74101
▁कारण	-7.74295
▁make	-7.74336
▁Member	-7.74535
▁बारे	-7.74979
▁when	-7.75357
▁केन्द्र	-7.75457
▁such	-7.75769
▁माध्यम	-7.75769
▁cannot	-7.76185
▁going	-7.76414
▁two	-7.76598
▁आज	-7.76755
n	-7.77668
▁And	-7.77708
y	-7.77788
▁रेल	-7.78066
▁What	-7.78071
▁इसके	-7.78096
▁या	-7.78954
0	-7.79022
▁Committee	-7.79341
▁आ	-7.79508
▁hrs	-7.79555
▁कुछ	-7.8085
▁August	-7.81067
▁हुए	-7.81067
▁That	-7.81216
▁ग	-7.81593
▁Railway	-7.81759
▁record	-7.82081
▁क्या	-7.82194
I	-7.82453
▁मांग	-7.8272
▁ध्यान	-7.82823
▁इन	-7.83117
m	-7.83207
▁request	-7.83441
▁ब	-7.83542
(	-7.83955
▁12	-7.84304
er	-7.8437
▁उस	-7.8507
1	-7.85407
▁Singh	-7.85745
य	-7.85933
▁काम	-7.86107
▁विकास	-7.86431
▁years	-7.86627
▁उत्तर	-7.86893
ar	-7.87406
▁बाद	-7.87832
▁दी	-7.88013
ता	-7.88173
▁[	-7.88831
▁10	-7.8886
▁2005	-7.89246
▁कम	-7.89873
...	-7.89917
▁THE	-7.89937
▁11	-7.90205
▁होने	-7.90318
ं	-7.90334
▁इसलिए	-7.90413
▁अभी	-7.90665
▁जब	-7.9118
▁भारत	-7.91369
▁–	-7.91376
▁आपके	-7.91395
▁श	-7.91655
S	-7.91783
श	-7.92036
व्यवधान	-7.92136
f	-7.92222
▁रूप	-7.92327
b	-7.92647
▁important	-7.93078
▁जाये	-7.93119
▁8	-7.93185
।...(	-7.93264
3	-7.93331
▁,	-7.93344
▁against	-7.93826
▁कार्य	-7.94657
6	-7.94738
▁statement	-7.95198
▁National	-7.95311
▁थी	-7.95797
▁सकता	-7.96068
▁">	-7.96181
▁discussion	-7.96585
g	-7.96601
▁>	-7.97238
▁down	-7.97338
▁B	-7.97551
▁करें	-7.97648
ने	-7.97814
▁योजना	-7.98085
4	-7.98213
▁Commission	-7.98549
▁6	-7.99556
▁कुमार	-7.99558
▁Prime	-7.99669
▁2006	-7.99684
D	-7.99711
▁कहा	-8.00038
▁today	-8.00195
▁V	-8.00244
▁March	-8.00459
▁R	-8.00817
▁बिहार	-8.00882
▁रेलवे	-8.00996
ग	-8.01132
▁Regarding	-8.01255
E	-8.01474
▁Parliament	-8.01516
▁अ	-8.01798
▁case	-8.01974
5	-8.01994
ना	-8.02175
▁दे	-8.0232
▁D	-8.02749
▁MINISTER	-8.03408
▁At	-8.03415
R	-8.03617
▁15	-8.03923
▁पहले	-8.03959
▁देने	-8.03989
▁/	-8.04233
in	-8.0461
▁over	-8.04774
▁already	-8.05054
▁दो	-8.05159
ब	-8.05269
▁वाले	-8.05331
▁उन्हें	-8.06168
▁ओर	-8.06248
▁before	-8.06447
▁As	-8.06665
▁crore	-8.06671
▁through	-8.07008
▁अपनी	-8.07318
▁+	-8.07446
▁Indian	-8.08516
▁Report	-8.08547
▁must	-8.08717
▁States	-8.08764
▁थे	-8.09017
च	-8.09091
*	-8.09171
▁Let	-8.09303
▁information	-8.09597
▁मेरा	-8.1046
▁जाने	-8.10708
▁हुई	-8.11628
▁2003	-8.11634
8	-8.11696
C	-8.11741
▁16	-8.11948
▁last	-8.12518
▁Hon	-8.12539
▁recorded	-8.13584
▁14	-8.13711
▁2007	-8.13726
▁भ	-8.13948
▁first	-8.1402
▁Not	-8.14266
▁Therefore	-8.14323
▁‘	-8.14326
▁गए	-8.14343
▁many	-8.15254
▁notice	-8.15407
्स	-8.15512
ित	-8.15688
▁20	-8.15772
▁सभा	-8.15852
▁its	-8.15971
SHRI	-8.16264
That	-8.16888
▁Court	-8.17405
▁much	-8.17718
▁Table	-8.17729
ु	-8.18026
ू	-8.18188
▁raised	-8.1875
▁7	-8.18765
an	-8.18965
▁whether	-8.18982
M	-8.18995
▁अपने	-8.19015
▁Ministry	-8.193
▁आपको	-8.19317
7	-8.19366
▁present	-8.19641
▁think	-8.1979
▁same	-8.19941
▁तरह	-8.19944
▁मुझे	-8.19946
▁farmers	-8.20004
▁विषय	-8.20164
▁य	-8.20633
▁allow	-8.20681
▁आपने	-8.20733
#	-8.21351
&	-8.21352
▁13	-8.21515
▁अगर	-8.21567
▁बोलने	-8.21575
▁19	-8.21653
▁part	-8.21901
▁place	-8.22458
ur	-8.22743
▁“	-8.22875
▁By	-8.23257
▁even	-8.23322
▁करते	-8.2362
▁done	-8.2387
▁18	-8.23951
▁reply	-8.24053
▁passed	-8.24237
ह	-8.24442
▁right	-8.24528
▁situation	-8.24539
▁those	-8.24876
▁2009	-8.25233
]	-8.2542
>	-8.25455
▁than	-8.25784
▁speech	-8.25866
▁9	-8.25912
▁प्रसाद	-8.26234
▁motion	-8.26239
%	-8.26369
▁provide	-8.2686
▁how	-8.2727
▁p	-8.27594
▁re	-8.2762
▁dated	-8.2765
▁T	-8.27906
▁seat	-8.28053
▁Budget	-8.28302
▁appeal	-8.28387
▁sit	-8.28592
):	-8.28773
9	-8.2881
▁30	-8.28885
▁चर्चा	-8.29007
▁अनुरोध	-8.29007
▁new	-8.29091
es	-8.29095
कर	-8.29206
▁करोड़	-8.29262
ध	-8.29269
▁2000	-8.29301
▁sector	-8.29359
▁उसके	-8.29376
ड	-8.29473
▁support	-8.29793
ण	-8.29856
▁2008	-8.30086
▁just	-8.30473
▁होगा	-8.30478
▁Finance	-8.3078
▁Nothing	-8.30781
▁करके	-8.3082
▁why	-8.3114
▁see	-8.31303
▁could	-8.31498
ÉÉ	-8.31629
▁need	-8.31838
▁public	-8.31859
▁2001	-8.31868
▁Chair	-8.32215
▁वर्ष	-8.3235
▁मिल	-8.32605
▁L	-8.32918
▁नाम	-8.33052
▁Bihar	-8.33626
▁व्यवस्था	-8.34048
▁बजट	-8.34058
▁बार	-8.34075
▁get	-8.34539
▁three	-8.34795
▁हमारे	-8.34795
िक	-8.349
▁सके	-8.35271
▁2002	-8.35548
▁17	-8.35587
▁हेतु	-8.35919
▁क्योंकि	-8.35921
▁allowed	-8.36062
▁ये	-8.36132
▁उनकी	-8.36301
▁2004	-8.36312
▁Motion	-8.36315
▁day	-8.36433
+	-8.36468
▁&	-8.36916
▁मेरे	-8.37063
▁way	-8.37214
▁N	-8.37933
▁Delhi	-8.38205
▁did	-8.38228
ation	-8.38351
▁problem	-8.38356
▁किसी	-8.38383
▁मंत्रालय	-8.38591
▁सभी	-8.38591
▁उनके	-8.38597
▁KUMAR	-8.38938
▁प्रस्ताव	-8.39339
▁every	-8.39368
▁G	-8.39374
▁Deputy	-8.39758
P	-8.39935
▁दिल्ली	-8.40152
▁number	-8.40713
▁m	-8.40821
▁during	-8.40939
▁निर्माण	-8.40943
ri	-8.41048
▁बैठ	-8.41247
▁आवश्यकता	-8.41348
▁कहना	-8.41359
▁सदस्य	-8.41638
▁May	-8.42146
▁कई	-8.42255
▁उन	-8.42454
B	-8.42863
▁सकते	-8.42941
▁2010	-8.42946
▁स्थिति	-8.42955
!	-8.43137
▁महत्वपूर्ण	-8.43345
am	-8.43542
▁shall	-8.43752
▁अन्य	-8.44159
▁चाहते	-8.44159
▁जिससे	-8.44572
▁fact	-8.44748
▁उ	-8.45063
▁Hour	-8.45396
▁land	-8.45426
▁July	-8.45808
▁पूरा	-8.4581
O	-8.45831
▁अधिक	-8.45989
▁AND	-8.46227
▁पानी	-8.46246
▁concerned	-8.46265
▁where	-8.46597
▁further	-8.46643
ic	-8.46829
▁मैंने	-8.46913
▁again	-8.47045
▁ले	-8.47232
▁price	-8.47286
▁water	-8.47486
{	-8.47702
▁सब	-8.47756
▁When	-8.47913
▁अब	-8.48418
▁जाता	-8.48482
▁power	-8.48561
▁back	-8.49193
▁RANJAN	-8.49622
▁railway	-8.49623
▁consideration	-8.50066
▁Dr	-8.50151
▁ए	-8.50352
▁BASU	-8.50927
▁PRIYA	-8.50927
▁minutes	-8.51145
▁Constitution	-8.51307
▁President	-8.51365
▁adopted	-8.51374
▁यादव	-8.51374
▁put	-8.51379
▁does	-8.51514
▁regard	-8.51657
▁between	-8.51806
▁बिल	-8.51823
▁move	-8.52107
▁सकती	-8.5225
▁प्रो	-8.52315
▁well	-8.52316
ra	-8.52844
▁decision	-8.52963
▁let	-8.53135
▁copy	-8.53139
▁संसदीय	-8.53142
K	-8.53371
ला	-8.53382
ख	-8.53497
भ	-8.53507
▁saying	-8.53536
▁areas	-8.53546
▁Uttar	-8.53592
re	-8.53953
▁जाना	-8.54212
▁section	-8.54322
▁उपलब्ध	-8.54452
▁Party	-8.54499
▁23	-8.54696
▁अप	-8.54759
▁DASMUNSI	-8.54945
▁पास	-8.55002
▁s	-8.55004
▁subject	-8.55275
▁development	-8.55346
▁ताकि	-8.55402
▁सी	-8.55422
▁All	-8.55923
▁giving	-8.56321
▁समर्थन	-8.56784
▁फ	-8.56983
▁area	-8.57256
▁उसे	-8.57373
▁interest	-8.5744
▁Home	-8.57717
▁political	-8.57717
▁उन्होंने	-8.57718
▁कक	-8.57737
▁mentioned	-8.57782
▁Provide	-8.57794
▁work	-8.57844
▁प्र	-8.58059
▁ACHARIA	-8.58186
▁हमें	-8.58247
▁अत	-8.58492
▁far	-8.58607
▁DEB	-8.58658
▁Parliamentary	-8.58666
▁called	-8.58747
▁इसे	-8.58785
▁पत	-8.58828
▁H	-8.5889
▁J	-8.59105
▁विशेष	-8.59107
▁डॉ	-8.59156
▁raise	-8.59481
▁beg	-8.59813
▁Kumar	-8.60011
▁English	-8.6009
▁different	-8.60469
▁24	-8.60834
▁law	-8.60911
▁कानून	-8.60952
▁With	-8.61015
▁कृषि	-8.61053
▁लाल	-8.61164
्य	-8.61353
▁action	-8.61405
▁25	-8.616
▁conclude	-8.61893
▁line	-8.61916
st	-8.61977
▁April	-8.62024
▁21	-8.62536
▁provided	-8.62697
▁होता	-8.62843
▁good	-8.62877
▁taking	-8.63006
▁आपका	-8.63586
T	-8.6359
▁name	-8.63812
ion	-8.63971
▁Chairman	-8.64006
▁DR	-8.64096
▁22	-8.64295
H	-8.64479
▁देना	-8.6456
▁November	-8.65001
▁इसमें	-8.65001
▁set	-8.65012
ें	-8.65079
U	-8.65429
▁Railways	-8.65453
▁New	-8.65506
▁opportunity	-8.66014
▁”	-8.66121
▁view	-8.66414
▁उनको	-8.66529
▁See	-8.66665
▁{	-8.66774
▁26	-8.67035
▁till	-8.67039
▁यदि	-8.67043
▁राष्ट्रीय	-8.67048
▁ट	-8.67136
▁regarding	-8.6721
)*	-8.67228
▁issues	-8.67413
▁च	-8.67539
▁Library	-8.67553
▁राम	-8.67869
w	-8.67892
▁making	-8.68071
▁Scheduled	-8.681
▁ख	-8.68223
▁लाख	-8.68504
▁national	-8.6866
▁respect	-8.69507
▁second	-8.69641
▁world	-8.69641
▁ज्यादा	-8.69641
▁LT	-8.69667
▁महोदया	-8.69885
▁due	-8.70172
▁Rajasthan	-8.70174
▁Why	-8.70179
नी	-8.70237
G	-8.70256
▁certain	-8.70639
▁आर्थिक	-8.70702
ul	-8.70796
Hindi	-8.71027
▁राजस्थान	-8.71125
on	-8.71208
▁Recorded	-8.71243
▁कल	-8.71245
▁adjourned	-8.71255
it	-8.71346
▁U	-8.71378
▁Information	-8.71779
v	-8.72097
or	-8.72101
▁विधेयक	-8.72315
▁versions	-8.72351
▁आई	-8.72372
le	-8.72471
▁money	-8.72859
▁इससे	-8.72919
▁दें	-8.7304
▁E	-8.7338
▁शामिल	-8.73406
▁party	-8.73476
▁upon	-8.73491
en	-8.73684
▁क्षेत्रों	-8.73756
▁प्रकार	-8.73962
▁Laid	-8.73963
▁parties	-8.73965
▁पी	-8.74105
▁report	-8.74313
▁प्रतिशत	-8.74507
र्	-8.7488
▁स्टेशन	-8.74966
▁Bengal	-8.75063
▁Gujarat	-8.75063
▁ठीक	-8.75063
▁दिन	-8.75076
▁प्रति	-8.75098
▁ई	-8.75215
▁ध	-8.75483
▁debate	-8.75556
▁लाभ	-8.75624
▁ऐसा	-8.75629
▁District	-8.76121
▁most	-8.76183
▁policy	-8.76183
▁प्रदान	-8.76185
▁without	-8.76204
▁लिया	-8.76213
▁साल	-8.76256
▁तब	-8.76319
ती	-8.76324
▁इसका	-8.76341
▁कह	-8.76811
▁c	-8.76914
▁help	-8.77165
▁मामला	-8.77316
▁Section	-8.77321
▁जनता	-8.77338
▁बनाने	-8.77341
▁होती	-8.77476
▁Madam	-8.77888
▁तरफ	-8.77892
पुर	-8.78345
▁किसान	-8.7837
▁district	-8.78417
ष	-8.78417
▁सुविधा	-8.78438
▁own	-8.78463
▁ग्रामीण	-8.78467
▁kind	-8.78977
▁long	-8.79003
▁जहां	-8.79041
▁दीजिए	-8.79041
un	-8.79077
▁28	-8.79092
वा	-8.79252
▁within	-8.79388
▁entire	-8.79557
▁वाली	-8.79622
री	-8.79778
फ	-8.79862
▁understand	-8.80057
▁bring	-8.80057
▁another	-8.80207
▁उसमें	-8.80207
▁निवेदन	-8.80795
▁demand	-8.81078
▁लोक	-8.81315
▁जिले	-8.81387
▁बाढ़	-8.81388
il	-8.81401
▁बीच	-8.81403
▁आवश्यक	-8.81946
▁Mumbai	-8.81982
▁cè	-8.81982
▁having	-8.81982
▁following	-8.82018
________________	-8.82047
▁says	-8.82399
▁Do	-8.82435
▁जिस	-8.82473
▁तीन	-8.82501
▁attention	-8.82581
▁something	-8.82581
▁मेरी	-8.82587
▁होना	-8.82928
▁रुपये	-8.83183
la	-8.8322
▁West	-8.83324
▁e	-8.83343
▁जल	-8.83437
▁समस्या	-8.83768
ए	-8.83802
.	-8.84091
▁चल	-8.84156
▁de	-8.84198
▁नह	-8.84236
▁विजय	-8.84399
▁नोटिस	-8.844
▁stage	-8.84401
▁five	-8.84404
ment	-8.84613
Placed	-8.848
▁filed	-8.85045
▁steps	-8.85284
N	-8.85362
▁अपना	-8.85452
▁system	-8.85621
▁Affairs	-8.8563
▁संख्या	-8.85643
▁होगी	-8.85725
▁w	-8.85993
▁संबंध	-8.86113
▁things	-8.86214
▁Congress	-8.86251
▁धन्यवाद	-8.86254
▁पार्टी	-8.86258
▁These	-8.864
ro	-8.86551
▁find	-8.86725
▁seats	-8.8674
▁level	-8.86873
▁next	-8.86876
▁clause	-8.86876
▁उसका	-8.8693
▁stand	-8.87197
▁words	-8.87255
[	-8.87316
▁लाइन	-8.87444
▁इ	-8.87537
▁करेंगे	-8.87566
▁हर	-8.87739
▁केवल	-8.87813
▁days	-8.87909
▁serious	-8.88065
▁Kerala	-8.88775
▁laid	-8.88775
▁How	-8.88789
▁हमने	-8.88938
L	-8.89059
▁tax	-8.89389
▁various	-8.89416
▁मध्य	-8.89421
▁able	-8.89439
▁हमारी	-8.89444
▁जाति	-8.89445
as	-8.8952
▁vs	-8.89832
▁continue	-8.8993
▁economic	-8.90055
▁`	-8.9007
▁'	-8.9036
▁call	-8.90443
▁पूरे	-8.90711
▁coming	-8.90727
▁BÉE	-8.91067
▁लगभग	-8.91364
▁समाप्त	-8.91364
▁petitioner	-8.91405
ers	-8.91493
▁ड	-8.91533
िंग	-8.91537
▁got	-8.91623
▁किए	-8.91768
ad	-8.91848
▁poor	-8.92016
▁few	-8.92022
▁रघुवंश	-8.92022
▁पूरी	-8.92024
▁दर	-8.92026
▁CPIO	-8.92042
▁thing	-8.92062
▁आपकी	-8.92065
▁F	-8.92211
▁पूर्व	-8.92217
▁b	-8.92315
Amendment	-8.92477
ity	-8.92612
▁both	-8.92625
▁Ram	-8.92647
▁rise	-8.92687
▁गये	-8.92721
▁इसी	-8.92963
ते	-8.93056
▁t	-8.93296
▁प्राप्त	-8.93299
▁Chief	-8.93351
▁जानकारी	-8.93352
▁उत्पादन	-8.93376
▁Board	-8.93391
▁एस	-8.93413
▁ds	-8.9372
▁राज्यों	-8.93738
li	-8.93903
at	-8.93911
▁since	-8.94002
▁Then	-8.94009
▁appellant	-8.94022
▁while	-8.94022
▁सवाल	-8.94042
▁केन्द्रीय	-8.94051
ियों	-8.9416
x	-8.94258
▁बोल	-8.94664
▁करे	-8.94693
▁रिपोर्ट	-8.94698
रा	-8.94787
▁¤	-8.94842
ate	-8.9493
,000	-8.94984
▁29	-8.95224
▁1998	-8.95378
▁SINGH	-8.95378
▁मल्होत्रा	-8.95378
▁came	-8.95378
▁nothing	-8.95381
▁27	-8.95782
का	-8.95803
▁great	-8.96023
▁Opposition	-8.96063
▁आग्रह	-8.96063
▁सहायता	-8.96063
▁फिर	-8.96063
▁person	-8.96067
▁श्रीमती	-8.96088
▁security	-8.96752
▁प्रतिवेदन	-8.96752
▁matters	-8.96812
▁look	-8.97171
▁Business	-8.97447
▁above	-8.97447
▁मामले	-8.97447
▁मौका	-8.97447
▁जांच	-8.97474
▁happened	-8.97484
▁जाएगा	-8.9749
▁amount	-8.97517
▁50	-8.97536
▁Rule	-8.97542
▁o	-8.97667
nd	-8.97917
▁education	-8.97933
▁four	-8.98089
▁जैसे	-8.98146
▁उनका	-8.98168
na	-8.98184
ली	-8.9846
▁financial	-8.9885
▁बड़ी	-8.98861
j	-8.99085
V	-8.99282
▁clear	-8.99363
▁प्रधान	-8.99558
▁anything	-8.9956
▁growth	-8.99569
▁IN	-8.99645
▁सदस्यों	-8.99732
▁thank	-8.99788
▁One	-8.99846
ओं	-9.00047
▁proper	-9.00204
▁Clock	-9.00274
▁विचार	-9.00274
▁शिक्षा	-9.00278
▁बंद	-9.003
▁जाती	-9.00377
▁rate	-9.00411
▁points	-9.00434
▁रह	-9.00499
▁ask	-9.00499
F	-9.00596
▁बन	-9.00617
▁nation	-9.00909
▁particular	-9.0093
▁दक	-9.00965
▁पांच	-9.00997
▁अनुसूचित	-9.00998
▁जिसके	-9.01001
▁increase	-9.01589
▁After	-9.01718
▁February	-9.01718
▁Tamil	-9.01718
▁चाहूंगा	-9.01718
▁कदम	-9.01718
▁मदद	-9.01733
▁funds	-9.01948
▁persons	-9.02377
▁Governments	-9.0241
▁Union	-9.02448
▁each	-9.02448
▁आने	-9.02564
▁moved	-9.02661
▁problems	-9.02895
▁her	-9.02959
ै	-9.03082
▁विभाग	-9.03085
▁doing	-9.03127
able	-9.03136
▁Standing	-9.03189
▁hours	-9.03491
ई	-9.03507
▁31	-9.03589
▁provisions	-9.03635
▁गांव	-9.03863
▁necessary	-9.03924
▁Discussion	-9.03931
थ	-9.04217
id	-9.04392
ड़	-9.04431
▁हजार	-9.04581
▁duty	-9.0467
▁काफी	-9.04671
▁whole	-9.0476
▁छ	-9.04766
▁co	-9.04821
▁चार	-9.05082
▁including	-9.05422
▁निर्णय	-9.05422
▁stated	-9.05509
▁नई	-9.05585
▁man	-9.05802
▁except	-9.06048
▁Maharashtra	-9.0618
▁बिजली	-9.0618
▁मार्ग	-9.0618
नत	-9.06254
▁06	-9.06255
▁working	-9.0642
ir	-9.06525
▁l	-9.06681
▁गरीब	-9.06735
▁उद्योग	-9.06845
▁Supreme	-9.06943
▁position	-9.06943
▁जिसमें	-9.06943
▁रुपए	-9.06943
▁शुरू	-9.06943
▁etc	-9.06943
▁ऐसी	-9.06955
▁ÉÊ	-9.06997
ent	-9.07039
▁Statement	-9.07053
▁रप	-9.07275
ÉÉÒ	-9.07294
▁हाउस	-9.07712
▁manner	-9.07714
▁देंगे	-9.07749
▁asked	-9.07846
▁prices	-9.08077
ha	-9.08152
▁सं	-9.08231
श्री	-9.08292
▁भूमि	-9.08474
▁behalf	-9.08487
▁पैसा	-9.08489
▁Development	-9.08491
▁जिला	-9.08496
▁ऐसे	-9.08497
▁added	-9.0852
सी	-9.08788
▁therefore	-9.09269
▁available	-9.09269
▁Yes	-9.09279
▁agree	-9.09283
▁दिए	-9.09303
▁rule	-9.09303
▁oÉ	-9.09367
AN	-9.09407
▁Thank	-9.09427
▁amendment	-9.09441
vi	-9.09885
▁period	-9.10055
▁राजमार्ग	-9.10056
▁अनुसार	-9.10056
▁गुजरात	-9.10057
▁सुरक्षा	-9.10058
▁Demands	-9.10371
▁rules	-9.10684
▁meet	-9.10755
▁आर	-9.10814
▁बना	-9.10836
ting	-9.10837
▁कार्यवाही	-9.1085
▁मिनट	-9.1085
▁use	-9.10985
▁become	-9.11021
▁<	-9.11044
▁My	-9.11051
▁cases	-9.11097
ौ	-9.11101
▁Re	-9.11175
▁un	-9.11178
el	-9.11339
▁complete	-9.11456
▁सड़क	-9.11535
▁O	-9.11609
▁Gandhi	-9.1165
▁countries	-9.1165
▁police	-9.1165
▁possible	-9.1165
▁small	-9.1165
▁जवाब	-9.1165
▁मूल्य	-9.11652
▁संबंधित	-9.11687
ow	-9.12259
▁Question	-9.12456
▁special	-9.12456
▁assessee	-9.12457
▁Our	-9.12483
▁trying	-9.12542
▁इसकी	-9.12543
▁रखा	-9.12887
▁वन	-9.12947
०	-9.13207
▁SOMNATH	-9.13269
▁प्रश्न	-9.13269
▁Even	-9.13274
▁पा	-9.13511
▁(1)	-9.13696
▁भाषण	-9.14089
▁àÉå	-9.1409
▁BÉEä	-9.14116
▁affected	-9.14129
ÉÒ	-9.14201
▁यही	-9.14353
▁members	-9.14618
▁used	-9.14781
▁introduce	-9.14786
▁सुधार	-9.14882
▁नीति	-9.14908
▁brought	-9.14915
▁floor	-9.14915
▁Page	-9.14979
▁Th	-9.15024
▁अन	-9.15134
▁बढ़	-9.15312
▁STATE	-9.15749
▁least	-9.15749
▁रोजगार	-9.15749
▁Department	-9.15755
▁received	-9.15769
▁cost	-9.15773
▁पुल	-9.16584
▁project	-9.16684
<	-9.17229
▁past	-9.17436
▁पिछले	-9.17436
▁hope	-9.17446
▁lot	-9.1747
▁g	-9.17676
▁she	-9.17803
▁00	-9.17927
▁discuss	-9.17974
ॉ	-9.18026
▁feel	-9.1814
▁tell	-9.18145
ार	-9.18167
▁कार्रवाई	-9.18291
▁प्रयास	-9.18291
▁हूँ	-9.18291
▁sub	-9.18296
▁लिये	-9.18303
▁required	-9.18315
▁read	-9.18362
▁start	-9.18451
oÉ	-9.185
▁side	-9.18523
▁Amendment	-9.1856
z	-9.18894
ble	-9.18916
▁सकें	-9.1894
¶	-9.18943
ol	-9.18971
▁lay	-9.19004
▁आधार	-9.1914
▁CHATTERJEE	-9.19153
▁Orissa	-9.19153
▁children	-9.19153
▁कैसे	-9.19155
▁Resolution	-9.19159
▁immediately	-9.19186
▁Up	-9.19206
▁workers	-9.19252
▁started	-9.19278
िया	-9.19399
▁service	-9.19403
▁́É	-9.19694
▁Prasad	-9.20023
▁together	-9.20023
▁स्थापना	-9.20023
▁PROF	-9.20023
▁प्रभावित	-9.20036
▁RTI	-9.20045
्म	-9.2009
ैक	-9.20151
▁07	-9.2016
J	-9.20654
$	-9.20692
€	-9.20899
▁Introduction	-9.209
▁women	-9.209
▁lakh	-9.21158
▁months	-9.21185
▁Bank	-9.21239
▁पक	-9.21328
▁mention	-9.21512
▁वित्त	-9.21781
▁AFFAIRS	-9.21785
▁MINISTRY	-9.21785
▁Water	-9.21785
▁industry	-9.21785
▁खर्च	-9.21785
▁gone	-9.21789
▁end	-9.21855
▁court	-9.22051
...(	-9.22322
▁#	-9.22351
im	-9.22563
▁total	-9.22619
▁From	-9.22678
▁agriculture	-9.22678
▁लागू	-9.22678
▁Session	-9.22678
▁Yadav	-9.22678
▁ensure	-9.22678
▁Nadu	-9.22679
▁सुमन	-9.22679
▁Madhya	-9.22688
▁जाइए	-9.22704
▁08	-9.22749
▁stands	-9.22908
▁letter	-9.22968
▁करनी	-9.23014
ma	-9.23307
ä	-9.234
▁Ministers	-9.23438
▁Centre	-9.23579
▁left	-9.23579
▁महाराष्ट्र	-9.23587
▁डा	-9.23591
▁संशोधन	-9.236
▁गांवों	-9.23696
▁Lal	-9.23853
ti	-9.23913
▁consider	-9.24189
ाइ	-9.24266
ter	-9.24341
▁respond	-9.24349
▁i	-9.24433
▁six	-9.24488
▁Andhra	-9.24488
▁application	-9.24488
▁earlier	-9.24488
▁itself	-9.24488
▁अलावा	-9.24488
▁मुलायम	-9.24488
▁Presentation	-9.2449
▁गयी	-9.24535
▁Corporation	-9.2477
▁Leader	-9.24776
▁स्थान	-9.253
▁दूर	-9.25329
▁control	-9.25396
­	-9.25405
▁आरक्षण	-9.25406
▁Grants	-9.25501
▁02	-9.25563
▁dh	-9.25594
▁Commissioner	-9.25679
▁Clause	-9.25702
▁®	-9.25785
ंड	-9.26071
▁सेवा	-9.2625
▁business	-9.26331
▁सामने	-9.26331
▁Today	-9.26331
▁sure	-9.26332
▁बहस	-9.26367
▁योजनाओं	-9.26376
्र	-9.26463
▁01	-9.26485
ta	-9.26543
is	-9.26595
▁purpose	-9.26638
▁Kashmir	-9.27266
▁1999	-9.27273
▁भारी	-9.27279
▁learned	-9.27293
▁नदी	-9.27312
▁लेकर	-9.27322
▁measures	-9.27469
▁करती	-9.2757
▁programme	-9.27583
▁scheme	-9.27583
ant	-9.27646
▁कमी	-9.27828
▁सुन	-9.28009
▁मत	-9.28081
▁उपयोग	-9.28097
▁वि	-9.28112
▁राशि	-9.28156
▁rural	-9.28209
▁North	-9.28209
▁कराने	-9.28225
▁Appellant	-9.28287
est	-9.2831
▁जाते	-9.28325
ve	-9.28654
Zero	-9.28951
ाई	-9.29015
▁MADAM	-9.29161
▁facilities	-9.29161
▁शीघ्र	-9.29161
▁स्तर	-9.29162
▁जमीन	-9.29163
▁Rajya	-9.29163
▁General	-9.29186
▁getting	-9.29188
़	-9.29202
▁सम	-9.29379
▁आम	-9.29485
▁high	-9.30008
▁v	-9.30041
▁companies	-9.30123
▁अनुमति	-9.30123
▁वाला	-9.30123
▁Limited	-9.30127
▁तहत	-9.30133
▁बड़े	-9.30136
▁आपसे	-9.30199
▁Is	-9.30277
▁member	-9.30471
¤	-9.30887
ated	-9.31039
▁क्यों	-9.31089
▁अंतर्गत	-9.31094
▁1,	-9.31098
▁03	-9.31197
▁hand	-9.31333
▁डी	-9.31404
गी	-9.31557
AR	-9.3169
et	-9.31825
”	-9.31867
▁result	-9.31922
ii	-9.31924
▁रख	-9.31982
ेशन	-9.31988
▁non	-9.32036
▁Tax	-9.32074
▁leave	-9.32074
▁wrong	-9.32074
The	-9.32283
▁document	-9.32438
▁reasons	-9.32666
ag	-9.32713
▁correct	-9.32871
▁hear	-9.32882
▁सर	-9.32883
▁wants	-9.32912
▁speaking	-9.32922
▁f	-9.3305
▁Council	-9.33064
▁UPA	-9.33064
▁कमेटी	-9.33064
▁raising	-9.33065
▁told	-9.33073
▁facts	-9.33572
om	-9.33665
▁direct	-9.33854
MR	-9.33901
ठ	-9.34051
▁Scheme	-9.34064
▁इतना	-9.34064
▁दूसरे	-9.34064
▁still	-9.34066
▁सबसे	-9.34076
▁सही	-9.34129
▁oÉä	-9.34132
▁n	-9.34275
▁तय	-9.343
▁submission	-9.34446
म्	-9.3455
▁एम	-9.34724
ाय	-9.34839
▁process	-9.34921
िट	-9.34971
▁permission	-9.35074
▁senior	-9.35074
▁BÉEÉÒ	-9.35096
▁उसकी	-9.35132
▁04	-9.35154
pur	-9.35166
▁discussed	-9.35221
▁संबंधी	-9.35257
age	-9.35344
▁provision	-9.35471
ive	-9.35494
ak	-9.35623
▁जन	-9.36057
▁found	-9.36071
▁ऑफ	-9.3609
▁REDDY	-9.36095
▁constituency	-9.36095
▁course	-9.36095
▁economy	-9.36095
▁अच्छा	-9.36095
▁ऊपर	-9.36095
▁दोनों	-9.36105
▁took	-9.36146
▁05	-9.36202
▁word	-9.36502
▁dis	-9.36892
ले	-9.37034
▁परियोजना	-9.37105
▁First	-9.37126
▁Public	-9.37126
▁everybody	-9.37126
▁never	-9.37126
▁private	-9.37126
▁views	-9.3735
▁banks	-9.37527
▁reason	-9.37531
ia	-9.37816
▁projects	-9.37892
▁उठा	-9.3796
▁market	-9.38013
▁ट्रेन	-9.38037
▁कनतप	-9.38156
▁food	-9.38167
▁life	-9.38167
▁social	-9.38167
▁production	-9.3817
▁बजे	-9.38185
▁construction	-9.38188
▁really	-9.3822
▁districts	-9.38251
▁09	-9.38261
▁वर्षों	-9.38451
▁charge	-9.3846
▁जाएं	-9.3853
्ट	-9.38822
गा	-9.38993
▁answer	-9.39081
▁तैयार	-9.39109
▁Prof	-9.39203
▁Review	-9.3922
▁Shrimati	-9.3922
▁relief	-9.3922
▁आयोग	-9.3922
▁Under	-9.3923
▁अपील	-9.3925
▁एन	-9.3928
▁incident	-9.39286
▁1.	-9.39304
▁2.	-9.39322
▁kindly	-9.39336
पी	-9.39415
um	-9.39545
▁meeting	-9.39849
ाल	-9.39951
▁listen	-9.40025
अध्यक्ष	-9.40077
▁forward	-9.40157
▁wish	-9.40265
▁BJP	-9.40284
▁Order	-9.40284
▁international	-9.40284
▁स्वास्थ्य	-9.40284
▁अवसर	-9.40286
▁importance	-9.40288
▁Â	-9.40294
▁बड़ा	-9.4031
▁Appeal	-9.40316
▁शहर	-9.4038
▁decided	-9.40409
▁Castes	-9.40462
एं	-9.40764
ाह	-9.40811
▁!	-9.40833
या	-9.40996
ted	-9.41219
ज़	-9.41313
▁2019	-9.41359
▁Jammu	-9.41359
▁People	-9.41359
▁tomorrow	-9.41359
▁whatever	-9.41359
▁प्रभुनाथ	-9.41359
▁cé	-9.41361
▁h	-9.41364
▁रहने	-9.41411
ंद	-9.4149
ness	-9.41519
Not	-9.41556
▁होनी	-9.41684
त्र	-9.42187
मा	-9.42234
िन	-9.42235
▁Constituency	-9.42446
▁activities	-9.42446
▁free	-9.42446
▁foreign	-9.42446
▁मुम्बई	-9.42456
▁उक्त	-9.42458
▁SHRIMATI	-9.42463
▁सीमा	-9.42466
▁CIC	-9.42467
▁जरूरत	-9.42469
▁उससे	-9.4247
▁आया	-9.42569
▁मिला	-9.42576
▁ten	-9.42636
▁आदि	-9.4264
00	-9.42865
ां	-9.42869
▁amend	-9.43253
▁decide	-9.43416
▁Rules	-9.43426
▁निर्देश	-9.43516
▁basis	-9.43545
▁common	-9.43545
▁sorry	-9.43545
▁साहब	-9.43545
▁अलग	-9.43545
▁कोशिश	-9.43545
▁held	-9.43546
▁However	-9.43551
▁बढ़ाने	-9.43571
▁3.	-9.4363
▁talking	-9.43658
ान	-9.43673
de	-9.43761
▁बता	-9.43952
▁Station	-9.44033
Éä	-9.44039
▁allowing	-9.44054
▁con	-9.44065
▁Set	-9.4418
▁फसल	-9.44542
▁गंभीर	-9.44618
▁मुख्य	-9.44654
▁always	-9.44656
▁प्रस्तुत	-9.44656
▁sought	-9.44659
▁Authority	-9.4466
▁सारे	-9.44661
▁चुनाव	-9.44685
▁act	-9.45226
▁form	-9.45286
ist	-9.45318
▁list	-9.45647
▁large	-9.45692
▁near	-9.45714
▁0	-9.45778
▁Financial	-9.4578
▁University	-9.4578
▁democracy	-9.4578
▁रामजीलाल	-9.4578
▁विश्वविद्यालय	-9.4578
▁sitting	-9.45814
▁पड़ता	-9.45816
▁considered	-9.45933
शन	-9.46101
▁means	-9.46182
▁बी	-9.46206
▁once	-9.46275
स्ट	-9.46518
▁open	-9.46644
▁parts	-9.46797
ीय	-9.46901
ty	-9.46901
▁Road	-9.46916
▁future	-9.46916
▁ruling	-9.46916
▁घोषणा	-9.46916
▁authority	-9.46918
▁referred	-9.46919
20	-9.46981
▁उप	-9.47126
▁नश	-9.47248
▁account	-9.4743
hi	-9.47628
▁घ	-9.47638
▁pay	-9.47888
▁Ma	-9.47966
▁संसद	-9.48058
▁High	-9.48064
▁Acharia	-9.48065
▁Gazette	-9.48065
▁income	-9.48065
▁Assam	-9.48066
▁yet	-9.48067
▁मोहन	-9.48091
▁स्थापित	-9.48168
▁increased	-9.48271
वर	-9.48349
▁नए	-9.4836
▁state	-9.48463
Y	-9.48551
▁जिन	-9.48568
▁vote	-9.48595
▁deal	-9.49133
▁Second	-9.49216
द्ृद्धड्ड	-9.49228
▁Karnataka	-9.49228
▁agricultural	-9.49228
▁population	-9.49228
▁several	-9.49228
▁true	-9.49228
▁vide	-9.49228
▁परन्तु	-9.49228
▁कभी	-9.49229
▁employment	-9.4923
▁पुलिस	-9.49235
▁वृद्धि	-9.49252
▁सूचना	-9.49271
▁(2)	-9.4931
▁धन	-9.49408
▁d	-9.49417
्ल	-9.49567
At	-9.49576
▁नन	-9.49627
▁टी	-9.49737
▁Fund	-9.49778
र्स	-9.498
▁services	-9.50071
प्र	-9.50145
२	-9.5018
▁An	-9.50207
▁keep	-9.50255
▁quote	-9.50275
-	-9.50405
▁Express	-9.50405
▁happy	-9.50405
▁towards	-9.50405
▁वर्तमान	-9.50405
▁पड़	-9.50953
da	-9.51214
यों	-9.5128
▁though	-9.51364
▁rights	-9.5141
▁उक	-9.515
▁...*	-9.51591
▁PATIL	-9.51595
▁Police	-9.51595
▁human	-9.51595
▁relating	-9.51595
▁खिलाफ	-9.51595
▁प्रावधान	-9.51595
▁सुझाव	-9.51595
▁जिलों	-9.51595
▁कीजिए	-9.51595
▁रखने	-9.51637
▁United	-9.51639
▁happening	-9.51673
▁went	-9.517
co	-9.5186
ेज	-9.51878
▁होते	-9.51879
जन	-9.52114
▁उसी	-9.52211
ji	-9.52361
▁Date	-9.52777
▁Income	-9.528
▁Tribunal	-9.528
▁drought	-9.528
▁opinion	-9.528
▁published	-9.528
▁गांधी	-9.528
▁बताया	-9.52812
▁खेती	-9.52817
▁हमारा	-9.52825
▁जबकि	-9.52826
▁जल्दी	-9.52872
▁particularly	-9.52907
▁५	-9.5292
▁$	-9.53086
sh	-9.53224
ce	-9.53473
▁कार्यक्रम	-9.53933
▁full	-9.53979
▁urge	-9.54016
▁along	-9.54019
▁June	-9.5402
▁यात्रियों	-9.5402
▁स्पष्ट	-9.5402
▁अंग्रेजी	-9.5403
▁आगे	-9.54033
▁रर	-9.54038
▁गृह	-9.54044
▁BÉEÉä	-9.54064
▁पत्र	-9.54066
▁Ex	-9.54069
▁जीवन	-9.54075
▁देता	-9.54193
he	-9.54214
▁करन	-9.54228
▁date	-9.54504
▁questions	-9.54516
▁ground	-9.54626
▁Highway	-9.54626
▁%	-9.54764
▁pass	-9.54946
▁She	-9.54961
▁राय	-9.55063
ंग	-9.55088
▁थ	-9.5518
▁भाग	-9.55184
▁specific	-9.55248
▁Agriculture	-9.55254
▁Attention	-9.55254
▁PAWAN	-9.55254
▁राज	-9.55261
▁|	-9.55294
▁£	-9.55385
क्	-9.55414
▁heard	-9.55417
▁Accounts	-9.55512
▁names	-9.55562
▁लगा	-9.55746
▁leaders	-9.55866
▁minute	-9.5588
▁share	-9.5592
स्	-9.56314
▁withdraw	-9.56405
â	-9.56504
▁VIJAY	-9.56504
▁enough	-9.56504
▁अजमेर	-9.56504
▁अनेक	-9.56505
▁submitted	-9.56511
▁दक्षिण	-9.56511
▁बढ़ावा	-9.56518
▁too	-9.56524
▁बनाया	-9.56528
▁4.	-9.56597
▁?	-9.5662
▁away	-9.56679
▁Officer	-9.57193
▁100	-9.57218
▁amendments	-9.57506
▁पैदा	-9.57767
▁Otherwise	-9.5777
▁SHIVRAJ	-9.5777
▁सिंचाई	-9.5777
▁पेयजल	-9.5777
▁BANSAL	-9.57771
▁प्रधानमंत्री	-9.57773
▁वित्तीय	-9.57781
▁अधिकारियों	-9.57781
▁आयकर	-9.57794
▁CIT	-9.57833
गर	-9.57903
▁hearing	-9.57962
▁हां	-9.57974
अ	-9.58065
ru	-9.58082
to	-9.58145
▁leader	-9.58438
▁address	-9.58773
per	-9.58807
ts	-9.58827
▁Ka	-9.5891
▁बैंक	-9.58957
▁Power	-9.59052
▁उठाया	-9.59066
▁2020	-9.59085
wa	-9.59086
ang	-9.59228
ll	-9.59244
▁figures	-9.59308
▁crores	-9.59315
▁concern	-9.59445
▁किस	-9.59451
▁comes	-9.59475
▁Plan	-9.60225
▁नियम	-9.60229
▁जगह	-9.60252
us	-9.60267
▁draw	-9.60309
▁oil	-9.60345
▁Pakistan	-9.60351
▁Secretary	-9.60351
▁Since	-9.60351
▁company	-9.60351
▁providing	-9.60351
▁society	-9.60351
▁संविधान	-9.60351
▁चुका	-9.60351
▁कांग्रेस	-9.60357
▁जयपुर	-9.60359
▁सुविधाएं	-9.60369
▁स्वीकृति	-9.60376
tra	-9.60432
▁employees	-9.60445
▁मु	-9.60699
and	-9.60812
▁trains	-9.60965
▁proposal	-9.61035
▁post	-9.61045
सर	-9.61252
▁needs	-9.61289
१	-9.61435
८	-9.61446
▁best	-9.61457
इ	-9.61468
▁conduct	-9.61541
▁गलत	-9.61557
▁major	-9.61653
▁Jharkhand	-9.61666
▁example	-9.61666
▁family	-9.61666
▁अच्छी	-9.61666
▁आकर्षित	-9.61666
▁बच्चों	-9.61666
▁खत्म	-9.61668
▁भर	-9.6167
▁झारखंड	-9.61673
▁Construction	-9.61678
▁agreement	-9.61691
▁सुविधाओं	-9.61695
मेंट	-9.62062
▁train	-9.62095
▁week	-9.62365
▁mind	-9.62376
▁दस	-9.62625
ति	-9.62837
▁delay	-9.62872
▁allocation	-9.63
▁chance	-9.63
▁कृपया	-9.63
▁रिकार्ड	-9.63
▁वजह	-9.63
▁बाहर	-9.63005
▁permitted	-9.63005
▁2022	-9.63021
▁Some	-9.63028
▁देते	-9.63066
▁जानी	-9.63297
रण	-9.63358
पर	-9.63408
▁40	-9.6351
te	-9.63553
ेट	-9.63723
▁एल	-9.63847
▁आय	-9.64242
▁adequate	-9.64285
▁W	-9.64292
iÉ	-9.64303
▁Annual	-9.64351
▁Insurance	-9.64351
▁Malhotra	-9.64351
▁relevant	-9.64351
▁घोषित	-9.64351
▁सामाजिक	-9.64351
▁prepared	-9.64371
▁जाएगी	-9.64436
▁व्यक्ति	-9.64656
▁स्	-9.64674
टी	-9.6468
ise	-9.64792
डी	-9.64808
▁others	-9.64878
▁legislation	-9.65084
बा	-9.65092
सा	-9.65184
▁u	-9.65532
▁plan	-9.65579
▁बा	-9.65623
▁परिवार	-9.65623
ee	-9.6563
▁refer	-9.65712
▁East	-9.65721
▁Institute	-9.65721
▁आबादी	-9.65721
▁ऋण	-9.65721
▁छत्तीसगढ़	-9.65721
▁Tags	-9.65721
▁चाहती	-9.65723
▁Special	-9.65728
▁जाइये	-9.65739
▁कहीं	-9.65752
▁sent	-9.65754
ful	-9.65762
▁करूंगा	-9.65772
▁proposed	-9.65786
▁बोलना	-9.65787
▁मे	-9.65805
▁expressed	-9.65824
ap	-9.65985
▁asking	-9.66011
ous	-9.6603
कार	-9.66058
▁सा	-9.6632
▁region	-9.66415
▁procedure	-9.66473
▁road	-9.66482
▁run	-9.66489
के	-9.66537
ंस	-9.66642
1⁄2	-9.66899
▁protect	-9.6694
▁मान	-9.66969
▁try	-9.66974
▁Chennai	-9.6711
▁Company	-9.6711
▁Food	-9.6711
▁Law	-9.6711
▁pending	-9.6711
ry	-9.67127
▁समति	-9.67133
▁लग	-9.67149
▁जायेगा	-9.67159
▁granted	-9.67182
▁लेने	-9.67242
▁institutions	-9.67484
Ç	-9.67564
rd	-9.67727
▁attack	-9.67758
ãÉ	-9.67781
▁office	-9.67816
ढ	-9.67882
▁step	-9.67894
▁station	-9.67904
va	-9.68017
▁ADVANI	-9.68518
▁MALHOTRA	-9.68518
▁august	-9.68518
▁politics	-9.68518
▁written	-9.68518
▁दूसरी	-9.68518
▁2018	-9.68518
▁दिशा	-9.68519
▁payment	-9.68536
▁notices	-9.68546
▁एव	-9.68549
war	-9.68559
जी	-9.68591
▁care	-9.6861
▁जारी	-9.68756
▁note	-9.68831
▁k	-9.69092
िल	-9.69095
▁powers	-9.69164
स्त	-9.69358
han	-9.69453
्या	-9.69453
▁१५	-9.69654
ies	-9.69773
ये	-9.69847
▁Office	-9.69884
▁जनजाति	-9.69939
▁Policy	-9.69947
▁2021	-9.69947
▁believe	-9.69947
▁community	-9.69947
▁justice	-9.69947
▁responsibility	-9.69947
▁yesterday	-9.69947
▁अधिवेशन	-9.69947
▁कर्मचारियों	-9.69947
▁खराब	-9.69947
▁पटल	-9.69949
▁रावत	-9.69973
▁रूपये	-9.69985
▁implemented	-9.7003
▁Tribes	-9.70151
▁कोर्ट	-9.70173
ृ	-9.70227
▁अध	-9.70408
▁talk	-9.70489
रे	-9.70637
जा	-9.70917
ाया	-9.71033
▁सव	-9.71045
▁wanted	-9.71057
▁अधिकार	-9.7121
AL	-9.71262
▁create	-9.71267
▁Further	-9.71396
▁महीने	-9.71396
▁committed	-9.71397
▁treated	-9.71446
▁properly	-9.71526
▁कराया	-9.71548
▁बढ़ा	-9.71651
▁33	-9.71671
ding	-9.71674
ga	-9.71916
BÉE	-9.721
▁benefit	-9.72112
▁requested	-9.72206
▁reservation	-9.7223
▁respondent	-9.72257
qu	-9.72399
ाव	-9.72571
▁पहुंच	-9.72574
वां	-9.72756
▁कृपा	-9.72781
▁तत्काल	-9.72862
▁industrial	-9.72867
▁Assistance	-9.72867
▁Calling	-9.72867
▁Private	-9.72867
▁Punjab	-9.72867
▁Rural	-9.72867
▁credit	-9.72867
▁अंदर	-9.72867
▁लीजिए	-9.72867
▁सिर्फ	-9.72867
▁minority	-9.72868
▁पिछड़े	-9.72871
▁involved	-9.72879
▁आदेश	-9.72902
▁personal	-9.72925
▁Respondent	-9.72998
ÉxÉ	-9.73067
▁agreed	-9.7311
▁papers	-9.73133
▁हव	-9.73294
ai	-9.73361
ंट	-9.73704
▁hour	-9.73754
▁ली	-9.74133
ेंगे	-9.7433
▁Address	-9.74333
▁Assembly	-9.74359
▁anybody	-9.74359
▁based	-9.74359
▁child	-9.74359
▁comprehensive	-9.74359
▁else	-9.74359
▁evidence	-9.74359
▁industries	-9.74359
▁एक्सप्रेस	-9.74359
▁प्रार्थना	-9.74359
▁विस्तार	-9.74359
▁संस्करण	-9.74359
▁Out	-9.7436
▁terrorism	-9.7436
▁proceedings	-9.7436
▁assistance	-9.74361
▁इंडिया	-9.74361
▁gave	-9.74362
▁reference	-9.74365
▁देखते	-9.74372
▁समाज	-9.74399
▁लगाने	-9.74401
▁योजनाएं	-9.74407
▁details	-9.74449
▁बे	-9.7464
▁forces	-9.74831
ियां	-9.74892
▁sections	-9.74921
▁elections	-9.74971
▁चला	-9.7509
▁Hindu	-9.75254
▁ma	-9.75522
▁main	-9.75839
▁effect	-9.75866
▁current	-9.75874
▁Justice	-9.75875
▁better	-9.75875
▁राहत	-9.75876
▁महाराजगंज	-9.75893
▁चीनी	-9.75897
▁announced	-9.75911
▁included	-9.76001
▁हजारों	-9.76072
▁दल	-9.76076
▁१०	-9.7613
▁units	-9.76241
▁lives	-9.76264
▁किये	-9.76302
▁32	-9.76425
W	-9.76652
▁article	-9.76778
▁election	-9.76791
▁suggestion	-9.76799
▁ओ	-9.76966
▁records	-9.77111
४	-9.77195
छ	-9.77198
▁disturb	-9.77263
07	-9.77397
▁half	-9.77413
▁responsible	-9.77413
▁stood	-9.77413
▁किलोमीटर	-9.77413
▁निम्नलिखित	-9.77413
▁निर्धारित	-9.77413
▁पंजाब	-9.77413
▁single	-9.77413
▁seven	-9.77414
▁government	-9.77415
▁आदमी	-9.77415
ip	-9.77431
▁मिलेगा	-9.77433
▁आए	-9.77453
▁later	-9.77468
▁सरकारों	-9.77505
▁आते	-9.77509
▁मो	-9.77533
▁गो	-9.77534
▁introduced	-9.77655
▁नगर	-9.77666
▁60	-9.78063
▁80	-9.78141
▁show	-9.78159
▁import	-9.78196
▁include	-9.78212
मी	-9.78267
▁Demand	-9.78351
▁काल	-9.78469
▁पद	-9.78593
▁issued	-9.78621
▁वी	-9.78769
▁विरोध	-9.78865
less	-9.7887
▁JAIPAL	-9.78975
▁KHARABELA	-9.78975
▁Ordinance	-9.78975
▁SWAIN	-9.78975
▁infrastructure	-9.78975
▁परिवर्तन	-9.78975
▁पर्यटन	-9.78975
▁सहयोग	-9.78975
▁NDA	-9.78975
▁बोर्ड	-9.78976
▁१२	-9.78981
▁उचित	-9.78982
▁पारित	-9.78986
▁बाजार	-9.78987
▁million	-9.78995
▁sports	-9.7901
▁उसको	-9.79026
▁pro	-9.79027
Éå	-9.79083
ाम	-9.79105
▁certainly	-9.79164
▁passing	-9.79165
ling	-9.79211
ally	-9.79243
उ	-9.79491
AG	-9.7957
▁झा	-9.7957
▁suggestions	-9.79618
▁ण	-9.79812
▁पुर	-9.79913
▁Project	-9.79932
वे	-9.79956
tic	-9.79994
ड़ा	-9.80005
ट्र	-9.8006
▁r	-9.80129
▁item	-9.80184
▁मन	-9.80235
▁accept	-9.80268
▁unfortunate	-9.80499
▁submit	-9.80559
▁Cabinet	-9.80563
▁PARLIAMENTARY	-9.80563
▁big	-9.80563
▁paid	-9.80563
▁welcome	-9.80563
▁गाड़ी	-9.80563
▁मनिस्टर	-9.80563
▁protection	-9.80615
▁ग्राम	-9.80617
▁भारतीय	-9.80618
▁सारी	-9.80646
▁met	-9.80647
▁PAL	-9.80648
▁लालू	-9.80654
▁दिनों	-9.80843
▁recommendations	-9.8085
▁goes	-9.80879
▁६	-9.80925
▁Only	-9.81098
▁सि	-9.81453
न्द	-9.81502
▁bank	-9.81573
ance	-9.816
▁seek	-9.81624
▁schemes	-9.81628
▁यू	-9.81804
kr	-9.81818
ran	-9.81964
िए	-9.81998
▁produce	-9.82045
▁देख	-9.8206
▁जनपद	-9.82075
▁अति	-9.82076
▁स्थल	-9.82077
▁times	-9.82101
▁Take	-9.82135
▁खरीद	-9.8214
▁labour	-9.82161
▁Advani	-9.82168
ÉÉè	-9.82176
▁छोटे	-9.82176
▁accused	-9.82189
▁higher	-9.82242
▁objection	-9.82244
▁बातें	-9.82423
ara	-9.82426
▁completed	-9.82438
▁लें	-9.82467
▁anti	-9.82616
▁officers	-9.82704
▁होकर	-9.82909
ूर	-9.83027
न्	-9.83114
▁mi	-9.83527
▁express	-9.83544
▁places	-9.83621
▁ARUN	-9.83815
▁Adjournment	-9.83815
▁Security	-9.83815
▁assurance	-9.83815
▁especially	-9.83815
▁himself	-9.83815
▁सार्वजनिक	-9.83815
▁Basu	-9.83815
▁समाधान	-9.83816
▁Will	-9.83819
▁esa	-9.83828
▁मजदूरों	-9.83867
▁BÉEÉ	-9.84125
ks	-9.84191
▁सरकारी	-9.84356
▁मिले	-9.84392
▁जान	-9.84448
▁मांगों	-9.8454
iv	-9.84855
ÉãÉ	-9.84886
▁age	-9.84916
वी	-9.84943
्ष	-9.85043
all	-9.85053
▁extend	-9.85205
ण्ड	-9.85232
▁वव	-9.85262
▁brief	-9.85415
▁immediate	-9.85418
▁loss	-9.85458
▁न्याय	-9.85458
▁aware	-9.85474
▁CHIDAMBARAM	-9.85482
▁October	-9.85482
▁appropriate	-9.85482
▁around	-9.85482
▁cooperate	-9.85482
▁themselves	-9.85482
▁इन्होंने	-9.85482
▁बल्कि	-9.85482
▁वितरण	-9.85482
▁early	-9.85482
▁outside	-9.85483
▁chosen	-9.85485
▁५०	-9.85523
▁हों	-9.8554
▁reduced	-9.85552
▁functioning	-9.85576
▁extended	-9.85606
वीं	-9.85668
▁amended	-9.8567
▁ररत	-9.85677
▁pre	-9.8575
▁जे	-9.85756
▁कया	-9.85859
▁known	-9.85905
्ड	-9.86085
▁(3)	-9.86093
िय	-9.86228
▁requesting	-9.86609
▁war	-9.86624
दन	-9.86631
▁193	-9.86736
▁बह	-9.86811
gi	-9.86953
Shri	-9.8697
▁Bills	-9.87026
▁short	-9.87101
▁Fourteen	-9.8711
▁Bench	-9.87153
▁Between	-9.87177
▁Kolkata	-9.87177
▁YERRANNAIDU	-9.87177
▁either	-9.87177
▁local	-9.87177
▁आचार्य	-9.87177
▁निश्चित	-9.87177
▁विकसित	-9.87177
▁शैलेन्द्र	-9.87177
▁वापस	-9.87177
▁कौन	-9.87178
▁अतः	-9.87187
▁पसतत	-9.87194
▁लगाया	-9.87195
▁रखते	-9.872
▁Many	-9.87204
▁बनाई	-9.87224
▁existing	-9.87237
▁कही	-9.87539
man	-9.87582
▁लिखा	-9.87672
▁मिली	-9.87694
ence	-9.87712
५	-9.87979
▁programmes	-9.88315
▁II	-9.88628
Q	-9.88691
▁विदेश	-9.88695
▁संसाधन	-9.88802
▁petition	-9.88848
▁केंद्र	-9.88863
▁भाषा	-9.88888
▁इलाहाबाद	-9.88901
▁गन्ना	-9.88901
▁सुनिश्चित	-9.88901
~	-9.88901
▁सामना	-9.88901
▁below	-9.88901
▁बयान	-9.88901
▁आदिवासी	-9.88902
▁investment	-9.88904
▁अभाव	-9.88906
▁2023	-9.8892
▁killed	-9.88923
▁आयु	-9.88934
▁दिये	-9.88938
▁List	-9.88939
▁उठाने	-9.88958
▁जीरो	-9.89
▁faced	-9.89012
▁products	-9.8906
▁showing	-9.89067
▁गरीबों	-9.89121
nder	-9.89168
▁items	-9.89587
▁नि	-9.89818
▁Price	-9.90017
ंक	-9.90109
▁Sa	-9.90209
▁mean	-9.90215
AM	-9.90328
eg	-9.90355
▁भेज	-9.90394
नगर	-9.90397
महोदय	-9.90448
▁appreciate	-9.90521
्शन	-9.90547
ism	-9.90612
▁कककक	-9.90651
▁Appellate	-9.90655
▁fair	-9.90655
▁increasing	-9.90655
▁revenue	-9.90655
▁review	-9.90655
▁विवरण	-9.90655
▁संकट	-9.90655
▁खुराना	-9.90655
▁Other	-9.90656
▁निजी	-9.90659
▁implementation	-9.90674
▁property	-9.90674
▁377	-9.90678
▁इनके	-9.90708
▁fully	-9.90716
▁Being	-9.90734
▁Item	-9.90768
▁informed	-9.90768
▁accepted	-9.90792
▁खाद	-9.90794
▁resources	-9.90817
▁discussing	-9.90964
▁thought	-9.90998
ेड	-9.91007
▁बैठे	-9.91048
▁रि	-9.91109
▁goods	-9.9112
ight	-9.91245
op	-9.91469
▁Funds	-9.91599
वल	-9.91665
▁allegation	-9.91812
AT	-9.919
tion	-9.92013
▁कु	-9.92027
ंत	-9.92039
पा	-9.92069
50	-9.92114
▁associate	-9.9231
▁target	-9.92313
▁सौ	-9.92384
▁class	-9.92411
▁२०	-9.92435
▁महत्व	-9.92438
▁Programme	-9.92441
▁general	-9.92441
▁irrigation	-9.92441
▁medical	-9.92441
▁status	-9.92441
▁अन्तर्गत	-9.92441
▁हिन्दुस्तान	-9.92441
▁lack	-9.92446
▁according	-9.92461
▁Land	-9.92476
ns	-9.92483
▁दाम	-9.92551
▁totally	-9.9257
▁आध	-9.92583
▁मानव	-9.92614
▁less	-9.92621
▁seen	-9.92652
▁चाहे	-9.92655
कि	-9.92682
▁Reports	-9.92729
▁Raj	-9.92808
▁११	-9.92966
▁45	-9.93159
िम	-9.9316
▁term	-9.93335
ेन	-9.93383
▁गर	-9.93395
▁change	-9.93494
▁His	-9.93541
▁caste	-9.93654
▁ना	-9.93926
ीन	-9.93965
nch	-9.94003
•	-9.94047
सभापति	-9.94052
▁आये	-9.94085
▁DASGUPTA	-9.94259
▁GURUDAS	-9.94259
▁RADHAKRISHNAN	-9.94259
▁gauge	-9.94259
▁little	-9.94259
▁nature	-9.94259
▁sufficient	-9.94259
▁third	-9.94259
▁अविलम्ब	-9.94259
▁चुकी	-9.94259
▁minorities	-9.94259
▁management	-9.94263
▁Rajiv	-9.94265
▁करीब	-9.94268
▁पक्ष	-9.9427
▁नीतियों	-9.94276
▁Due	-9.94279
▁export	-9.94283
▁Deb	-9.94295
▁Audited	-9.94299
▁चलने	-9.94363
▁देखा	-9.94383
▁८	-9.94411
▁created	-9.94422
से	-9.9446
▁कराई	-9.94547
▁लाखों	-9.946
ship	-9.9462
▁Co	-9.9463
xÉ	-9.94664
३	-9.94708
▁passengers	-9.9474
ÉÖ	-9.9481
BÉEÉ	-9.94862
▁terms	-9.94892
▁De	-9.94946
▁forest	-9.95017
▁nt	-9.95043
ary	-9.95164
▁पता	-9.9518
ka	-9.95243
▁friend	-9.95422
ीकरण	-9.95465
dha	-9.95486
की	-9.95528
TM	-9.95542
?...	-9.95722
▁हल	-9.95946
▁limit	-9.95963
▁जल्द	-9.96001
▁प्रभाव	-9.96082
▁basic	-9.96105
▁Defence	-9.96111
▁RUPCHAND	-9.96111
▁THOMAS	-9.96111
▁book	-9.96111
▁inquiry	-9.96111
▁lwpuk	-9.96111
▁दूसरा	-9.96111
▁स्थायी	-9.96111
▁इतने	-9.96111
▁intervene	-9.96111
▁everything	-9.96111
▁Advisory	-9.96115
▁खड़े	-9.96121
▁बिना	-9.96126
▁पेश	-9.96134
▁स्टेट	-9.96142
▁रोकने	-9.96144
▁लगता	-9.96161
▁circumstances	-9.96164
▁off	-9.96221
▁real	-9.96331
▁बनाए	-9.96364
▁Sh	-9.96381
▁Ra	-9.96456
बी	-9.96513
वें	-9.96919
▁उठाए	-9.97001
▁RAM	-9.97174
▁nor	-9.97279
▁Nos	-9.97345
▁aspect	-9.9737
▁2,	-9.97534
▁माल	-9.9766
ine	-9.97663
घ	-9.97776
हिन्दी	-9.97787
गढ़	-9.97846
▁मा	-9.97848
/1	-9.97886
आप	-9.97943
▁late	-9.97943
▁response	-9.97998
▁scale	-9.97998
▁sugar	-9.97998
▁क्षमता	-9.97998
▁द्ृष्टि	-9.97998
▁पर्याप्त	-9.97998
▁हिमाचल	-9.97998
▁role	-9.97998
▁doubt	-9.97998
▁Jaipur	-9.98
▁Manipur	-9.98003
▁रासा	-9.98004
▁definitely	-9.98016
▁related	-9.98019
▁cÉä	-9.98024
▁among	-9.98027
िस	-9.98089
▁इसको	-9.98164
▁देकर	-9.98178
se	-9.98227
▁Y	-9.983
▁समझ	-9.98316
ala	-9.9838
रत	-9.98654
ौर	-9.9868
▁२	-9.98694
▁घर	-9.98702
▁करत	-9.98927
xÉÉ	-9.98998
राज	-9.99199
▁Election	-9.99278
▁condition	-9.99292
▁month	-9.99296
▁job	-9.99297
▁officer	-9.99386
10	-9.99493
▁ls	-9.99563
▁४	-9.99658
▁रोक	-9.99751
▁inform	-9.99774
▁participate	-9.9979
▁essential	-9.99854
▁Education	-9.99862
▁गंगा	-9.9992
▁Farmers	-9.99921
▁Nobody	-9.99921
▁Sayeed	-9.99921
▁poverty	-9.99921
▁चुके	-9.99921
▁टैक्स	-9.99921
▁तरीके	-9.99921
▁उनमें	-9.99921
▁Iraq	-9.99921
▁During	-9.99921
▁जोड़ने	-9.99944
▁तौर	-9.99974
▁घटना	-10.0001
▁ready	-10.0001
▁Forest	-10.0002
▁करेगा	-10.0004
गंज	-10.0005
▁5.	-10.0006
▁मिलने	-10.001
▁laying	-10.0026
▁रक्षा	-10.003
▁lines	-10.0045
▁36	-10.0055
मान	-10.0065
▁presented	-10.0067
▁fund	-10.0111
▁बच	-10.0119
▁Notification	-10.0126
£	-10.0167
्त	-10.0168
▁check	-10.0175
▁बीमा	-10.0179
▁राष्ट्र	-10.0187
▁Who	-10.0188
▁विश्व	-10.0188
▁Dasmunsi	-10.0188
▁border	-10.0188
▁confidence	-10.0188
▁izkFkhZ	-10.0188
▁violence	-10.0188
▁चौधरी	-10.0188
▁टेलीफोन	-10.0188
▁राजधानी	-10.0188
▁विद्यालय	-10.0188
▁running	-10.0188
▁Hearing	-10.0188
▁authorities	-10.0188
▁old	-10.0188
▁commitment	-10.0188
ish	-10.0189
▁disinvestment	-10.0189
▁महिलाओं	-10.0189
▁भावना	-10.019
▁bound	-10.019
▁खाद्य	-10.019
▁permit	-10.0191
▁सेवाओं	-10.0191
▁सद	-10.0192
▁withdrawn	-10.0195
▁More	-10.0195
▁लाईन	-10.0195
▁established	-10.0196
▁पूर्ण	-10.02
▁मदन	-10.0205
▁namely	-10.0214
००	-10.0224
xÉä	-10.0227
▁jobs	-10.0253
▁aspects	-10.0254
▁सज	-10.0255
ating	-10.0261
▁ÉÊBÉE	-10.0263
।"	-10.0291
▁Cha	-10.0294
▁अपन	-10.0305
▁practice	-10.0324
▁direction	-10.0329
▁ex	-10.034
▁पन	-10.0345
ER	-10.0359
▁wait	-10.0373
▁face	-10.0375
▁send	-10.0377
▁force	-10.0378
▁मै	-10.0383
▁Every	-10.0388
▁धारा	-10.0388
▁BANERJEE	-10.0388
▁China	-10.0388
▁Ensure	-10.0388
▁Registrar	-10.0388
▁Steps	-10.0388
▁across	-10.0388
▁backward	-10.0388
▁favour	-10.0388
▁चालू	-10.0388
▁नियंत्रण	-10.0388
▁नुकसान	-10.0388
▁यातायात	-10.0388
▁समिति	-10.0388
▁लगातार	-10.0388
▁expenditure	-10.0388
▁Consideration	-10.0388
▁urgent	-10.0389
▁Governor	-10.0389
▁सूखे	-10.039
▁उनसे	-10.0391
▁might	-10.0391
▁actually	-10.0391
▁appointed	-10.0392
▁elected	-10.0392
▁connected	-10.0392
▁जरूरी	-10.0395
▁Action	-10.0408
▁लेना	-10.0408
▁पड़ा	-10.0413
हर	-10.0416
▁vk	-10.0423
ाना	-10.0428
▁Are	-10.0428
▁ठ	-10.0429
▁schools	-10.043
ंगी	-10.0447
हा	-10.0459
▁j	-10.0478
ite	-10.0495
▁remain	-10.0501
▁son	-10.0545
▁visit	-10.0565
६	-10.057
▁रोड	-10.0576
▁experience	-10.0579
▁आतंकवाद	-10.058
▁object	-10.0581
▁अस	-10.0582
▁car	-10.0584
▁natural	-10.0586
▁MEMBER	-10.0589
▁विद्युत	-10.0592
▁Decision	-10.0592
▁VARKALA	-10.0592
▁living	-10.0592
▁myself	-10.0592
▁sense	-10.0592
▁survey	-10.0592
▁उल्लेख	-10.0592
▁देवेन्द्र	-10.0592
▁विभिन्न	-10.0592
▁CBI	-10.0592
▁stop	-10.0592
▁पैसे	-10.0592
▁unless	-10.0594
▁drinking	-10.0594
▁जानना	-10.0596
▁समस्याओं	-10.0596
▁यहाँ	-10.0599
▁whose	-10.06
▁रखता	-10.06
▁भेजा	-10.0603
▁आती	-10.0607
▁स्थानों	-10.0614
▁गरीबी	-10.0622
▁अद	-10.0646
त्त	-10.0658
▁interests	-10.066
▁x	-10.0673
▁अभ	-10.0676
ाद	-10.0683
दार	-10.0719
▁profit	-10.0735
▁River	-10.0736
▁flood	-10.0738
▁village	-10.0738
यू	-10.0771
clock	-10.078
▁उत्पाद	-10.0782
▁Work	-10.0783
▁cross	-10.0785
▁final	-10.0794
▁strong	-10.0794
▁health	-10.0796
▁Country	-10.0801
▁Eastern	-10.0801
▁Employment	-10.0801
▁Joint	-10.0801
▁View	-10.0801
▁Yojana	-10.0801
▁kept	-10.0801
▁आडवाणी	-10.0801
▁मुआवजा	-10.0801
▁पटना	-10.0801
▁यात्रा	-10.0801
▁seems	-10.0801
▁safety	-10.0801
▁Raghuvansh	-10.0801
▁रामदास	-10.0801
▁lost	-10.0802
▁वेतन	-10.0803
▁spoken	-10.0804
▁जिम्मेदारी	-10.0807
टा	-10.0808
▁लाना	-10.0809
▁legal	-10.0809
▁विदेशी	-10.0814
▁St	-10.0818
▁शहरों	-10.082
▁seriously	-10.0822
यो	-10.0822
Mr	-10.0824
▁करा	-10.0908
▁cd	-10.0925
▁dispute	-10.0937
▁35	-10.0955
▁चले	-10.096
▁Q	-10.0981
▁implement	-10.0984
▁declare	-10.1
▁budget	-10.1013
▁AIYAR	-10.1013
▁Himachal	-10.1013
▁INFORMATION	-10.1013
▁Minimum	-10.1013
▁language	-10.1013
▁technology	-10.1013
▁इतनी	-10.1013
▁छोटी	-10.1013
▁बसुदेव	-10.1013
▁बातचीत	-10.1013
▁मालूम	-10.1013
▁मुद्दा	-10.1013
▁स्पीकर	-10.1013
▁eight	-10.1015
▁कमीशन	-10.1015
▁बोलेंगे	-10.1015
▁खड़ा	-10.1016
▁disposed	-10.1016
▁Before	-10.1016
▁दूंगा	-10.1017
ंच	-10.1022
▁legs	-10.1022
▁गय	-10.1025
sa	-10.103
▁students	-10.1033
▁Na	-10.1048
▁आता	-10.1051
▁मह	-10.1053
UR	-10.1055
▁१	-10.1068
▁करोड़ों	-10.1073
वान	-10.1073
७	-10.1077
▁villages	-10.1078
em	-10.108
Z	-10.1092
▁बर	-10.1096
▁रा	-10.1109
▁बाल	-10.112
ub	-10.1129
cha	-10.1151
▁claim	-10.1157
मन	-10.1161
▁नया	-10.1165
▁plaintiff	-10.1167
▁colleague	-10.1168
ारी	-10.1176
▁व्यक्त	-10.1178
▁जायें	-10.1188
▁बातों	-10.1198
▁चि	-10.1201
▁70	-10.1208
▁join	-10.1209
▁37	-10.1211
को	-10.1215
▁हन	-10.1217
▁approach	-10.1218
▁effective	-10.1225
▁बुला	-10.1229
▁inflation	-10.123
▁Army	-10.1231
▁MUKHERJEE	-10.1231
▁huge	-10.1231
▁resume	-10.1231
▁अखिलेश	-10.1231
▁इजाजत	-10.1231
▁नीचे	-10.1231
▁रुपया	-10.1231
▁शासन	-10.1231
▁स्वयं	-10.1231
▁विश्वास	-10.1231
▁ठहराव	-10.1231
▁morning	-10.1232
▁स्थानीय	-10.1233
▁पावर	-10.1233
▁२००५	-10.1233
▁दिलाना	-10.1233
▁Vijay	-10.1234
▁connection	-10.1235
▁हालत	-10.1235
▁fixed	-10.1235
▁कृष्ण	-10.1236
▁कहते	-10.1236
▁गु	-10.1241
▁developed	-10.1242
▁बैंकों	-10.1247
▁सत्र	-10.1248
▁clearly	-10.1251
▁seeking	-10.1251
▁मिलता	-10.1254
▁Ba	-10.1261
▁लगे	-10.1267
▁telling	-10.1269
मत	-10.1274
▁वै	-10.1275
कत	-10.1279
▁२५	-10.1293
▁गिर	-10.1295
▁कत	-10.1298
▁ला	-10.1302
ÉiÉ	-10.1303
▁placed	-10.1317
the	-10.132
▁शक्ति	-10.1325
▁hold	-10.1337
▁सह	-10.1351
bi	-10.1354
गत	-10.1359
▁charges	-10.1362
▁बस	-10.1386
▁tribal	-10.139
▁river	-10.139
▁terrorist	-10.139
बर	-10.1391
▁house	-10.1392
▁Bh	-10.1392
▁१४	-10.1414
▁inter	-10.1418
▁39	-10.1421
▁Eleven	-10.1446
▁difficult	-10.1448
ug	-10.1449
▁महिला	-10.1452
▁Adequate	-10.1453
▁Group	-10.1453
▁Krishna	-10.1453
▁Medical	-10.1453
▁Reddy	-10.1453
▁While	-10.1453
▁capacity	-10.1453
▁congratulate	-10.1453
▁facing	-10.1453
▁families	-10.1453
▁judgment	-10.1453
▁material	-10.1453
▁quite	-10.1453
▁subsidy	-10.1453
▁supply	-10.1453
▁आपूर्ति	-10.1453
▁इन्हें	-10.1453
▁पैकेज	-10.1453
▁वभिन्न	-10.1453
▁व्यापक	-10.1453
▁नदियों	-10.1453
▁नेशनल	-10.1453
▁alongwith	-10.1453
▁ढंग	-10.1453
▁बाकी	-10.1454
▁judgement	-10.1454
▁सिफारिशों	-10.1455
▁largest	-10.1457
▁इनको	-10.1457
▁setting	-10.1458
▁shown	-10.1459
▁करेगी	-10.146
▁internal	-10.1463
▁Sub	-10.1464
▁tonnes	-10.1465
▁Problems	-10.1466
▁रहता	-10.1468
▁सात	-10.1472
▁directed	-10.1481
▁efforts	-10.1482
▁Pal	-10.1495
▁एकड़	-10.1496
▁standing	-10.1506
▁ago	-10.151
▁educational	-10.1521
▁हित	-10.1542
▁दिखा	-10.1547
▁मर	-10.1549
▁३	-10.156
आ	-10.1583
▁Your	-10.1586
▁34	-10.159
▁happen	-10.159
▁pointed	-10.1598
ÉÊ	-10.1607
▁Force	-10.1626
▁कै	-10.1636
पत	-10.1639
▁उपाय	-10.1639
द्ध	-10.1642
▁head	-10.1642
red	-10.1646
me	-10.1649
ram	-10.1654
▁suggest	-10.1666
▁improve	-10.1666
▁प्रक्रिया	-10.1679
▁Somnath	-10.1679
▁peace	-10.168
▁सु	-10.168
▁fall	-10.168
MSOffice	-10.168
▁Declare	-10.168
▁MAHAJAN	-10.168
▁MAMATA	-10.168
▁Open	-10.168
▁YASHWANT	-10.168
▁Year	-10.168
▁beyond	-10.168
▁conversion	-10.168
▁extent	-10.168
▁minimum	-10.168
▁अत्यंत	-10.168
▁इन्हीं	-10.168
▁पेंशन	-10.168
▁रघुनाथ	-10.168
▁जम्मू	-10.168
▁यात्री	-10.168
▁चाहिये	-10.168
▁Judge	-10.168
▁assessment	-10.1681
▁लागत	-10.1681
▁साधन	-10.1681
▁priority	-10.1681
▁intention	-10.1681
▁parliamentary	-10.1681
▁Chandra	-10.1681
▁via	-10.1681
▁बोलिए	-10.1682
▁majority	-10.1683
▁central	-10.1684
▁लाने	-10.1684
▁वैशाली	-10.1685
▁additional	-10.1686
▁शब्दों	-10.1688
ised	-10.1689
▁कष्ट	-10.1697
▁अधिकारी	-10.17
6]	-10.1701
▁listed	-10.1706
one	-10.1706
▁१९	-10.1718
▁स्टेशनों	-10.172
▁कोल	-10.1732
कल	-10.174
▁allegations	-10.1761
▁respondents	-10.1778
▁roads	-10.1784
▁st	-10.1787
▁lo	-10.1791
ian	-10.1799
▁नेता	-10.1804
▁documents	-10.1827
▁courts	-10.1843
▁lakhs	-10.1844
▁Part	-10.1846
▁individual	-10.1849
▁institution	-10.1857
7]	-10.1865
▁ककक	-10.1869
cd	-10.187
स्थापित	-10.189
Respondent	-10.1892
▁expect	-10.1898
▁पढ़	-10.19
▁स्थित	-10.1905
▁separate	-10.1906
▁respective	-10.191
▁trade	-10.1913
▁Kindly	-10.1913
▁allotted	-10.1913
▁attempt	-10.1913
▁compensation	-10.1913
▁entitled	-10.1913
▁illegal	-10.1913
▁replied	-10.1913
▁xÉcÉÓ	-10.1913
▁ऑवर	-10.1913
▁धर्म	-10.1913
▁धार्मिक	-10.1913
▁निगम	-10.1913
▁भविष्य	-10.1913
▁वक्तव्य	-10.1913
▁सुषमा	-10.1913
▁behind	-10.1913
▁Marg	-10.1913
▁अनाज	-10.1913
▁संरक्षण	-10.1913
▁admitted	-10.1913
▁कितना	-10.1913
▁assembled	-10.1915
▁जानते	-10.1915
▁2017	-10.1916
▁सहित	-10.1916
▁बैठिए	-10.1916
5]	-10.1917
▁demands	-10.1925
▁पीने	-10.1928
▁rest	-10.1928
▁meaning	-10.1932
▁KUMARI	-10.1937
▁रखी	-10.1939
▁constitutional	-10.1945
▁diseases	-10.1946
▁तर	-10.1954
रल	-10.1959
ÉÚ	-10.1963
▁क्र	-10.1968
char	-10.1977
▁terrorists	-10.1979
▁floods	-10.1984
▁heart	-10.199
▁कार्यों	-10.2006
▁supporting	-10.2012
▁बल	-10.2013
▁जमा	-10.2023
01	-10.2032
ities	-10.2042
OR	-10.2042
▁US	-10.2051
▁incidents	-10.2053
1]	-10.2062
kar	-10.2074
▁grant	-10.2075
▁knows	-10.2079
▁type	-10.2087
ors	-10.2087
▁bridge	-10.2088
▁operation	-10.2088
▁observation	-10.2088
▁passenger	-10.2088
हम	-10.2095
▁reach	-10.2123
▁spoke	-10.2134
▁file	-10.2138
▁explain	-10.2138
▁वर्ग	-10.2144
▁addition	-10.2145
▁दर्ज	-10.2146
▁जस	-10.2147
du	-10.2149
▁Expedite	-10.2151
▁Labour	-10.2151
▁Supplementary	-10.2151
▁Various	-10.2151
▁administration	-10.2151
▁almost	-10.2151
▁commodities	-10.2151
▁consensus	-10.2151
▁आठवले	-10.2151
▁आश्वासन	-10.2151
▁जनहित	-10.2151
▁फायदा	-10.2151
▁मुद्दे	-10.2151
▁वर्मा	-10.2151
▁स्वीकार	-10.2151
▁राष्ट्रपति	-10.2151
▁अनधकरर	-10.2151
▁कोयला	-10.2151
▁भुगतान	-10.2151
▁Mohan	-10.2151
▁सामान्य	-10.2152
▁sort	-10.2152
▁गैस	-10.2153
▁ITA	-10.2154
▁चलाने	-10.2156
▁अर	-10.2156
▁बढ	-10.2157
▁नेपाल	-10.2157
▁अनुदानों	-10.2159
▁एफ	-10.2159
ात	-10.216
▁ra	-10.2162
▁visited	-10.2165
▁गति	-10.2172
लम	-10.2213
बल	-10.2215
IT	-10.2232
ni	-10.2247
उप	-10.2261
▁७	-10.2289
▁follow	-10.2303
सत	-10.2307
एँ	-10.2316
17	-10.232
▁वर	-10.233
▁occasion	-10.2331
▁live	-10.2335
ng	-10.2343
RA	-10.2362
▁develop	-10.2366
▁Can	-10.2371
X	-10.2374
▁assure	-10.2382
▁release	-10.2382
▁return	-10.2382
▁react	-10.2383
▁ि	-10.2388
▁recent	-10.2389
▁Gram	-10.2394
▁PRAMOD	-10.2395
▁insurance	-10.2395
▁nobody	-10.2395
▁scope	-10.2395
▁simple	-10.2395
▁stock	-10.2395
▁कर्मचारी	-10.2395
▁गन्ने	-10.2395
▁थोड़ा	-10.2395
▁निम्नलखित	-10.2395
▁भर्ती	-10.2395
▁विधान	-10.2395
▁सम्मिलित	-10.2395
▁Health	-10.2395
▁जोशी	-10.2395
▁democratic	-10.2395
▁Parties	-10.2395
▁महाजन	-10.2395
▁unemployment	-10.2396
▁जातियों	-10.2398
▁रहते	-10.2401
▁मार	-10.2401
▁Coal	-10.2402
▁(4)	-10.2403
▁रखना	-10.2403
▁बनाना	-10.2407
▁po	-10.2407
ect	-10.2409
▁changed	-10.2412
▁rupees	-10.2424
▁citizens	-10.2425
▁48	-10.2439
ÉxÉÉ	-10.2442
नाथ	-10.2442
▁comments	-10.2446
▁बनी	-10.2452
इस	-10.2453
▁observations	-10.246
▁friends	-10.2478
30	-10.2488
पन	-10.249
▁interrupt	-10.2498
्ा	-10.2504
ob	-10.2513
IC	-10.252
?...(	-10.2541
▁उठ	-10.2547
▁di	-10.256
▁purposes	-10.2562
▁राजनीतिक	-10.2568
▁बदल	-10.2573
ions	-10.2583
▁affect	-10.2617
ओ	-10.262
Appellant	-10.2624
▁38	-10.2632
▁Mo	-10.2636
▁स्वीकृत	-10.264
▁suit	-10.2644
▁Ganga	-10.2644
▁global	-10.2644
▁Economic	-10.2645
▁Nandigram	-10.2645
▁Technology	-10.2645
▁Those	-10.2645
▁counsel	-10.2645
▁defence	-10.2645
▁fiscal	-10.2645
▁somebody	-10.2645
▁अच्छे	-10.2645
▁अन्दर	-10.2645
▁आत्महत्या	-10.2645
▁गेहूं	-10.2645
▁जैसा	-10.2645
▁प्रणाली	-10.2645
▁वाजपेयी	-10.2645
▁हरियाणा	-10.2645
▁moment	-10.2645
▁गठन	-10.2645
▁उपरोक्त	-10.2645
▁remember	-10.2645
▁Similarly	-10.2646
▁बाबा	-10.2646
▁iÉÉä	-10.2646
▁आदे	-10.2646
▁उर्वरक	-10.2647
▁दौरान	-10.2647
▁Control	-10.2647
▁sheet	-10.2648
▁dismissed	-10.2649
▁ननध	-10.265
▁इनकी	-10.265
▁लेंगे	-10.2654
▁former	-10.2654
▁Secondly	-10.2659
▁declared	-10.266
......	-10.2664
▁protected	-10.2667
राम	-10.2668
▁जिसे	-10.2669
▁हाई	-10.2669
▁Baba	-10.2671
▁soon	-10.2674
8]	-10.2681
▁बै	-10.2697
▁मी	-10.2703
▁rivers	-10.2716
▁laws	-10.2718
▁41	-10.272
▁जय	-10.2725
एस	-10.2728
▁तेल	-10.2732
▁९	-10.2747
िटी	-10.275
go	-10.2758
▁करवा	-10.2778
ON	-10.2786
▁mis	-10.2814
▁relation	-10.2837
▁पाल	-10.2844
▁using	-10.2854
▁condemn	-10.2873
▁fight	-10.2887
▁oppose	-10.2888
▁maintain	-10.2889
▁कश्मीर	-10.289
टर	-10.2897
▁प्रकाश	-10.2898
▁pension	-10.2901
▁Chatterjee	-10.2901
▁January	-10.2901
▁Mulayam	-10.2901
▁PRANAB	-10.2901
▁SINHA	-10.2901
▁commission	-10.2901
▁communities	-10.2901
▁energy	-10.2901
▁jute	-10.2901
▁nuclear	-10.2901
▁privilege	-10.2901
▁quality	-10.2901
▁rather	-10.2901
▁regime	-10.2901
▁दासमुंशी	-10.2901
▁पाकिस्तान	-10.2901
▁प्रारंभ	-10.2901
▁हिस्सा	-10.2901
▁शंकर	-10.2901
▁arising	-10.2901
▁South	-10.2901
▁alone	-10.2901
▁कार्यालय	-10.2901
▁२००४	-10.2901
▁स्वराज	-10.2902
▁BANKURA	-10.2902
▁Jodhpur	-10.2902
▁attitude	-10.2902
▁treatment	-10.2902
▁खोलने	-10.2902
▁बैठिये	-10.2903
▁HON	-10.2903
▁भाव	-10.2903
▁पासवान	-10.2904
▁bad	-10.2904
▁Hence	-10.2904
▁बढ़ाया	-10.2905
▁Line	-10.2905
▁failed	-10.2906
▁Director	-10.2907
▁recently	-10.2908
▁tried	-10.2908
▁orders	-10.2909
000/	-10.2913
▁कर्ज	-10.2914
▁suggested	-10.2915
23	-10.2918
▁holding	-10.2919
▁ABÉE	-10.2921
▁सड़कों	-10.2933
▁पूर्वी	-10.2945
▁53	-10.2959
▁Ors	-10.2962
▁कुल	-10.2973
▁टन	-10.2977
▁unit	-10.299
िश	-10.3004
यक	-10.3006
▁बिहारी	-10.301
▁मद	-10.3012
▁अनु	-10.3026
▁नत	-10.305
▁ककय	-10.3066
ÉÉä	-10.3072
श्	-10.3076
▁function	-10.3085
ST	-10.3087
▁कब	-10.3091
▁500	-10.3097
▁field	-10.31
▁Service	-10.3101
▁Right	-10.3106
िव	-10.311
▁crop	-10.3112
▁air	-10.3123
▁youth	-10.3123
▁Or	-10.3132
No	-10.3144
उपाध्यक्ष	-10.3144
▁America	-10.3147
▁Schedule	-10.3151
▁परेशान	-10.3153
OL	-10.3157
▁नहर	-10.3163
▁Formula	-10.3164
Saka	-10.3164
▁Enacting	-10.3164
▁Human	-10.3164
▁NORTH	-10.3164
▁Revenue	-10.3164
▁SHANKAR	-10.3164
▁aforesaid	-10.3164
▁agenda	-10.3164
▁expedite	-10.3164
▁package	-10.3164
▁spent	-10.3164
▁strike	-10.3164
▁wheat	-10.3164
▁उदाहरण	-10.3164
▁कुंवर	-10.3164
▁घंटे	-10.3164
▁जिनमें	-10.3164
▁जैसी	-10.3164
▁निम्न	-10.3164
▁राजेश	-10.3164
▁सर्वेक्षण	-10.3164
▁rice	-10.3164
▁vihy	-10.3164
▁media	-10.3164
▁External	-10.3164
▁electricity	-10.3165
▁प्रमुख	-10.3165
▁पड़ेगा	-10.3166
▁प्राथमिकता	-10.3166
▁rail	-10.3166
▁engaged	-10.3167
गण	-10.3168
▁Taken	-10.3171
▁तथ	-10.3172
▁रहती	-10.3174
▁मंडल	-10.3176
isation	-10.3177
▁opposed	-10.3178
▁प्रस्तावित	-10.3184
▁दि	-10.3193
▁quoted	-10.3194
▁जोड़ा	-10.3196
िड	-10.3196
▁Air	-10.3203
▁Dy	-10.3206
▁डाल	-10.3211
▁अव	-10.3213
्‍	-10.3221
▁reported	-10.3224
▁याद	-10.3229
▁thereon	-10.3237
▁दद	-10.3238
्रा	-10.324
रो	-10.3253
▁Ld	-10.3259
िका	-10.3269
men	-10.3272
▁३०	-10.3276
ेंट	-10.3302
ेस	-10.3308
0/	-10.331
pat	-10.3312
▁dk	-10.3326
▁submissions	-10.3331
रों	-10.3341
05	-10.3344
▁cause	-10.3358
▁महा	-10.3361
▁criminal	-10.337
▁Ban	-10.3375
ÉÉÊ	-10.3383
▁rates	-10.3399
▁sell	-10.3422
▁propose	-10.3422
९	-10.3432
▁हत्या	-10.3434
▁Haryana	-10.3435
▁Hyderabad	-10.3435
▁Proper	-10.3435
▁agencies	-10.3435
▁carried	-10.3435
▁generation	-10.3435
▁knowledge	-10.3435
▁welfare	-10.3435
▁आवागमन	-10.3435
▁गोरखपुर	-10.3435
▁आलू	-10.3435
▁1997	-10.3436
▁cover	-10.3436
▁killing	-10.3439
▁सर्वे	-10.344
▁पुन	-10.344
▁एंड	-10.3441
▁नियमित	-10.3441
▁strongly	-10.3443
25	-10.3444
▁vf	-10.3445
▁होंगे	-10.3446
▁सन	-10.3446
▁belonging	-10.3448
ative	-10.345
▁Though	-10.3452
▁एच	-10.3454
▁ek	-10.3459
▁मिलना	-10.3459
▁जज	-10.3463
▁Man	-10.3466
▁संस्थान	-10.3467
▁नये	-10.3471
▁कहां	-10.3478
नन	-10.3479
ड़ी	-10.3483
▁rightly	-10.3487
▁43	-10.3506
▁conditions	-10.3524
▁Vs	-10.3529
इए	-10.353
रिया	-10.3532
▁benefits	-10.3552
▁fo	-10.3561
nt	-10.3564
▁Bar	-10.3584
03	-10.3602
▁उपर	-10.361
▁ho	-10.3624
▁Go	-10.3629
▁डि	-10.3658
ill	-10.3676
▁Indo	-10.3696
▁Accord	-10.3697
▁achieve	-10.3698
▁सांसद	-10.3703
▁positive	-10.3706
▁alleged	-10.3706
▁MANI	-10.3712
▁Consolidated	-10.3712
▁Lunch	-10.3712
▁Ranjan	-10.3712
▁SOUTH	-10.3712
▁September	-10.3712
▁access	-10.3712
▁burden	-10.3712
▁initiative	-10.3712
▁innocent	-10.3712
▁mechanism	-10.3712
▁study	-10.3712
▁traffic	-10.3712
▁yourself	-10.3712
▁अधिकांश	-10.3712
▁इस्तेमाल	-10.3712
▁धनराशि	-10.3712
▁मंदिर	-10.3712
▁वंचित	-10.3712
▁समुचित	-10.3712
▁सूची	-10.3712
▁स्कीम	-10.3712
▁DEO	-10.3712
▁GDP	-10.3712
▁किन्तु	-10.3712
▁मुख्यालय	-10.3712
▁referring	-10.3712
▁संभव	-10.3712
▁mining	-10.3712
▁wind	-10.3712
▁२००६	-10.3713
▁Bridge	-10.3713
▁विवाद	-10.3713
▁corruption	-10.3713
▁दरटन	-10.3713
▁nine	-10.3714
▁जिसकी	-10.3715
▁बेच	-10.3715
▁मिलेगी	-10.3715
▁2011	-10.3715
▁merely	-10.3716
▁trial	-10.3716
▁ददल	-10.3721
▁growing	-10.3722
▁उठाना	-10.3722
▁आठ	-10.3723
▁बु	-10.3729
▁medicines	-10.3731
▁limited	-10.3731
▁coal	-10.3734
कों	-10.3745
▁उद्योगों	-10.3748
▁थीं	-10.3755
▁Papers	-10.3758
▁considering	-10.3759
▁loans	-10.3767
▁58	-10.3771
▁led	-10.3777
▁dks	-10.378
ÉxÉä	-10.3801
ÉMÉ	-10.3818
▁जोड़	-10.3823
▁Sri	-10.3823
▁Reported	-10.3835
her	-10.3838
रू	-10.384
▁́ÉÉ	-10.3844
▁grounds	-10.3856
्री	-10.3868
▁men	-10.3877
▁hands	-10.3894
▁डे	-10.3895
000	-10.3896
DR	-10.3896
▁Day	-10.39
ore	-10.3915
▁plant	-10.3919
ाइज	-10.3921
▁sale	-10.3935
Æ	-10.3935
▁measure	-10.3936
ya	-10.3958
▁Su	-10.3961
▁exercise	-10.3985
▁add	-10.3985
▁convey	-10.3985
▁save	-10.3986
▁शब्द	-10.3988
▁अनुदान	-10.3989
▁सम्मान	-10.3995
▁छोड़	-10.3996
▁honour	-10.3996
▁ANANTH	-10.3998
▁Independence	-10.3998
▁KISHORE	-10.3998
▁ORDER	-10.3998
▁Press	-10.3998
▁WTO	-10.3998
▁Welfare	-10.3998
▁Where	-10.3998
▁broad	-10.3998
▁completion	-10.3998
▁exchange	-10.3998
▁fnukad	-10.3998
▁history	-10.3998
▁judicial	-10.3998
▁mistake	-10.3998
▁protest	-10.3998
▁उत्पन्न	-10.3998
▁पटेल	-10.3998
▁बच्चे	-10.3998
▁बिलासपुर	-10.3998
▁व्यवसाय	-10.3998
▁proud	-10.3998
▁चिन्ता	-10.3998
▁वालों	-10.3998
▁operate	-10.3998
▁Ltd	-10.3998
▁double	-10.3998
▁fast	-10.3998
▁२००२	-10.3998
▁कितने	-10.3998
▁performance	-10.3998
▁highway	-10.3999
▁विद्युतीकरण	-10.3999
▁सपोर्ट	-10.4
▁thankful	-10.4001
▁परियोजनाओं	-10.4002
▁test	-10.4003
pa	-10.4004
▁Rail	-10.4005
▁मात्रा	-10.4006
▁बताना	-10.4007
▁nä	-10.4008
▁closed	-10.4008
▁accordingly	-10.4008
▁आवर	-10.4009
▁sanctioned	-10.4009
▁सुधारने	-10.401
▁बनने	-10.4012
▁expected	-10.4013
▁died	-10.4017
▁उपस्थित	-10.4022
▁plead	-10.4029
▁young	-10.403
▁thereto	-10.4033
▁Here	-10.4035
▁keeping	-10.4035
▁प्रा	-10.4035
▁बोला	-10.4039
TH	-10.4041
▁Bihari	-10.4045
यम	-10.4061
▁जाकर	-10.4066
फर	-10.4073
▁कन	-10.4073
▁colleagues	-10.4082
SS	-10.4085
Cd	-10.4104
ड़े	-10.4136
क्त	-10.4138
▁एक्स	-10.4143
र्ट	-10.4149
▁Vi	-10.4149
2]	-10.4168
▁पालन	-10.4169
वत	-10.418
ven	-10.4185
▁रे	-10.4219
▁वही	-10.422
2005	-10.4228
▁सेना	-10.4228
▁clarification	-10.4229
ेगा	-10.4236
▁घट	-10.4253
र्न	-10.4254
आर	-10.4261
▁link	-10.4264
▁ढ	-10.4266
▁examine	-10.4279
▁विपक्ष	-10.4281
▁पर्यटक	-10.4282
▁threat	-10.4284
▁योग्य	-10.4288
▁गम्भीर	-10.4288
▁Construct	-10.429
▁Develop	-10.4291
ability	-10.4291
▁उपभोक्ता	-10.4291
▁cut	-10.4291
▁दुर्घटना	-10.4291
▁Vajpayee	-10.4291
▁civil	-10.4292
▁text	-10.4292
▁Check	-10.4292
▁FINANCE	-10.4292
▁Gauge	-10.4292
▁NAIK	-10.4292
▁Priya	-10.4292
▁contribution	-10.4292
▁cooperation	-10.4292
▁crisis	-10.4292
▁deficit	-10.4292
▁kilometres	-10.4292
▁mother	-10.4292
▁receipt	-10.4292
▁structure	-10.4292
▁suicide	-10.4292
▁violation	-10.4292
▁अथवा	-10.4292
▁तारीख	-10.4292
▁प्रयोग	-10.4292
▁बंगाल	-10.4292
▁सुरक्षित	-10.4292
▁हुयी	-10.4292
▁रंजन	-10.4292
▁व्यय	-10.4292
▁quoting	-10.4292
▁प्रसारण	-10.4293
▁खुल	-10.4293
▁witnesses	-10.4293
▁Implementation	-10.4293
▁प्लांट	-10.4294
▁town	-10.4295
▁billion	-10.4295
▁low	-10.4295
▁पूछना	-10.4295
▁सहमति	-10.4296
▁removed	-10.4297
▁फंड	-10.4298
▁constituted	-10.4299
▁मारे	-10.43
▁building	-10.4301
▁movement	-10.4302
▁दर्जा	-10.4304
▁followed	-10.4307
▁Lalu	-10.4309
▁आकर	-10.4329
▁स्व	-10.4333
▁माना	-10.4333
▁fd	-10.4339
Th	-10.4339
▁असर	-10.434
▁Muslims	-10.4341
ÉÆ	-10.4349
iÉÉ	-10.4351
▁crops	-10.4363
▁Rights	-10.4363
▁भू	-10.4372
esh	-10.4376
ati	-10.4382
।">	-10.4387
▁directions	-10.4387
aya	-10.442
ious	-10.4432
11	-10.4441
land	-10.4452
▁पे	-10.4458
धार	-10.4461
▁इं	-10.4476
▁modern	-10.4481
▁ु	-10.4489
ग्र	-10.4501
ेस्ट	-10.4501
स्थ	-10.4502
▁75	-10.4509
chi	-10.4518
▁निकाल	-10.452
▁school	-10.4532
▁comment	-10.4533
▁बने	-10.4538
mm	-10.4538
▁Account	-10.4543
▁देव	-10.4547
झ	-10.4562
▁सो	-10.4566
▁मजदूर	-10.4574
Railways	-10.4575
▁lead	-10.4575
▁earn	-10.4579
▁walk	-10.458
▁yield	-10.458
▁reduce	-10.4582
ष्ट	-10.4584
▁चीज	-10.4591
▁दलित	-10.4591
▁इंटर	-10.4595
▁Just	-10.4595
▁110067	-10.4595
▁Allahabad	-10.4595
▁Authenticated	-10.4595
▁Legislative	-10.4595
▁argument	-10.4595
▁balance	-10.4595
▁body	-10.4595
▁creating	-10.4595
▁instead	-10.4595
▁intervention	-10.4595
▁otherwise	-10.4595
▁university	-10.4595
▁आकृष्ट	-10.4595
▁औद्योगिक	-10.4595
▁दिनांक	-10.4595
▁दिसम्बर	-10.4595
▁परिणाम	-10.4595
▁प्रियरंजन	-10.4595
▁बराबर	-10.4595
▁मरम्मत	-10.4595
▁मीटिंग	-10.4595
▁pressure	-10.4595
▁जनसंख्या	-10.4595
▁कानपुर	-10.4595
▁महंगाई	-10.4595
▁staff	-10.4595
▁Suman	-10.4596
▁growers	-10.4596
▁offence	-10.4596
▁stay	-10.4597
▁resignation	-10.4597
▁अनंत	-10.4597
▁Situation	-10.4598
▁supposed	-10.4598
▁route	-10.4599
▁recommended	-10.46
▁प्रबंधन	-10.4602
▁Copy	-10.4602
▁signed	-10.4603
▁लाया	-10.4606
िस्ट	-10.4606
▁unfortunately	-10.4608
▁यथ	-10.4613
▁पाया	-10.4613
▁कहने	-10.4614
▁American	-10.4615
▁directly	-10.4615
▁हई	-10.4637
▁sums	-10.4647
▁reading	-10.4649
ÉE	-10.4652
▁Services	-10.4669
wal	-10.4682
▁उसक	-10.4697
nagar	-10.4712
▁रू	-10.4712
▁बत	-10.4719
▁सन्	-10.4723
▁stations	-10.4733
सम	-10.4749
3]	-10.477
▁ha	-10.4778
06	-10.4796
▁NO	-10.4819
▁waste	-10.482
पे	-10.4828
▁belong	-10.4828
▁death	-10.4844
▁newspaper	-10.4844
09	-10.4844
▁figure	-10.4845
▁farmer	-10.4847
▁अम	-10.4849
यर	-10.4853
▁गण	-10.4869
led	-10.4878
▁collect	-10.4882
▁जरूर	-10.489
▁accord	-10.4892
▁व्यापार	-10.4893
▁establish	-10.4894
▁लक	-10.4895
▁damage	-10.4895
▁sanction	-10.4895
▁arise	-10.4904
▁सर्व	-10.4904
ः	-10.4904
▁मैम्बर	-10.4905
▁चन्द्र	-10.4906
▁Athawale	-10.4908
▁Everybody	-10.4908
▁Management	-10.4908
▁Nehru	-10.4908
▁RAIGANJ	-10.4908
▁SHOURIE	-10.4908
▁SURESH	-10.4908
▁Science	-10.4908
▁beginning	-10.4908
▁communal	-10.4908
▁context	-10.4908
▁duties	-10.4908
▁failure	-10.4908
▁opportunities	-10.4908
▁previous	-10.4908
▁self	-10.4908
▁spite	-10.4908
▁universities	-10.4908
▁कल्याण	-10.4908
▁गंगवार	-10.4908
▁टाइम	-10.4908
▁नौकरी	-10.4908
▁पाण्डेय	-10.4908
▁भार्गव	-10.4908
▁योगदान	-10.4908
▁संकल्प	-10.4908
▁संतोष	-10.4908
▁सब्सिडी	-10.4908
▁समीक्षा	-10.4908
▁आजादी	-10.4908
▁छूट	-10.4908
▁जितनी	-10.4908
▁विनती	-10.4908
▁विलास	-10.4908
▁शायद	-10.4908
▁राजीव	-10.4908
▁RAO	-10.4908
▁defendant	-10.4908
▁खैरे	-10.4909
▁लेखा	-10.491
▁मान्यवर	-10.491
▁२००३	-10.491
▁बढ़ती	-10.4914
▁बोलते	-10.4914
▁समझता	-10.4914
▁page	-10.4916
▁आभारी	-10.4918
▁बनाकर	-10.4918
(1)	-10.4919
▁जायेगी	-10.4919
▁रोका	-10.4924
▁रूपए	-10.4927
▁हाल	-10.4933
▁disturbing	-10.4939
▁दु	-10.494
▁माह	-10.4941
▁Into	-10.4943
▁reports	-10.4948
ue	-10.4967
▁Atal	-10.4975
▁ji	-10.4975
▁निकल	-10.4987
▁bringing	-10.4989
▁99	-10.4994
ल्ड	-10.4995
▁speakers	-10.4995
ुक	-10.5005
▁दिल	-10.5015
▁Am	-10.5022
ाएंगे	-10.5033
up	-10.5054
ell	-10.5056
▁नक	-10.5063
▁Be	-10.5066
डा	-10.5074
▁सत	-10.51
iii	-10.5116
▁खान	-10.5122
▁Sam	-10.5151
▁challenge	-10.5154
ens	-10.5166
▁complaint	-10.5167
▁loan	-10.5171
ible	-10.5185
▁नियुक्ति	-10.5188
एम	-10.5194
▁पहल	-10.5209
▁solve	-10.5217
▁finish	-10.5217
▁strengthen	-10.5219
▁हाथ	-10.5221
▁transport	-10.5228
▁contract	-10.523
ऊ	-10.523
▁Agreement	-10.523
▁Alleged	-10.523
▁CALCUTTA	-10.523
▁Civil	-10.523
▁Left	-10.523
▁MADHAVRAO	-10.523
▁Nagpur	-10.523
▁Radhakrishnan	-10.523
▁SCINDIA	-10.523
▁Suresh	-10.523
▁Thomas	-10.523
▁advantage	-10.523
▁commercial	-10.523
▁committee	-10.523
▁compulsory	-10.523
▁division	-10.523
▁izFke	-10.523
▁moving	-10.523
▁ourselves	-10.523
▁अतरिक्त	-10.523
▁अधनियम	-10.523
▁उच्च	-10.523
▁उड़ीसा	-10.523
▁गिरधारी	-10.523
▁तुरंत	-10.523
▁दुनिया	-10.523
▁परिवहन	-10.523
▁पर्यावरण	-10.523
▁पीड़ित	-10.523
▁प्रसिद्ध	-10.523
▁बावजूद	-10.523
▁राजस्व	-10.523
▁रास्ता	-10.523
▁crime	-10.523
▁network	-10.523
▁आरोप	-10.523
▁Mandal	-10.523
ization	-10.5231
▁श्रम	-10.5231
▁possession	-10.5231
▁arrangement	-10.5231
▁रावले	-10.5231
▁announcement	-10.5231
▁Reservation	-10.5233
▁चलेगा	-10.5233
▁highest	-10.5234
▁makes	-10.5234
▁Ramji	-10.5234
▁MEMBERS	-10.5236
▁जिसका	-10.5237
▁framed	-10.5237
▁Over	-10.5241
▁जाएंगे	-10.5242
▁speaker	-10.5242
▁joint	-10.5244
▁परिवारों	-10.5254
▁Plant	-10.5262
▁dealing	-10.5273
लए	-10.5274
_	-10.5279
ुट	-10.5289
िये	-10.5301
▁understanding	-10.5315
▁200	-10.5317
▁तन	-10.5322
गल	-10.5331
vers	-10.5337
दी	-10.5351
for	-10.5359
▁statements	-10.5381
▁cr	-10.5389
पट	-10.5393
ारा	-10.5396
our	-10.5408
▁states	-10.5409
9]	-10.5414
यां	-10.5423
▁समान	-10.5425
▁ordered	-10.5432
▁Clauses	-10.5455
▁देशों	-10.5467
ky	-10.5494
▁instance	-10.55
▁fl	-10.553
q	-10.5534
▁डक	-10.5539
▁construct	-10.5544
▁advance	-10.555
▁purchase	-10.555
▁Unit	-10.5551
▁सोच	-10.5552
▁मात्र	-10.5555
तन	-10.5557
▁idea	-10.5559
▁judge	-10.5562
▁home	-10.5564
▁ADHIR	-10.5564
▁About	-10.5564
▁Article	-10.5564
▁Arunachal	-10.5564
▁BOLPUR	-10.5564
▁BRAJA	-10.5564
▁Chhattisgarh	-10.5564
▁Convention	-10.5564
▁Faced	-10.5564
▁Gupta	-10.5564
▁Industry	-10.5564
▁Lucknow	-10.5564
▁Release	-10.5564
▁Steel	-10.5564
▁TRIPATHY	-10.5564
▁applicant	-10.5564
▁daily	-10.5564
▁deceased	-10.5564
▁despite	-10.5564
▁facility	-10.5564
▁heavy	-10.5564
▁introduction	-10.5564
▁kerosene	-10.5564
▁remind	-10.5564
▁revised	-10.5564
▁satisfied	-10.5564
▁इतिहास	-10.5564
▁प्रमोद	-10.5564
▁बर्बाद	-10.5564
▁ब्रिज	-10.5564
▁मौजूद	-10.5564
▁Additional	-10.5564
▁Early	-10.5564
▁Patil	-10.5564
▁Patna	-10.5564
▁Women	-10.5564
▁परंतु	-10.5564
▁बांध	-10.5564
▁सिस्टम	-10.5564
▁हुये	-10.5564
▁गैर	-10.5564
▁जितने	-10.5564
▁thus	-10.5564
▁tourist	-10.5564
▁Electricity	-10.5564
▁आदिवासियों	-10.5564
▁बजाय	-10.5565
▁compel	-10.5565
▁cooperative	-10.5565
▁flow	-10.5565
▁विगत	-10.5565
▁चन्द्रपुर	-10.5565
▁दिखाई	-10.5566
▁ऐ	-10.5566
▁objectionable	-10.5566
▁खनन	-10.5567
▁wise	-10.5567
▁लैंड	-10.557
▁देवरिया	-10.557
▁allocated	-10.557
▁pertaining	-10.5571
▁foodgrains	-10.5573
▁बेरोजगारी	-10.5574
▁contained	-10.5575
▁सारा	-10.5577
▁examined	-10.5579
▁achieved	-10.5579
▁reached	-10.5581
▁assured	-10.5582
▁released	-10.5582
▁विशेषकर	-10.5582
▁developing	-10.5584
▁आयात	-10.5586
▁नय	-10.559
नल	-10.5592
ÉÉÊiÉ	-10.5595
▁qua	-10.5596
▁aÉc	-10.5601
40	-10.5605
▁paying	-10.5608
ple	-10.5611
▁आना	-10.5616
▁traditional	-10.5621
▁नौ	-10.5631
▁rec	-10.5633
वन	-10.5638
नों	-10.5644
▁¶	-10.5646
▁operations	-10.5653
▁bridges	-10.5653
▁happens	-10.5658
▁जुड़े	-10.566
▁disputes	-10.5664
▁राजनीति	-10.5667
मैं	-10.5671
/;	-10.5671
▁बज	-10.5671
▁गत	-10.5682
▁ग्र	-10.5682
cy	-10.5686
av	-10.5693
वार	-10.5698
▁shows	-10.5701
kh	-10.5725
ey	-10.5734
▁Highways	-10.5738
वाल	-10.5748
▁Mani	-10.5749
ali	-10.5754
▁लिख	-10.5788
▁gets	-10.5794
tu	-10.58
▁मक	-10.5822
ont	-10.5829
13	-10.584
▁देर	-10.584
▁55	-10.584
▁बैठक	-10.5841
▁SA	-10.5845
▁paper	-10.5846
▁recommendation	-10.5847
ified	-10.5861
ani	-10.5882
▁turn	-10.5896
रस	-10.5896
▁आभार	-10.5897
▁स्कूल	-10.5898
▁VÉÉä	-10.5903
▁ever	-10.5904
kdkjh	-10.5908
▁Agricultural	-10.5908
▁Ayodhya	-10.5908
▁CHOWDHURY	-10.5908
▁Gangnath	-10.5908
▁KIRIT	-10.5908
▁LPG	-10.5908
▁Legislature	-10.5908
▁Pension	-10.5908
▁Rupchand	-10.5908
▁SHARAD	-10.5908
▁SUDIP	-10.5908
▁Support	-10.5908
▁approval	-10.5908
▁became	-10.5908
▁domestic	-10.5908
▁emerging	-10.5908
▁faith	-10.5908
▁freight	-10.5908
▁message	-10.5908
▁operative	-10.5908
▁rehabilitation	-10.5908
▁solution	-10.5908
▁sugarcane	-10.5908
▁अत्यधिक	-10.5908
▁इंडस्ट्री	-10.5908
▁इलाके	-10.5908
▁चैनल	-10.5908
▁बेहतर	-10.5908
▁संचार	-10.5908
▁सुप्रीम	-10.5908
▁सुबह	-10.5908
▁1986	-10.5908
▁JPC	-10.5908
▁Swain	-10.5908
▁तहसील	-10.5908
▁ahead	-10.5909
▁Ahmedabad	-10.5909
▁तभी	-10.5909
▁Port	-10.5909
▁समाचार	-10.5909
▁percentage	-10.5909
▁२००१	-10.5909
▁Arun	-10.5909
▁रेखा	-10.5909
▁Rawat	-10.5909
▁आवास	-10.5909
▁sentence	-10.591
▁जनजातियों	-10.591
▁consultation	-10.5911
▁cities	-10.5911
▁throughout	-10.5911
▁शिमला	-10.5911
▁चायल	-10.5912
▁बनाये	-10.5912
▁सतना	-10.5912
▁बचाने	-10.5912
▁culture	-10.5913
▁व्यक्तियों	-10.5913
▁उठाये	-10.5913
▁लिस्ट	-10.5914
▁मं	-10.5915
▁चलते	-10.5916
no	-10.5917
▁चलाई	-10.5917
▁observed	-10.5917
▁बन्द	-10.5917
▁Give	-10.5918
▁Has	-10.5919
कक	-10.5919
▁reforms	-10.5932
▁speeches	-10.5936
▁produced	-10.5937
▁उपलब्धता	-10.5938
करण	-10.594
ढ़	-10.594
ेंड	-10.5948
35	-10.5949
ja	-10.5968
▁कट	-10.5968
▁’	-10.5968
▁looking	-10.5985
▁47	-10.6004
▁houses	-10.6008
▁कीमत	-10.6021
▁Projects	-10.6048
PUR	-10.6054
लख	-10.6061
दर	-10.6084
▁बचा	-10.6088
ग्	-10.61
▁Their	-10.6108
▁́Éä	-10.6108
▁Leaders	-10.6152
iÉä	-10.616
▁Dam	-10.6195
▁90	-10.6197
▁religion	-10.6201
▁organisation	-10.6202
▁group	-10.6202
▁tradition	-10.6204
å	-10.6204
▁दा	-10.6209
मर	-10.624
पूर्ण	-10.6243
15	-10.625
▁treat	-10.6252
▁serve	-10.6252
▁जिम्मेदार	-10.6255
▁पंचायत	-10.6256
▁पो	-10.6258
▁चरण	-10.626
▁Author	-10.6264
▁BANATWALLA	-10.6266
▁BANDYOPADHYAY	-10.6266
▁Indira	-10.6266
▁Irrigation	-10.6266
▁Jute	-10.6266
▁Munirka	-10.6266
▁PAWAR	-10.6266
▁Procedure	-10.6266
▁Reference	-10.6266
▁SOMAIYA	-10.6266
▁Trust	-10.6266
▁Whatever	-10.6266
▁becoming	-10.6266
▁bodies	-10.6266
▁examination	-10.6266
▁filter	-10.6266
▁grateful	-10.6266
▁improving	-10.6266
▁jurisdiction	-10.6266
▁neither	-10.6266
▁promote	-10.6266
▁session	-10.6266
▁similar	-10.6266
▁spirit	-10.6266
▁telephone	-10.6266
▁track	-10.6266
▁अंतर्राष्ट्रीय	-10.6266
▁अगले	-10.6266
▁अत्याचार	-10.6266
▁अनुसंधान	-10.6266
▁आंदोलन	-10.6266
▁ऐतिहासिक	-10.6266
▁कार्यान्वयन	-10.6266
▁चित्रकूट	-10.6266
▁चौहान	-10.6266
▁दिक्कत	-10.6266
▁निरंतर	-10.6266
▁पंजीयक	-10.6266
▁फिल्म	-10.6266
▁बिल्कुल	-10.6266
▁ब्याज	-10.6266
▁मोहम्मद	-10.6266
▁रास्ते	-10.6266
▁शुरु	-10.6266
▁संभावना	-10.6266
▁हिन्दू	-10.6266
▁हिसाब	-10.6266
▁filing	-10.6266
▁season	-10.6266
▁योगी	-10.6266
▁तमाम	-10.6266
▁रोटी	-10.6266
▁लक्ष्य	-10.6266
▁tourism	-10.6266
▁outset	-10.6266
▁CHANDRA	-10.6266
▁sold	-10.6266
▁vis	-10.6266
▁१७	-10.6266
▁१८	-10.6266
▁enable	-10.6266
▁Facilities	-10.6267
▁Shiv	-10.6267
▁fire	-10.6267
▁२२	-10.6267
▁बोलिये	-10.6267
▁बुलाया	-10.6267
▁२०००	-10.6267
▁Also	-10.6268
▁Mill	-10.6273
▁सागर	-10.6273
ार्थ	-10.6273
▁dead	-10.6274
▁पूछा	-10.6275
▁entered	-10.6277
▁लेते	-10.6277
▁ककककक	-10.6278
▁सांसदों	-10.6278
▁According	-10.6279
▁परेशानी	-10.6281
▁011	-10.6282
▁covered	-10.6282
▁personally	-10.6284
ail	-10.6289
▁crossing	-10.6292
▁associated	-10.6292
▁नियमों	-10.6293
▁ननर	-10.6296
▁रहेगा	-10.6296
▁तैयारी	-10.6304
▁सजा	-10.6305
▁concerning	-10.6308
shed	-10.631
▁requires	-10.6315
▁49	-10.6316
▁०	-10.6316
▁representatives	-10.6318
कारी	-10.6327
▁फैल	-10.6333
सू	-10.6336
▁लय	-10.6339
▁sh	-10.6347
▁कोटा	-10.6361
▁tribals	-10.6369
▁१००	-10.6373
▁whom	-10.6374
न्स	-10.6379
▁उपज	-10.6392
▁दिला	-10.6407
▁पहुंचा	-10.6414
ैट	-10.6416
▁takes	-10.6431
▁Per	-10.6442
put	-10.6445
▁ratio	-10.6459
ize	-10.6466
▁प्रदेशों	-10.6474
ire	-10.6491
▁सुना	-10.6507
hot	-10.6516
▁42	-10.6541
▁becomes	-10.6555
▁________	-10.6556
▁Caste	-10.6573
▁शहरी	-10.6575
▁sum	-10.6581
▁Ji	-10.6588
तम	-10.6596
▁काट	-10.6601
▁Al	-10.6604
▁represent	-10.6606
▁play	-10.6607
▁पूछ	-10.6619
▁adjourn	-10.6622
▁close	-10.6623
▁contain	-10.6624
▁बेरोजगार	-10.6625
▁प्रबंध	-10.6628
▁wide	-10.6629
▁Govt	-10.6636
▁Memorandum	-10.6636
▁WEST	-10.6636
▁World	-10.6636
▁airport	-10.6636
▁concluding	-10.6636
▁confusion	-10.6636
▁definition	-10.6636
▁excise	-10.6636
▁extension	-10.6636
▁father	-10.6636
▁independent	-10.6636
▁legislative	-10.6636
▁middle	-10.6636
▁policies	-10.6636
▁prosecution	-10.6636
▁religious	-10.6636
▁truth	-10.6636
▁unprecedented	-10.6636
▁औरंगाबाद	-10.6636
▁जिन्हें	-10.6636
▁नागपुर	-10.6636
▁प्रत्येक	-10.6636
▁प्राकृतिक	-10.6636
▁बांदा	-10.6636
▁मृत्यु	-10.6636
▁लखनऊ	-10.6636
▁संदर्भ	-10.6636
▁समझौता	-10.6636
▁design	-10.6636
▁firm	-10.6636
▁grave	-10.6636
▁बंसल	-10.6636
▁प्रथम	-10.6636
▁consent	-10.6636
▁वाटर	-10.6636
▁behave	-10.6636
▁bomb	-10.6636
▁Issue	-10.6636
▁Ramdas	-10.6636
▁बरेली	-10.6636
▁कंपनी	-10.6636
▁appointment	-10.6637
▁१३	-10.6637
▁खाली	-10.6637
▁absolutely	-10.6637
▁Have	-10.6637
▁Bodoland	-10.6637
▁वास्तविक	-10.6638
▁shortage	-10.6638
▁पिछड़ा	-10.6638
▁बचाया	-10.6638
▁representation	-10.6638
▁reality	-10.6639
▁Jain	-10.664
▁शांति	-10.664
▁अधध	-10.6643
▁imp	-10.6644
▁approved	-10.6645
▁बदले	-10.6646
▁एड	-10.6646
▁हवाई	-10.6646
▁Requested	-10.6648
▁(5)	-10.6648
मो	-10.6653
ca	-10.6655
▁improved	-10.6658
▁कृपाल	-10.6658
▁undertakings	-10.6659
▁आफ	-10.6663
▁तुलना	-10.6668
▁talked	-10.6669
▁SC	-10.6669
रन	-10.6672
▁addressed	-10.6673
▁clock	-10.6674
▁VÉÉ	-10.6675
äãÉ	-10.6676
▁training	-10.6679
▁वष	-10.6681
ator	-10.6681
cit	-10.6687
▁एक्ट	-10.6687
▁सालों	-10.6702
act	-10.671
▁newspapers	-10.6712
▁MD	-10.6715
▁Dal	-10.6716
▁Zero	-10.6719
▁पै	-10.6753
▁65	-10.6763
▁IT	-10.6791
▁सीट	-10.6793
▁proposals	-10.6818
▁concerns	-10.6821
▁मल	-10.6836
▁बीज	-10.6851
▁likely	-10.6877
▁इनका	-10.691
र्ज	-10.6926
‍	-10.6938
08	-10.6951
ठ्ठह	-10.6952
▁accident	-10.6957
▁Muslim	-10.6958
▁Paper	-10.6958
▁objective	-10.6958
▁Train	-10.696
▁repeat	-10.6993
▁enter	-10.6994
▁लाए	-10.7004
▁desire	-10.7007
▁proceed	-10.7008
▁नागरिक	-10.7011
▁consult	-10.7018
▁खुद	-10.7018
▁strength	-10.7019
▁transfer	-10.702
▁BIKRAM	-10.7021
▁Backward	-10.7021
▁Bangladesh	-10.7021
▁CHAKRABORTY	-10.7021
▁Chairperson	-10.7021
▁Dasgupta	-10.7021
▁Drinking	-10.7021
▁Include	-10.7021
▁International	-10.7021
▁KINJARAPU	-10.7021
▁Pradhan	-10.7021
▁Rajsamand	-10.7021
▁break	-10.7021
▁diesel	-10.7021
▁explanation	-10.7021
▁finance	-10.7021
▁genuine	-10.7021
▁resolution	-10.7021
▁silence	-10.7021
▁thereafter	-10.7021
▁urban	-10.7021
▁whenever	-10.7021
▁उत्तरांचल	-10.7021
▁कंपनियों	-10.7021
▁थोड़ी	-10.7021
▁निवेश	-10.7021
▁प्राइवेट	-10.7021
▁भ्रष्टाचार	-10.7021
▁मंजूर	-10.7021
▁लम्बित	-10.7021
▁लोकतंत्र	-10.7021
▁वार्षिक	-10.7021
▁सप्ताह	-10.7021
▁JOS	-10.7021
▁creation	-10.7021
▁worth	-10.7021
▁शेष	-10.7021
▁Master	-10.7021
▁Salim	-10.7021
▁अपराध	-10.7021
▁इसलिये	-10.7021
▁किंतु	-10.7021
▁forget	-10.7021
▁norms	-10.7021
▁अटल	-10.7021
▁àÉé	-10.7021
▁availability	-10.7021
▁rank	-10.7021
▁कार्ड	-10.7021
द्वड्ढ	-10.7021
€“	-10.7021
▁शिवराज	-10.7021
▁primary	-10.7021
▁secularism	-10.7021
▁संस्थाओं	-10.7021
ably	-10.7022
▁खासकर	-10.7023
▁नेताओं	-10.7023
▁light	-10.7023
▁recovery	-10.7023
▁ITAT	-10.7024
▁Employees	-10.7024
▁expunged	-10.7024
▁reasonable	-10.7025
▁rejected	-10.7026
▁dam	-10.7028
▁overall	-10.7029
▁suspended	-10.7029
▁portion	-10.7029
▁ban	-10.703
▁imposed	-10.7031
▁initiated	-10.7032
▁आमान	-10.7032
▁Ko	-10.7033
▁gives	-10.7035
▁बढ़ने	-10.7037
▁Matters	-10.7039
▁caused	-10.7039
▁रबल	-10.7041
▁लोन	-10.7042
▁टीम	-10.7043
99	-10.7043
▁देती	-10.7044
▁आसन	-10.7045
▁participated	-10.7047
▁MPs	-10.705
▁finding	-10.7051
▁हे	-10.7055
▁par	-10.7055
▁कराना	-10.7057
▁बनाम	-10.7057
▁Areas	-10.707
ving	-10.7073
▁Inter	-10.7077
यह	-10.7082
▁continued	-10.71
▁जुड़ा	-10.7101
▁clarifications	-10.7104
ाा	-10.7111
be	-10.7114
▁बि	-10.7121
ped	-10.7126
▁Forces	-10.713
▁remains	-10.7142
क्रम	-10.7155
▁पड़े	-10.7179
▁कराए	-10.7185
▁जाम	-10.7185
ising	-10.7188
▁कुमारी	-10.7189
▁sa	-10.7205
▁thinking	-10.7206
par	-10.7221
▁सोन	-10.7226
▁हज	-10.7233
Ò	-10.727
▁सक	-10.7277
▁रन	-10.7278
▁82	-10.7303
mit	-10.7303
In	-10.7306
खा	-10.7323
▁news	-10.7323
▁Cd	-10.7326
IN	-10.7336
▁Thanks	-10.7339
▁Request	-10.7344
97	-10.7344
▁Panchayat	-10.7348
▁principle	-10.7357
rk	-10.7368
▁environment	-10.7369
▁बम	-10.7371
▁suffering	-10.7371
ification	-10.7374
">	-10.7382
दय	-10.7387
▁suffer	-10.7393
▁prevent	-10.7401
ack	-10.7401
▁press	-10.7406
▁वोट	-10.741
▁अस्पताल	-10.741
▁normal	-10.7414
▁जंगल	-10.7414
▁सहमत	-10.7416
▁resign	-10.7418
▁CPI	-10.7419
ऊंगा	-10.742
/2019	-10.742
ज्ञ	-10.7421
▁Ashok	-10.7421
▁BALASORE	-10.7421
▁Bangalore	-10.7421
▁CHANDRAPPAN	-10.7421
▁Capital	-10.7421
▁Companies	-10.7421
▁Ground	-10.7421
▁Metro	-10.7421
▁POTA	-10.7421
▁SRIKAKULAM	-10.7421
▁Shankar	-10.7421
▁Status	-10.7421
▁TECHNOLOGY	-10.7421
▁Through	-10.7421
▁Urban	-10.7421
▁VERSUS	-10.7421
▁acquisition	-10.7421
▁applicable	-10.7421
▁calamity	-10.7421
▁circulated	-10.7421
▁coaches	-10.7421
▁investigation	-10.7421
▁manufacturing	-10.7421
▁murder	-10.7421
▁petrol	-10.7421
▁pollution	-10.7421
▁speed	-10.7421
▁thirty	-10.7421
▁trouble	-10.7421
▁ÉÊãÉA	-10.7421
▁अंतर्विष्ट	-10.7421
▁अत्यन्त	-10.7421
▁आर्डर	-10.7421
▁इंदिरा	-10.7421
▁गारंटी	-10.7421
▁चूंकि	-10.7421
▁जनजातीय	-10.7421
▁जालौन	-10.7421
▁प्रतिवर्ष	-10.7421
▁प्रदर्शन	-10.7421
▁प्रोजेक्ट	-10.7421
▁प्वाइंट	-10.7421
▁भयंकर	-10.7421
▁मजबूर	-10.7421
▁महसूस	-10.7421
▁मार्च	-10.7421
▁लघु	-10.7421
▁विज्ञान	-10.7421
▁संयंत्र	-10.7421
▁संस्कृति	-10.7421
▁Two	-10.7421
▁patent	-10.7421
▁perusal	-10.7421
▁मतलब	-10.7421
▁1961	-10.7421
▁भीषण	-10.7421
▁Pune	-10.7421
▁प्रगति	-10.7421
▁Conference	-10.7421
▁Shivraj	-10.7421
ड्ढ	-10.7421
▁Zone	-10.7421
▁मेट्रो	-10.7421
▁कठिनाई	-10.7421
▁recruitment	-10.7421
▁capital	-10.7422
▁difficulties	-10.7422
▁sex	-10.7422
▁मकान	-10.7422
▁stating	-10.7422
▁retired	-10.7422
▁establishment	-10.7423
▁मोशन	-10.7423
▁Lo	-10.7423
▁भावनाओं	-10.7423
▁सबको	-10.7424
▁exactly	-10.7425
▁नवीन	-10.7425
▁RSS	-10.7426
▁contention	-10.7426
▁lower	-10.7426
▁वहीं	-10.7426
▁दनांक	-10.7426
▁therewith	-10.7428
▁Accordingly	-10.7428
▁खंड	-10.7428
▁difficulty	-10.7428
▁पवन	-10.7429
▁city	-10.743
▁सकेगा	-10.7431
▁नागरिकों	-10.7431
▁exemption	-10.7431
▁नयी	-10.7434
▁Rao	-10.7435
▁Khan	-10.7436
▁USA	-10.7436
न्त	-10.7437
ियल	-10.7441
▁victims	-10.7443
▁आतंकवादी	-10.7443
▁fighting	-10.7444
ium	-10.7445
▁Nations	-10.7445
▁Gu	-10.7448
▁highly	-10.7448
▁reserves	-10.7448
▁कार्यक्रमों	-10.7453
▁completely	-10.7453
रर	-10.7455
▁X	-10.7456
▁तु	-10.7456
▁conducted	-10.7459
▁Jan	-10.7465
▁हिन्दी	-10.7466
▁remarks	-10.7466
सु	-10.7469
▁thousands	-10.7474
▁टूट	-10.7484
▁Kumari	-10.7485
ksa	-10.7497
▁150	-10.7502
▁deaths	-10.7503
▁अपर	-10.7513
▁षव	-10.752
SA	-10.752
▁occasions	-10.7526
०००	-10.7527
pet	-10.7558
84	-10.7563
ory	-10.7564
ign	-10.757
ूंगा	-10.7576
▁राव	-10.7579
जनक	-10.7583
हार	-10.7599
▁हत	-10.763
▁जुड़	-10.7633
ैं	-10.7636
▁numbers	-10.7657
▁càÉ	-10.7661
▁74	-10.7669
garh	-10.7677
▁ways	-10.768
ैस	-10.7695
68	-10.7695
▁letters	-10.771
▁iz	-10.7737
▁appeals	-10.774
मु	-10.7741
▁mark	-10.7773
▁hundred	-10.7773
▁Christian	-10.7773
देश	-10.7799
ph	-10.7802
nu	-10.7807
▁learn	-10.7809
▁चौ	-10.7811
गांव	-10.7815
▁हि	-10.7821
▁monitor	-10.7822
▁exist	-10.7824
▁promise	-10.7824
▁चुना	-10.7826
▁हा	-10.783
▁regular	-10.783
▁Division	-10.7831
▁equal	-10.7832
▁परिस्थिति	-10.7837
▁secular	-10.7837
▁क्षति	-10.7837
▁AJOY	-10.7837
▁Admitted	-10.7837
▁Another	-10.7837
▁Assistant	-10.7837
▁Conduct	-10.7837
▁Consumer	-10.7837
▁Doordarshan	-10.7837
▁Friday	-10.7837
▁Guarantee	-10.7837
▁Gurudas	-10.7837
▁KHANDURI	-10.7837
▁MAHTAB	-10.7837
▁Mahatma	-10.7837
▁NITISH	-10.7837
▁PUBLIC	-10.7837
▁School	-10.7837
▁Statutory	-10.7837
▁Stoppage	-10.7837
▁Such	-10.7837
▁Transport	-10.7837
▁Universities	-10.7837
▁Unless	-10.7837
▁activity	-10.7837
▁blame	-10.7837
▁cylinder	-10.7837
▁delegation	-10.7837
▁denied	-10.7837
▁distribution	-10.7837
▁dream	-10.7837
▁fertilizer	-10.7837
▁guidance	-10.7837
▁perhaps	-10.7837
▁phone	-10.7837
▁platform	-10.7837
▁potential	-10.7837
▁producing	-10.7837
▁quarter	-10.7837
▁revision	-10.7837
▁simply	-10.7837
▁truck	-10.7837
▁until	-10.7837
▁voice	-10.7837
▁voting	-10.7837
▁अफीम	-10.7837
▁आदित्यनाथ	-10.7837
▁इच्छा	-10.7837
▁इटावा	-10.7837
▁इसीलिए	-10.7837
▁कैबिनेट	-10.7837
▁चिट्ठी	-10.7837
▁झंझारपुर	-10.7837
▁थर्मल	-10.7837
▁दूरदर्शन	-10.7837
▁नालंदा	-10.7837
▁प्रारम्भ	-10.7837
▁बुनियादी	-10.7837
▁भगवान	-10.7837
▁मंत्रियों	-10.7837
▁मथुरा	-10.7837
▁मान्यता	-10.7837
▁मामलों	-10.7837
▁मुरली	-10.7837
▁रिकॉर्ड	-10.7837
▁विशिष्ट	-10.7837
▁शून्य	-10.7837
▁समस्तीपुर	-10.7837
▁साबित	-10.7837
▁ौलए	-10.7837
▁1993	-10.7837
▁multi	-10.7837
▁गोयल	-10.7837
▁परिषद	-10.7837
▁1991	-10.7837
▁MAJ	-10.7837
▁Bansal	-10.7837
▁debt	-10.7837
▁Smt	-10.7837
▁शरद	-10.7837
▁Trade	-10.7837
▁annual	-10.7837
▁लिमिटेड	-10.7837
▁डिस्कशन	-10.7838
▁penalty	-10.7838
▁Protection	-10.7838
▁replace	-10.7838
▁peaceful	-10.7838
▁स्टेटमेंट	-10.7839
▁leadership	-10.7839
▁कहूंगा	-10.7839
▁व्यापारियों	-10.7839
▁fish	-10.7839
▁saw	-10.7839
""""	-10.7839
▁indicated	-10.784
▁improvement	-10.784
▁पाठक	-10.7842
▁बदलने	-10.7843
▁छात्रों	-10.7843
▁Benches	-10.7844
▁देखकर	-10.7844
▁कार्यरत	-10.7845
▁compared	-10.7845
▁अन्याय	-10.7846
▁gS	-10.7847
▁kg	-10.7848
▁feeling	-10.7848
▁writing	-10.7852
▁पहली	-10.7853
▁राजो	-10.7853
▁रहना	-10.7857
▁NT	-10.7857
▁sources	-10.7858
▁customs	-10.7858
▁वाया	-10.7861
▁6.	-10.7861
▁larger	-10.7863
▁upto	-10.7867
▁मगर	-10.7877
▁दुख	-10.7879
▁पथ	-10.7885
ÉÉn	-10.7887
▁दूरी	-10.7889
▁हमला	-10.7901
▁sc	-10.7902
▁लाइनों	-10.7904
▁accidents	-10.7907
▁SCs	-10.791
▁groups	-10.7912
line	-10.7915
▁event	-10.7919
▁para	-10.7922
ÉaÉ	-10.7933
▁पाए	-10.7934
▁exp	-10.7944
▁मिलों	-10.7952
हि	-10.7965
▁विषयों	-10.7967
▁बोले	-10.7973
cä	-10.798
धि	-10.798
▁needed	-10.7985
tre	-10.7987
▁64	-10.8006
▁Iran	-10.8008
▁लन	-10.8015
▁केस	-10.8017
NA	-10.8019
धन	-10.8023
àÉ	-10.8032
ुन	-10.8048
▁RE	-10.8079
▁54	-10.808
▁se	-10.8084
ैंट	-10.8126
ियाँ	-10.8152
▁sides	-10.8153
▁आद	-10.8168
65	-10.8179
▁पार	-10.8183
▁provides	-10.8184
4]	-10.8187
raj	-10.8189
▁51	-10.8193
▁appear	-10.8196
▁official	-10.8202
▁value	-10.8208
▁disease	-10.8209
▁Tribe	-10.8209
▁representative	-10.8211
▁59	-10.8212
▁लेन	-10.8213
▁जम	-10.8219
▁सका	-10.8224
ून	-10.8227
▁arrest	-10.8244
04	-10.8251
Motion	-10.8251
▁writ	-10.8255
आई	-10.8257
▁carry	-10.8258
▁पश्चिम	-10.8261
BÉD	-10.8262
▁Direct	-10.8263
▁table	-10.8267
▁throw	-10.8268
▁सफल	-10.8268
▁focus	-10.8272
▁ANIL	-10.8272
▁Commonwealth	-10.8272
▁GANDHI	-10.8272
▁JUSTICE	-10.8272
▁Janata	-10.8272
▁KAPIL	-10.8272
▁KESHARI	-10.8272
▁Kunwar	-10.8272
▁MOHAN	-10.8272
▁Moreover	-10.8272
▁RAMESH	-10.8272
▁SIBAL	-10.8272
▁Survey	-10.8272
▁Thereafter	-10.8272
▁Uttarakhand	-10.8272
▁administrative	-10.8272
▁apprehension	-10.8272
▁campaign	-10.8272
▁clarify	-10.8272
▁column	-10.8272
▁conclusion	-10.8272
▁connectivity	-10.8272
▁continuing	-10.8272
▁endeavour	-10.8272
▁everywhere	-10.8272
▁evolve	-10.8272
▁grievance	-10.8272
▁harmony	-10.8272
▁investigate	-10.8272
▁permanent	-10.8272
▁pulses	-10.8272
▁quintal	-10.8272
▁registration	-10.8272
▁research	-10.8272
▁round	-10.8272
▁safeguard	-10.8272
▁significant	-10.8272
▁substance	-10.8272
▁territory	-10.8272
▁àÉcÉänaÉ	-10.8272
▁अनुसूची	-10.8272
▁अहीर	-10.8272
▁उद्देश्य	-10.8272
▁उर्फ	-10.8272
▁खनिज	-10.8272
▁गवर्नमेंट	-10.8272
▁जुलाई	-10.8272
▁डिमांड	-10.8272
▁तुरन्त	-10.8272
▁नियंत्रित	-10.8272
▁पप्पू	-10.8272
▁प्रतदिन	-10.8272
▁फरवरी	-10.8272
▁भागलपुर	-10.8272
▁वाराणसी	-10.8272
▁व्याप्त	-10.8272
▁सोमनाथ	-10.8272
▁स्वागत	-10.8272
▁1995	-10.8272
▁1996	-10.8272
▁Mantri	-10.8272
▁Sinha	-10.8272
▁tackle	-10.8272
▁trend	-10.8272
▁अनुभव	-10.8272
▁सीमित	-10.8272
▁occupation	-10.8272
▁जोधपुर	-10.8272
▁प्रकट	-10.8272
▁unparliamentary	-10.8272
▁tender	-10.8272
▁ममता	-10.8272
▁impact	-10.8272
▁रिजर्वेशन	-10.8272
▁stopped	-10.8273
▁djus	-10.8273
▁insert	-10.8273
▁मुख्यमंत्री	-10.8273
▁नोट	-10.8273
▁मीटर	-10.8273
▁अकाल	-10.8273
▁पंढरपुर	-10.8274
▁bail	-10.8274
▁खून	-10.8274
▁ओवर	-10.8274
▁फिरोजाबाद	-10.8274
▁जिनके	-10.8275
▁खड़ी	-10.8275
▁1984	-10.8275
▁2015	-10.8276
ाबाद	-10.8276
▁शुल्क	-10.8276
▁Moved	-10.8276
▁tea	-10.8277
▁scheduled	-10.8277
▁prevailing	-10.8277
▁cast	-10.8278
▁जून	-10.8279
▁delivered	-10.8281
▁FAA	-10.8281
▁appeared	-10.8285
▁core	-10.8286
▁ष	-10.8286
▁वक्त	-10.8287
▁works	-10.8287
▁देगी	-10.829
▁teachers	-10.8291
▁hectares	-10.8293
▁plots	-10.8293
▁condemned	-10.8294
▁leading	-10.8294
▁रुक	-10.8295
▁Das	-10.8296
▁selling	-10.8297
▁संसाधनों	-10.8297
▁।"	-10.83
▁sad	-10.8301
▁ददन	-10.8301
▁मिलकर	-10.8303
▁implementing	-10.8303
▁waiting	-10.8305
▁decades	-10.8308
▁Jha	-10.8308
▁पाई	-10.8311
▁बद	-10.8311
cÉ	-10.8319
▁notification	-10.832
▁authorise	-10.8323
▁उपयोगी	-10.8325
▁feelings	-10.8339
▁1⁄2	-10.8339
▁तीनों	-10.8345
▁ld	-10.8348
▁looked	-10.8352
▁challenges	-10.8359
▁Indians	-10.8368
▁supported	-10.843
▁पू	-10.8431
▁forum	-10.8437
▁72	-10.8443
▁Hindi	-10.8448
▁decisions	-10.8449
▁पनत	-10.8449
▁खा	-10.8455
▁talks	-10.8468
▁Rama	-10.8473
▁नव	-10.8486
▁कारणों	-10.8488
▁bear	-10.8506
▁site	-10.8509
SP	-10.8516
▁बीस	-10.8526
out	-10.8533
oda	-10.8571
Ö	-10.8587
▁Banks	-10.8594
▁जोन	-10.8603
कम	-10.8618
▁चा	-10.8628
▁agrees	-10.8633
hat	-10.8637
▁require	-10.8649
way	-10.865
▁पस	-10.8653
▁rain	-10.8669
▁citizen	-10.8669
▁झ	-10.8671
ाइये	-10.8673
▁amounts	-10.868
▁grow	-10.87
Second	-10.8706
मंडल	-10.8707
▁spread	-10.8711
ong	-10.8711
▁spend	-10.8711
▁सम्बन्ध	-10.8712
▁encourage	-10.8713
▁initiate	-10.8714
▁81	-10.8715
▁तकनीक	-10.8716
▁खेल	-10.8717
▁Se	-10.8719
▁VÉ	-10.8721
▁गुजर	-10.8721
▁मौत	-10.8725
▁Pay	-10.8725
▁progress	-10.8726
▁Surat	-10.8726
о	-10.8727
▁Connect	-10.8727
—	-10.8727
▁Appropriation	-10.8727
▁Banatwalla	-10.8727
▁Chandigarh	-10.8727
▁Compensation	-10.8727
▁Export	-10.8727
▁Import	-10.8727
▁Industrial	-10.8727
▁Industries	-10.8727
▁JAITLEY	-10.8727
▁Jaipal	-10.8727
▁Khurana	-10.8727
▁PRASAD	-10.8727
▁Rashtriya	-10.8727
▁Supply	-10.8727
▁System	-10.8727
▁Unfortunately	-10.8727
▁Whenever	-10.8727
▁agency	-10.8727
▁apply	-10.8727
▁category	-10.8727
▁decree	-10.8727
▁freedom	-10.8727
▁humble	-10.8727
▁length	-10.8727
▁levy	-10.8727
▁litre	-10.8727
▁maximum	-10.8727
▁monsoon	-10.8727
▁personnel	-10.8727
▁reduction	-10.8727
▁revive	-10.8727
▁salary	-10.8727
▁sentiments	-10.8727
▁technical	-10.8727
▁tragedy	-10.8727
▁अशोक	-10.8727
▁असुविधा	-10.8727
▁कठिनाइयों	-10.8727
▁गाड़ियों	-10.8727
▁जिन्होंने	-10.8727
▁निरीक्षण	-10.8727
▁प्रदूषण	-10.8727
▁फैसला	-10.8727
▁मजबूत	-10.8727
▁मनोहर	-10.8727
▁यमुना	-10.8727
▁यूनियन	-10.8727
▁व्यवहार	-10.8727
▁सलेमपुर	-10.8727
▁स्पीच	-10.8727
▁हंसराज	-10.8727
▁हमेशा	-10.8727
▁Aiyar	-10.8727
▁DMK	-10.8727
▁Northern	-10.8727
▁UTI	-10.8727
▁couple	-10.8727
▁presence	-10.8727
▁दबाव	-10.8727
▁दूध	-10.8727
▁न्यायालय	-10.8727
▁दोषी	-10.8727
▁यूनिट	-10.8727
▁अहमदाबाद	-10.8727
▁Extraordinary	-10.8727
▁फोर	-10.8727
▁machinery	-10.8727
▁बाबू	-10.8727
▁अनुमान	-10.8727
▁कटाव	-10.8727
▁१६	-10.8728
▁बदलाव	-10.8728
▁सिद्ध	-10.8728
▁सोनिया	-10.8728
▁Basic	-10.8728
▁ultimately	-10.8728
▁आपत्ति	-10.8728
▁कम्पनी	-10.8728
▁tri	-10.8729
▁suitable	-10.8729
▁specifically	-10.8729
▁1990	-10.8729
▁रोग	-10.8729
▁Monitoring	-10.8729
▁सेंटर	-10.8729
▁Made	-10.873
▁मणि	-10.873
▁एरिया	-10.873
▁दर्शन	-10.873
▁सकेंगे	-10.873
▁active	-10.873
▁मैम्बर्स	-10.8731
▁पहुंचाने	-10.8731
▁तेजी	-10.8732
▁vision	-10.8732
▁सूखा	-10.8734
▁कमपन	-10.8734
▁अपीलाथ	-10.8736
▁Allowances	-10.8737
▁रूल	-10.8738
▁arrested	-10.874
▁बीमारी	-10.874
▁anyone	-10.8741
▁चीजों	-10.8741
▁represented	-10.8742
▁played	-10.8742
▁desired	-10.8742
▁whereas	-10.8743
▁Reserve	-10.8743
▁पढ़ा	-10.8745
▁हितों	-10.8747
▁served	-10.8748
▁करिये	-10.8748
▁slogans	-10.8749
▁नष्ट	-10.8751
▁headed	-10.8752
▁greater	-10.8754
▁merits	-10.8755
▁चलता	-10.8756
▁mills	-10.8758
▁begin	-10.8759
वाई	-10.8764
▁benefited	-10.8766
▁attacked	-10.8768
▁रेट	-10.8776
kha	-10.8784
▁मई	-10.8792
नीय	-10.8795
▁principles	-10.88
▁कोट	-10.8802
▁mentioning	-10.8806
▁op	-10.8811
ned	-10.8815
▁weak	-10.8816
▁calling	-10.8835
ora	-10.8839
▁६०	-10.884
/19	-10.884
▁interested	-10.8852
▁concluded	-10.8852
75	-10.886
▁àÉ	-10.8876
▁नं	-10.8879
▁खास	-10.8883
▁Bal	-10.89
bar	-10.8902
▁includes	-10.8916
▁Non	-10.8919
hy	-10.8921
ाजी	-10.8966
ंगे	-10.8971
नस	-10.8972
▁वक	-10.8996
▁68	-10.8997
▁str	-10.9008
▁84	-10.9008
▁नस	-10.9048
Date	-10.9061
▁टर	-10.907
94	-10.9086
▁फल	-10.91
▁centre	-10.9105
▁depend	-10.9122
▁गेज	-10.9122
▁घटा	-10.9123
58	-10.9123
▁department	-10.9129
चन	-10.9137
▁difference	-10.9138
▁thousand	-10.9139
▁effort	-10.914
▁requirement	-10.914
oÉä	-10.9151
ika	-10.9163
▁पश	-10.9169
▁पह	-10.9176
▁build	-10.9188
▁impose	-10.919
▁port	-10.9192
▁माफ	-10.9194
▁actual	-10.9196
ठ्ठ	-10.92
▁शिकायत	-10.9201
▁travel	-10.9202
▁perform	-10.9202
▁occur	-10.9202
▁clauses	-10.9202
▁Airport	-10.9203
▁Border	-10.9203
▁Distribution	-10.9203
▁Flood	-10.9203
▁Having	-10.9203
▁Instead	-10.9203
▁KURIEN	-10.9203
▁Look	-10.9203
▁Magistrate	-10.9203
▁Proposal	-10.9203
▁Regulatory	-10.9203
▁Sugarcane	-10.9203
▁Tripura	-10.9203
▁Urged	-10.9203
▁assets	-10.9203
▁concrete	-10.9203
▁criticise	-10.9203
▁cyclone	-10.9203
▁demolition	-10.9203
▁emphasis	-10.9203
▁female	-10.9203
▁identified	-10.9203
▁inspection	-10.9203
▁izLrqr	-10.9203
▁massacre	-10.9203
▁necessity	-10.9203
▁precedent	-10.9203
▁print	-10.9203
▁quorum	-10.9203
▁reducing	-10.9203
▁repeal	-10.9203
▁revival	-10.9203
▁stretch	-10.9203
▁understood	-10.9203
▁अर्थ	-10.9203
▁ऊर्जा	-10.9203
▁कटौती	-10.9203
▁गंगनाथ	-10.9203
▁चन्द्रकांत	-10.9203
▁तरीकों	-10.9203
▁निर्वाचन	-10.9203
▁नीतीश	-10.9203
▁परिणामस्वरूप	-10.9203
▁पलायन	-10.9203
▁पाटील	-10.9203
▁पूंजी	-10.9203
▁प्रतिबंध	-10.9203
▁प्राधिकरण	-10.9203
▁मुंबई	-10.9203
▁हावड़ा	-10.9203
▁Games	-10.9203
▁Regulation	-10.9203
▁housing	-10.9203
▁slow	-10.9203
▁पुरानी	-10.9203
▁बधाई	-10.9203
▁यूपीए	-10.9203
▁चयन	-10.9203
▁परसेंट	-10.9203
▁assist	-10.9203
▁PIO	-10.9203
▁path	-10.9203
▁चेयरमैन	-10.9203
▁game	-10.9203
▁concept	-10.9203
▁अवधि	-10.9203
▁अंतिम	-10.9203
▁transferred	-10.9203
▁बुद्ध	-10.9203
▁आशा	-10.9204
▁वैसे	-10.9204
▁सूरत	-10.9204
▁मैटर	-10.9204
▁निर्धारण	-10.9204
▁अधीन	-10.9205
▁extremely	-10.9205
▁punished	-10.9205
▁ऑफिस	-10.9205
▁बुरी	-10.9205
▁settled	-10.9206
▁घटनाओं	-10.9206
▁Workers	-10.9206
▁Most	-10.9206
▁team	-10.9207
▁repeatedly	-10.9208
▁सश	-10.9208
▁Bharati	-10.9209
▁Speech	-10.921
▁चलाया	-10.921
▁gas	-10.9211
▁देखने	-10.9213
▁चाहें	-10.9214
▁रहेंगे	-10.9217
▁drawn	-10.9218
▁spending	-10.9219
▁गंभीरता	-10.922
▁taxes	-10.9223
▁wages	-10.9223
ल्ला	-10.9224
▁cÉÒ	-10.9227
▁पाने	-10.9227
▁PW	-10.9228
▁लॉ	-10.9229
▁tribes	-10.9229
▁relates	-10.9229
28	-10.9231
▁remained	-10.9233
▁कहता	-10.9236
▁८०	-10.9239
▁पत्रों	-10.9242
▁;	-10.9244
▁98	-10.9246
▁ट्रेनों	-10.9249
▁Z	-10.925
▁top	-10.9254
दान	-10.9256
▁Districts	-10.9257
▁officials	-10.9273
anj	-10.9288
▁organisations	-10.9289
▁पम	-10.9308
ुआ	-10.9308
▁होम	-10.9309
▁respected	-10.9319
▁सल	-10.932
▁वर्षा	-10.9334
▁actions	-10.9344
▁claims	-10.9345
▁तट	-10.9364
▁incidental	-10.9374
▁changes	-10.9374
र्द	-10.939
▁निर्	-10.9402
▁GEN	-10.9417
दो	-10.9426
▁78	-10.9435
à	-10.9438
sf	-10.9452
▁xÉ	-10.9459
▁accounts	-10.9474
▁असम	-10.9484
LA	-10.9484
▁पौ	-10.9499
राव	-10.9507
iya	-10.952
▁अक	-10.9524
27	-10.954
िद	-10.957
एक	-10.9622
▁Kar	-10.9636
▁Post	-10.9638
▁vehicle	-10.9639
▁hospital	-10.9639
दास	-10.9647
▁डिस	-10.9665
2009	-10.9686
Bill	-10.9686
▁sign	-10.9687
▁admi	-10.9689
।[	-10.9689
▁exempt	-10.9689
▁map	-10.9695
▁substantial	-10.9696
▁Last	-10.9696
▁श्रमिक	-10.9697
▁hard	-10.9697
▁71	-10.9697
▁Tea	-10.9699
▁शांत	-10.97
▁attract	-10.9702
▁penal	-10.9702
▁danger	-10.9702
}	-10.9703
▁BAALU	-10.9703
▁exploit	-10.9703
▁highlight	-10.9703
▁AHAMED	-10.9703
▁Assessee	-10.9703
▁Babri	-10.9703
▁Block	-10.9703
▁Building	-10.9703
▁CHOWDHARY	-10.9703
▁Cauvery	-10.9703
▁Comptroller	-10.9703
▁Conversion	-10.9703
▁Environment	-10.9703
▁Essential	-10.9703
▁Foreign	-10.9703
▁FÉäjÉ	-10.9703
▁HOME	-10.9703
▁Jaswant	-10.9703
▁Jawaharlal	-10.9703
▁Kendriya	-10.9703
▁Kripal	-10.9703
▁Level	-10.9703
▁Madurai	-10.9703
▁Manager	-10.9703
▁Monday	-10.9703
▁SALIM	-10.9703
▁Shailendra	-10.9703
▁VAIKO	-10.9703
▁Vaiko	-10.9703
▁Vigilance	-10.9703
▁Yerrannaidu	-10.9703
▁affidavit	-10.9703
▁average	-10.9703
▁coconut	-10.9703
▁convention	-10.9703
▁deprived	-10.9703
▁disaster	-10.9703
▁discrimination	-10.9703
▁distinguished	-10.9703
▁equipment	-10.9703
▁integrity	-10.9703
▁lhihvkbZvks	-10.9703
▁paddy	-10.9703
▁picture	-10.9703
▁plight	-10.9703
▁recognition	-10.9703
▁rubber	-10.9703
▁storage	-10.9703
▁unilateral	-10.9703
▁worst	-10.9703
▁अतिरिक्त	-10.9703
▁अध्ययन	-10.9703
▁अमेरिका	-10.9703
▁आक्रोश	-10.9703
▁आगामी	-10.9703
▁इलाका	-10.9703
▁इलाकों	-10.9703
▁उद्यम	-10.9703
▁कर्नाटक	-10.9703
▁कारपोरेशन	-10.9703
▁घायल	-10.9703
▁जौनपुर	-10.9703
▁पाइंट	-10.9703
▁पीछे	-10.9703
▁पैमाने	-10.9703
▁फतेहपुर	-10.9703
▁बीकानेर	-10.9703
▁मिनिस्टर	-10.9703
▁लमिटेड	-10.9703
▁वीरेन्द्र	-10.9703
▁वैज्ञानिक	-10.9703
▁सम्बद्ध	-10.9703
▁सीनियर	-10.9703
▁FIR	-10.9703
▁Pandit	-10.9703
▁super	-10.9703
▁आउट	-10.9703
kjk	-10.9703
▁1985	-10.9703
▁medium	-10.9703
▁unnecessarily	-10.9703
▁दुकान	-10.9703
▁सत्ता	-10.9703
▁Sonia	-10.9703
▁इनमें	-10.9703
▁किनारे	-10.9703
▁अपीलकता	-10.9703
ष्ठ	-10.9703
▁PDS	-10.9703
▁फाइनेंस	-10.9703
▁competent	-10.9703
▁existence	-10.9703
▁डीजल	-10.9704
▁quota	-10.9704
▁Trial	-10.9704
▁Auditor	-10.9704
▁चार्ज	-10.9704
▁negligence	-10.9704
▁surprised	-10.9705
▁Code	-10.9705
▁deep	-10.9705
▁Ramesh	-10.9705
▁विमान	-10.9705
▁night	-10.9705
▁CHANDIGARH	-10.9706
▁Howrah	-10.9706
▁चीजें	-10.9706
▁फ्री	-10.9707
▁खबर	-10.9707
ड्ढद	-10.9707
▁जन्म	-10.9708
▁registered	-10.9708
▁वहाँ	-10.9708
▁code	-10.9708
▁बेचने	-10.9709
▁oÉÉ	-10.9709
▁neglected	-10.971
▁पड़ती	-10.971
▁Divisional	-10.971
▁destroyed	-10.971
मैंट	-10.9711
▁deleted	-10.9711
▁Passing	-10.9711
▁vegetables	-10.9711
▁बढ़ाकर	-10.9712
▁counter	-10.9714
▁lok	-10.9715
▁तकनीकी	-10.9715
▁proved	-10.9715
▁putting	-10.9715
▁रखकर	-10.9716
▁Patents	-10.9718
▁Nath	-10.9718
▁BY	-10.9718
▁suffered	-10.9719
▁दलितों	-10.9719
▁monitoring	-10.9721
▁representing	-10.9723
▁collection	-10.9725
▁maintained	-10.9728
▁card	-10.9736
▁दलों	-10.9736
ÉÉiÉ	-10.9739
▁wherein	-10.9742
▁वाद	-10.9744
▁Well	-10.9744
शील	-10.9747
▁Head	-10.9749
ÉVÉ	-10.975
द्र	-10.976
▁पड़ी	-10.9764
▁लगी	-10.9767
्ज	-10.9773
▁Jal	-10.9775
▁en	-10.9775
▁appears	-10.9777
▁findings	-10.9787
ौली	-10.979
▁समब	-10.9791
▁कार्यो	-10.9794
टिव	-10.9794
▁कयों	-10.9807
aff	-10.9819
एल	-10.9821
ेंस	-10.9823
▁relations	-10.983
पाल	-10.984
▁types	-10.984
ton	-10.9854
▁Nagar	-10.9864
hÉ	-10.9865
▁गणेश	-10.9866
सन	-10.9867
▁धान	-10.9867
▁उतर	-10.9882
ny	-10.989
▁comp	-10.9915
▁articles	-10.9916
▁Goa	-10.992
▁पल	-10.9928
▁offices	-10.9936
▁तोड़	-10.9936
▁replying	-10.9936
▁केन्द्रों	-10.995
▁केर्	-10.9973
▁votes	-10.9985
ाड़	-10.9989
▁उत	-11.0004
ैली	-11.0015
▁आपस	-11.0027
▁44	-11.0054
▁Maha	-11.0068
्फ	-11.0086
▁Chand	-11.0086
▁87	-11.0088
▁परम्परा	-11.0117
▁आग	-11.0122
▁बोलें	-11.0141
▁लो	-11.0143
▁Nav	-11.0159
▁method	-11.0165
▁animal	-11.0165
▁rupee	-11.0166
▁खाने	-11.0167
ES	-11.0174
▁dt	-11.0174
▁रत	-11.018
▁Area	-11.0182
eva	-11.0182
▁तार	-11.0189
Ministers	-11.0209
▁announce	-11.0215
▁approve	-11.0216
▁observe	-11.0216
▁receive	-11.0216
▁empower	-11.0216
▁सैनिक	-11.0219
▁prove	-11.0219
▁62	-11.022
▁Natural	-11.0222
▁unanimous	-11.0222
▁भवन	-11.0224
डॉ	-11.0224
▁Lanka	-11.0225
▁लीडर	-11.0226
▁प्रशासन	-11.0227
▁Implement	-11.0227
▁prior	-11.0227
▁defend	-11.0228
окумент	-11.0229
▁Ajmer	-11.0229
▁Akhilesh	-11.0229
▁CHENNITHALA	-11.0229
▁Chamber	-11.0229
▁Credit	-11.0229
▁DELHI	-11.0229
▁Detailed	-11.0229
▁George	-11.0229
▁JASWANT	-11.0229
▁Jaitley	-11.0229
▁Life	-11.0229
▁MADHUSUDAN	-11.0229
▁Mission	-11.0229
▁PANDA	-11.0229
▁Prabhunath	-11.0229
▁RAJESH	-11.0229
▁Recommendations	-11.0229
▁Recruitment	-11.0229
▁UNDER	-11.0229
▁aggression	-11.0229
▁behaviour	-11.0229
▁causing	-11.0229
▁certificate	-11.0229
▁college	-11.0229
▁communication	-11.0229
▁corporate	-11.0229
▁deposit	-11.0229
▁drain	-11.0229
▁efficient	-11.0229
▁erosion	-11.0229
▁everyday	-11.0229
▁felt	-11.0229
▁fundamental	-11.0229
▁impugned	-11.0229
▁interfere	-11.0229
▁marriage	-11.0229
▁military	-11.0229
▁patience	-11.0229
▁popular	-11.0229
▁promulgated	-11.0229
▁rich	-11.0229
▁sabha	-11.0229
▁supplied	-11.0229
▁suspension	-11.0229
▁uniform	-11.0229
▁valid	-11.0229
▁अमरीका	-11.0229
▁आदरणीय	-11.0229
▁इत्यादि	-11.0229
▁उम्मीद	-11.0229
▁कौशाम्बी	-11.0229
▁गवर्नमैंट	-11.0229
▁ग्रहण	-11.0229
▁जसवंत	-11.0229
▁जायसवाल	-11.0229
▁ज्ञान	-11.0229
▁दर्शाने	-11.0229
▁निपटने	-11.0229
▁निर्भर	-11.0229
▁निर्यात	-11.0229
▁पनतशत	-11.0229
▁प्रोत्साहन	-11.0229
▁समुदाय	-11.0229
▁साढ़े	-11.0229
▁स्थगित	-11.0229
▁FCI	-11.0229
▁Guard	-11.0229
▁amenities	-11.0229
▁tune	-11.0229
▁ठोस	-11.0229
▁पुराने	-11.0229
▁1956	-11.0229
▁1992	-11.0229
▁RBI	-11.0229
▁buy	-11.0229
▁task	-11.0229
▁इधर	-11.0229
▁नवादा	-11.0229
▁Crop	-11.0229
▁Panda	-11.0229
▁प्रताप	-11.0229
▁हानि	-11.0229
▁Six	-11.0229
▁गीते	-11.0229
▁कोयले	-11.0229
▁फॉर	-11.0229
▁मूव	-11.0229
▁निकट	-11.0229
▁रीवा	-11.0229
द्रठ्ठ	-11.0229
▁प्रयत्न	-11.0229
▁hike	-11.0229
▁उपयुक्त	-11.023
▁दस्तावेज़	-11.023
▁चावल	-11.023
▁स्वतंत्रता	-11.023
▁गंगाराम	-11.023
▁fuel	-11.023
▁मतदान	-11.023
▁mandate	-11.0231
ुस	-11.0231
▁पशु	-11.0231
▁adjournment	-11.0231
▁जातियां	-11.0231
▁hence	-11.0232
▁Whether	-11.0232
▁आएगा	-11.0232
▁Pawan	-11.0232
▁Conservation	-11.0233
▁board	-11.0233
Sir	-11.0234
▁घाटा	-11.0235
▁obtained	-11.0236
▁determined	-11.0236
▁avoid	-11.0236
▁कम्प	-11.0237
▁खुशी	-11.0237
▁भूमिका	-11.0238
▁negatived	-11.0239
▁estimated	-11.0239
ized	-11.024
▁Jag	-11.024
▁bit	-11.0242
▁wishes	-11.0243
▁पश्चिमी	-11.0243
▁चलती	-11.0243
▁deserve	-11.0244
▁बीमार	-11.0244
▁डैम	-11.0245
▁depending	-11.0246
▁unity	-11.0247
▁भेजे	-11.0247
▁आधारित	-11.0247
▁कहें	-11.0248
▁constructed	-11.0249
▁Gas	-11.0249
▁collected	-11.0251
▁playing	-11.0251
भाई	-11.0252
▁hit	-11.0253
▁कराये	-11.0254
▁VÉÉÒ	-11.0255
▁God	-11.0255
▁blasts	-11.0255
▁yielding	-11.0256
▁earning	-11.0256
ोध	-11.0256
▁शिकार	-11.0259
▁affecting	-11.0262
▁हटा	-11.0262
▁अधिकारों	-11.0266
▁forced	-11.0267
▁́Éc	-11.0269
▁भागों	-11.0272
▁imported	-11.0273
▁ill	-11.0276
▁नधि	-11.0293
▁73	-11.0296
▁कागज	-11.03
▁पकक	-11.0301
हत	-11.0308
▁Pha	-11.0315
ैंस	-11.0324
▁रखे	-11.0326
74	-11.0326
▁complaints	-11.0335
It	-11.0339
▁चली	-11.0342
ÉhÉ	-11.0366
▁महान	-11.0381
ेज़	-11.0394
gen	-11.0397
तल	-11.0399
thi	-11.0409
िं	-11.0417
▁castes	-11.0422
▁केबल	-11.043
▁सरकारें	-11.0435
▁लगाए	-11.0447
ाँ	-11.0476
▁minds	-11.0488
वाद	-11.0518
▁रात	-11.0553
▁Kan	-11.0555
▁**	-11.0555
ंडा	-11.0588
abad	-11.0591
▁अंत	-11.0593
ÉÇ	-11.0601
2008	-11.0612
▁ित	-11.062
▁रद	-11.063
▁reads	-11.0633
▁पार्लियामेंट	-11.0644
बन	-11.0648
▁76	-11.066
▁वल	-11.0665
ÉBÉEä	-11.067
▁खोले	-11.0673
रोध	-11.068
90	-11.0698
Ch	-11.071
िला	-11.0716
▁संस्था	-11.0717
▁eye	-11.072
▁remark	-11.0721
ku	-11.0726
ाही	-11.0734
ही	-11.0739
पार	-11.0742
▁Four	-11.0744
न्ट	-11.0748
▁ता	-11.0752
मंत्री	-11.0762
सूचना	-11.0764
अपील	-11.0764
श्रीमती	-11.0764
▁Audit	-11.0771
▁substitute	-11.0771
▁enhance	-11.0771
▁suspend	-11.0772
▁fix	-11.0772
▁संगठन	-11.0775
▁औ	-11.0776
▁Third	-11.0778
▁Region	-11.0779
▁original	-11.0781
▁प्रोजैक्ट	-11.0782
▁वास्तव	-11.0782
/2020	-11.0783
▁afford	-11.0783
▁प्लीज	-11.0784
▁चेयर	-11.0785
н	-11.0785
е	-11.0785
‚	-11.0785
▁AIIMS	-11.0785
▁Administration	-11.0785
▁Adopted	-11.0785
▁Affected	-11.0785
▁Application	-11.0785
▁BROADCASTING	-11.0785
▁Bhopal	-11.0785
▁Book	-11.0785
▁Census	-11.0785
▁Chandrappan	-11.0785
▁Commerce	-11.0785
▁Common	-11.0785
▁DEVELOPMENT	-11.0785
▁Finally	-11.0785
▁Green	-11.0785
▁Inquiry	-11.0785
▁Irregularities	-11.0785
▁Nagarpalika	-11.0785
▁Neeraj	-11.0785
▁OBCs	-11.0785
▁Parishad	-11.0785
▁Petition	-11.0785
▁RULE	-11.0785
▁Relevant	-11.0785
▁Relief	-11.0785
▁Representation	-11.0785
▁Scindia	-11.0785
▁Seattle	-11.0785
▁Sector	-11.0785
▁Social	-11.0785
▁Spices	-11.0785
▁Sports	-11.0785
▁Tribal	-11.0785
▁Uttaranchal	-11.0785
▁Vidyalaya	-11.0785
▁atmosphere	-11.0785
▁biggest	-11.0785
▁black	-11.0785
▁built	-11.0785
▁commend	-11.0785
▁contrary	-11.0785
▁criteria	-11.0785
▁dedicated	-11.0785
▁dignity	-11.0785
▁disclosure	-11.0785
▁drugs	-11.0785
▁electrification	-11.0785
▁fault	-11.0785
▁generate	-11.0785
▁influence	-11.0785
▁kilogram	-11.0785
▁livelihood	-11.0785
▁maintenance	-11.0785
▁paragraph	-11.0785
▁parcel	-11.0785
▁productivity	-11.0785
▁prohibit	-11.0785
▁sensitive	-11.0785
▁stoppage	-11.0785
▁temple	-11.0785
▁translation	-11.0785
▁vacancies	-11.0785
▁vkosnu	-11.0785
▁wagon	-11.0785
▁woman	-11.0785
▁अम्बेडकर	-11.0785
▁अयोध्या	-11.0785
▁आंकड़ों	-11.0785
▁आबंटित	-11.0785
▁आश्वस्त	-11.0785
▁उत्तराखंड	-11.0785
▁कम्प्यूटर	-11.0785
▁कोलकाता	-11.0785
▁खाद्यान्न	-11.0785
▁घंटों	-11.0785
▁चकित्सा	-11.0785
▁छावनी	-11.0785
▁त्रिपाठी	-11.0785
▁दृष्टि	-11.0785
▁प्रशिक्षण	-11.0785
▁प्लेटफार्म	-11.0785
▁बाईपास	-11.0785
▁महात्मा	-11.0785
▁मिट्टी	-11.0785
▁मेगावाट	-11.0785
▁मोहले	-11.0785
▁लम्बा	-11.0785
▁संचालन	-11.0785
▁संवेदनशील	-11.0785
▁समझौते	-11.0785
▁सुरेश	-11.0785
▁Arising	-11.0785
▁Sadak	-11.0785
▁Tourism	-11.0785
▁silk	-11.0785
▁vital	-11.0785
▁ãÉMÉ	-11.0785
▁fear	-11.0785
▁outlay	-11.0785
▁room	-11.0785
▁आज़ाद	-11.0785
▁2024	-11.0785
▁ववरद	-11.0785
▁सामान	-11.0785
▁SBI	-11.0785
▁Very	-11.0785
▁Devendra	-11.0785
▁serial	-11.0785
▁thereby	-11.0785
▁किताब	-11.0785
▁punishment	-11.0785
▁डूब	-11.0785
▁Total	-11.0785
▁सूर्य	-11.0785
▁cultivation	-11.0785
▁निदान	-11.0785
▁इकाई	-11.0785
▁ठहर	-11.0786
▁expand	-11.0786
▁procurement	-11.0786
▁खतरा	-11.0786
ner	-11.0786
▁२६	-11.0786
▁accountability	-11.0786
▁categorically	-11.0786
▁बताइए	-11.0786
▁मुक्त	-11.0786
▁JUDICIAL	-11.0787
▁Personnel	-11.0787
▁controlled	-11.0787
▁सीतामढ़ी	-11.0787
▁Eighth	-11.0787
▁जनरल	-11.0787
▁पेड़	-11.0787
▁आएगी	-11.0788
▁Long	-11.0788
▁Complainant	-11.0789
▁पृष्ठ	-11.0789
ksx	-11.079
▁दिलाने	-11.079
▁dj	-11.079
▁Regional	-11.079
▁जायेंगे	-11.0791
▁Sale	-11.0792
▁detailed	-11.0792
बद्ध	-11.0792
▁classes	-11.0793
▁Measures	-11.0794
▁रोजी	-11.0794
▁Devi	-11.0794
▁Addresses	-11.0795
▁Asian	-11.0795
▁श्रमिकों	-11.0796
▁UN	-11.08
▁लगाना	-11.0802
▁formation	-11.0804
▁ररज	-11.0806
▁ववव	-11.081
▁Does	-11.081
▁dealt	-11.0811
▁मिलनी	-11.0812
▁बची	-11.0817
▁सिटी	-11.0819
▁स्थलों	-11.0819
▁disputed	-11.082
▁पदों	-11.0821
▁पेट	-11.0823
▁गलती	-11.0833
▁expression	-11.0836
▁93	-11.0846
54	-11.085
▁formed	-11.0851
▁animals	-11.0853
▁environmental	-11.0857
▁handed	-11.0858
▁opening	-11.0861
बार	-11.0862
▁mere	-11.0866
▁listening	-11.0866
▁उसने	-11.0873
▁ending	-11.0883
द्धठ्ठ	-11.0889
▁instances	-11.0893
जल	-11.0911
Dr	-11.0918
▁demanding	-11.0932
▁वार	-11.0936
▁grants	-11.0937
▁दह	-11.0938
▁individuals	-11.0941
▁मध	-11.0944
▁iÉ	-11.0946
▁आस	-11.0955
▁hi	-11.096
▁Chau	-11.0963
▁ककककककक	-11.0969
▁सत्य	-11.0975
ोड	-11.0975
▁com	-11.0988
▁एकल	-11.0996
▁Sr	-11.0997
▁y	-11.1
▁_____________	-11.1011
▁गं	-11.1025
▁Hindus	-11.1026
▁goal	-11.1036
ान्त	-11.1043
UL	-11.1054
▁रण	-11.1072
▁रै	-11.1082
▁Youth	-11.1114
(1)(	-11.1129
▁meetings	-11.1131
िच	-11.1169
१९	-11.118
▁Sai	-11.1212
▁52	-11.1213
▁66	-11.122
ÉàÉ	-11.122
▁Sea	-11.1222
▁fu	-11.1234
▁अनध	-11.1277
▁girl	-11.1308
▁standard	-11.1309
▁Grant	-11.1311
▁कककककक	-11.1316
ze	-11.133
▁Boards	-11.1336
▁निभा	-11.1337
▁deliver	-11.1356
2006	-11.1357
▁attend	-11.1358
▁adopt	-11.1359
▁सूख	-11.1359
▁advise	-11.1359
▁constitute	-11.136
▁touch	-11.136
▁अखबार	-11.1363
▁Bharat	-11.1365
▁frame	-11.1369
▁मूल	-11.1373
т	-11.1373
ology	-11.1373
ô	-11.1373
▁APPELLATE	-11.1373
▁Chidambaram	-11.1373
▁Circle	-11.1373
▁Collector	-11.1373
▁Commodities	-11.1373
▁Hundred	-11.1373
▁Inspector	-11.1373
▁Maruti	-11.1373
▁Masjid	-11.1373
▁Mukherjee	-11.1373
▁Nalanda	-11.1373
▁Okay	-11.1373
▁Pandey	-11.1373
▁Passenger	-11.1373
▁Research	-11.1373
▁Safety	-11.1373
▁Sanction	-11.1373
▁Sharad	-11.1373
▁Shimla	-11.1373
▁Somaiya	-11.1373
▁Telephone	-11.1373
▁Thermal	-11.1373
▁Twenty	-11.1373
▁affairs	-11.1373
▁alternative	-11.1373
▁brother	-11.1373
▁challenging	-11.1373
▁compliment	-11.1373
▁confident	-11.1373
▁conspiracy	-11.1373
▁crude	-11.1373
▁daughter	-11.1373
▁declaration	-11.1373
▁discipline	-11.1373
▁disposal	-11.1373
▁distress	-11.1373
▁expenses	-11.1373
▁facilitate	-11.1373
▁fishermen	-11.1373
▁frfFk	-11.1373
▁front	-11.1373
▁however	-11.1373
▁inclusion	-11.1373
▁iznku	-11.1373
▁journey	-11.1373
▁judice	-11.1373
▁located	-11.1373
▁petroleum	-11.1373
▁philosophy	-11.1373
▁pronounced	-11.1373
▁pursuance	-11.1373
▁quiet	-11.1373
▁remunerative	-11.1373
▁repair	-11.1373
▁scenario	-11.1373
▁severe	-11.1373
▁shortfall	-11.1373
▁tobacco	-11.1373
▁trust	-11.1373
▁unemployed	-11.1373
▁unfair	-11.1373
▁vulnerable	-11.1373
▁ÉÊBÉEaÉÉ	-11.1373
▁अदालत	-11.1373
▁अनिवार्य	-11.1373
▁अभियान	-11.1373
▁अर्थव्यवस्था	-11.1373
▁इंतजाम	-11.1373
▁किशोर	-11.1373
▁गुणवत्ता	-11.1373
▁जहाँ	-11.1373
▁ठाकुर	-11.1373
▁दुर्भाग्य	-11.1373
▁निरन्तर	-11.1373
▁परिवर्तित	-11.1373
▁प्रकोप	-11.1373
▁प्रचार	-11.1373
▁फीसदी	-11.1373
▁फैक्ट्री	-11.1373
▁बाहुल्य	-11.1373
▁भागीदारी	-11.1373
▁भोपाल	-11.1373
▁मायावती	-11.1373
▁मोबाइल	-11.1373
▁रांची	-11.1373
▁वाहनों	-11.1373
▁विदर्भ	-11.1373
▁विस्तृत	-11.1373
▁शोषण	-11.1373
▁श्रेणी	-11.1373
▁संज्ञान	-11.1373
▁हमीरपुर	-11.1373
▁१९९९	-11.1373
°	-11.1373
ó	-11.1373
▁Certain	-11.1373
▁TAX	-11.1373
▁deemed	-11.1373
▁izfr	-11.1373
▁renew	-11.1373
▁trading	-11.1373
▁उग्रवाद	-11.1373
▁कॉटन	-11.1373
▁सख्त	-11.1373
▁सार्थक	-11.1373
▁Tourist	-11.1373
▁सीधे	-11.1373
▁Tenth	-11.1373
▁Vilas	-11.1373
▁vast	-11.1373
▁धरती	-11.1373
वभागीय	-11.1373
▁Patel	-11.1373
▁खेद	-11.1373
▁instant	-11.1373
▁VÉÉaÉä	-11.1373
▁temporary	-11.1373
▁Mahajan	-11.1373
▁कारगर	-11.1373
▁losing	-11.1373
▁मिश्र	-11.1373
▁Madan	-11.1373
▁SAHU	-11.1373
▁ÉÊàÉãÉ	-11.1373
▁कितनी	-11.1373
▁saving	-11.1373
▁settlement	-11.1373
▁सुशील	-11.1373
▁छोटा	-11.1374
▁कयोंकि	-11.1374
▁पुनः	-11.1374
▁सहारा	-11.1374
▁STs	-11.1374
▁Kanpur	-11.1374
▁impression	-11.1374
▁accordance	-11.1374
▁dependent	-11.1374
्योर	-11.1374
▁पकरर	-11.1375
▁व्यक्तिगत	-11.1375
▁deny	-11.1375
▁basically	-11.1375
▁प्रोग्राम	-11.1375
▁४०	-11.1375
▁beedi	-11.1375
▁write	-11.1375
▁achievement	-11.1376
▁Petroleum	-11.1376
▁RETD	-11.1376
▁Shiksha	-11.1376
▁1994	-11.1376
▁load	-11.1377
▁controlling	-11.1377
▁अहम	-11.1377
▁justified	-11.1377
▁लिखकर	-11.1377
▁Kendra	-11.1377
▁clearance	-11.1378
▁शोध	-11.1378
▁plantation	-11.1378
▁बताएं	-11.1378
▁गहरा	-11.1378
▁Thus	-11.1378
▁Treated	-11.1379
▁factory	-11.1379
▁गोवा	-11.138
▁apart	-11.138
▁seriousness	-11.1381
▁उपकरणों	-11.1381
▁gÉÉÒ	-11.1381
▁systems	-11.1381
ड्ड	-11.1383
▁defined	-11.1383
▁लगाई	-11.1383
▁LAL	-11.1383
▁संगठनों	-11.1383
▁Contd	-11.1384
▁जार्ज	-11.1386
▁repeated	-11.1386
▁दारा	-11.1387
▁mine	-11.1388
▁channels	-11.1391
▁1500	-11.1392
▁आधे	-11.1393
▁challenged	-11.1397
▁स्टे	-11.1398
▁regional	-11.1398
शाली	-11.1401
▁Maoists	-11.1402
▁विदेशों	-11.1407
▁Anr	-11.1408
▁fruits	-11.141
▁pilgrims	-11.1416
▁विरोधी	-11.1416
नु	-11.1417
ँ	-11.142
▁offer	-11.1422
▁obligations	-11.1426
▁bo	-11.1426
▁extending	-11.1428
▁बैठकर	-11.1428
▁Fertilizers	-11.143
▁करिए	-11.143
▁accepting	-11.1431
▁ON	-11.1434
▁standards	-11.1437
▁meant	-11.1438
▁67	-11.1439
▁•	-11.1443
▁listened	-11.1445
▁answered	-11.1445
▁hospitals	-11.1449
We	-11.145
appa	-11.146
▁marketing	-11.1461
▁noon	-11.1465
▁लाइ	-11.1466
▁objectives	-11.1473
▁Pra	-11.1478
ाओं	-11.1496
▁कानूनों	-11.1497
▁नही	-11.1499
▁राजस्थानी	-11.1501
मुख	-11.1502
▁worked	-11.1536
jan	-11.1552
▁profits	-11.1559
▁600	-11.1561
▁रहें	-11.1565
__________	-11.1569
""	-11.1569
▁Kol	-11.1576
**	-11.1591
▁गाड	-11.1605
▁चौक	-11.1616
▁रखें	-11.1618
ave	-11.1634
▁250	-11.1634
▁reservations	-11.1638
▁attacks	-11.1649
▁regions	-11.1654
▁सच	-11.1662
▁Officers	-11.1681
▁shares	-11.1684
▁85	-11.1685
ाएं	-11.1686
▁कुर	-11.1687
▁dates	-11.1689
▁sha	-11.1695
तक	-11.1704
▁86	-11.1708
▁Stations	-11.1725
▁अनधक	-11.1726
र्ग	-11.1746
HU	-11.1757
pura	-11.1761
▁Car	-11.178
ीकृत	-11.1789
ण्	-11.1799
▁Deo	-11.1804
़ा	-11.1827
ेली	-11.1834
▁professional	-11.1845
▁पहुंचे	-11.1859
▁gain	-11.1871
81	-11.1875
▁वाक	-11.189
▁बब	-11.1894
▁convert	-11.1907
▁टक	-11.1909
▁constitution	-11.1911
ÉäVÉ	-11.1919
▁56	-11.1925
▁consumer	-11.1933
▁Resource	-11.1934
▁दवा	-11.1934
▁connect	-11.1958
▁fail	-11.1971
ऐ	-11.1977
ग्राम	-11.1977
|	-11.1977
▁elect	-11.1983
▁invite	-11.1984
▁confine	-11.1985
▁decline	-11.1985
▁Place	-11.1985
ककत	-11.1988
▁definite	-11.1992
▁exact	-11.1992
▁recover	-11.1994
▁प्राथमिक	-11.1994
▁bill	-11.1996
▁corrupt	-11.1996
▁Resident	-11.1996
▁प्लान	-11.1996
▁ACCOUNTANT	-11.1998
▁ANADI	-11.1998
▁ARJUN	-11.1998
▁Abhiyan	-11.1998
▁Allocate	-11.1998
▁Ambedkar	-11.1998
▁Bhargava	-11.1998
▁Cantonment	-11.1998
▁Combined	-11.1998
▁Confidence	-11.1998
▁DEFENCE	-11.1998
▁Dinesh	-11.1998
▁Energy	-11.1998
▁Enhance	-11.1998
▁GOWDA	-11.1998
▁HANNAN	-11.1998
▁JOSHI	-11.1998
▁Keonjhar	-11.1998
▁MOLLAH	-11.1998
▁Mamata	-11.1998
▁Manmohan	-11.1998
▁Paswan	-11.1998
▁Professor	-11.1998
▁Providing	-11.1998
▁Reasons	-11.1998
▁SETHI	-11.1998
▁Standard	-11.1998
▁TRIBUNAL	-11.1998
▁Yashwant	-11.1998
▁Yojna	-11.1998
▁absence	-11.1998
▁accommodate	-11.1998
▁adjudication	-11.1998
▁allotment	-11.1998
▁atrocities	-11.1998
▁barrel	-11.1998
▁blood	-11.1998
▁character	-11.1998
▁competence	-11.1998
▁defaulters	-11.1998
▁doubling	-11.1998
▁draft	-11.1998
▁elaborate	-11.1998
▁encouraging	-11.1998
▁equity	-11.1998
▁fnYyh	-11.1998
▁fresh	-11.1998
▁lafpdk	-11.1998
▁lanHkZ	-11.1998
▁massive	-11.1998
▁mobile	-11.1998
▁multinational	-11.1998
▁principal	-11.1998
▁probably	-11.1998
▁sometimes	-11.1998
▁starvation	-11.1998
▁strategy	-11.1998
▁tribunal	-11.1998
▁अपहरण	-11.1998
▁अफसोस	-11.1998
▁अभिभाषण	-11.1998
▁अमरेली	-11.1998
▁अरुण	-11.1998
▁आवंटन	-11.1998
▁आश्चर्य	-11.1998
▁आसपास	-11.1998
▁ऑर्डर	-11.1998
▁कंट्रोल	-11.1998
▁कलकत्ता	-11.1998
▁कारखाने	-11.1998
▁कृपलानी	-11.1998
▁ज्ञात	-11.1998
▁झांसी	-11.1998
▁ठप्प	-11.1998
▁डिबेट	-11.1998
▁नम्बर	-11.1998
▁नेतृत्व	-11.1998
▁पत्थर	-11.1998
▁प्रवेश	-11.1998
▁मंदसौर	-11.1998
▁मुश्किल	-11.1998
▁यथाशीघ्र	-11.1998
▁विस्फोट	-11.1998
▁सैंट्रल	-11.1998
▁स्पेशल	-11.1998
▁स्वामी	-11.1998
▁हस्तक्षेप	-11.1998
▁LAW	-11.1998
▁Start	-11.1998
▁Village	-11.1998
▁arms	-11.1998
▁command	-11.1998
▁constraint	-11.1998
▁feet	-11.1998
▁lunch	-11.1998
▁resort	-11.1998
▁ugha	-11.1998
▁जिक्र	-11.1998
▁टिकट	-11.1998
▁नासिक	-11.1998
▁प्रतिदिन	-11.1998
▁अलवर	-11.1998
▁planning	-11.1998
▁title	-11.1998
▁इश्यू	-11.1998
▁मार्क	-11.1998
▁श्रीचन्द	-11.1998
▁एयरपोर्ट	-11.1998
▁जितना	-11.1998
▁पहचान	-11.1998
▁Silk	-11.1998
▁Hindustan	-11.1998
▁Prakash	-11.1998
▁दोहरीकरण	-11.1998
▁इम्प	-11.1998
▁aside	-11.1998
▁अवस्था	-11.1998
▁गोपाल	-11.1998
▁thereof	-11.1998
/05)	-11.1998
हिंदी	-11.1998
bhai	-11.1998
▁halt	-11.1998
▁खोज	-11.1998
▁occurred	-11.1998
▁option	-11.1999
▁लड़ाई	-11.1999
▁stability	-11.1999
▁shop	-11.1999
▁चांस	-11.1999
▁planned	-11.1999
▁Rajesh	-11.1999
/06)	-11.1999
▁डॉक्टर	-11.2
▁Notice	-11.2
▁Mathura	-11.2
▁रूलिंग	-11.2
▁Khanna	-11.2
▁Payment	-11.2
▁Maintenance	-11.2
▁extra	-11.2
▁२१	-11.2
▁२८	-11.2
▁आवाज	-11.2001
▁Without	-11.2001
▁जिनकी	-11.2001
▁केंद्रीय	-11.2001
▁tokc	-11.2001
▁suddenly	-11.2001
▁लगेगा	-11.2002
▁carefully	-11.2002
▁rti	-11.2002
▁भूख	-11.2002
▁घाटे	-11.2002
▁आयेगा	-11.2002
▁raw	-11.2003
▁PRAKASH	-11.2003
▁पोटा	-11.2003
▁labourers	-11.2004
ेश्वर	-11.2004
▁सोचना	-11.2004
ÉÉoÉ	-11.2005
▁Lastly	-11.2006
▁गम्भीरता	-11.2006
▁समस्याएं	-11.2007
▁पढ़ने	-11.2008
▁सम्भल	-11.2008
▁MÉaÉÉ	-11.2008
▁witnessed	-11.2009
▁allowance	-11.2009
▁misused	-11.2009
aries	-11.2012
▁headquarters	-11.2013
▁माफी	-11.2013
▁Canal	-11.2013
▁कीमतों	-11.2016
▁encouraged	-11.2016
▁Had	-11.2017
▁effectively	-11.2017
▁nÚ	-11.2018
▁Hat	-11.2019
▁पसत	-11.202
▁friendly	-11.2021
▁मजदूरी	-11.2022
Éc	-11.2022
▁PER	-11.2023
▁वर्गों	-11.2024
▁mainly	-11.2026
▁solved	-11.2026
▁मिलती	-11.2027
▁withdrawal	-11.2028
▁NH	-11.2029
▁पाता	-11.2029
▁returned	-11.2031
▁क्षेत्रीय	-11.2033
▁रमन	-11.2036
▁ट्रा	-11.2036
▁देवी	-11.2039
कृत	-11.2046
▁remaining	-11.2046
▁sending	-11.2047
▁जगहों	-11.2047
▁funding	-11.2048
▁राजा	-11.206
▁AY	-11.206
▁entirely	-11.207
▁debates	-11.2074
▁methods	-11.2075
▁developmental	-11.208
▁requirements	-11.2083
▁विभागों	-11.2085
क्षित	-11.2087
▁marginal	-11.2091
▁83	-11.2094
▁Christians	-11.2096
▁resulting	-11.2098
▁कय	-11.2117
िष	-11.2132
ique	-11.2132
▁३५	-11.2133
xÉÉÒ	-11.2134
▁जव	-11.214
▁sales	-11.2142
▁कलम	-11.2143
▁गईं	-11.215
▁causes	-11.215
▁door	-11.2152
▁शि	-11.2161
▁follows	-11.2167
▁tu	-11.2201
use	-11.2204
▁___________	-11.2208
▁400	-11.223
▁Prices	-11.2234
ÉxÉÉÒ	-11.2261
▁अनय	-11.2266
▁àÉc	-11.2269
▁मिलें	-11.2281
▁AN	-11.2289
▁सू	-11.2292
▁procedures	-11.2297
▁legislations	-11.2301
▁weeks	-11.2309
▁posts	-11.2312
we	-11.2362
▁पड	-11.2379
▁इक	-11.2388
▁79	-11.2405
ेन्स	-11.2434
▁साथी	-11.2444
▁Corporations	-11.2454
▁Naga	-11.2454
▁अन्त	-11.2468
ैन्ट	-11.2469
ेक्ट	-11.2489
àÉÉ	-11.2493
▁110	-11.2493
▁69	-11.25
▁रवि	-11.2523
oa	-11.2573
▁knowing	-11.2598
▁product	-11.2599
▁फैला	-11.26
▁expert	-11.26
▁Fertilizer	-11.2601
▁student	-11.2602
▁resource	-11.2602
cÉÒ	-11.2605
▁petitioners	-11.2642
Appeal	-11.2644
nÚ	-11.2646
▁pertain	-11.265
▁resolve	-11.2651
▁estimate	-11.2651
▁compare	-11.2651
▁allocate	-11.2652
▁formulate	-11.2652
▁निवास	-11.2652
▁रोज	-11.2652
▁restore	-11.2652
▁छात्र	-11.2655
cast	-11.2659
▁habit	-11.266
▁india	-11.2661
ोली	-11.2662
▁Again	-11.2663
▁चिंता	-11.2664
ऩ	-11.2664
/2017	-11.2664
▁HANDIQUE	-11.2665
▁Withdraw	-11.2665
▁block	-11.2665
hood	-11.2665
बचदा	-11.2665
मुिनरका	-11.2665
▁Afghanistan	-11.2665
▁Approval	-11.2665
▁Armed	-11.2665
▁Assessing	-11.2665
▁Bokaro	-11.2665
▁COMMITTEE	-11.2665
▁Calcutta	-11.2665
▁Chakraborty	-11.2665
▁Children	-11.2665
▁Completion	-11.2665
▁Earlier	-11.2665
▁Etawah	-11.2665
▁Geeta	-11.2665
▁Godhra	-11.2665
▁KURUP	-11.2665
▁Kandhamal	-11.2665
▁MANOHAR	-11.2665
▁MURLI	-11.2665
▁Mistry	-11.2665
▁Objects	-11.2665
▁Organisation	-11.2665
▁PANSKURA	-11.2665
▁Pathak	-11.2665
▁Pollution	-11.2665
▁Should	-11.2665
▁Southern	-11.2665
▁Thousands	-11.2665
▁Treasury	-11.2665
▁YADAV	-11.2665
▁achieving	-11.2665
▁acquired	-11.2665
▁afraid	-11.2665
▁boost	-11.2665
▁burnt	-11.2665
▁calamities	-11.2665
▁candidate	-11.2665
▁closure	-11.2665
▁concentrate	-11.2665
▁conscious	-11.2665
▁courage	-11.2665
▁dialogue	-11.2665
▁drawback	-11.2665
▁extremist	-11.2665
▁guilty	-11.2665
▁indigenous	-11.2665
▁injunction	-11.2665
▁interview	-11.2665
▁izkIr	-11.2665
▁judiciary	-11.2665
▁match	-11.2665
▁mineral	-11.2665
▁opposing	-11.2665
▁outstanding	-11.2665
▁politician	-11.2665
▁privatisation	-11.2665
▁quantum	-11.2665
▁reconsider	-11.2665
▁rescue	-11.2665
▁retail	-11.2665
▁straight	-11.2665
▁strategic	-11.2665
▁transparency	-11.2665
▁tremendous	-11.2665
▁unorganised	-11.2665
▁whichever	-11.2665
▁wisdom	-11.2665
▁ÉÊnaÉÉ	-11.2665
▁अधिनियम	-11.2665
▁आंकड़े	-11.2665
▁आवंटित	-11.2665
▁इस्तीफा	-11.2665
▁उपबंध	-11.2665
▁ऐलान	-11.2665
▁कटिहार	-11.2665
▁खन्ना	-11.2665
▁चन्द्रशेखर	-11.2665
▁झारखण्ड	-11.2665
▁ठेकेदार	-11.2665
▁दायित्व	-11.2665
▁दृष्टिकोण	-11.2665
▁नालन्दा	-11.2665
▁न्यूनतम	-11.2665
▁पिछली	-11.2665
▁पुरःस्थापित	-11.2665
▁प्रखंड	-11.2665
▁प्राचीन	-11.2665
▁फलस्वरूप	-11.2665
▁बनातवाला	-11.2665
▁मज़दूर	-11.2665
▁मलेरिया	-11.2665
▁मापदंड	-11.2665
▁मुताबिक	-11.2665
▁मुल्क	-11.2665
▁मृतक	-11.2665
▁लंबित	-11.2665
▁लाइसेंस	-11.2665
▁वायदा	-11.2665
▁विलम्ब	-11.2665
▁शेयर	-11.2665
▁संकेत	-11.2665
▁सम्पर्क	-11.2665
▁सम्पूर्ण	-11.2665
▁सीमावर्ती	-11.2665
▁हिंदुस्तान	-11.2665
▁हिमालय	-11.2665
▁हुसैन	-11.2665
▁हेक्टेयर	-11.2665
▁हैक्टेयर	-11.2665
▁Apart	-11.2665
▁BPL	-11.2665
▁Free	-11.2665
▁aÉÉäVÉxÉÉ	-11.2665
▁consolidat	-11.2665
▁lapse	-11.2665
▁liability	-11.2665
▁risk	-11.2665
▁vested	-11.2665
▁आन्दोलन	-11.2665
▁पहाड़ी	-11.2665
▁Institutions	-11.2665
▁Multi	-11.2665
▁Pawar	-11.2665
▁Western	-11.2665
▁data	-11.2665
▁vius	-11.2665
▁छपरा	-11.2665
▁बकाया	-11.2665
▁1980	-11.2665
▁नितीय	-11.2665
▁जबलपुर	-11.2665
▁धरना	-11.2665
▁विनय	-11.2665
▁सीधा	-11.2665
▁सीधी	-11.2665
▁कपड़ा	-11.2665
▁कार्यकाल	-11.2665
▁बनायी	-11.2665
▁मित्र	-11.2665
▁Israel	-11.2665
▁cold	-11.2665
▁àÉVÉ	-11.2665
▁पार्क	-11.2665
▁external	-11.2665
▁Prasar	-11.2665
▁चित्तौड़गढ़	-11.2665
▁संवैधानिक	-11.2665
▁Nagaland	-11.2665
▁preferred	-11.2665
▁Along	-11.2665
▁दुर्ग	-11.2665
▁Shah	-11.2665
▁कामगार	-11.2665
▁लूट	-11.2665
▁Time	-11.2665
▁factories	-11.2665
▁lend	-11.2665
▁inclusive	-11.2665
▁Installment	-11.2665
▁डेढ़	-11.2665
▁नंबर	-11.2665
▁CHIRAYINKIL	-11.2665
▁lawyer	-11.2665
▁travelling	-11.2665
▁Salempur	-11.2665
▁निदेश	-11.2665
▁संयुक्त	-11.2665
▁Case	-11.2666
▁पार्टियों	-11.2666
▁आएंगे	-11.2666
▁अवगत	-11.2666
▁बिछाने	-11.2666
▁recall	-11.2666
▁interpretation	-11.2666
द्धद्ध	-11.2666
▁budgetary	-11.2666
▁हाईवे	-11.2666
▁lying	-11.2666
▁Whose	-11.2666
▁निवासियों	-11.2666
/08)	-11.2666
▁२३	-11.2666
▁Recently	-11.2667
▁FAO	-11.2667
▁NREGA	-11.2667
▁Yesterday	-11.2667
▁जिनको	-11.2667
▁́ÉÆ	-11.2667
▁उपभोक्ताओं	-11.2668
▁घटनाएं	-11.2668
▁संघ	-11.2669
▁बहाल	-11.2669
▁Provident	-11.2669
▁selected	-11.2669
▁Gaya	-11.267
▁alia	-11.267
▁gap	-11.267
▁उधर	-11.267
▁furnished	-11.2671
▁Assessment	-11.2671
▁डब्ल्यू	-11.2671
▁मानते	-11.2671
▁amongst	-11.2672
▁५००	-11.2672
▁पढ़कर	-11.2672
▁साफ	-11.2672
▁प्रकाशित	-11.2672
▁originally	-11.2673
▁बुरा	-11.2673
▁Passed	-11.2674
▁Five	-11.2674
▁योग्यता	-11.2674
▁utilised	-11.2674
फ्ट	-11.2675
▁unable	-11.2675
▁losses	-11.2676
▁fit	-11.2677
गो	-11.2677
▁neighbouring	-11.2677
▁गुना	-11.2678
▁restored	-11.2678
▁बढ़ाई	-11.2678
▁healthy	-11.2679
▁declined	-11.2679
▁passes	-11.268
▁बनानी	-11.268
▁सड़कें	-11.268
▁gSA	-11.268
▁वोटर	-11.268
▁respectively	-11.2684
▁Sikhs	-11.2685
▁एम्स	-11.2685
▁हमको	-11.2686
▁naturally	-11.2686
▁damaged	-11.2693
▁linked	-11.2694
▁उत्पादों	-11.2697
▁नलए	-11.2698
▁walking	-11.2699
▁linking	-11.27
▁पाये	-11.2704
▁camps	-11.2707
▁dear	-11.2707
▁भेजी	-11.2709
▁experienced	-11.2709
▁गव	-11.2709
▁fulfill	-11.2716
ÉaÉÉ	-11.2733
बू	-11.2733
▁manage	-11.2733
▁Resources	-11.2734
▁opened	-11.2741
CIT	-11.2743
▁authenticate	-11.2745
▁TH	-11.2746
चत	-11.2747
▁vehicles	-11.2752
▁centres	-11.2758
▁करूं	-11.2758
▁rains	-11.2761
ech	-11.2765
▁मना	-11.2768
▁hundreds	-11.277
▁Requests	-11.2774
▁SH	-11.2775
▁मग	-11.2777
▁exception	-11.2785
▁खत	-11.2799
▁demanded	-11.2812
▁बीत	-11.2829
▁fields	-11.2832
▁functions	-11.2832
▁AC	-11.2835
▁पित	-11.2846
▁helping	-11.285
▁heads	-11.2859
▁plaintiffs	-11.2868
▁46	-11.287
▁practices	-11.2886
▁Notifications	-11.2891
▁Placed	-11.292
▁won	-11.2943
▁seeks	-11.2951
ini	-11.2956
lab	-11.2969
▁evening	-11.2984
▁runs	-11.2985
▁खर	-11.299
▁153	-11.3035
▁Dev	-11.3043
▁__________	-11.3054
▁acts	-11.3062
eli	-11.3079
PR	-11.308
क्टर	-11.309
▁एकता	-11.3097
▁intend	-11.3102
ties	-11.3112
PP	-11.3118
्टर	-11.3175
पीठ	-11.318
▁starts	-11.3185
▁1,000	-11.3198
र्ष	-11.3203
कककककक	-11.3235
िहा	-11.3238
▁57	-11.3242
▁Ali	-11.3248
▁चर	-11.3262
▁FA	-11.3265
▁Any	-11.3297
▁obligation	-11.3315
▁witness	-11.3348
Member	-11.3358
▁recommend	-11.3364
▁invest	-11.3364
▁appoint	-11.3365
▁negative	-11.3366
▁misuse	-11.3366
ÉÉMÉ	-11.3367
▁खुश	-11.3368
▁award	-11.3369
▁उपकरण	-11.3371
▁born	-11.3371
▁ब्रजेश	-11.3372
There	-11.3373
▁star	-11.3374
िशन	-11.3374
▁चीन	-11.3375
▁Present	-11.3377
▁recruit	-11.3377
▁fabric	-11.3378
▁sovereign	-11.3378
▁piece	-11.3378
▁एडजर्न	-11.3378
▁pain	-11.3378
▁drop	-11.3379
▁ट्रैक	-11.3379
р	-11.3379
и	-11.3379
▁Sixteen	-11.3379
▁arrive	-11.3379
▁branch	-11.3379
▁enjoy	-11.3379
▁spoil	-11.3379
▁अपेक्षा	-11.3379
▁पुस्तक	-11.3379
▁पेट्रोल	-11.3379
▁मनिस्ट्री	-11.3379
▁हिस्से	-11.3379
1⁄4	-11.3379
▁AZAD	-11.3379
▁Acquisition	-11.3379
▁Already	-11.3379
▁Australia	-11.3379
▁BENCH	-11.3379
▁BIHAR	-11.3379
▁Banerjee	-11.3379
▁Because	-11.3379
▁Besides	-11.3379
▁British	-11.3379
▁EAST	-11.3379
▁Federation	-11.3379
▁Fernandes	-11.3379
▁Heeralal	-11.3379
▁Hotel	-11.3379
▁MISTRY	-11.3379
▁MUMBAI	-11.3379
▁Madhavrao	-11.3379
▁Major	-11.3379
▁Owaisi	-11.3379
▁PALANIMANICKAM	-11.3379
▁PILOT	-11.3379
▁PRABODH	-11.3379
▁Point	-11.3379
▁Political	-11.3379
▁RASHID	-11.3379
▁RAVI	-11.3379
▁Repeal	-11.3379
▁SEVERAL	-11.3379
▁Temple	-11.3379
▁abroad	-11.3379
▁although	-11.3379
▁besides	-11.3379
▁burning	-11.3379
▁chargesheet	-11.3379
▁choice	-11.3379
▁corridor	-11.3379
▁critical	-11.3379
▁curb	-11.3379
▁declaring	-11.3379
▁determination	-11.3379
▁device	-11.3379
▁earliest	-11.3379
▁extensive	-11.3379
▁false	-11.3379
▁fashion	-11.3379
▁guard	-11.3379
▁historical	-11.3379
▁identity	-11.3379
▁incentive	-11.3379
▁incurred	-11.3379
▁indirect	-11.3379
▁injured	-11.3379
▁irrespective	-11.3379
▁literacy	-11.3379
▁motive	-11.3379
▁operating	-11.3379
▁organization	-11.3379
▁prescribed	-11.3379
▁receiving	-11.3379
▁residence	-11.3379
▁secure	-11.3379
▁slum	-11.3379
▁specified	-11.3379
▁spot	-11.3379
▁statistical	-11.3379
▁statistics	-11.3379
▁steel	-11.3379
▁translate	-11.3379
▁verdict	-11.3379
▁अनुबंध	-11.3379
▁अप्रैल	-11.3379
▁इंडियन	-11.3379
▁इकाइयों	-11.3379
▁उदयपुर	-11.3379
▁कारखाना	-11.3379
▁क्वैश्चन	-11.3379
▁खजुराहो	-11.3379
▁गड़बड़	-11.3379
▁डेवलपमेंट	-11.3379
▁तिवारी	-11.3379
▁दैनिक	-11.3379
▁धनबाद	-11.3379
▁पंक्ति	-11.3379
▁पंचवर्षीय	-11.3379
▁पालिसी	-11.3379
▁पुरजोर	-11.3379
▁पेट्रोलियम	-11.3379
▁प्रौद्योगिकी	-11.3379
▁फैजाबाद	-11.3379
▁भौगोलिक	-11.3379
▁मुहैया	-11.3379
▁मूलभूत	-11.3379
▁यूनिवर्सिटी	-11.3379
▁रिप्लाई	-11.3379
▁रेवती	-11.3379
▁लक्ष्मण	-11.3379
▁लोकसभा	-11.3379
▁विनम्र	-11.3379
▁साम्प्रदायिक	-11.3379
▁सेंट्रल	-11.3379
▁स्थगन	-11.3379
▁हरिकेवल	-11.3379
▁१९९८	-11.3379
▁Actually	-11.3379
▁Aviation	-11.3379
▁Naik	-11.3379
▁Pending	-11.3379
▁VHP	-11.3379
▁Verma	-11.3379
▁अंचल	-11.3379
▁धीमी	-11.3379
▁भरूच	-11.3379
▁मेहता	-11.3379
▁सफाई	-11.3379
▁Salary	-11.3379
▁Sarva	-11.3379
▁Solve	-11.3379
▁weapon	-11.3379
▁खुशहाल	-11.3379
▁चक्र	-11.3379
▁संजय	-11.3379
▁1982	-11.3379
▁leak	-11.3379
▁partners	-11.3379
▁Everything	-11.3379
▁NPA	-11.3379
▁Planning	-11.3379
▁VRS	-11.3379
▁issuing	-11.3379
▁2012	-11.3379
▁combat	-11.3379
▁सपष	-11.3379
▁परभनी	-11.3379
▁oÉàÉaÉ	-11.3379
▁Both	-11.3379
▁करायी	-11.3379
▁instructions	-11.3379
▁cess	-11.3379
▁inside	-11.3379
▁राजनैतिक	-11.3379
▁opium	-11.3379
▁governance	-11.3379
▁́ÉcÉÆ	-11.3379
▁ãÉÉäMÉÉå	-11.3379
▁नजर	-11.3379
▁लौट	-11.3379
▁ववपक	-11.3379
▁Mehta	-11.3379
▁compelled	-11.338
åMÉä	-11.338
▁Cess	-11.338
▁worker	-11.338
▁बाधा	-11.338
▁Golden	-11.338
सल	-11.338
▁किलो	-11.338
▁सर्विस	-11.338
▁हटाया	-11.338
▁परिस्थितियों	-11.338
▁आठवीं	-11.338
▁१९३	-11.338
▁प्रसारित	-11.3381
▁आगरा	-11.3381
▁flag	-11.3381
हद्व	-11.3381
▁fell	-11.3381
▁पेपर	-11.3381
▁३१	-11.3381
▁मुरादाबाद	-11.3381
▁पड़ेगी	-11.3381
▁undertaken	-11.3382
▁BÉEÉàÉ	-11.3382
▁लाभकारी	-11.3382
▁claimant	-11.3382
▁1981	-11.3382
▁Advaniji	-11.3382
endra	-11.3382
▁कालेज	-11.3383
▁Judicial	-11.3383
▁yes	-11.3383
▁Make	-11.3383
▁डबल	-11.3383
▁driver	-11.3383
▁agitated	-11.3383
▁Salem	-11.3383
kot	-11.3383
▁आतंकवादियों	-11.3384
▁जिसको	-11.3384
▁boy	-11.3385
ÉÒaÉ	-11.3385
▁नाते	-11.3385
▁Team	-11.3385
▁आपदा	-11.3385
▁rF	-11.3385
▁भोजपुरी	-11.3385
▁Shipping	-11.3386
▁Setting	-11.3386
▁signal	-11.3387
▁Thirdly	-11.3387
▁देखें	-11.3388
▁माग	-11.3388
▁deeply	-11.3388
▁hardly	-11.3388
▁कराकर	-11.3388
▁shouting	-11.3389
▁घाटी	-11.3389
▁Gramin	-11.3389
▁करवाने	-11.3389
▁मिशन	-11.3389
▁maybe	-11.339
▁reflected	-11.339
▁prevention	-11.339
▁sustained	-11.3391
▁normally	-11.3391
▁farming	-11.3391
▁BÉEcÉ	-11.3391
▁divided	-11.3391
▁लिखे	-11.3391
▁intended	-11.3392
▁दंगे	-11.3392
▁Panchayati	-11.3393
▁50,000	-11.3393
heli	-11.3393
▁converted	-11.3394
▁पवार	-11.3395
▁माता	-11.3395
▁Annex	-11.3396
▁सम्बन्धी	-11.3397
▁holy	-11.3397
▁लगने	-11.3397
CMA	-11.3398
▁threaten	-11.34
▁पकरण	-11.34
▁Chemicals	-11.3401
▁doctors	-11.3401
▁dollars	-11.3401
▁Eleventh	-11.3401
▁Educational	-11.3401
▁भीतर	-11.3401
▁proceeded	-11.3403
▁पहला	-11.3404
▁III	-11.3405
▁godowns	-11.3405
▁सुनने	-11.3406
▁bearing	-11.3407
▁purchased	-11.3408
▁Once	-11.3409
▁aspirations	-11.341
▁Did	-11.3413
▁25,000	-11.3419
▁nearly	-11.3422
▁restrictions	-11.3425
▁employer	-11.3427
▁देनी	-11.3427
pose	-11.3428
▁भाई	-11.343
▁longer	-11.3431
▁अफ	-11.3431
▁उच	-11.3432
▁महाराज	-11.3434
▁none	-11.3439
▁concessions	-11.3439
▁यानी	-11.344
▁रहत	-11.3442
▁फसलों	-11.3445
▁77	-11.3446
▁रंग	-11.3452
इड	-11.3452
▁194	-11.3457
एन	-11.3458
▁सुनी	-11.3473
▁नियुक्त	-11.3475
▁processing	-11.3491
▁sufferings	-11.3497
▁बुल	-11.3502
▁1000	-11.3505
ग्रस्त	-11.3514
▁Rai	-11.3523
▁खोल	-11.3525
▁criminals	-11.3555
▁४५	-11.3574
▁Parts	-11.3583
▁Daman	-11.3584
▁बाग	-11.3588
▁VÉÉA	-11.359
▁Rivers	-11.3608
▁seed	-11.3609
44	-11.3648
▁अनत	-11.365
▁imports	-11.3685
मारी	-11.3716
पूर्वक	-11.3784
▁कराएं	-11.3792
CSA	-11.3798
▁300	-11.3801
ायर	-11.3835
पक	-11.3849
ganj	-11.3856
्द्र	-11.3868
▁Col	-11.3885
र्ण	-11.3894
Mum	-11.3898
▁700	-11.3908
▁पान	-11.392
▁ou	-11.3946
▁Md	-11.3978
▁समझा	-11.3982
▁आरा	-11.4026
▁margin	-11.4034
▁plea	-11.4064
ियर	-11.4076
▁zone	-11.4083
▁concession	-11.4084
▁decade	-11.4085
ंगल	-11.4089
▁Jai	-11.4105
▁खेत	-11.4127
General	-11.4127
RTI	-11.4127
CPIO	-11.4127
from	-11.4128
(2)	-11.4129
▁defect	-11.4133
▁divide	-11.4133
▁define	-11.4135
▁remove	-11.4135
▁sustain	-11.4135
▁dismiss	-11.4136
▁fill	-11.4138
▁तथ्य	-11.4143
▁procure	-11.4147
▁sea	-11.4147
▁कठिन	-11.4147
▁ãÉÉäMÉ	-11.4148
▁prefer	-11.4148
▁proportion	-11.4148
▁Respect	-11.4148
▁patriot	-11.4148
ATION	-11.4148
BLE	-11.4148
Expunged	-11.4148
ˆ	-11.4148
अिभ	-11.4148
वाणिज्य	-11.4148
▁143(3)	-11.4148
▁164641	-11.4148
▁ANBUMANI	-11.4148
▁Although	-11.4148
▁BASIRHAT	-11.4148
▁BILL	-11.4148
▁BWISWMUTHIARY	-11.4148
▁Bajrang	-11.4148
▁Basudeb	-11.4148
▁Bhojpur	-11.4148
▁Bhutan	-11.4148
▁Channel	-11.4148
▁Cooperative	-11.4148
▁Faizabad	-11.4148
▁Family	-11.4148
▁Global	-11.4148
▁Gorakhpur	-11.4148
▁HOOGLY	-11.4148
▁INCOME	-11.4148
▁Improve	-11.4148
▁KRISHNADAS	-11.4148
▁Kottayam	-11.4148
▁MANISHANKAR	-11.4148
▁MUVATTUPUZHA	-11.4148
▁Maharajganj	-11.4148
▁Manohar	-11.4148
▁Natwar	-11.4148
▁Nepal	-11.4148
▁PANDIAN	-11.4148
▁Principal	-11.4148
▁Promotion	-11.4148
▁RAMADOSS	-11.4148
▁Repair	-11.4148
▁SIRPOTDAR	-11.4148
▁Samariya	-11.4148
▁Sanjay	-11.4148
▁Shanker	-11.4148
▁Sikkim	-11.4148
▁Sriganganagar	-11.4148
▁Suzuki	-11.4148
▁Textile	-11.4148
▁UMMAREDDY	-11.4148
▁Understanding	-11.4148
▁Vanaja	-11.4148
▁Volcker	-11.4148
▁WATER	-11.4148
▁acres	-11.4148
▁advice	-11.4148
▁anguish	-11.4148
▁anywhere	-11.4148
▁appropriation	-11.4148
▁beneficiaries	-11.4148
▁bureaucrat	-11.4148
▁competition	-11.4148
▁complex	-11.4148
▁conservation	-11.4148
▁contest	-11.4148
▁criticism	-11.4148
▁detect	-11.4148
▁discharge	-11.4148
▁distance	-11.4148
▁electoral	-11.4148
▁enlighten	-11.4148
▁enquiry	-11.4148
▁expansion	-11.4148
▁identify	-11.4148
▁inadequate	-11.4148
▁institute	-11.4148
▁involving	-11.4148
▁irregularities	-11.4148
▁leaving	-11.4148
▁licence	-11.4148
▁onwards	-11.4148
▁opposition	-11.4148
▁organised	-11.4148
▁oriented	-11.4148
▁ownership	-11.4148
▁pleasure	-11.4148
▁prompt	-11.4148
▁purchasing	-11.4148
▁regulate	-11.4148
▁routine	-11.4148
▁science	-11.4148
▁scientific	-11.4148
▁signature	-11.4148
▁subsidiary	-11.4148
▁symbol	-11.4148
▁urgency	-11.4148
▁अनुपूरक	-11.4148
▁अनुरूप	-11.4148
▁आबंटन	-11.4148
▁आशंका	-11.4148
▁इंस्टीटयूट	-11.4148
▁उज्जैन	-11.4148
▁उद्घाटन	-11.4148
▁उन्नाव	-11.4148
▁एसोसिएट	-11.4148
▁कम्पनियों	-11.4148
▁कार्यसूची	-11.4148
▁कॉलेज	-11.4148
▁ग्यारह	-11.4148
▁ग्रुप	-11.4148
▁ग्वालियर	-11.4148
▁डिस्टर्ब	-11.4148
▁दोबारा	-11.4148
▁नियोजन	-11.4148
▁निर्मित	-11.4148
▁निर्वाचित	-11.4148
▁नेटवर्क	-11.4148
▁पवित्र	-11.4148
▁भांति	-11.4148
▁मबनध	-11.4148
▁मािणत	-11.4148
▁मुद्दों	-11.4148
▁मुस्लिम	-11.4148
▁रसायन	-11.4148
▁लक्ष्मीनारायण	-11.4148
▁लेखापरीक्षित	-11.4148
▁शाहनवाज़	-11.4148
▁शैक्षणिक	-11.4148
▁शैडयूल्ड	-11.4148
▁संक्षेप	-11.4148
▁संचालित	-11.4148
▁संरचना	-11.4148
▁सकारात्मक	-11.4148
▁सप्लाई	-11.4148
▁सुन्दर	-11.4148
▁सुमित्रा	-11.4148
▁सुरेन्द्र	-11.4148
▁सैयद	-11.4148
▁स्िथति	-11.4148
Å	-11.4148
▁Fair	-11.4148
▁Kirit	-11.4148
▁Three	-11.4148
▁birth	-11.4148
▁easy	-11.4148
▁entry	-11.4148
▁keen	-11.4148
▁lady	-11.4148
▁stamp	-11.4148
▁wonder	-11.4148
▁अगस्त	-11.4148
▁अर्जुन	-11.4148
▁चपेट	-11.4148
▁जर्जर	-11.4148
▁युवा	-11.4148
▁शुगर	-11.4148
▁समूह	-11.4148
▁साहिब	-11.4148
▁सैशन	-11.4148
▁Gulf	-11.4148
▁NGO	-11.4148
▁Sunil	-11.4148
▁SÉÉÉÊcA	-11.4148
▁alert	-11.4148
▁parents	-11.4148
▁partition	-11.4148
▁wherever	-11.4148
▁फूड	-11.4148
▁1951	-11.4148
▁erred	-11.4148
▁stress	-11.4148
▁जटिया	-11.4148
▁Sarna	-11.4148
▁मशीन	-11.4148
▁Haj	-11.4148
▁Mitra	-11.4148
▁Agra	-11.4148
▁Motor	-11.4148
▁Broadcast	-11.4148
▁iron	-11.4148
▁soft	-11.4148
▁फर्नान्डीज़	-11.4148
ाधिकार	-11.4148
▁Tata	-11.4148
▁मीडिया	-11.4148
▁तबाह	-11.4148
▁Based	-11.4148
▁२००७	-11.4148
▁IPC	-11.4149
▁retirement	-11.4149
▁लेखे	-11.4149
▁expose	-11.4149
▁error	-11.4149
▁Seven	-11.4149
▁ताकत	-11.4149
▁खतरे	-11.4149
▁बुलाऊंगा	-11.4149
▁तुंत	-11.4149
▁Raipur	-11.4149
▁Rajput	-11.4149
▁rush	-11.4149
CBIND	-11.4149
▁मोदी	-11.415
▁दवाओं	-11.415
▁संबद्ध	-11.415
▁model	-11.415
▁पाएगा	-11.415
▁Raised	-11.415
▁७५	-11.415
▁३३	-11.415
▁Interest	-11.415
▁RESOURCES	-11.415
▁Rasa	-11.415
▁gq	-11.4151
▁2014	-11.4151
▁driven	-11.4151
द्ृ	-11.4151
ING	-11.4152
▁interim	-11.4152
▁बलिया	-11.4152
▁Dalit	-11.4152
▁viable	-11.4152
▁लगाये	-11.4152
▁निधि	-11.4152
▁सेवानिवृत्त	-11.4152
▁जानवर	-11.4152
▁गौरव	-11.4152
▁indian	-11.4153
▁deliberately	-11.4154
▁समझते	-11.4154
▁भाषाओं	-11.4154
▁बेगूसराय	-11.4154
▁Bankura	-11.4154
▁Considering	-11.4155
▁weaker	-11.4155
▁economically	-11.4155
▁Till	-11.4156
▁employed	-11.4156
▁AIDS	-11.4156
▁subsidies	-11.4156
▁इंदौर	-11.4156
▁सम्मानित	-11.4156
▁बुनकरों	-11.4157
▁राज्यपाल	-11.4157
द्द	-11.4157
▁Was	-11.4157
▁रामजी	-11.4158
▁रायपुर	-11.4159
▁exceeding	-11.4159
Fld	-11.4159
चौदहवीं	-11.416
▁योजनाएँ	-11.416
▁ईस्ट	-11.416
▁बताई	-11.416
▁सीमेंट	-11.416
▁equally	-11.416
▁misleading	-11.4161
▁scientists	-11.4161
▁अखबारों	-11.4161
▁gun	-11.4163
▁rid	-11.4163
▁Published	-11.4163
▁सैनिकों	-11.4163
▁male	-11.4163
▁Upon	-11.4164
KMR	-11.4164
▁चंद	-11.4164
▁attended	-11.4165
▁confined	-11.4165
▁tanks	-11.4166
▁शाम	-11.4168
▁वधि	-11.4168
मैन	-11.417
▁admit	-11.417
▁पंचायतों	-11.417
▁indicates	-11.4172
▁चलाना	-11.4172
▁गेट	-11.4173
▁आवश्यकताओं	-11.4174
▁लिखी	-11.4174
▁पर्यटकों	-11.4175
▁व्यापारी	-11.4177
▁TV	-11.4178
▁हआ	-11.4183
▁जेल	-11.4184
▁7.	-11.4186
▁consequences	-11.4187
▁grains	-11.4187
▁देगा	-11.4192
▁cadres	-11.4192
▁kms	-11.4192
▁claimed	-11.4195
▁patients	-11.4198
▁interrupting	-11.4198
▁20,000	-11.4201
▁targeted	-11.4205
▁contents	-11.4208
▁Fourth	-11.4209
▁factors	-11.4216
▁रहेगी	-11.4216
▁षर	-11.422
▁kh	-11.4221
▁fourth	-11.4224
▁consumers	-11.4229
▁mines	-11.4233
▁girls	-11.4234
▁mid	-11.424
▁(14	-11.4244
▁forwarded	-11.4244
▁addressing	-11.4244
▁वर्षो	-11.4247
▁डाक	-11.4249
▁Posts	-11.4249
▁charged	-11.425
▁notified	-11.425
▁सरल	-11.425
▁corrected	-11.4251
डक	-11.4252
▁श्र	-11.4252
▁depends	-11.4255
ोरा	-11.4263
▁values	-11.4265
▁ruled	-11.4284
▁rape	-11.4287
▁cleared	-11.4292
▁(2008	-11.4295
▁san	-11.4308
▁belongs	-11.4312
▁गज	-11.4317
▁AO	-11.4334
▁Mor	-11.4357
ÉÉÉÊ	-11.436
ifying	-11.4364
▁survive	-11.4365
▁संत	-11.4367
सार	-11.4386
▁शिव	-11.4387
▁ca	-11.4396
▁Elections	-11.4417
▁अंतर	-11.4437
▁noticed	-11.4498
fd	-11.4516
▁BÉEà	-11.452
▁presenting	-11.4534
VÉÉ	-11.4562
interruptions	-11.4574
aram	-11.4574
12]	-11.458
kZ	-11.4588
▁sat	-11.4604
▁94	-11.4648
▁माइन	-11.4682
▁61	-11.4685
48	-11.4741
वह	-11.4777
Fd	-11.4837
▁विधि	-11.4869
▁content	-11.4906
▁employee	-11.4919
ought	-11.492
▁माने	-11.4924
with	-11.4945
▁factor	-11.4947
▁reflect	-11.4958
ÉÉàÉ	-11.4959
संशोधन	-11.4961
What	-11.4962
▁neighbour	-11.4966
▁Introduce	-11.4968
▁delete	-11.4968
▁prepare	-11.4969
▁ऐस	-11.4969
▁destroy	-11.4969
▁insist	-11.497
▁सिफारिश	-11.497
2004	-11.497
▁वसूल	-11.4971
▁दौरा	-11.4974
▁बेकार	-11.4974
▁घाट	-11.4974
▁Immediate	-11.4975
▁assess	-11.4979
वासियों	-11.4979
▁Protect	-11.498
▁disinvest	-11.498
▁_________	-11.4981
▁prima	-11.4981
▁liberal	-11.4981
▁Bodo	-11.4981
/2018	-11.4981
а	-11.4981
▁succeed	-11.4981
▁पाठ	-11.4981
▁Sushma	-11.4981
▁caution	-11.4981
▁confront	-11.4981
▁discretion	-11.4981
▁instrument	-11.4981
▁suppress	-11.4981
▁आंध्र	-11.4981
▁फार्म	-11.4981
Insertion	-11.4981
MENT	-11.4981
Performance	-11.4981
dmissible	-11.4981
mendation	-11.4981
script	-11.4981
टि्रक	-11.4981
▁ALVA	-11.4981
▁Agency	-11.4981
▁Airlines	-11.4981
▁Association	-11.4981
▁BALCO	-11.4981
▁COMMISSION	-11.4981
▁Charge	-11.4981
▁Church	-11.4981
▁College	-11.4981
▁Communication	-11.4981
▁Disease	-11.4981
▁Disinvestment	-11.4981
▁Estimates	-11.4981
▁Excellency	-11.4981
▁Extend	-11.4981
▁FkhA	-11.4981
▁Floor	-11.4981
▁GEORGE	-11.4981
▁GOPAL	-11.4981
▁Geete	-11.4981
▁Guwahati	-11.4981
▁Headquarter	-11.4981
▁Increase	-11.4981
▁JAGANNATH	-11.4981
▁Japanese	-11.4981
▁KHUNGGUR	-11.4981
▁KIRTI	-11.4981
▁Kanyakumari	-11.4981
▁Kerosene	-11.4981
▁Kumbh	-11.4981
▁Kutch	-11.4981
▁Like	-11.4981
▁MADHUKAR	-11.4981
▁MARGARET	-11.4981
▁MAVELIKARA	-11.4981
▁Maheshwari	-11.4981
▁Mangalore	-11.4981
▁Minority	-11.4981
▁Mizoram	-11.4981
▁Mohammad	-11.4981
▁Nasik	-11.4981
▁Particularly	-11.4981
▁Provision	-11.4981
▁Quadrilateral	-11.4981
▁Radio	-11.4981
▁Republic	-11.4981
▁SANSUMA	-11.4981
▁SHIV	-11.4981
▁SONIA	-11.4981
▁Swami	-11.4981
▁THANGKABALU	-11.4981
▁TRICHUR	-11.4981
▁Territory	-11.4981
▁Tsunami	-11.4981
▁Varkala	-11.4981
▁advertisement	-11.4981
▁agitation	-11.4981
▁ancient	-11.4981
▁apparent	-11.4981
▁blind	-11.4981
▁circular	-11.4981
▁commence	-11.4981
▁compliance	-11.4981
▁consumption	-11.4981
▁copies	-11.4981
▁deduction	-11.4981
▁delimitation	-11.4981
▁emerge	-11.4981
▁evident	-11.4981
▁explosive	-11.4981
▁gksdj	-11.4981
▁hawkers	-11.4981
▁injury	-11.4981
▁injustice	-11.4981
▁insurgency	-11.4981
▁interference	-11.4981
▁irrelevant	-11.4981
▁irresponsible	-11.4981
▁liberty	-11.4981
▁magnitude	-11.4981
▁memorandum	-11.4981
▁mountain	-11.4981
▁ordinance	-11.4981
▁outcome	-11.4981
▁phenomenon	-11.4981
▁pride	-11.4981
▁primarily	-11.4981
▁proof	-11.4981
▁queries	-11.4981
▁recollect	-11.4981
▁regulatory	-11.4981
▁reiterate	-11.4981
▁sacrifice	-11.4981
▁salaries	-11.4981
▁secret	-11.4981
▁sleep	-11.4981
▁socio	-11.4981
▁space	-11.4981
▁sphere	-11.4981
▁studied	-11.4981
▁uphold	-11.4981
▁valuable	-11.4981
▁vkSj	-11.4981
▁अग्रवाल	-11.4981
▁अध्यादेश	-11.4981
▁अनुच्छेद	-11.4981
▁अनुशंसा	-11.4981
▁अल्मोड़ा	-11.4981
▁अवश्य	-11.4981
▁अविनाश	-11.4981
▁असमर्थ	-11.4981
▁आदमियों	-11.4981
▁आश्रित	-11.4981
▁उत्पीड़न	-11.4981
▁एक्सप्रैस	-11.4981
▁क्रमांक	-11.4981
▁चिमूर	-11.4981
▁ज़ीरो	-11.4981
▁टेबल	-11.4981
▁त्राहि	-11.4981
▁निरसन	-11.4981
▁पुनर्वास	-11.4981
▁पूर्वांचल	-11.4981
▁पॉलिसी	-11.4981
▁प्रखण्ड	-11.4981
▁फ़िरोज़ाबाद	-11.4981
▁बढ़ोत्तरी	-11.4981
▁बोकारो	-11.4981
▁मस्जिद	-11.4981
▁महावीर	-11.4981
▁महीनों	-11.4981
▁मुकदमा	-11.4981
▁मुगलसराय	-11.4981
▁मेहरबानी	-11.4981
▁रवीन्द्र	-11.4981
▁लम्बे	-11.4981
▁लाभान्वित	-11.4981
▁वातावरण	-11.4981
▁वापिस	-11.4981
▁विपरीत	-11.4981
▁विरुद्ध	-11.4981
▁शिक्षण	-11.4981
▁सत्यनारायण	-11.4981
▁समक्ष	-11.4981
▁सर्वसम्मति	-11.4981
▁साजिश	-11.4981
▁सितम्बर	-11.4981
▁स्टील	-11.4981
▁स्वरूप	-11.4981
▁behaving	-11.4981
▁clean	-11.4981
▁menace	-11.4981
▁situated	-11.4981
▁इलाज	-11.4981
▁तकलीफ	-11.4981
▁दयनीय	-11.4981
▁परमीशन	-11.4981
▁भोजन	-11.4981
▁1989	-11.4981
▁Murli	-11.4981
▁Room	-11.4981
▁trees	-11.4981
▁अनुपात	-11.4981
▁अपितु	-11.4981
▁इराक	-11.4981
▁1976	-11.4981
▁Sangh	-11.4981
▁laca	-11.4981
▁milk	-11.4981
▁whereby	-11.4981
▁अंडर	-11.4981
▁घोर	-11.4981
▁चीफ	-11.4981
▁जरिए	-11.4981
▁दिवस	-11.4981
▁बरसात	-11.4981
▁शादी	-11.4981
▁Called	-11.4981
▁लखित	-11.4981
""""""""""""""""	-11.4981
▁2016	-11.4981
▁पश्चात	-11.4981
▁राइट	-11.4981
▁सईद	-11.4981
▁century	-11.4981
▁कीर्ति	-11.4981
▁फोन	-11.4981
▁सस्ती	-11.4981
टिप्पणियों	-11.4982
▁BAC	-11.4982
▁master	-11.4982
▁सलीम	-11.4982
▁abuse	-11.4982
▁Pronouncement	-11.4982
▁́ÉvÉÉxÉ	-11.4982
▁क्षतिग्रस्त	-11.4982
▁extract	-11.4982
▁imposition	-11.4982
▁पर्वतीय	-11.4982
▁व्याख्या	-11.4982
▁promotion	-11.4982
▁आधुनिकीकरण	-11.4982
▁Shortage	-11.4982
▁रोजाना	-11.4982
▁Rajendra	-11.4982
▁Rajkot	-11.4982
▁European	-11.4982
▁श्रद्धालुओं	-11.4982
▁प्राइमरी	-11.4982
▁वर्क	-11.4982
▁स्टेटमैंट	-11.4982
▁àÉÖ	-11.4982
▁story	-11.4982
▁sovereignty	-11.4982
▁dangerous	-11.4983
▁निजीकरण	-11.4983
▁उत्पादकों	-11.4983
▁ÉÊVÉ	-11.4983
▁डाक्टर	-11.4983
▁MATTERS	-11.4983
▁dividend	-11.4983
▁properties	-11.4983
▁पैदावार	-11.4983
▁Interim	-11.4984
▁SOME	-11.4984
▁Formulate	-11.4984
▁constructive	-11.4984
zero	-11.4984
▁ambit	-11.4984
▁संदेश	-11.4984
▁सुपर	-11.4984
▁२४	-11.4984
▁दशक	-11.4984
▁आयोजित	-11.4984
▁omit	-11.4984
▁देखिए	-11.4984
▁quickly	-11.4985
▁छः	-11.4985
▁lose	-11.4985
▁described	-11.4985
True	-11.4986
▁कीमतें	-11.4986
▁Ananth	-11.4986
▁पैरा	-11.4987
▁सम्बन्धित	-11.4987
▁फोर्स	-11.4987
▁आयुक्त	-11.4987
▁एयर	-11.4987
▁RAILWAYS	-11.4987
OF	-11.4987
▁नौजवानों	-11.4988
▁acceptable	-11.4988
▁व्यापारिक	-11.4988
▁आहत	-11.4989
▁न्यूज	-11.4989
▁आदश	-11.4989
▁अहमद	-11.4989
▁2013	-11.4989
▁छोड़कर	-11.4989
▁सेवाएं	-11.4989
▁fine	-11.4989
▁अल्पसंख्यकों	-11.499
▁confirmed	-11.499
भाष	-11.499
▁Prevention	-11.499
▁everyone	-11.499
▁बहुल	-11.499
▁borne	-11.499
▁latest	-11.499
▁payable	-11.4991
▁disclosed	-11.4991
▁incorporated	-11.4991
▁निकालने	-11.4991
▁लाकर	-11.4992
32]	-11.4992
▁खेतों	-11.4992
▁limitation	-11.4993
▁Anil	-11.4993
▁व्यवस्थापन	-11.4994
▁Budgetary	-11.4994
▁Sec	-11.4994
▁रद्द	-11.4995
22]	-11.4995
▁shifting	-11.4996
▁सबके	-11.4996
▁353	-11.4997
▁कबज	-11.4997
ीजिये	-11.4997
▁Oil	-11.4997
pathi	-11.4998
▁समझने	-11.4998
▁आजकल	-11.4999
▁पाती	-11.4999
▁लगाकर	-11.5
▁touched	-11.5
nä	-11.5001
▁riots	-11.5001
▁avoided	-11.5002
▁जानता	-11.5002
▁रोको	-11.5002
▁मानना	-11.5002
▁पदश	-11.5003
▁टेक	-11.5003
▁निर्देशित	-11.5005
▁असव	-11.5005
▁sir	-11.5005
▁सुनकर	-11.5006
▁separately	-11.5006
▁स्कूलों	-11.5006
ससह	-11.5006
pping	-11.5008
dition	-11.5008
▁finally	-11.5009
▁निकाला	-11.501
▁spreading	-11.501
द्व	-11.501
▁Gate	-11.5012
▁(6)	-11.5012
▁इनसे	-11.5012
▁Fourteenth	-11.5015
▁strengthened	-11.5015
▁repeating	-11.5016
▁10,000	-11.5018
▁conveyed	-11.502
▁Jam	-11.5023
▁एवम	-11.5023
▁Nil	-11.5023
▁adequately	-11.5024
▁नधा	-11.5024
▁तीय	-11.5025
ेगी	-11.5027
▁explained	-11.5028
▁Rate	-11.503
▁fares	-11.5031
▁lies	-11.5031
▁approached	-11.5032
▁जनपदों	-11.5035
▁unions	-11.5039
▁MP	-11.5041
istic	-11.5045
▁जरा	-11.5061
▁experts	-11.5064
▁delayed	-11.5065
▁trained	-11.5065
▁92	-11.5069
▁बहु	-11.5075
▁differences	-11.5098
▁Constitutional	-11.5098
▁बढ़ी	-11.5101
▁responded	-11.5104
Va	-11.5105
▁कायम	-11.5107
▁लोकल	-11.5112
▁departmental	-11.5114
▁marks	-11.5114
▁Panchayats	-11.5121
▁religions	-11.5138
▁शत	-11.5145
ब्र	-11.5149
▁die	-11.5151
▁862	-11.5172
▁घटन	-11.5204
▁subjected	-11.5225
युक्त	-11.5236
▁_______	-11.5239
àÉÉÒ	-11.5273
▁निपटा	-11.5306
▁बतल	-11.5341
▁बालक	-11.5346
▁VI	-11.5347
not	-11.5392
▁कहे	-11.5401
▁२९	-11.5425
सिं	-11.5544
५०	-11.5544
▁______________	-11.5546
▁सरक	-11.556
▁तेज	-11.5588
▁à	-11.5609
ात्मक	-11.5619
▁97	-11.5637
टेक	-11.5708
▁author	-11.5762
▁करवाये	-11.5763
▁प्रत	-11.5763
▁reserve	-11.5814
▁pilgrim	-11.5827
▁reform	-11.5827
▁mill	-11.5827
▁medicine	-11.5827
▁version	-11.5828
▁Pass	-11.5863
▁kill	-11.5865
contd	-11.5869
Annex	-11.5869
घाट	-11.5869
Copy	-11.587
वैशाली	-11.587
कृष्ण	-11.587
मोहन	-11.587
भाग	-11.5872
▁borrow	-11.5875
▁shift	-11.5875
▁mislead	-11.5875
▁enact	-11.5877
▁argue	-11.5877
▁guarantee	-11.5877
▁pursue	-11.5877
▁inquire	-11.5877
▁contribute	-11.5877
▁utilise	-11.5877
▁neglect	-11.5878
▁reject	-11.5878
▁बुनकर	-11.5881
▁Thirteen	-11.5884
▁physical	-11.5884
▁पार्ट	-11.5884
▁deliberate	-11.5884
▁DEV	-11.5887
▁commit	-11.5888
é	-11.5889
▁success	-11.5889
▁consist	-11.5889
▁रिजर्व	-11.589
▁प्रतनधि	-11.589
▁आधुनिक	-11.589
▁CHAND	-11.589
▁KHAN	-11.589
▁बंगला	-11.589
▁Broad	-11.589
▁ब्राड	-11.589
▁consequent	-11.5891
▁KYNDIAH	-11.5891
▁NARAYANASAMY	-11.5891
▁Observation	-11.5891
▁corner	-11.5891
▁expeditious	-11.5891
▁famous	-11.5891
▁panchayat	-11.5891
▁stringent	-11.5891
▁utter	-11.5891
▁ÉÊBÉEoÉÉxÉ	-11.5891
▁ãÉÉJÉ	-11.5891
▁उपेक्षा	-11.5891
▁गिरफ्तार	-11.5891
▁तीर्थ	-11.5891
▁पपपपपप	-11.5891
▁पुन्नू	-11.5891
▁युद्ध	-11.5891
Fifty	-11.5891
elecommunication	-11.5891
ÉcÖiÉ	-11.5891
›	-11.5891
▁AJIT	-11.5891
▁Annexure	-11.5891
▁Asansol	-11.5891
▁BIFR	-11.5891
▁BIJOY	-11.5891
▁Bikaner	-11.5891
▁Bilaspur	-11.5891
▁BÉEÉaÉÇ	-11.5891
▁CIVIL	-11.5891
▁COMMERCE	-11.5891
▁CUTTACK	-11.5891
▁Chinese	-11.5891
▁Coimbatore	-11.5891
▁Customs	-11.5891
▁Disapproval	-11.5891
▁Electrification	-11.5891
▁Engineer	-11.5891
▁Exchange	-11.5891
▁Executive	-11.5891
▁FRANCIS	-11.5891
▁Front	-11.5891
▁GUPTA	-11.5891
▁Hannan	-11.5891
▁ITDP	-11.5891
▁Integrated	-11.5891
▁Jaunpur	-11.5891
▁Judiciary	-11.5891
▁Katihar	-11.5891
▁Khaire	-11.5891
▁Kharabela	-11.5891
▁Kishore	-11.5891
▁MAYILADUTURAI	-11.5891
▁MURTHI	-11.5891
▁Marketing	-11.5891
▁Minutes	-11.5891
▁Mirzapur	-11.5891
▁Moradabad	-11.5891
▁NAVEEN	-11.5891
▁NSFDC	-11.5891
▁Nanavati	-11.5891
▁Nitish	-11.5891
▁Nuclear	-11.5891
▁Package	-11.5891
▁Palanpur	-11.5891
▁Prabodh	-11.5891
▁Presiding	-11.5891
▁Probably	-11.5891
▁RAJIV	-11.5891
▁RAMADASS	-11.5891
▁RENUKA	-11.5891
▁Rajdhani	-11.5891
▁Refinery	-11.5891
▁Relating	-11.5891
▁SUBBARAMI	-11.5891
▁Secretariat	-11.5891
▁Select	-11.5891
▁Societies	-11.5891
▁Surendra	-11.5891
▁TRANSPORT	-11.5891
▁Tehelka	-11.5891
▁Trichy	-11.5891
▁Tripathy	-11.5891
▁VILAS	-11.5891
▁Valley	-11.5891
▁Virudhunagar	-11.5891
▁anniversary	-11.5891
▁appellate	-11.5891
▁applied	-11.5891
▁approximately	-11.5891
▁blockade	-11.5891
▁carbon	-11.5891
▁casual	-11.5891
▁categories	-11.5891
▁changing	-11.5891
▁collapse	-11.5891
▁combination	-11.5891
▁complainant	-11.5891
▁composite	-11.5891
▁comprising	-11.5891
▁compromise	-11.5891
▁conflict	-11.5891
▁convenience	-11.5891
▁cultural	-11.5891
▁degree	-11.5891
▁havoc	-11.5891
▁heritage	-11.5891
▁iqfyl	-11.5891
▁lafLFkr	-11.5891
▁lease	-11.5891
▁mainstream	-11.5891
▁negotiations	-11.5891
▁outbreak	-11.5891
▁parameter	-11.5891
▁participation	-11.5891
▁perspective	-11.5891
▁possibility	-11.5891
▁prayer	-11.5891
▁preliminary	-11.5891
▁query	-11.5891
▁root	-11.5891
▁segment	-11.5891
▁silent	-11.5891
▁societies	-11.5891
▁statutory	-11.5891
▁stipulated	-11.5891
▁summon	-11.5891
▁surplus	-11.5891
▁twice	-11.5891
▁unorganized	-11.5891
▁vacant	-11.5891
▁variety	-11.5891
▁àÉÉxÉxÉÉÒaÉ	-11.5891
▁ãÉäÉÊBÉExÉ	-11.5891
▁अटैंशन	-11.5891
▁अधिग्रहण	-11.5891
▁अधिसूचना	-11.5891
▁अनुकूल	-11.5891
▁अपेक्षित	-11.5891
▁अमेंडमेंट	-11.5891
▁असंतोष	-11.5891
▁आखिर	-11.5891
▁आधिकारिक	-11.5891
▁आलोक	-11.5891
▁इन्दौर	-11.5891
▁उत्थान	-11.5891
▁उल्लिखित	-11.5891
▁एजेंसी	-11.5891
▁कतिपय	-11.5891
▁क्रासिंग	-11.5891
▁खिलवाड़	-11.5891
▁गेहलोत	-11.5891
▁घाघरा	-11.5891
▁चंद्रकांत	-11.5891
▁चतुर्भुज	-11.5891
▁चम्पारण	-11.5891
▁चाहूंगी	-11.5891
▁चुनौती	-11.5891
▁जिलाधिकारी	-11.5891
▁ज्ञापन	-11.5891
▁तमिलनाडु	-11.5891
▁तीर्थस्थल	-11.5891
▁तीव्र	-11.5891
▁थावरचन्द	-11.5891
▁दासगुप्त	-11.5891
▁दुरुपयोग	-11.5891
▁नरेन्द्र	-11.5891
▁नर्मदा	-11.5891
▁नवम्बर	-11.5891
▁नीतियाँ	-11.5891
▁पाटिल	-11.5891
▁पुष्कर	-11.5891
▁प्रहलाद	-11.5891
▁फाटक	-11.5891
▁बनासकांठा	-11.5891
▁बालाघाट	-11.5891
▁बाल्मीकि	-11.5891
▁ब्लाक	-11.5891
▁भारतवर्ष	-11.5891
▁भेदभाव	-11.5891
▁महराजगंज	-11.5891
▁महामहिम	-11.5891
▁मामूली	-11.5891
▁मेडिकल	-11.5891
▁राजेन्द्र	-11.5891
▁रिलीफ	-11.5891
▁रिसर्च	-11.5891
▁रेडियो	-11.5891
▁विशेषज्ञों	-11.5891
▁व्यावसायिक	-11.5891
▁शताब्दी	-11.5891
▁शाजापुर	-11.5891
▁शुद्ध	-11.5891
▁संतुलित	-11.5891
▁संशोधित	-11.5891
▁सजीवन	-11.5891
▁सम्पत्ति	-11.5891
▁सिन्हा	-11.5891
▁सैक्टर	-11.5891
▁सैक्रेटरी	-11.5891
▁सोमैया	-11.5891
▁हरदोई	-11.5891
▁हालांकि	-11.5891
▁हिंसा	-11.5891
▁Goyal	-11.5891
▁Mishra	-11.5891
▁booth	-11.5891
▁compensate	-11.5891
▁contractual	-11.5891
▁disabled	-11.5891
▁hurt	-11.5891
▁shelter	-11.5891
▁terminal	-11.5891
▁urea	-11.5891
▁जवाहर	-11.5891
▁धीरे	-11.5891
▁बरबाद	-11.5891
▁मालिकों	-11.5891
▁राजभर	-11.5891
▁स्थाई	-11.5891
▁Gopal	-11.5891
▁Housing	-11.5891
▁Islam	-11.5891
▁Patta	-11.5891
▁Sugar	-11.5891
▁concede	-11.5891
▁अतएव	-11.5891
▁जनवरी	-11.5891
▁तरीका	-11.5891
▁पंडित	-11.5891
▁1987	-11.5891
▁Panel	-11.5891
▁Ward	-11.5891
▁augment	-11.5891
▁guidelines	-11.5891
▁textile	-11.5891
▁verify	-11.5891
▁सरोज	-11.5891
▁1963	-11.5891
▁1971	-11.5891
▁AMAR	-11.5891
▁Term	-11.5891
▁पम्प	-11.5891
▁व्यास	-11.5891
ÉvaÉFÉ	-11.5891
▁(2007	-11.5891
▁appr	-11.5891
▁Near	-11.5891
▁शुरूआत	-11.5891
▁KARUNAKARAN	-11.5891
▁edible	-11.5891
▁tolerate	-11.5891
▁उपचार	-11.5891
▁Coming	-11.5891
▁ALI	-11.5891
▁जाधव	-11.5891
▁Ahir	-11.5891
▁TRAI	-11.5891
▁Cut	-11.5891
▁बंगलादेश	-11.5891
▁cultivators	-11.5891
▁किरीट	-11.5891
▁कगार	-11.5891
▁सचिव	-11.5891
▁praise	-11.5891
▁Joshi	-11.5891
▁गोपालगंज	-11.5891
▁loot	-11.5891
▁distinction	-11.5891
▁श्याम	-11.5891
▁indeed	-11.5891
▁एडजर्नमेंट	-11.5891
▁Bharatiya	-11.5891
▁iÉBÉE	-11.5892
▁committing	-11.5892
▁Classes	-11.5892
▁०६	-11.5892
▁प्राइस	-11.5892
▁globalisation	-11.5892
▁पूछिए	-11.5892
▁cater	-11.5892
▁endorse	-11.5892
▁commentary	-11.5892
▁रिक्त	-11.5892
▁आरक्षित	-11.5892
▁सलाह	-11.5892
▁चाहेंगे	-11.5892
▁३६	-11.5892
▁cash	-11.5892
▁often	-11.5892
▁सुनवाई	-11.5893
▁Drought	-11.5893
▁Kota	-11.5893
▁Laluji	-11.5893
▁संपूर्ण	-11.5894
▁महाले	-11.5894
▁GENERAL	-11.5894
▁MIDNAPORE	-11.5894
▁उतनी	-11.5894
▁२००	-11.5894
▁1949	-11.5894
▁करवाया	-11.5894
▁sta	-11.5894
▁दिखाया	-11.5894
▁strictly	-11.5895
▁दिलाया	-11.5895
▁subsidised	-11.5895
▁guided	-11.5895
▁पालनपुर	-11.5896
▁subsequently	-11.5896
▁size	-11.5896
▁टेस्ट	-11.5896
▁५१	-11.5896
▁मुसलमानों	-11.5897
▁हटाने	-11.5897
▁fallen	-11.5897
▁voluntary	-11.5898
▁गुजरने	-11.5898
▁अपीलीय	-11.5898
▁Gond	-11.5898
▁डदन	-11.5898
▁nÉä	-11.5898
▁करानी	-11.5899
▁सफलता	-11.5899
▁जोड़कर	-11.5899
▁सुख	-11.5899
▁आसानी	-11.59
▁Anna	-11.5901
▁teaching	-11.5902
▁bothered	-11.5902
▁नक्सलवाद	-11.5902
▁substantially	-11.5903
▁उठाते	-11.5903
▁enacted	-11.5903
▁ideal	-11.5904
▁fate	-11.5904
▁न्यायिक	-11.5905
▁तर्ज	-11.5905
▁powerful	-11.5905
▁Undertakings	-11.5906
▁Amar	-11.5906
▁चाय	-11.5907
▁पाते	-11.5907
▁लाई	-11.5907
▁भेजने	-11.591
▁formulated	-11.591
▁formula	-11.591
▁witnessing	-11.5911
▁offered	-11.5911
▁advised	-11.5912
▁elements	-11.5912
▁implications	-11.5912
▁foundation	-11.5913
▁empowered	-11.5913
▁मिलाकर	-11.5914
▁badly	-11.5915
▁झेल	-11.5915
▁features	-11.5919
▁बीना	-11.5919
▁tabled	-11.5919
▁invent	-11.5921
▁मझ	-11.5923
▁regulations	-11.5925
▁मील	-11.5925
▁बनकर	-11.5925
▁turned	-11.5925
▁वपत	-11.5927
▁विपक्षी	-11.5927
▁briefly	-11.5928
▁मपन	-11.593
▁components	-11.5931
▁involves	-11.5931
▁कश्मीरी	-11.5933
▁honoured	-11.5933
▁कहकर	-11.5935
▁चाह	-11.5935
▁हरित	-11.5936
▁बढ़ता	-11.5936
▁flights	-11.5937
▁adding	-11.5942
▁घरों	-11.5944
▁दकय	-11.5944
,200	-11.5945
▁राशिद	-11.5946
ख्यात	-11.5947
▁जिसने	-11.5947
▁JM	-11.5949
▁reaching	-11.5952
▁DG	-11.5952
▁farm	-11.5954
▁Within	-11.5955
▁नगरी	-11.5957
▁Working	-11.5961
▁City	-11.5962
▁appreciated	-11.5963
▁zones	-11.5969
▁एक्शन	-11.5969
▁कड़ी	-11.5971
▁बैठने	-11.5976
▁seeds	-11.5976
oÉàÉå	-11.5982
वासी	-11.599
▁15,000	-11.5994
▁eyes	-11.6
▁amending	-11.6025
▁Dated	-11.603
▁art	-11.6031
▁वनों	-11.6033
▁projected	-11.6035
▁350	-11.6037
▁Trains	-11.6049
▁वाक्य	-11.6065
▁ीय	-11.6074
amb	-11.6078
▁gains	-11.6081
13]	-11.609
rial	-11.6091
ॉट	-11.6092
▁सिख	-11.6128
▁ãÉÉ	-11.6137
वारा	-11.6138
▁भरे	-11.6142
14	-11.6166
रायगढ़	-11.6235
सिटी	-11.628
FB	-11.6315
▁practical	-11.6341
स्था	-11.6453
अन	-11.6466
अभभ	-11.6485
lani	-11.6497
▁Sena	-11.6537
नुमा	-11.6568
ÉEÉÒ	-11.6665
िकरण	-11.6672
▁रिस	-11.6715
▁justify	-11.6737
▁fulfil	-11.6789
▁detail	-11.6815
▁patient	-11.6826
▁camp	-11.6826
▁fruit	-11.6827
▁restriction	-11.6827
▁merit	-11.6827
▁undertaking	-11.6827
▁Problem	-11.6828
▁union	-11.685
अपीलाथ	-11.6869
गृह	-11.687
One	-11.687
Need	-11.687
MÉÉÊ	-11.6871
माननीय	-11.6871
▁assert	-11.6871
India	-11.6872
This	-11.6874
▁roll	-11.6875
▁Lay	-11.6875
▁manufacture	-11.6877
▁determine	-11.6877
▁reveal	-11.6877
▁obtain	-11.6878
साथ	-11.6879
▁शर्त	-11.688
▁अल्पसंख्यक	-11.688
▁continuous	-11.6884
▁cite	-11.6885
▁RAILWAY	-11.6887
▁govern	-11.6889
▁obstruct	-11.6889
▁impress	-11.6889
▁Nation	-11.6889
▁enforce	-11.6889
▁careful	-11.6889
▁करायें	-11.6889
▁दस्तावेज	-11.689
▁safe	-11.689
▁machine	-11.689
ङ	-11.6891
▁Fifteen	-11.6891
▁abolish	-11.6891
▁शेखपुरा	-11.6891
,1998	-11.6891
ENDRA	-11.6891
GARHWAL	-11.6891
hereinafter	-11.6891
▁AGRICULTURE	-11.6891
▁AJNALA	-11.6891
▁ALLEPPEY	-11.6891
▁Absence	-11.6891
▁Administrative	-11.6891
▁Agarwal	-11.6891
▁Ajoy	-11.6891
▁Ambassador	-11.6891
▁Amreli	-11.6891
▁Attack	-11.6891
▁Aurangabad	-11.6891
▁Benefit	-11.6891
▁BÉEÉxÉÚxÉ	-11.6891
▁Caused	-11.6891
▁Champaran	-11.6891
▁Chowdhary	-11.6891
▁Community	-11.6891
▁Complete	-11.6891
▁Criminal	-11.6891
▁Fatehpur	-11.6891
▁Gowda	-11.6891
▁Growers	-11.6891
▁HARIN	-11.6891
▁HIGHWAYS	-11.6891
▁Hansraj	-11.6891
▁JALAPPA	-11.6891
▁Jabalpur	-11.6891
▁Jalaun	-11.6891
▁Judev	-11.6891
▁Language	-11.6891
▁MANMOHAN	-11.6891
▁MANOJ	-11.6891
▁Meeting	-11.6891
▁Minorities	-11.6891
▁Mollah	-11.6891
▁Narmada	-11.6891
▁Naxal	-11.6891
▁PARANJPE	-11.6891
▁PATHAK	-11.6891
▁PRABHU	-11.6891
▁PRIME	-11.6891
▁Population	-11.6891
▁Processing	-11.6891
▁RATTAN	-11.6891
▁ROAD	-11.6891
▁Raghunath	-11.6891
▁Remunerative	-11.6891
▁Revised	-11.6891
▁Sometimes	-11.6891
▁Suspension	-11.6891
▁Swaraj	-11.6891
▁Terrorist	-11.6891
▁Tomorrow	-11.6891
▁Trivandrum	-11.6891
▁Undertake	-11.6891
▁VISAKHAPATNAM	-11.6891
▁Which	-11.6891
▁Would	-11.6891
▁Yamuna	-11.6891
▁acknowledg	-11.6891
▁assigned	-11.6891
▁associating	-11.6891
▁auction	-11.6891
▁audit	-11.6891
▁averred	-11.6891
▁background	-11.6891
▁belief	-11.6891
▁cattle	-11.6891
▁chamber	-11.6891
▁cheaper	-11.6891
▁choose	-11.6891
▁climate	-11.6891
▁cloth	-11.6891
▁commencing	-11.6891
▁contact	-11.6891
▁contended	-11.6891
▁corporation	-11.6891
▁cotton	-11.6891
▁cruel	-11.6891
▁cÚÆ	-11.6891
▁defray	-11.6891
▁deliberation	-11.6891
▁disallowed	-11.6891
▁dynamic	-11.6891
▁ensuring	-11.6891
▁entrusted	-11.6891
▁evaluation	-11.6891
▁facie	-11.6891
▁ftyk	-11.6891
▁hijack	-11.6891
▁hunger	-11.6891
▁independence	-11.6891
▁indulgence	-11.6891
▁inflicted	-11.6891
▁injuries	-11.6891
▁intelligence	-11.6891
▁iÉlÉÉ	-11.6891
▁launched	-11.6891
▁logic	-11.6891
▁modification	-11.6891
▁occupy	-11.6891
▁okafNr	-11.6891
▁ordinary	-11.6891
▁participating	-11.6891
▁pathetic	-11.6891
▁plenty	-11.6891
▁preparation	-11.6891
▁purview	-11.6891
▁rajya	-11.6891
▁remedy	-11.6891
▁residing	-11.6891
▁retarded	-11.6891
▁shoot	-11.6891
▁sponsored	-11.6891
▁thrust	-11.6891
▁twenty	-11.6891
▁upgradation	-11.6891
▁venture	-11.6891
▁violating	-11.6891
▁virtue	-11.6891
▁vuqlkj	-11.6891
▁worry	-11.6891
▁अय्यर	-11.6891
▁अलीगढ़	-11.6891
▁अस्तित्व	-11.6891
▁आयोजन	-11.6891
▁इंश्योरेंस	-11.6891
▁इलियास	-11.6891
▁उन्हीं	-11.6891
▁उल्लंघन	-11.6891
▁ऊंची	-11.6891
▁एग्रीकल्चर	-11.6891
▁ऑन	-11.6891
▁कच्चे	-11.6891
▁कटियार	-11.6891
▁कठोर	-11.6891
▁कृषक	-11.6891
▁खारबेल	-11.6891
▁गढ़वाल	-11.6891
▁गतवधियों	-11.6891
▁चंडीगढ़	-11.6891
▁चटर्जी	-11.6891
▁चुरू	-11.6891
▁डायरेक्ट	-11.6891
▁तटबंध	-11.6891
▁तादाद	-11.6891
▁ताल्लुक	-11.6891
▁दर्शाता	-11.6891
▁दामोदर	-11.6891
▁दूरसंचार	-11.6891
▁नधपनत	-11.6891
▁नश्िचत	-11.6891
▁निजात	-11.6891
▁निर्दोष	-11.6891
▁निष्कर्ष	-11.6891
▁नौकरियों	-11.6891
▁पचास	-11.6891
▁पपपप	-11.6891
▁परामर्श	-11.6891
▁पूर्ति	-11.6891
▁बढ़ोतरी	-11.6891
▁बिजनेस	-11.6891
▁बिश्नोई	-11.6891
▁बीपीएल	-11.6891
▁भुखमरी	-11.6891
▁भुवन	-11.6891
▁मनमाड	-11.6891
▁मलियन	-11.6891
▁मार्केटिंग	-11.6891
▁मालेगांव	-11.6891
▁मिनिमम	-11.6891
▁मिर्जापुर	-11.6891
▁मुंगेर	-11.6891
▁यशवंत	-11.6891
▁रणनीति	-11.6891
▁रिक्वैस्ट	-11.6891
▁लम्बी	-11.6891
▁विकलांग	-11.6891
▁विकल्प	-11.6891
▁विधायक	-11.6891
▁व्यवस्थित	-11.6891
▁शिलान्यास	-11.6891
▁शिवनकर	-11.6891
▁संपर्क	-11.6891
▁सत्यव्रत	-11.6891
▁समुद्र	-11.6891
▁सर्वोच्च	-11.6891
▁सांस्कृतिक	-11.6891
▁सूचित	-11.6891
▁सैंकड़ों	-11.6891
▁सोमवार	-11.6891
▁स्वच्छ	-11.6891
▁हथकरघा	-11.6891
▁हथियार	-11.6891
▁हरिद्वार	-11.6891
▁हार्दिक	-11.6891
ы	-11.6891
च्ची	-11.6891
▁Baalu	-11.6891
▁Bareill	-11.6891
▁Mother	-11.6891
▁abundant	-11.6891
▁coalition	-11.6891
▁entities	-11.6891
▁evict	-11.6891
▁mixed	-11.6891
▁restrain	-11.6891
▁आरंभ	-11.6891
▁एकमात्र	-11.6891
▁एशिया	-11.6891
▁धमकी	-11.6891
▁पद्धति	-11.6891
▁मैडम	-11.6891
▁यािपत	-11.6891
▁विफल	-11.6891
▁विसंगति	-11.6891
▁शौचालय	-11.6891
▁सुविधायें	-11.6891
ाधीन	-11.6891
▁Kurup	-11.6891
▁Task	-11.6891
▁harm	-11.6891
▁oÉBÉEiÉÉ	-11.6891
▁एतराज	-11.6891
▁फाईल	-11.6891
▁महतो	-11.6891
▁रियासत	-11.6891
▁शाखा	-11.6891
▁सब्जी	-11.6891
▁Sorry	-11.6891
▁sick	-11.6891
▁tenure	-11.6891
▁अन्यथा	-11.6891
▁जीविका	-11.6891
▁Killing	-11.6891
▁Lpg	-11.6891
▁warning	-11.6891
▁1952	-11.6891
▁Link	-11.6891
▁stake	-11.6891
▁तलाश	-11.6891
▁बस्ती	-11.6891
▁सस्ते	-11.6891
DEP	-11.6891
▁Ninth	-11.6891
▁अतधक	-11.6891
▁अनधवक	-11.6891
▁नदियां	-11.6891
▁fees	-11.6891
▁Old	-11.6891
▁install	-11.6891
▁कपास	-11.6891
▁सरसों	-11.6891
▁Ruling	-11.6891
▁feed	-11.6891
▁मेजर	-11.6891
▁Computerised	-11.6891
▁visual	-11.6891
खगड़िया	-11.6891
▁Mines	-11.6891
▁एग्रीमेंट	-11.6891
▁supplementary	-11.6891
▁Bhawan	-11.6891
▁ongoing	-11.6891
▁dropped	-11.6891
▁anger	-11.6891
▁cancer	-11.6891
▁लैटर	-11.6891
▁darkness	-11.6891
▁स्वर्णिम	-11.6891
▁agro	-11.6891
्ृा	-11.6891
▁प्रतिभा	-11.6891
▁upset	-11.6891
▁sound	-11.6891
▁normalcy	-11.6891
▁finger	-11.6891
▁Hari	-11.6891
▁बताएंगे	-11.6891
▁selection	-11.6892
▁JHA	-11.6892
▁fought	-11.6892
▁interact	-11.6892
▁jail	-11.6892
▁inputs	-11.6892
▁convene	-11.6892
▁शान्त	-11.6892
▁बैंच	-11.6892
▁चोरी	-11.6892
▁Lord	-11.6892
▁forged	-11.6893
▁recognized	-11.6893
▁०२	-11.6893
▁माफिया	-11.6893
▁पोस्ट	-11.6893
▁Share	-11.6893
▁सुनूंगा	-11.6893
▁विहार	-11.6893
▁plaint	-11.6893
▁Vice	-11.6893
▁VIP	-11.6893
▁दुर्घटनाएं	-11.6894
▁सुनिये	-11.6894
▁पुराना	-11.6894
▁porters	-11.6894
▁बीड़ी	-11.6894
▁Anant	-11.6894
▁oÉBÉEä	-11.6894
▁तत्कालीन	-11.6894
▁गुजरती	-11.6894
▁agriculturists	-11.6894
▁Barq	-11.6894
▁busy	-11.6894
▁rally	-11.6895
▁राजगढ़	-11.6895
▁mentally	-11.6895
ष्ट्र	-11.6895
▁दावा	-11.6895
▁सरदार	-11.6895
▁esteemed	-11.6895
▁प्रशासनिक	-11.6895
▁recognised	-11.6896
▁violated	-11.6896
▁levelled	-11.6896
▁Been	-11.6896
▁obviously	-11.6896
▁successfully	-11.6896
▁1954	-11.6896
▁मचा	-11.6896
▁adversely	-11.6896
▁earnestly	-11.6896
▁restricted	-11.6897
▁dry	-11.6897
▁Maybe	-11.6897
▁educated	-11.6897
▁refused	-11.6897
▁फुट	-11.6897
▁पिछड़ी	-11.6897
▁सुविधाएँ	-11.6897
▁शर्मा	-11.6897
▁मेले	-11.6898
▁प्रतिस्थापित	-11.6898
▁delivery	-11.6898
▁बनेगा	-11.6898
▁transportation	-11.6898
▁communicated	-11.6898
▁hail	-11.6899
▁परियोजनाएं	-11.6899
▁shri	-11.69
▁grown	-11.69
▁Chairmen	-11.69
lidation	-11.69
▁thrown	-11.6901
nyway	-11.6901
▁लेबर	-11.6901
वादी	-11.6901
▁उठकर	-11.6902
24]	-11.6902
▁ignored	-11.6903
▁Rani	-11.6903
▁समानता	-11.6903
19]	-11.6903
ैया	-11.6903
▁unanimously	-11.6903
▁MSP	-11.6904
▁Laying	-11.6906
▁reserved	-11.6907
▁regularly	-11.6907
▁Deve	-11.6907
10]	-11.6907
▁gate	-11.6907
▁rare	-11.6908
▁गौर	-11.6908
▁Cola	-11.6908
▁Profit	-11.6908
▁pharmaceuticals	-11.6908
जमम	-11.6908
▁ट्रेनें	-11.6909
▁rent	-11.6909
▁वचन	-11.691
▁उपजस	-11.691
▁bid	-11.691
▁भवनों	-11.691
▁resolved	-11.6911
TMS	-11.6912
▁देखना	-11.6913
▁invited	-11.6913
▁खेलों	-11.6913
▁खरीदने	-11.6914
▁धकरण	-11.6914
▁lesser	-11.6914
▁contd	-11.6915
▁refugees	-11.6915
▁इंड	-11.6915
▁connecting	-11.6916
▁सकेगी	-11.6916
▁cry	-11.6917
कर्ता	-11.6917
▁अवस्थित	-11.6917
ल्व	-11.6918
▁ABÉD	-11.6918
23]	-11.6918
▁चरणों	-11.692
▁(7)	-11.692
▁मानता	-11.692
▁someone	-11.6921
àÉä	-11.6921
▁कहती	-11.6921
▁sincere	-11.6922
▁भूल	-11.6922
▁Asia	-11.6924
▁बताने	-11.6925
▁रकम	-11.6925
▁Dum	-11.6925
▁मिलाने	-11.6925
▁मिलते	-11.6931
▁pressing	-11.6931
▁finished	-11.6932
▁entering	-11.6932
▁advanced	-11.6933
▁घटी	-11.6937
▁कृत	-11.6941
▁nh	-11.6943
▁अवल	-11.6946
▁reaction	-11.6949
▁चलना	-11.695
▁covering	-11.695
▁joined	-11.6952
▁condemning	-11.6954
▁VÉÉiÉÉ	-11.6957
▁लड़ा	-11.6958
▁checked	-11.6959
▁correctly	-11.6961
▁presentation	-11.6969
▁visiting	-11.697
▁अख	-11.6972
▁प्राप्ति	-11.6973
▁साथियों	-11.6979
▁ननक	-11.6983
▁bother	-11.6984
▁लेता	-11.699
▁मांगें	-11.6992
▁अनस	-11.7018
▁́ÉxÉ	-11.702
▁540	-11.7021
डिया	-11.7031
▁वाई	-11.7031
WL	-11.7045
▁cow	-11.7054
▁पति	-11.7066
▁800	-11.7082
PAN	-11.7107
▁१५०	-11.711
ोरी	-11.7142
You	-11.7163
▁Sen	-11.7179
11]	-11.7182
ÉÉVÉ	-11.7184
▁xÉBÉEÉ	-11.7204
▁सां	-11.7206
▁अन्तर	-11.7213
▁७०	-11.7221
▁Mahal	-11.7229
ैव	-11.7261
▁टू	-11.7273
▁plane	-11.7283
ेटिव	-11.7304
▁BaÉ	-11.7306
PO	-11.7379
▁386	-11.7392
▁5000	-11.7415
यथ	-11.745
/04)	-11.7463
600	-11.7466
कारा	-11.747
(3)(	-11.7522
▁1100	-11.7552
BÉEÉä	-11.7659
Nag	-11.7699
Ú	-11.7751
ज्ज	-11.7828
▁बनाएं	-11.7847
▁बसा	-11.7881
▁प्रवास	-11.7905
▁van	-11.7911
▁relate	-11.7925
▁cadre	-11.7937
▁victim	-11.7938
▁tribe	-11.7939
▁tonne	-11.7939
place	-11.7946
ÉoÉÆ	-11.795
Accountant	-11.7957
▁km	-11.7972
▁count	-11.7975
Published	-11.798
Contd	-11.798
देवरिया	-11.7981
लैंड	-11.7981
राष्ट्रीय	-11.7981
▁exceed	-11.7986
▁shout	-11.7987
▁नक्सल	-11.7987
▁ignore	-11.7988
▁disclose	-11.7988
▁incorporate	-11.7988
▁engage	-11.7989
▁register	-11.7989
▁dispose	-11.799
▁drive	-11.7991
▁calculat	-11.7991
▁आसान	-11.7992
▁द्वार	-11.7992
▁realise	-11.7992
▁adverse	-11.7995
▁schedule	-11.7995
▁subsequent	-11.7995
▁sudden	-11.7995
▁undertake	-11.7997
▁मुझ	-11.7999
▁earnest	-11.7999
▁भंडार	-11.8
▁arrange	-11.8
▁वस्तु	-11.8
▁moral	-11.8001
/2021	-11.8001
ocument	-11.8001
▁hazard	-11.8001
▁confer	-11.8001
▁memo	-11.8001
▁टिप्प	-11.8001
▁patron	-11.8002
RAIL	-11.8002
▁PREM	-11.8002
▁Tehsil	-11.8002
▁defeat	-11.8002
▁emphasize	-11.8002
▁pilot	-11.8002
▁repay	-11.8002
▁wheel	-11.8002
▁अविलंब	-11.8002
▁कुमाऊं	-11.8002
▁क्लास	-11.8002
▁प्रयोजन	-11.8002
▁वृक्ष	-11.8002
▁स्वर्ण	-11.8002
Concluded	-11.8002
responsibilities	-11.8002
▁AIADMK	-11.8002
▁Acute	-11.8002
▁Amarnath	-11.8002
▁Arjun	-11.8002
▁BANGALORE	-11.8002
▁BANGARAPPA	-11.8002
▁BEFORE	-11.8002
▁BERHAMPORE	-11.8002
▁BSNL	-11.8002
▁Bhubaneshwar	-11.8002
▁Branch	-11.8002
▁BÉÖE	-11.8002
▁Century	-11.8002
▁Chattisgarh	-11.8002
▁Chouhan	-11.8002
▁Churu	-11.8002
▁Circuit	-11.8002
▁Closure	-11.8002
▁Coalfields	-11.8002
▁Contained	-11.8002
▁DASMUNSHI	-11.8002
▁DHANANJAYA	-11.8002
▁DURGAPUR	-11.8002
▁DUSHYANT	-11.8002
▁Deposit	-11.8002
▁Effective	-11.8002
▁Either	-11.8002
▁Encephalitis	-11.8002
▁Everyday	-11.8002
▁Field	-11.8002
▁Fifth	-11.8002
▁Fundamental	-11.8002
▁Girdhari	-11.8002
▁HIV	-11.8002
▁INDUSTRY	-11.8002
▁Intelligence	-11.8002
▁Investment	-11.8002
▁Jadhav	-11.8002
▁Jagannath	-11.8002
▁Jalpaiguri	-11.8002
▁Jhansi	-11.8002
▁Judgment	-11.8002
▁Kannur	-11.8002
▁Kolhapur	-11.8002
▁Kyoto	-11.8002
▁MIRYALGUDA	-11.8002
▁MPLAD	-11.8002
▁Madhusudan	-11.8002
▁Mahurkar	-11.8002
▁Malaria	-11.8002
▁Manamadurai	-11.8002
▁Mineral	-11.8002
▁Narendra	-11.8002
▁Next	-11.8002
▁Number	-11.8002
▁Ownership	-11.8002
▁PASWAN	-11.8002
▁PETITION	-11.8002
▁PRATAP	-11.8002
▁Prabhu	-11.8002
▁Proposed	-11.8002
▁Protocol	-11.8002
▁RUDY	-11.8002
▁Rifles	-11.8002
▁SABHA	-11.8002
▁SCIENCE	-11.8002
▁SENGUPTA	-11.8002
▁SWAMY	-11.8002
▁Saheb	-11.8002
▁Sainik	-11.8002
▁Santosh	-11.8002
▁Sardar	-11.8002
▁Shourie	-11.8002
▁Summit	-11.8002
▁TIRUNELVELI	-11.8002
▁Ultimately	-11.8002
▁VENKATESWARLU	-11.8002
▁Varanasi	-11.8002
▁Vishwa	-11.8002
▁Written	-11.8002
▁academic	-11.8002
▁acute	-11.8002
▁alarming	-11.8002
▁apologise	-11.8002
▁articulate	-11.8002
▁assumption	-11.8002
▁backlog	-11.8002
▁baseless	-11.8002
▁beautiful	-11.8002
▁chemical	-11.8002
▁compulsion	-11.8002
▁conscience	-11.8002
▁constituencies	-11.8002
▁conviction	-11.8002
▁convince	-11.8002
▁cricket	-11.8002
▁criticize	-11.8002
▁custody	-11.8002
▁derogatory	-11.8002
▁destination	-11.8002
▁disciplinary	-11.8002
▁discriminatory	-11.8002
▁driving	-11.8002
▁dumping	-11.8002
▁dwellers	-11.8002
▁efficiency	-11.8002
▁ekax	-11.8002
▁eligible	-11.8002
▁elsewhere	-11.8002
▁emergency	-11.8002
▁enormous	-11.8002
▁episode	-11.8002
▁exemplary	-11.8002
▁experiment	-11.8002
▁extremism	-11.8002
▁fifth	-11.8002
▁footing	-11.8002
▁fraud	-11.8002
▁gather	-11.8002
▁green	-11.8002
▁guillotine	-11.8002
▁husband	-11.8002
▁ideology	-11.8002
▁immense	-11.8002
▁imperative	-11.8002
▁imposing	-11.8002
▁indulging	-11.8002
▁juncture	-11.8002
▁lacuna	-11.8002
▁languishing	-11.8002
▁liabilities	-11.8002
▁litigation	-11.8002
▁mandatory	-11.8002
▁meantime	-11.8002
▁narrate	-11.8002
▁obey	-11.8002
▁obliged	-11.8002
▁operator	-11.8002
▁overcome	-11.8002
▁pattern	-11.8002
▁perishable	-11.8002
▁phrase	-11.8002
▁prayed	-11.8002
▁prestige	-11.8002
▁prosecute	-11.8002
▁psych	-11.8002
▁rainfall	-11.8002
▁relevance	-11.8002
▁requisite	-11.8002
▁restoration	-11.8002
▁satisfy	-11.8002
▁skill	-11.8002
▁southern	-11.8002
▁speculat	-11.8002
▁streamline	-11.8002
▁struck	-11.8002
▁supreme	-11.8002
▁thorough	-11.8002
▁ticket	-11.8002
▁tkjh	-11.8002
▁transparent	-11.8002
▁waiver	-11.8002
▁whoever	-11.8002
▁àÉÆjÉÉÒ	-11.8002
▁अकेले	-11.8002
▁अचानक	-11.8002
▁अड्डे	-11.8002
▁अर्जित	-11.8002
▁अवकाश	-11.8002
▁आर्टिकल	-11.8002
▁उत्साह	-11.8002
▁उपलबध	-11.8002
▁उर्दू	-11.8002
▁एनडीए	-11.8002
▁ओवरब्रिज	-11.8002
▁कच्चा	-11.8002
▁कब्जा	-11.8002
▁कर्तव्य	-11.8002
▁कश्यप	-11.8002
▁कांतिलाल	-11.8002
▁कार्यक्षमता	-11.8002
▁कि०मी०	-11.8002
▁कौशल	-11.8002
▁क्रियान्वित	-11.8002
▁क्वालिटी	-11.8002
▁खतरनाक	-11.8002
▁गतिविधियों	-11.8002
▁गरिडीह	-11.8002
▁गार्ड	-11.8002
▁गुप्त	-11.8002
▁चिंतित	-11.8002
▁चिन्ह	-11.8002
▁चेन्नई	-11.8002
▁जबरदस्त	-11.8002
▁जरुरत	-11.8002
▁टूरिज्म	-11.8002
▁ट्रांसमिशन	-11.8002
▁ट्राइबल	-11.8002
▁डयूटी	-11.8002
▁डिसकशन	-11.8002
▁डुमरियागंज	-11.8002
▁डेयरी	-11.8002
▁तत्वों	-11.8002
▁तालुका	-11.8002
▁दरभंगा	-11.8002
▁देखभाल	-11.8002
▁देवराजभाई	-11.8002
▁ध्वस्त	-11.8002
▁नलकूप	-11.8002
▁नवयुवक	-11.8002
▁नागभीड़	-11.8002
▁निराशा	-11.8002
▁निषाद	-11.8002
▁नैशनल	-11.8002
▁परसेन्ट	-11.8002
▁पहाड़ियों	-11.8002
▁पुनर्गठन	-11.8002
▁प्रबन्ध	-11.8002
▁प्रोत्साहित	-11.8002
▁प्रोवीजन	-11.8002
▁फरूखाबाद	-11.8002
▁बनर्जी	-11.8002
▁बहिर्गमन	-11.8002
▁बिलकुल	-11.8002
▁बीएसएनएल	-11.8002
▁बेल्लारी	-11.8002
▁बैसीमुथियारी	-11.8002
▁भरपाई	-11.8002
▁भावनाबेन	-11.8002
▁भिन्न	-11.8002
▁भूतपूर्व	-11.8002
▁मद्देनजर	-11.8002
▁मित्रसेन	-11.8002
▁मुख्यमंत्रियों	-11.8002
▁रुाोत	-11.8002
▁रेवाड़ी	-11.8002
▁वगैरह	-11.8002
▁वनिवेश	-11.8002
▁वाकआउट	-11.8002
▁विस्थापितों	-11.8002
▁वैक्सीन	-11.8002
▁वैश्विक	-11.8002
▁व्यतीत	-11.8002
▁शुक्ला	-11.8002
▁शैक्षिक	-11.8002
▁श्रीगंगानगर	-11.8002
▁सक्षम	-11.8002
▁सबसिडी	-11.8002
▁सब्जैक्ट	-11.8002
▁सम्मेलन	-11.8002
▁सम्राट	-11.8002
▁सर्वाधिक	-11.8002
▁सामग्री	-11.8002
▁साहेब	-11.8002
▁सीबीआई	-11.8002
▁सुखदेव	-11.8002
▁हरीभाऊ	-11.8002
▁हासिल	-11.8002
▁होशियारपुर	-11.8002
▁Francis	-11.8002
▁Heavy	-11.8002
▁Local	-11.8002
▁Narayan	-11.8002
▁Rajnath	-11.8002
▁Uday	-11.8002
▁blow	-11.8002
▁film	-11.8002
▁oÉÉlÉ	-11.8002
▁perception	-11.8002
▁teeth	-11.8002
▁आज़मी	-11.8002
▁ईसाई	-11.8002
▁ख्याल	-11.8002
▁गठित	-11.8002
▁जेटली	-11.8002
▁डाउन	-11.8002
▁बेतिया	-11.8002
▁बोझ	-11.8002
▁मीणा	-11.8002
▁राजकीय	-11.8002
▁लाठी	-11.8002
▁समस्यायें	-11.8002
μ	-11.8002
▁Duty	-11.8002
▁FDI	-11.8002
▁Kalyan	-11.8002
▁paise	-11.8002
▁slip	-11.8002
▁अलवी	-11.8002
▁चुने	-11.8002
▁जहाज	-11.8002
▁फास्ट	-11.8002
▁भानु	-11.8002
▁Beedi	-11.8002
▁GOI	-11.8002
▁prone	-11.8002
▁गरिमा	-11.8002
▁नेहरू	-11.8002
▁वायु	-11.8002
▁शैड	-11.8002
▁सौदा	-11.8002
▁1973	-11.8002
▁Bush	-11.8002
▁Sagar	-11.8002
▁warming	-11.8002
▁उम्र	-11.8002
▁मर्जी	-11.8002
▁1972	-11.8002
▁Half	-11.8002
▁PURI	-11.8002
▁बंध	-11.8002
▁महादेवराव	-11.8002
▁Drugs	-11.8002
▁infrastructural	-11.8002
▁नरेगा	-11.8002
▁range	-11.8002
▁किराए	-11.8002
▁Ajit	-11.8002
▁रिलीज	-11.8002
▁oath	-11.8002
▁pick	-11.8002
▁आवश	-11.8002
▁nLrkostksa	-11.8002
▁मरीज	-11.8002
▁Raniganj	-11.8002
▁फेल	-11.8002
▁flying	-11.8002
▁मास्टर	-11.8002
▁warrant	-11.8002
▁ट्रैक्टर	-11.8002
▁villagers	-11.8002
▁Buddha	-11.8002
terior	-11.8002
▁Mining	-11.8002
▁नांदेड़	-11.8002
▁१९९७	-11.8002
▁Rashtrapatiji	-11.8002
▁seamen	-11.8002
▁Suratgarh	-11.8002
▁बहुमत	-11.8002
▁gold	-11.8002
▁प्रोसेसिंग	-11.8002
▁memory	-11.8002
▁शिवहर	-11.8002
▁bio	-11.8002
▁Except	-11.8002
▁स्टैंडिंग	-11.8002
▁गिना	-11.8002
▁बोरिंग	-11.8003
▁float	-11.8003
▁रचना	-11.8003
▁painful	-11.8003
▁hardship	-11.8003
▁recession	-11.8003
▁फ्रे	-11.8003
▁Srinagar	-11.8003
▁०७	-11.8003
▁contractors	-11.8003
▁Servicemen	-11.8003
▁score	-11.8003
▁productive	-11.8003
▁relaxation	-11.8003
▁दोहरा	-11.8003
▁पूजा	-11.8003
▁फाइन	-11.8003
▁रोज़	-11.8003
▁broken	-11.8003
▁संस्थाएं	-11.8003
▁simultaneously	-11.8004
▁प्लीज़	-11.8004
▁Karia	-11.8004
▁nå	-11.8004
▁progressive	-11.8004
▁Taj	-11.8004
▁मंडी	-11.8004
▁executed	-11.8004
email	-11.8004
▁Jos	-11.8004
▁पशुओं	-11.8004
NATH	-11.8005
▁दागी	-11.8005
▁manned	-11.8005
▁मण्डल	-11.8005
▁adoption	-11.8005
▁619	-11.8005
▁MIS	-11.8006
▁Complaint	-11.8006
▁महाविद्यालय	-11.8006
▁वोटिंग	-11.8006
▁३२	-11.8006
▁शिक्षकों	-11.8006
▁cutting	-11.8006
▁servicemen	-11.8006
▁राशन	-11.8006
▁Harin	-11.8006
cept	-11.8007
▁आस्था	-11.8007
▁earmarked	-11.8007
▁कत्ल	-11.8007
▁Notaries	-11.8007
▁bus	-11.8008
▁नाले	-11.8008
▁scam	-11.8008
▁store	-11.8008
▁RAJA	-11.8008
▁लीडर्स	-11.8008
▁जैन	-11.8008
▁FOR	-11.8008
▁love	-11.8008
ihar	-11.8009
▁उतना	-11.8009
▁समस्त	-11.801
▁Indore	-11.801
▁attached	-11.801
▁demolished	-11.801
▁सहायक	-11.8011
▁́ÉÉãÉ	-11.8011
▁nationalised	-11.8011
▁Navy	-11.8011
▁Meh	-11.8011
▁deployed	-11.8012
▁बारिश	-11.8013
▁पूछने	-11.8013
▁लाये	-11.8013
▁शर्तों	-11.8013
▁lesson	-11.8013
▁अपमान	-11.8014
▁जिनका	-11.8015
▁answerable	-11.8016
33]	-11.8016
▁कनतपनत	-11.8016
30]	-11.8016
14]	-11.8016
▁खोला	-11.8016
▁Naturally	-11.8016
▁धपर	-11.8016
▁रटन	-11.8016
▁तथ्यों	-11.8017
▁जेलों	-11.8017
▁manufactured	-11.8017
▁cited	-11.8017
▁dare	-11.8017
▁हरिन	-11.8017
▁डालने	-11.8017
▁contributed	-11.8018
▁मारने	-11.8019
▁सुनते	-11.8019
▁rolling	-11.8019
▁बेकारी	-11.8019
▁उठाई	-11.8021
▁10,000/	-11.8021
▁borrowing	-11.8021
▁तबाही	-11.8022
▁निवासी	-11.8022
▁356	-11.8022
▁invested	-11.8022
▁widely	-11.8023
▁insisting	-11.8023
▁defection	-11.8024
▁olÉÉ	-11.8025
▁managed	-11.8025
▁बचाव	-11.8025
21]	-11.8025
▁Introduced	-11.8027
▁352	-11.8028
▁बनती	-11.8029
▁allegedly	-11.803
▁positively	-11.803
▁enhanced	-11.803
▁substituted	-11.803
▁failing	-11.803
▁अस्पतालों	-11.8031
▁जंगलों	-11.8031
▁सीटों	-11.8033
▁वषक	-11.8033
▁शरण	-11.8035
kash	-11.8035
▁सोचा	-11.8037
▁पड़ने	-11.8037
▁हाथों	-11.8038
▁prevented	-11.8039
▁promised	-11.8039
Ex	-11.804
▁essentially	-11.8042
▁carrying	-11.8043
▁arresting	-11.8043
▁learning	-11.8045
▁owe	-11.8046
▁कर्जा	-11.8047
▁shortly	-11.8048
▁हमसे	-11.8048
▁जाएंगी	-11.8052
▁soap	-11.8054
▁exercised	-11.8057
▁saved	-11.8057
▁engineer	-11.8058
▁united	-11.806
पथ	-11.8065
▁रतन	-11.8065
▁Kamal	-11.8068
▁उध	-11.8069
▁परिवाद	-11.8072
्यूल	-11.8077
▁वेस्ट	-11.8082
▁सकी	-11.8095
BÉßE	-11.8103
(3)	-11.811
▁रोड़	-11.811
▁oÉÆ	-11.8113
▁watch	-11.8143
▁coordinat	-11.816
BÉEä	-11.8224
▁निकाले	-11.8242
dkj	-11.8254
७९	-11.8257
▁गोंड	-11.8276
ड़िया	-11.8334
▁fn	-11.8447
क्ष्	-11.8486
▁che	-11.8511
▁जजस	-11.8541
▁holder	-11.8548
▁आदर	-11.8555
▁डै	-11.8614
▁मुक	-11.8688
९७	-11.8732
ीजा	-11.8742
धकरण	-11.8756
६३	-11.8775
ोटा	-11.8786
▁भंग	-11.8805
ends	-11.8964
▁९०	-11.9018
▁अमल	-11.9021
वाड़	-11.9107
▁custom	-11.9116
▁employ	-11.9151
▁महारा	-11.9163
▁consequence	-11.9187
▁grain	-11.9187
▁lie	-11.9187
▁Maoist	-11.9188
▁blast	-11.9188
▁slogan	-11.9188
▁hectare	-11.9188
▁plot	-11.9188
▁source	-11.9188
▁Matter	-11.9188
▁flight	-11.9189
▁profession	-11.9191
▁दशा	-11.9223
▁furnish	-11.9223
सम्भल	-11.923
▁teach	-11.9231
deep	-11.9231
Vijay	-11.9231
SHRIMATI	-11.9231
2022	-11.9231
बिहार	-11.9231
Laid	-11.9231
मेरे	-11.9231
भारत	-11.9231
सिंह	-11.9234
मेरा	-11.9234
▁prevail	-11.9236
सागर	-11.9238
▁expunge	-11.9239
▁confirm	-11.9239
▁भोजपुर	-11.924
▁अंग्रेज	-11.9241
▁नौजवान	-11.9242
▁Move	-11.9243
पानी	-11.9244
▁obvious	-11.9245
▁origin	-11.9245
▁successful	-11.9246
योजित	-11.9247
पत्ति	-11.9247
▁RESOURCE	-11.9248
▁SOM	-11.9248
▁interpret	-11.9249
▁minister	-11.925
▁प्रसार	-11.925
▁Gold	-11.925
▁avail	-11.925
▁electric	-11.925
nclusive	-11.9251
▁Short	-11.9251
▁कंप	-11.9251
▁डिस्क	-11.9251
▁compete	-11.9251
/2021/12	-11.9252
\	-11.9252
▁Subramani	-11.9252
krishna	-11.9252
Œ	-11.9252
▁Manoj	-11.9252
▁breach	-11.9252
▁contemplat	-11.9252
▁eleven	-11.9252
▁federal	-11.9252
▁grass	-11.9252
▁hamper	-11.9252
▁hydro	-11.9252
▁oÉÖÉÊ	-11.9252
▁निरक्षर	-11.9252
▁भिजवा	-11.9252
/2016	-11.9252
Agrahayana	-11.9252
Commercial	-11.9252
Handloom	-11.9252
Phalguna	-11.9252
ological	-11.9252
soever	-11.9252
ÉVÉãÉÉÒ	-11.9252
मधेपुरा	-11.9252
शास्त्री	-11.9252
▁329283	-11.9252
▁Academ	-11.9252
▁Addl	-11.9252
▁Adhir	-11.9252
▁Agenda	-11.9252
▁Ahamed	-11.9252
▁Anybody	-11.9252
▁BARAMATI	-11.9252
▁Banaskantha	-11.9252
▁Bangarappa	-11.9252
▁Bhagalpur	-11.9252
▁Bharti	-11.9252
▁Bofors	-11.9252
▁Bombay	-11.9252
▁BÉDaÉÉ	-11.9252
▁CENTRAL	-11.9252
▁CGHS	-11.9252
▁CHARAN	-11.9252
▁Category	-11.9252
▁Catholic	-11.9252
▁Chandrakant	-11.9252
▁Colony	-11.9252
▁Communist	-11.9252
▁Comrade	-11.9252
▁Constitute	-11.9252
▁Coolum	-11.9252
▁Countries	-11.9252
▁Definitely	-11.9252
▁Dhubri	-11.9252
▁EXTERNAL	-11.9252
▁Enterprises	-11.9252
▁Excise	-11.9252
▁Extension	-11.9252
▁FERNANDES	-11.9252
▁FOOD	-11.9252
▁Factory	-11.9252
▁Families	-11.9252
▁Functioning	-11.9252
▁Goods	-11.9252
▁HOOGHLY	-11.9252
▁HUMAN	-11.9252
▁Haldia	-11.9252
▁Hospital	-11.9252
▁Hussain	-11.9252
▁IDUKKI	-11.9252
▁Idukki	-11.9252
▁Incidents	-11.9252
▁JANARDHANA	-11.9252
▁Junction	-11.9252
▁KASHIRAM	-11.9252
▁KRISHNA	-11.9252
▁Khasra	-11.9252
▁Korba	-11.9252
▁LATUR	-11.9252
▁Laxminarayan	-11.9252
▁MOHD	-11.9252
▁Maritime	-11.9252
▁Ministries	-11.9252
▁Municipal	-11.9252
▁Musharraf	-11.9252
▁NATCHIAPPAN	-11.9252
▁ONGC	-11.9252
▁Olympic	-11.9252
▁PATEL	-11.9252
▁PLANNING	-11.9252
▁PONNANI	-11.9252
▁PRAFUL	-11.9252
▁PRASANNA	-11.9252
▁PRAVIN	-11.9252
▁Parmar	-11.9252
▁Potable	-11.9252
▁Privilege	-11.9252
▁RASHTRAPAL	-11.9252
▁Ramchandra	-11.9252
▁SHANKER	-11.9252
▁SHIPPING	-11.9252
▁SONTOSH	-11.9252
▁SUDARSANA	-11.9252
▁Sachin	-11.9252
▁Samastipur	-11.9252
▁Separate	-11.9252
▁Several	-11.9252
▁Sharma	-11.9252
▁Submissions	-11.9252
▁Succession	-11.9252
▁Surface	-11.9252
▁Sushil	-11.9252
▁TARIT	-11.9252
▁TOPDAR	-11.9252
▁Telugu	-11.9252
▁Tibetan	-11.9252
▁Traffic	-11.9252
▁Transfer	-11.9252
▁Treaty	-11.9252
▁Trinamool	-11.9252
▁Tuesday	-11.9252
▁Udhampur	-11.9252
▁VINOD	-11.9252
▁absent	-11.9252
▁admissibility	-11.9252
▁admission	-11.9252
▁affiliation	-11.9252
▁agitating	-11.9252
▁announcing	-11.9252
▁applaud	-11.9252
▁applies	-11.9252
▁blaming	-11.9252
▁brave	-11.9252
▁brilliant	-11.9252
▁bureaucracy	-11.9252
▁capable	-11.9252
▁catch	-11.9252
▁colonies	-11.9252
▁compartments	-11.9252
▁comprised	-11.9252
▁contradict	-11.9252
▁crucial	-11.9252
▁declining	-11.9252
▁decorum	-11.9252
▁detriment	-11.9252
▁dilute	-11.9252
▁dimension	-11.9252
▁disapproval	-11.9252
▁discriminate	-11.9252
▁dissatisfied	-11.9252
▁distributed	-11.9252
▁diversity	-11.9252
▁eastern	-11.9252
▁eloquent	-11.9252
▁eminent	-11.9252
▁emission	-11.9252
▁eradicate	-11.9252
▁examining	-11.9252
▁excellent	-11.9252
▁exclusive	-11.9252
▁fertiliser	-11.9252
▁foeticide	-11.9252
▁gandhi	-11.9252
▁generating	-11.9252
▁gratitude	-11.9252
▁gross	-11.9252
▁humanitarian	-11.9252
▁imprisonment	-11.9252
▁indicating	-11.9252
▁intervening	-11.9252
▁introducing	-11.9252
▁journalist	-11.9252
▁khasra	-11.9252
▁layXu	-11.9252
▁lift	-11.9252
▁livestock	-11.9252
▁lobby	-11.9252
▁mRrjh	-11.9252
▁maiden	-11.9252
▁manifesto	-11.9252
▁minimising	-11.9252
▁miserable	-11.9252
▁motivated	-11.9252
▁narrow	-11.9252
▁necessarily	-11.9252
▁negotiate	-11.9252
▁nutrition	-11.9252
▁occurrence	-11.9252
▁paucity	-11.9252
▁peasants	-11.9252
▁precisely	-11.9252
▁preparing	-11.9252
▁prerogative	-11.9252
▁propriety	-11.9252
▁qualification	-11.9252
▁quantity	-11.9252
▁radical	-11.9252
▁redress	-11.9252
▁remote	-11.9252
▁removal	-11.9252
▁scooter	-11.9252
▁scrutiny	-11.9252
▁search	-11.9252
▁shameful	-11.9252
▁shocking	-11.9252
▁smooth	-11.9252
▁split	-11.9252
▁technologies	-11.9252
▁television	-11.9252
▁tragic	-11.9252
▁transmission	-11.9252
▁tribute	-11.9252
▁universal	-11.9252
▁utilisation	-11.9252
▁varxZr	-11.9252
▁vuqikyu	-11.9252
▁worried	-11.9252
▁ÉÊnããÉÉÒ	-11.9252
▁́ÉänxÉ	-11.9252
▁अनावश्यक	-11.9252
▁अनुमोदन	-11.9252
▁अन्तर्राष्ट्रीय	-11.9252
▁अफेयर्स	-11.9252
▁अवलोकन	-11.9252
▁अवैध	-11.9252
▁असंगठित	-11.9252
▁आंखों	-11.9252
▁आदर्श	-11.9252
▁आधारभूत	-11.9252
▁इंतजार	-11.9252
▁इरादा	-11.9252
▁इश्यु	-11.9252
▁उत्खनन	-11.9252
▁उद्योगपतियों	-11.9252
▁उपधारा	-11.9252
▁उपर्युक्त	-11.9252
▁एमपीलैड	-11.9252
▁कम्युनिटी	-11.9252
▁कम्युनिस्ट	-11.9252
▁कार्यान्वित	-11.9252
▁कॉलिंग	-11.9252
▁कौशलेन्द्र	-11.9252
▁क्रिकेट	-11.9252
▁क्िंवटल	-11.9252
▁गुरुदास	-11.9252
▁गोंदिया	-11.9252
▁चन्देल	-11.9252
▁चार्जशीट	-11.9252
▁चाहूँगा	-11.9252
▁चिकित्सा	-11.9252
▁जंक्शन	-11.9252
▁जहानाबाद	-11.9252
▁टीकाकरण	-11.9252
▁डिपार्टमेंट	-11.9252
▁डिप्टी	-11.9252
▁ढींडसा	-11.9252
▁तालाब	-11.9252
▁धंधे	-11.9252
▁नारायण	-11.9252
▁निगरानी	-11.9252
▁निर्वाह	-11.9252
▁नैनीताल	-11.9252
▁पन्द्रह	-11.9252
▁परमाणु	-11.9252
▁परीक्षण	-11.9252
▁पुणे	-11.9252
▁पुष्टि	-11.9252
▁पैट्रोलियम	-11.9252
▁पोषण	-11.9252
▁प्रकल्प	-11.9252
▁प्रकृति	-11.9252
▁प्रतिष्ठान	-11.9252
▁प्रसंस्करण	-11.9252
▁प्रांतों	-11.9252
▁प्रेरणा	-11.9252
▁फाइनेंशियल	-11.9252
▁बंगलौर	-11.9252
▁बर्खास्त	-11.9252
▁बहिष्कार	-11.9252
▁बाबरी	-11.9252
▁बिजनौर	-11.9252
▁बोडो	-11.9252
▁ब्यौरा	-11.9252
▁ब्रोडगेज	-11.9252
▁भूमिहीन	-11.9252
▁मर्यादा	-11.9252
▁महोबा	-11.9252
▁मांझी	-11.9252
▁माणिकराव	-11.9252
▁मार्बल	-11.9252
▁मुकदमे	-11.9252
▁मुर्मू	-11.9252
▁मेम्बर	-11.9252
▁मेहसाणा	-11.9252
▁मोतिहारी	-11.9252
▁युवकों	-11.9252
▁रघुराज	-11.9252
▁रतिलाल	-11.9252
▁राधाकृष्णन	-11.9252
▁रिटायर	-11.9252
▁रॉयल्टी	-11.9252
▁रोकथाम	-11.9252
▁रोज़गार	-11.9252
▁लातूर	-11.9252
▁लोहरदगा	-11.9252
▁वनियामक	-11.9252
▁वर्धा	-11.9252
▁वितरित	-11.9252
▁विपणन	-11.9252
▁विश्लेषण	-11.9252
▁विष्णु	-11.9252
▁वीरप्पन	-11.9252
▁शाक्य	-11.9252
▁शारदा	-11.9252
▁शुरुआत	-11.9252
▁शेखर	-11.9252
▁षडयंत्र	-11.9252
▁संखया	-11.9252
▁संग्रह	-11.9252
▁संग्रहालय	-11.9252
▁संतुष्ट	-11.9252
▁संवर्धन	-11.9252
▁सचिवालय	-11.9252
▁सबमिशन	-11.9252
▁सरप्लस	-11.9252
▁साक्षरता	-11.9252
▁साक्ष्य	-11.9252
▁साझेदारी	-11.9252
▁सामरिक	-11.9252
▁सिंहभूम	-11.9252
▁सिक्योरिटी	-11.9252
▁सिलेंडर	-11.9252
▁सीताराम	-11.9252
▁सीरियस	-11.9252
▁सुबोध	-11.9252
▁स्टाफ	-11.9252
▁स्टोरेज	-11.9252
▁स्वाईं	-11.9252
▁स्वाभाविक	-11.9252
▁हड़ताल	-11.9252
▁हफ्ते	-11.9252
▁हिन्दुओं	-11.9252
▁हैल्थ	-11.9252
▁िसंह	-11.9252
▁१९८०	-11.9252
▁१९९६	-11.9252
с	-11.9252
▁Akbar	-11.9252
▁BARAN	-11.9252
▁Baliram	-11.9252
▁Japan	-11.9252
▁RPF	-11.9252
▁Ranchi	-11.9252
▁Shakespeare	-11.9252
▁Swayam	-11.9252
▁Tehsildar	-11.9252
▁barred	-11.9252
▁crux	-11.9252
▁denial	-11.9252
▁lecture	-11.9252
▁null	-11.9252
▁plus	-11.9252
▁shape	-11.9252
▁street	-11.9252
▁thermal	-11.9252
▁weather	-11.9252
▁उत्तम	-11.9252
▁केसिज	-11.9252
▁ट्रेड	-11.9252
▁डिटेल	-11.9252
▁धुले	-11.9252
▁निंदा	-11.9252
▁प्रमाण	-11.9252
▁बनवाने	-11.9252
▁बिक्री	-11.9252
▁रिपील	-11.9252
▁लाभप्रद	-11.9252
▁वर्णन	-11.9252
▁विशाल	-11.9252
▁सुलभ	-11.9252
▁हादसा	-11.9252
▁हैदराबाद	-11.9252
Eighty	-11.9252
▁Waterways	-11.9252
▁courtesy	-11.9252
▁rectify	-11.9252
▁जरिये	-11.9252
▁टैकस	-11.9252
▁Death	-11.9252
▁Facts	-11.9252
▁Mysore	-11.9252
▁agents	-11.9252
▁mutual	-11.9252
▁आनन्द	-11.9252
▁आर्मी	-11.9252
▁चतरा	-11.9252
▁प्रश्नकाल	-11.9252
▁लिंक	-11.9252
▁Malda	-11.9252
▁bold	-11.9252
▁खीरी	-11.9252
▁File	-11.9252
▁Modi	-11.9252
▁trick	-11.9252
▁viz	-11.9252
▁फर्क	-11.9252
▁Garh	-11.9252
▁Hills	-11.9252
▁RANA	-11.9252
▁Vision	-11.9252
▁attain	-11.9252
▁cement	-11.9252
▁scene	-11.9252
▁टहल	-11.9252
▁1921	-11.9252
▁Arora	-11.9252
▁PMO	-11.9252
▁Oath	-11.9252
▁MLAs	-11.9252
▁Pvt	-11.9252
▁crush	-11.9252
▁framework	-11.9252
▁hereby	-11.9252
▁perused	-11.9252
▁टावर	-11.9252
▁प्रेम	-11.9252
▁Paul	-11.9252
▁Saroj	-11.9252
▁automatically	-11.9252
▁क्षेत्रफल	-11.9252
▁duly	-11.9252
▁isolated	-11.9252
▁tape	-11.9252
शिप	-11.9252
▁Roy	-11.9252
▁फीट	-11.9252
▁रोष	-11.9252
▁Laning	-11.9252
▁ज्यादातर	-11.9252
▁दखल	-11.9252
/2004)	-11.9252
▁scholarship	-11.9252
▁Behar	-11.9252
▁Chakra	-11.9252
▁Brar	-11.9252
▁अधिकतर	-11.9252
lignment	-11.9252
▁मसला	-11.9252
▁Bhavnagar	-11.9252
▁Lives	-11.9252
▁ककतस	-11.9252
▁traders	-11.9252
▁सुखाड़	-11.9252
▁अनुराग	-11.9252
▁कमजोर	-11.9252
िश्च	-11.9252
▁छात्राओं	-11.9252
▁pure	-11.9252
▁Mention	-11.9252
▁अमीर	-11.9252
▁३७७	-11.9252
▁insult	-11.9252
▁1/2	-11.9252
▁deviate	-11.9252
▁diplomatic	-11.9252
▁रोप	-11.9252
▁110001	-11.9252
▁Bring	-11.9252
▁push	-11.9252
▁assume	-11.9252
▁सुभाष	-11.9252
▁wards	-11.9252
▁investors	-11.9252
▁adulteration	-11.9253
▁reconstruction	-11.9253
▁महेश्वर	-11.9253
▁बुवाई	-11.9253
ीफाई	-11.9253
▁devolution	-11.9253
▁́ÉÉãÉä	-11.9253
▁मंदी	-11.9253
▁worse	-11.9253
▁पदार्थो	-11.9253
▁सेतु	-11.9253
▁भूरिया	-11.9253
▁हालात	-11.9253
▁Iron	-11.9253
▁पासपोर्ट	-11.9253
▁Coca	-11.9253
▁Bachi	-11.9254
▁३७	-11.9254
▁coordination	-11.9254
▁समपार	-11.9254
▁आपदाओं	-11.9254
▁relationship	-11.9254
▁०१	-11.9254
▁key	-11.9254
▁सिफारिशें	-11.9254
▁भंडारण	-11.9255
▁Rabi	-11.9255
▁टर्म	-11.9255
▁buses	-11.9255
▁खुदाई	-11.9255
▁iÉaÉ	-11.9255
▁box	-11.9255
▁Super	-11.9255
▁लीटर	-11.9255
▁prong	-11.9255
▁considerably	-11.9255
▁हाल्ट	-11.9255
▁Against	-11.9256
▁हत्याएं	-11.9256
▁मोटर	-11.9256
▁occupied	-11.9256
▁५७	-11.9256
▁Ajay	-11.9256
▁खुदरा	-11.9256
▁माइन्स	-11.9256
▁काश्तकारों	-11.9256
▁acceptance	-11.9256
▁देखेंगे	-11.9256
▁रामराव	-11.9256
▁जलगांव	-11.9257
▁consistently	-11.9257
▁प्ले	-11.9257
▁बढ़ेगा	-11.9257
▁शिकायतें	-11.9257
▁Presidential	-11.9257
▁मौतें	-11.9257
▁टोल	-11.9257
▁दसवीं	-11.9257
▁honourable	-11.9257
▁probe	-11.9258
▁wealth	-11.9258
▁Closed	-11.9258
▁polluted	-11.9258
▁awareness	-11.9259
▁सुश्री	-11.9259
awan	-11.9259
ल्लाह	-11.9259
▁प्रोजैक्ट्स	-11.9259
▁सुनेंगे	-11.926
▁continuously	-11.926
chand	-11.926
▁पकड़ा	-11.926
▁पढ़ाई	-11.9261
▁कराते	-11.9261
▁physically	-11.9261
▁Thirteenth	-11.9261
▁binding	-11.9261
▁passage	-11.9262
▁Immediately	-11.9262
▁रहिए	-11.9262
ÉaÉä	-11.9263
▁Raw	-11.9263
▁SCC	-11.9263
▁diverted	-11.9263
▁किस्म	-11.9263
▁बनेंगे	-11.9264
ÉÆvÉ	-11.9264
▁net	-11.9264
▁दंगा	-11.9264
nkf	-11.9264
▁wall	-11.9264
▁expectation	-11.9265
▁usual	-11.9266
RRB	-11.9266
▁कहेंगे	-11.9266
▁कार्यकरण	-11.9266
▁Bible	-11.9266
▁धाम	-11.9267
▁355	-11.9267
▁furnishing	-11.9267
▁revealed	-11.9268
▁एण्ड	-11.9269
▁comply	-11.9269
▁बगल	-11.9269
▁engineering	-11.9269
▁izk	-11.9269
▁वसूली	-11.927
▁arisen	-11.927
▁ट्रेनिंग	-11.927
▁पेय	-11.927
▁realised	-11.927
▁दर्द	-11.927
▁argued	-11.9271
▁guaranteed	-11.9271
▁inquired	-11.9271
▁pursued	-11.9271
▁रोड्स	-11.9271
50]	-11.9272
▁poorest	-11.9272
▁officially	-11.9272
arq	-11.9273
▁Cell	-11.9273
▁filled	-11.9273
▁फसलें	-11.9273
▁रखती	-11.9274
▁सीजन	-11.9275
▁केंद्रित	-11.9275
▁awarded	-11.9275
16]	-11.9275
▁मानकर	-11.9277
ावली	-11.9278
▁Doha	-11.9278
▁रूट	-11.9279
▁Name	-11.928
▁Doda	-11.928
▁लाएं	-11.9281
▁fulfilling	-11.9283
▁Get	-11.9283
▁Nand	-11.9286
▁None	-11.9288
▁बढ़ाना	-11.9291
ÉävÉ	-11.9299
▁60,000	-11.9303
▁दूं	-11.9305
▁रिले	-11.9312
▁sq	-11.933
▁1600	-11.9335
ैन्ड	-11.9357
CHI	-11.9357
ललन	-11.9381
▁818	-11.9601
अन्न	-11.9632
▁शोर	-11.9691
▁उन्नत	-11.973
▁modernise	-11.9759
bad	-11.9773
51/	-11.9905
उनक	-11.9913
Vote	-11.9982
्रिक	-12.0009
▁९००	-12.0119
▁उन्नति	-12.0155
▁निकले	-12.0319
▁प्रतीक	-12.047
ã	-12.0487
▁ÉÊxÉ	-12.054
▁ãÉä	-12.0557
▁leg	-12.0566
▁involve	-12.0601
aÉBÉE	-12.0613
▁component	-12.0615
▁aspiration	-12.0616
▁teacher	-12.0621
Speech	-12.0659
motion	-12.0659
central	-12.0659
claim	-12.0659
`	-12.066
मुझे	-12.066
Title	-12.066
दनांक	-12.066
Why	-12.0662
▁divert	-12.0667
▁suppose	-12.0667
▁deploy	-12.0667
▁accuse	-12.0667
▁assembl	-12.0668
▁Record	-12.0668
▁Govern	-12.0669
▁मुसलमान	-12.067
▁शर्म	-12.067
▁RAJ	-12.0672
▁strict	-12.0674
▁extreme	-12.0674
▁mental	-12.0674
▁coast	-12.0674
▁minor	-12.0679
▁encroach	-12.0679
▁BANSA	-12.0679
▁श्रद्धालु	-12.0679
▁Amend	-12.0679
▁percent	-12.0679
▁बिन्द	-12.0679
▁लिमिट	-12.068
▁reside	-12.068
▁cÉäMÉÉ	-12.068
▁आतंक	-12.068
д	-12.068
/2014	-12.068
Technical	-12.068
angathan	-12.068
anwhile	-12.068
iruvananthapuram	-12.068
oÉÉÊãÉA	-12.068
àÉèx	-12.068
▁26180514	-12.068
▁ALVI	-12.068
▁ANWAR	-12.068
▁ARAMBAGH	-12.068
▁ASADUDDIN	-12.068
▁Acharya	-12.068
▁Aggrieved	-12.068
▁Ajnala	-12.068
▁BADAGARA	-12.068
▁BENGAL	-12.068
▁BERHAMP	-12.068
▁BHARDWAJ	-12.068
▁Baxla	-12.068
▁Bharuch	-12.068
▁Bhubaneswar	-12.068
▁Bishnoi	-12.068
▁Bureau	-12.068
▁BÉDaÉÉåÉÊBÉE	-12.068
▁CHATURVEDI	-12.068
▁CHEMICALS	-12.068
▁COMMUNICATIONS	-12.068
▁CONSUMER	-12.068
▁Child	-12.068
▁Chittoor	-12.068
▁Complex	-12.068
▁Concern	-12.068
▁Cooch	-12.068
▁Cooperation	-12.068
▁Cotton	-12.068
▁DEPARTMENT	-12.068
▁DHENKANAL	-12.068
▁DISCUSSION	-12.068
▁DISTRIBUTION	-12.068
▁Dehradun	-12.068
▁Delegation	-12.068
▁Delimitation	-12.068
▁Diesel	-12.068
▁Dissatisfied	-12.068
▁Diversion	-12.068
▁Durgapur	-12.068
▁Each	-12.068
▁Ernakulam	-12.068
▁Erode	-12.068
▁Establish	-12.068
▁Explanatory	-12.068
▁FAMILY	-12.068
▁FERTILIZERS	-12.068
▁Freedom	-12.068
▁Gadchiroli	-12.068
▁Ganesh	-12.068
▁HEALTH	-12.068
▁IDPL	-12.068
▁Increasing	-12.068
▁Indonesia	-12.068
▁John	-12.068
▁KOTTAYAM	-12.068
▁Kalaignar	-12.068
▁Kannada	-12.068
▁Karunanidhi	-12.068
▁Katpadi	-12.068
▁LAID	-12.068
▁LAKSHMAN	-12.068
▁Lakhs	-12.068
▁MAHABUBNAGAR	-12.068
▁MNCs	-12.068
▁Malaysia	-12.068
▁Maldives	-12.068
▁Material	-12.068
▁Mayawati	-12.068
▁Merchant	-12.068
▁Modern	-12.068
▁Monsoon	-12.068
▁Murthy	-12.068
▁NABARD	-12.068
▁NICD	-12.068
▁NSTFDC	-12.068
▁Nikhil	-12.068
▁ORISSA	-12.068
▁OWAISI	-12.068
▁Ocean	-12.068
▁Overseas	-12.068
▁PANDIYAN	-12.068
▁PANJA	-12.068
▁PATNAIK	-12.068
▁PRADHAN	-12.068
▁PREMAJAM	-12.068
▁Palghat	-12.068
▁Pandian	-12.068
▁Petrol	-12.068
▁Pilgrim	-12.068
▁Pondicherry	-12.068
▁Ponnuswamy	-12.068
▁Practice	-12.068
▁Primary	-12.068
▁RESOLUTION	-12.068
▁Rahman	-12.068
▁Reconstruct	-12.068
▁Recovery	-12.068
▁Reform	-12.068
▁Registration	-12.068
▁Retired	-12.068
▁Revival	-12.068
▁SATPATHY	-12.068
▁SHYAMA	-12.068
▁SIMRANJIT	-12.068
▁SIVAKASI	-12.068
▁SUNIL	-12.068
▁SWARAJ	-12.068
▁Satyam	-12.068
▁Secretaries	-12.068
▁Senior	-12.068
▁Shafiqur	-12.068
▁Shift	-12.068
▁Singhbhum	-12.068
▁Slaughter	-12.068
▁Slovak	-12.068
▁Street	-12.068
▁Subsequently	-12.068
▁Sumitra	-12.068
▁Sunderbans	-12.068
▁TABLE	-12.068
▁TATHAGATA	-12.068
▁TENALI	-12.068
▁Teacher	-12.068
▁Terrorism	-12.068
▁Thirty	-12.068
▁Thursday	-12.068
▁Tiwari	-12.068
▁Tobacco	-12.068
▁Treatment	-12.068
▁Twelfth	-12.068
▁Udaipur	-12.068
▁VaÉÉnÉ	-12.068
▁Vinay	-12.068
▁WELFARE	-12.068
▁Warming	-12.068
▁Welcome	-12.068
▁White	-12.068
▁Winter	-12.068
▁accusing	-12.068
▁acquitted	-12.068
▁adjudicate	-12.068
▁aggravate	-12.068
▁aggrieved	-12.068
▁aircraft	-12.068
▁altogether	-12.068
▁appreciation	-12.068
▁astrology	-12.068
▁beneficial	-12.068
▁beneficiary	-12.068
▁bottom	-12.068
▁carnage	-12.068
▁celebrat	-12.068
▁census	-12.068
▁certified	-12.068
▁charging	-12.068
▁cholera	-12.068
▁clarified	-12.068
▁colour	-12.068
▁condolences	-12.068
▁conferencing	-12.068
▁controversy	-12.068
▁convenient	-12.068
▁debating	-12.068
▁deleting	-12.068
▁departure	-12.068
▁disallowance	-12.068
▁dispensaries	-12.068
▁downtrodden	-12.068
▁easily	-12.068
▁enabling	-12.068
▁enhancing	-12.068
▁entries	-12.068
▁explanatory	-12.068
▁fascist	-12.068
▁fledged	-12.068
▁foHkkx	-12.068
▁forgotten	-12.068
▁ftlesa	-12.068
▁harassment	-12.068
▁horticulture	-12.068
▁humbly	-12.068
▁identification	-12.068
▁inaugurate	-12.068
▁incomplete	-12.068
▁inconvenience	-12.068
▁indicators	-12.068
▁invitation	-12.068
▁kilometers	-12.068
▁lacs	-12.068
▁levied	-12.068
▁lquokbZ	-12.068
▁manpower	-12.068
▁maritime	-12.068
▁mathematics	-12.068
▁merger	-12.068
▁millennium	-12.068
▁overbridge	-12.068
▁oÉnoaÉ	-12.068
▁oÉnxÉ	-12.068
▁oÉàÉoaÉÉ	-12.068
▁paramilitary	-12.068
▁pertinent	-12.068
▁photograph	-12.068
▁placing	-12.068
▁prime	-12.068
▁provocation	-12.068
▁provoke	-12.068
▁ratified	-12.068
▁reassembled	-12.068
▁refund	-12.068
▁reopen	-12.068
▁replacing	-12.068
▁revamp	-12.068
▁ritual	-12.068
▁satisfaction	-12.068
▁satisfactory	-12.068
▁scrutinise	-12.068
▁securities	-12.068
▁slaughter	-12.068
▁spell	-12.068
▁strange	-12.068
▁substantiate	-12.068
▁succumb	-12.068
▁surrender	-12.068
▁sympathy	-12.068
▁tariff	-12.068
▁twelve	-12.068
▁undisputed	-12.068
▁unmanned	-12.068
▁unusual	-12.068
▁upgrade	-12.068
▁upheld	-12.068
▁verified	-12.068
▁vicious	-12.068
▁victory	-12.068
▁wrote	-12.068
▁xcå	-12.068
▁अतिशीघ्र	-12.068
▁अनुपालन	-12.068
▁अनुसरण	-12.068
▁अयोग्य	-12.068
▁अर्थात्	-12.068
▁आंतरिक	-12.068
▁आईएसआई	-12.068
▁आकाशवाणी	-12.068
▁आनशक	-12.068
▁आरम्भ	-12.068
▁इण्डस्ट्रीज	-12.068
▁इस्पात	-12.068
▁उन्नयन	-12.068
▁ऊंचे	-12.068
▁एकाउंट	-12.068
▁एग्रो	-12.068
▁एजुकेशन	-12.068
▁एजेंसियां	-12.068
▁एयरलाइन	-12.068
▁ऑयल	-12.068
▁ओलावृष्टि	-12.068
▁कंसीडर	-12.068
▁करुणा	-12.068
▁कार्पोरेशन	-12.068
▁कार्मिक	-12.068
▁किल्लत	-12.068
▁कुल्लू	-12.068
▁केमिकल	-12.068
▁गरौठा	-12.068
▁गाजियाबाद	-12.068
▁गाड़ियां	-12.068
▁गुरिल्ला	-12.068
▁गुस्सा	-12.068
▁ग्रांट	-12.068
▁चतुर्वेदी	-12.068
▁चुनकर	-12.068
▁चौथा	-12.068
▁जन्मभूमि	-12.068
▁झुग्गी	-12.068
▁टर्मिनल	-12.068
▁टेक्नोलॉजी	-12.068
▁टेलीविजन	-12.068
▁ठक्कर	-12.068
▁डिवीजन	-12.068
▁ततपश	-12.068
▁तत्पश्चात्	-12.068
▁तीसरा	-12.068
▁तूफान	-12.068
▁दर्शाया	-12.068
▁दुश्मन	-12.068
▁दूसरों	-12.068
▁दृष्िट	-12.068
▁धंधा	-12.068
▁निकोबार	-12.068
▁नियंत्रक	-12.068
▁निराकरण	-12.068
▁निर्वहन	-12.068
▁पट्टी	-12.068
▁पपपपपपपप	-12.068
▁परिचालन	-12.068
▁पायलट	-12.068
▁पीठासीन	-12.068
▁पृथक	-12.068
▁प्रणालियों	-12.068
▁प्रतक्रिया	-12.068
▁प्रतिपक्ष	-12.068
▁प्रदूषित	-12.068
▁प्रमोशन	-12.068
▁प्रसन्न	-12.068
▁प्रेरित	-12.068
▁प्रोरोग	-12.068
▁फैसले	-12.068
▁फोटो	-12.068
▁बरौनी	-12.068
▁बांकुरा	-12.068
▁बुंदेलखंड	-12.068
▁बेरोज़गार	-12.068
▁बैकवर्ड	-12.068
▁बौद्ध	-12.068
▁भयानक	-12.068
▁भाजपा	-12.068
▁भीलवाड़ा	-12.068
▁मतभेद	-12.068
▁मनसुखभाई	-12.068
▁मनुष्य	-12.068
▁महालेखापरीक्षक	-12.068
▁माहौल	-12.068
▁मुजफ्फरनगर	-12.068
▁मुननरका	-12.068
▁मुनाफा	-12.068
▁मेहनत	-12.068
▁मैनपुरी	-12.068
▁रमेश	-12.068
▁रिक्वेस्ट	-12.068
▁रिजैक्ट	-12.068
▁रिवोल्युशन	-12.068
▁रुपयों	-12.068
▁रेड्डी	-12.068
▁रेलगाड़ी	-12.068
▁लड़की	-12.068
▁वकतव्य	-12.068
▁वर्कशाप	-12.068
▁विक्रय	-12.068
▁विद्वान	-12.068
▁विमर्श	-12.068
▁शकधर	-12.068
▁शकुनी	-12.068
▁शाहाबाद	-12.068
▁शीघ्रातिशीघ्र	-12.068
▁शून्यकाल	-12.068
▁सच्चाई	-12.068
▁सप्लीमेंट्री	-12.068
▁सब्जियों	-12.068
▁समूचे	-12.068
▁सम्पदा	-12.068
▁सलूम्बर	-12.068
▁सांगवान	-12.068
▁साधारण	-12.068
▁सिग्नल	-12.068
▁सीएजी	-12.068
▁सुचारू	-12.068
▁स्टोन	-12.068
▁हन्नान	-12.068
▁हरिभाऊ	-12.068
▁हसनपुर	-12.068
▁हेमलाल	-12.068
▁हैंडपम्प	-12.068
▁होडल्या	-12.068
▁१९९१	-12.068
GOVIND	-12.068
▁Consequent	-12.068
▁Delta	-12.068
▁Dilip	-12.068
▁Katwa	-12.068
▁Legal	-12.068
▁MANDA	-12.068
▁MATHUR	-12.068
▁ROY	-12.068
▁Rawale	-12.068
▁Russia	-12.068
▁Salaries	-12.068
▁Saurashtra	-12.068
▁Showing	-12.068
▁disappear	-12.068
▁duration	-12.068
▁executive	-12.068
▁flaw	-12.068
▁migrant	-12.068
▁peculiar	-12.068
▁rFkk	-12.068
▁respectfully	-12.068
▁sharp	-12.068
▁valuation	-12.068
▁ÉÊBÉEoÉÉÒ	-12.068
▁́ÉolÉÉ	-12.068
▁अड्डा	-12.068
▁क्लॉज	-12.068
▁खरीफ	-12.068
▁गावित	-12.068
▁घोसी	-12.068
▁चौबे	-12.068
▁जलस्तर	-12.068
▁दोपहर	-12.068
▁निकासी	-12.068
▁बाबागंगनाथमाग	-12.068
▁मुद्रा	-12.068
▁मौके	-12.068
▁लैण्ड	-12.068
▁वर्णित	-12.068
▁वसावा	-12.068
▁सवीकार	-12.068
▁सिरसा	-12.068
▁BÉEäxp	-12.068
▁German	-12.068
▁Kandla	-12.068
▁MARAN	-12.068
▁copra	-12.068
▁jump	-12.068
▁kilo	-12.068
▁meagre	-12.068
▁असफल	-12.068
▁उललख	-12.068
▁कॉमन	-12.068
▁गाइड	-12.068
▁डिपो	-12.068
▁पैदल	-12.068
▁भत्ता	-12.068
▁मंशा	-12.068
▁याचिका	-12.068
▁लैड	-12.068
▁लोधी	-12.068
▁विनाश	-12.068
▁विवाह	-12.068
▁व्यस्त	-12.068
▁सिवनी	-12.068
▁LTTE	-12.068
▁lathi	-12.068
▁lock	-12.068
▁steep	-12.068
▁खणड	-12.068
▁BSF	-12.068
▁Daily	-12.068
▁firing	-12.068
▁rendered	-12.068
▁rose	-12.068
▁अजीत	-12.068
▁कांगड़ा	-12.068
▁नखिल	-12.068
▁पत्नी	-12.068
▁Signed	-12.068
▁Voting	-12.068
▁sake	-12.068
▁उरई	-12.068
▁जवानों	-12.068
अकबरपुर	-12.068
▁Fast	-12.068
▁Pope	-12.068
▁glad	-12.068
▁leap	-12.068
▁naming	-12.068
▁stopping	-12.068
▁मिलावट	-12.068
▁युग	-12.068
▁1953	-12.068
▁domain	-12.068
▁उपसस	-12.068
▁कावेरी	-12.068
▁मनीष	-12.068
▁1924	-12.068
▁1970	-12.068
▁depth	-12.068
▁उखाड़	-12.068
▁दादा	-12.068
▁1962	-12.068
▁overrun	-12.068
▁relied	-12.068
▁अंश	-12.068
▁उपयोगिता	-12.068
चांदनी	-12.068
टिप्पणियां	-12.068
▁Computerized	-12.068
▁dying	-12.068
▁अनुपस्थित	-12.068
▁धरने	-12.068
▁govt	-12.068
▁initial	-12.068
▁आशय	-12.068
वषत	-12.068
▁creed	-12.068
▁मसले	-12.068
▁Penal	-12.068
▁आकलन	-12.068
▁पततव	-12.068
▁fide	-12.068
▁बर्क	-12.068
▁Desam	-12.068
▁Vyas	-12.068
▁Award	-12.068
▁uncertainty	-12.068
▁ितवादीगण	-12.068
▁नाईक	-12.068
▁AIR	-12.068
▁oversee	-12.068
▁elementary	-12.068
▁singh	-12.068
▁ट्रीट	-12.068
▁तलब	-12.068
▁संघर्ष	-12.0681
▁Kalu	-12.0681
▁Announcement	-12.0681
▁abide	-12.0681
▁परिसर	-12.0681
▁sister	-12.0681
▁कौल	-12.0681
▁Abu	-12.0681
▁laugh	-12.0681
▁गंडक	-12.0681
▁behest	-12.0681
▁Mundaji	-12.0681
▁AäoÉÉ	-12.0681
▁Raigarh	-12.0681
▁कमाने	-12.0681
▁Clearance	-12.0681
▁Adra	-12.0681
▁beaten	-12.0681
▁सिंधिया	-12.0681
▁Empowerment	-12.0681
▁बुलाएंगे	-12.0681
▁liberalisation	-12.0681
▁मंहगाई	-12.0681
▁मोल्लाह	-12.0681
▁Medal	-12.0681
▁conference	-12.0681
▁toxic	-12.0681
▁रत्न	-12.0681
▁lane	-12.0681
▁taught	-12.0681
▁alive	-12.0681
▁caught	-12.0681
▁hazardous	-12.0681
DHAR	-12.0681
▁बिंदुओं	-12.0681
▁Awas	-12.0681
▁समाजवादी	-12.0681
▁बिक्रम	-12.0681
▁Revolution	-12.0681
▁càÉå	-12.0681
Leave	-12.0681
▁सम्माननीय	-12.0681
▁priorities	-12.0681
▁पैनल	-12.0681
▁Nodal	-12.0681
▁बिन्दुओं	-12.0682
गाँव	-12.0682
▁मैदान	-12.0682
Let	-12.0682
▁successive	-12.0682
▁xÉBÉEä	-12.0682
▁encroachment	-12.0682
▁बिन्दु	-12.0682
▁reverse	-12.0682
▁Movement	-12.0682
▁Palani	-12.0682
▁civilisation	-12.0682
▁संभाग	-12.0682
▁९९	-12.0682
▁कथन	-12.0682
▁बढ़ेगी	-12.0682
▁classified	-12.0683
▁bought	-12.0683
▁enactment	-12.0683
▁rising	-12.0683
▁Workmen	-12.0683
▁डेटा	-12.0683
▁Alwar	-12.0683
▁सतनामी	-12.0683
▁Everyone	-12.0683
▁washed	-12.0683
▁उपक्रम	-12.0683
▁यूरिया	-12.0683
▁सीमान्त	-12.0684
▁computer	-12.0684
▁प्लानिंग	-12.0684
▁preventive	-12.0684
▁महंगी	-12.0684
▁inflationary	-12.0684
▁bona	-12.0684
▁Vajpayeeji	-12.0684
Asstt	-12.0684
▁Moti	-12.0685
▁३८	-12.0685
▁ÉÊàÉ	-12.0685
▁Somnathji	-12.0686
widening	-12.0686
▁DEVE	-12.0686
▁रखिये	-12.0686
▁लास्ट	-12.0686
▁coastal	-12.0686
▁players	-12.0686
▁1947	-12.0686
▁सोचते	-12.0687
▁प्रान्त	-12.0687
▁४००	-12.0687
▁Kanti	-12.0687
▁́ÉÉÆ	-12.0688
▁बनेगी	-12.0688
▁मागग	-12.0688
▁Yet	-12.0688
▁शान्ति	-12.0688
ÉFÉ	-12.0688
▁membership	-12.0688
▁साकार	-12.0688
▁Kashi	-12.0688
▁गुड़	-12.0689
▁प्रक्रियाओं	-12.0689
▁रखिए	-12.0689
▁profitable	-12.069
▁ITO	-12.069
▁Eight	-12.069
▁Anand	-12.069
▁धाराओं	-12.069
▁अभिन	-12.0691
▁stable	-12.0691
▁सदियों	-12.0691
▁workmen	-12.0691
▁Loan	-12.0692
फुल	-12.0692
िल्ली	-12.0692
▁प्रैस	-12.0692
▁Lankan	-12.0693
▁1948	-12.0693
34]	-12.0693
▁रिफ	-12.0694
▁Ent	-12.0694
▁एमपी	-12.0694
▁calculation	-12.0694
▁नगरीय	-12.0695
▁host	-12.0696
▁प्रहर	-12.0696
▁निकलने	-12.0697
39]	-12.0698
udge	-12.0698
▁बेनी	-12.0698
▁reflection	-12.0699
▁एवम्	-12.0699
ेटरी	-12.0699
▁निकलता	-12.0699
SEC	-12.07
▁assertion	-12.0709
ujh	-12.0729
▁wage	-12.0747
▁customer	-12.0763
ैन्स	-12.0775
▁Put	-12.0795
awada	-12.0802
▁किशनगढ	-12.0826
पोर्ट	-12.0858
ÉèoÉä	-12.0893
वायें	-12.0896
▁_____	-12.1088
▁forego	-12.1266
ैले	-12.1449
▁Gita	-12.156
ÉÊBÉEãÉ	-12.1702
▁oÉà	-12.1751
nf	-12.1765
▁dictate	-12.1858
▁झगड	-12.1967
▁बोर	-12.2155
formation	-12.2232
ternal	-12.2267
▁regulation	-12.2282
▁godown	-12.2282
void	-12.2288
रटन	-12.2319
▁पिछड़	-12.232
culture	-12.2326
route	-12.2326
work	-12.2326
Before	-12.2326
महाराजगंज	-12.2326
शक्ति	-12.2326
Madhya	-12.2326
–	-12.2326
यदि	-12.2326
वहां	-12.2328
▁Consider	-12.2329
▁select	-12.2331
▁drink	-12.2332
▁communicate	-12.2333
▁attach	-12.2334
▁demolish	-12.2334
▁Stand	-12.2338
▁quo	-12.234
▁quick	-12.234
▁Similar	-12.234
▁consistent	-12.2343
▁Advisor	-12.2343
BIND	-12.2344
volution	-12.2344
▁relax	-12.2344
▁cultivat	-12.2345
▁possess	-12.2345
▁recess	-12.2345
▁प्राइम	-12.2345
▁इंजीनियर	-12.2345
▁Install	-12.2345
▁महंगा	-12.2346
▁PRO	-12.2346
▁भुगत	-12.2346
▁Rashtrapati	-12.2346
▁Clear	-12.2346
▁supplement	-12.2346
▁́ÉvÉÉ	-12.2346
▁चित्तौड़	-12.2346
▁instruct	-12.2346
▁कोआपरेट	-12.2346
▁adult	-12.2347
▁Ahmed	-12.2347
/2010	-12.2347
MEND	-12.2347
OFFICE	-12.2347
reporter	-12.2347
ȣ	-12.2347
ॠ	-12.2347
‰	-12.2347
▁Regular	-12.2347
▁absorb	-12.2347
▁adjust	-12.2347
▁assault	-12.2347
▁attribut	-12.2347
▁discover	-12.2347
▁volunteer	-12.2347
▁आइटम	-12.2347
▁कुँवर	-12.2347
▁हकीकत	-12.2347
Miscellaneous	-12.2347
NAFED	-12.2347
SPMCIL	-12.2347
Sravana	-12.2347
Vaisakha	-12.2347
abilities	-12.2347
ccommodation	-12.2347
ndoubtedly	-12.2347
ÉVÉMÉÆVÉ	-12.2347
к	-12.2347
मधुबनी	-12.2347
शानुसार	-12.2347
साइकिल	-12.2347
▁26105682	-12.2347
▁3⁄4	-12.2347
▁400001	-12.2347
▁ACHARYA	-12.2347
▁AMBEDKAR	-12.2347
▁ATHAWALE	-12.2347
▁AURANGABAD	-12.2347
▁Activities	-12.2347
▁Advocate	-12.2347
▁Amount	-12.2347
▁Anniversary	-12.2347
▁Appointment	-12.2347
▁Arrah	-12.2347
▁Assets	-12.2347
▁Atrocities	-12.2347
▁BADNORE	-12.2347
▁BHUBANESWAR	-12.2347
▁Baddi	-12.2347
▁Biju	-12.2347
▁Bikram	-12.2347
▁Bound	-12.2347
▁Bsnl	-12.2347
▁Bureaucrat	-12.2347
▁Buxar	-12.2347
▁CHACKO	-12.2347
▁CHAOBA	-12.2347
▁CHAVAN	-12.2347
▁CHENNAI	-12.2347
▁CONVENTION	-12.2347
▁COOCHBEHAR	-12.2347
▁Centaur	-12.2347
▁Chambal	-12.2347
▁Chavan	-12.2347
▁Chhatisgarh	-12.2347
▁Choudhary	-12.2347
▁Chowdhury	-12.2347
▁Circular	-12.2347
▁Commander	-12.2347
▁Commencing	-12.2347
▁Compulsory	-12.2347
▁Constituencies	-12.2347
▁Continue	-12.2347
▁Convert	-12.2347
▁Cricket	-12.2347
▁Crisis	-12.2347
▁Crores	-12.2347
▁DOME	-12.2347
▁Dahyabhai	-12.2347
▁Damodar	-12.2347
▁Declaration	-12.2347
▁Delkar	-12.2347
▁Democratic	-12.2347
▁Dibrugarh	-12.2347
▁Disaster	-12.2347
▁Dispute	-12.2347
▁Domestic	-12.2347
▁Eighteen	-12.2347
▁Elected	-12.2347
▁Electronic	-12.2347
▁Embassy	-12.2347
▁Emergency	-12.2347
▁Enough	-12.2347
▁Enquiry	-12.2347
▁Erosion	-12.2347
▁Expenditure	-12.2347
▁Father	-12.2347
▁FkkA	-12.2347
▁Gandak	-12.2347
▁Giripar	-12.2347
▁Graduate	-12.2347
▁Gratuity	-12.2347
▁Gwalior	-12.2347
▁HUSSAIN	-12.2347
▁Harbour	-12.2347
▁Himalayan	-12.2347
▁Historical	-12.2347
▁IAEA	-12.2347
▁IISCO	-12.2347
▁Investigate	-12.2347
▁Investigating	-12.2347
▁KALYAN	-12.2347
▁KANUNGO	-12.2347
▁Karunakaran	-12.2347
▁Kashyap	-12.2347
▁Katiyar	-12.2347
▁Kotdwar	-12.2347
▁Laxman	-12.2347
▁Likewise	-12.2347
▁Lohardaga	-12.2347
▁MADURAI	-12.2347
▁MANEKA	-12.2347
▁MANGALORE	-12.2347
▁MANJ	-12.2347
▁MOTION	-12.2347
▁MUNIYAPPA	-12.2347
▁Malegaon	-12.2347
▁Maveli	-12.2347
▁Misrikh	-12.2347
▁MÉxxÉä	-12.2347
▁NAGAR	-12.2347
▁NATIONAL	-12.2347
▁NIKHIL	-12.2347
▁Nagbhid	-12.2347
▁Nigam	-12.2347
▁Obcs	-12.2347
▁Occasion	-12.2347
▁Overbridge	-12.2347
▁POTO	-12.2347
▁PRABHAKAR	-12.2347
▁PRITHVIRAJ	-12.2347
▁Pandiyan	-12.2347
▁Parbhani	-12.2347
▁Perhaps	-12.2347
▁Pramod	-12.2347
▁Pranab	-12.2347
▁Prevailing	-12.2347
▁Priority	-12.2347
▁Proclamation	-12.2347
▁Procurement	-12.2347
▁Progress	-12.2347
▁Quota	-12.2347
▁RAJYA	-12.2347
▁RAMDAS	-12.2347
▁REGION	-12.2347
▁Ratangarh	-12.2347
▁Reduction	-12.2347
▁Register	-12.2347
▁Rehabilitation	-12.2347
▁Resort	-12.2347
▁Restart	-12.2347
▁Revive	-12.2347
▁SARDAR	-12.2347
▁SIKDAR	-12.2347
▁Sajjan	-12.2347
▁Santhali	-12.2347
▁Semiconductor	-12.2347
▁Shajapur	-12.2347
▁Shekhar	-12.2347
▁Singapore	-12.2347
▁Sitaram	-12.2347
▁Society	-12.2347
▁Sponsored	-12.2347
▁Spread	-12.2347
▁Subhash	-12.2347
▁Supplied	-12.2347
▁Surinder	-12.2347
▁Swamy	-12.2347
▁SÉÉciÉÉ	-12.2347
▁SÉÉcÚÆMÉÉ	-12.2347
▁SÉãÉÉaÉÉ	-12.2347
▁TADA	-12.2347
▁TAPAN	-12.2347
▁TCPDF	-12.2347
▁TOURISM	-12.2347
▁TRILOCHAN	-12.2347
▁Tehalka	-12.2347
▁Tendulkar	-12.2347
▁Tirunelveli	-12.2347
▁Transmitter	-12.2347
▁Tripathi	-12.2347
▁ULUBERIA	-12.2347
▁Vanaspati	-12.2347
▁Vidarbha	-12.2347
▁Vidyutikaran	-12.2347
▁Vinod	-12.2347
▁Violence	-12.2347
▁Vizhinjam	-12.2347
▁WRIT	-12.2347
▁Wednesday	-12.2347
▁Wireless	-12.2347
▁Yatra	-12.2347
▁Yuva	-12.2347
▁aadmi	-12.2347
▁accompanied	-12.2347
▁accrue	-12.2347
▁accusation	-12.2347
▁analyse	-12.2347
▁analysis	-12.2347
▁annexure	-12.2347
▁anomalies	-12.2347
▁appreciating	-12.2347
▁approving	-12.2347
▁army	-12.2347
▁arriving	-12.2347
▁artificial	-12.2347
▁association	-12.2347
▁battle	-12.2347
▁bifurcation	-12.2347
▁buck	-12.2347
▁carriage	-12.2347
▁chancellor	-12.2347
▁comparison	-12.2347
▁competitive	-12.2347
▁concurrence	-12.2347
▁congratulation	-12.2347
▁conserve	-12.2347
▁constrained	-12.2347
▁contempt	-12.2347
▁contingency	-12.2347
▁continuation	-12.2347
▁corresponding	-12.2347
▁coupons	-12.2347
▁cremation	-12.2347
▁culprits	-12.2347
▁dairy	-12.2347
▁deciding	-12.2347
▁defamatory	-12.2347
▁deficiencies	-12.2347
▁defying	-12.2347
▁depreciation	-12.2347
▁desirable	-12.2347
▁disagree	-12.2347
▁disbursement	-12.2347
▁dismantled	-12.2347
▁dkjZokbZ	-12.2347
▁dominated	-12.2347
▁drama	-12.2347
▁electronic	-12.2347
▁enterprises	-12.2347
▁entertain	-12.2347
▁equipped	-12.2347
▁eventually	-12.2347
▁excess	-12.2347
▁exclusion	-12.2347
▁exhaustive	-12.2347
▁exhibited	-12.2347
▁exonerat	-12.2347
▁fencing	-12.2347
▁fifteen	-12.2347
▁fourteen	-12.2347
▁generic	-12.2347
▁gentleman	-12.2347
▁geographical	-12.2347
▁gradually	-12.2347
▁graduate	-12.2347
▁healthcare	-12.2347
▁identical	-12.2347
▁ideological	-12.2347
▁ignoring	-12.2347
▁improper	-12.2347
▁indication	-12.2347
▁infectious	-12.2347
▁infructuous	-12.2347
▁innovative	-12.2347
▁integral	-12.2347
▁intensive	-12.2347
▁intimation	-12.2347
▁investigating	-12.2347
▁invoke	-12.2347
▁izfroknh	-12.2347
▁kidney	-12.2347
▁kisans	-12.2347
▁knew	-12.2347
▁ladies	-12.2347
▁legislate	-12.2347
▁legitimate	-12.2347
▁licensed	-12.2347
▁malaria	-12.2347
▁mifLFkr	-12.2347
▁mockery	-12.2347
▁monetary	-12.2347
▁monument	-12.2347
▁motor	-12.2347
▁muslim	-12.2347
▁neigh	-12.2347
▁nitro	-12.2347
▁nomination	-12.2347
▁northern	-12.2347
▁omission	-12.2347
▁overwhelming	-12.2347
▁oÉÉÊàÉÉÊiÉ	-12.2347
▁pakistan	-12.2347
▁pledge	-12.2347
▁plurality	-12.2347
▁possibly	-12.2347
▁potable	-12.2347
▁predict	-12.2347
▁premises	-12.2347
▁privatised	-12.2347
▁privatising	-12.2347
▁promoting	-12.2347
▁promulgation	-12.2347
▁rationale	-12.2347
▁regret	-12.2347
▁relinquish	-12.2347
▁remuneration	-12.2347
▁replies	-12.2347
▁rival	-12.2347
▁secrecy	-12.2347
▁somewhere	-12.2347
▁sophisticated	-12.2347
▁sorrow	-12.2347
▁specify	-12.2347
▁statute	-12.2347
▁struggle	-12.2347
▁substantive	-12.2347
▁superfast	-12.2347
▁surcharge	-12.2347
▁tackling	-12.2347
▁technological	-12.2347
▁telecom	-12.2347
▁tortured	-12.2347
▁transgress	-12.2347
▁untold	-12.2347
▁upliftment	-12.2347
▁urging	-12.2347
▁vaÉÉxÉ	-12.2347
▁viewpoint	-12.2347
▁wholeheartedly	-12.2347
▁ÉËoÉc	-12.2347
▁अखंडता	-12.2347
▁अधिग्रहीत	-12.2347
▁अधूरे	-12.2347
▁अध्यापक	-12.2347
▁अपर्याप्त	-12.2347
▁अमृतसर	-12.2347
▁अमैंडमैंट	-12.2347
▁अर्पित	-12.2347
▁अलाऊ	-12.2347
▁अलोकेशन	-12.2347
▁अवरुद्ध	-12.2347
▁अवैधािनक	-12.2347
▁अशांति	-12.2347
▁असहाय	-12.2347
▁आकर्िषत	-12.2347
▁आकांक्षा	-12.2347
▁आजीविका	-12.2347
▁आरोग्य	-12.2347
▁आलोचना	-12.2347
▁इंकवायरी	-12.2347
▁इंक्वायरी	-12.2347
▁इंडस्ट्रियल	-12.2347
▁इंसाफ	-12.2347
▁इज्जत	-12.2347
▁इमारतों	-12.2347
▁इम्पोर्ट	-12.2347
▁इलेक्शन	-12.2347
▁उन्मूलन	-12.2347
▁उ०प्र०	-12.2347
▁एडमिट	-12.2347
▁एरियर	-12.2347
▁ओएनजीसी	-12.2347
▁कंपनियां	-12.2347
▁कमर्शियल	-12.2347
▁कल्पना	-12.2347
▁क़श्िचयन	-12.2347
▁कांवड़	-12.2347
▁कालोनियां	-12.2347
▁कुपोषण	-12.2347
▁केबिनेट	-12.2347
▁कैन्टोनमैंट	-12.2347
▁कोडरमा	-12.2347
▁क्रंति	-12.2347
▁क्रमिनल	-12.2347
▁क्रियान्वयन	-12.2347
▁क्रॉसिंग	-12.2347
▁गुजारिश	-12.2347
▁घोटाला	-12.2347
▁चम्बल	-12.2347
▁चिखलिया	-12.2347
▁चेतावनी	-12.2347
▁जगदम्बिका	-12.2347
▁जनगणना	-12.2347
▁जनजीवन	-12.2347
▁जयाबेन	-12.2347
▁जलाशय	-12.2347
▁जानलेवा	-12.2347
▁जिंदगी	-12.2347
▁जितेन्द्र	-12.2347
▁जुल्म	-12.2347
▁ज्योति	-12.2347
▁ज्वाइंट	-12.2347
▁टीकमगढ़	-12.2347
▁टैरेरिज्म	-12.2347
▁ट्राइब्स	-12.2347
▁ट्रैफिक	-12.2347
▁डिपार्टमैंट	-12.2347
▁डिब्बे	-12.2347
▁ढूंढ	-12.2347
▁तम्बाकू	-12.2347
▁तानाशाही	-12.2347
▁तिरुवनंतपुरम	-12.2347
▁तीसरी	-12.2347
▁तूफ़ानी	-12.2347
▁त्यागपत्र	-12.2347
▁त्रिपुरा	-12.2347
▁दािणडक	-12.2347
▁द्यण्ड्ढ	-12.2347
▁द्वितीय	-12.2347
▁द्ृष्टिकोण	-12.2347
▁धरोहर	-12.2347
▁धीरज	-12.2347
▁ध्यानाकर्षण	-12.2347
▁नकारात्मक	-12.2347
▁नजदीक	-12.2347
▁ननवदन	-12.2347
▁नागेश्वर	-12.2347
▁न्द्रीय	-12.2347
▁पंजीकार	-12.2347
▁परिसीमन	-12.2347
▁पूर्वोत्तर	-12.2347
▁पैट्रोल	-12.2347
▁पैसेंजर	-12.2347
▁पौराणिक	-12.2347
▁प्रतनधित्व	-12.2347
▁प्रदर्शित	-12.2347
▁प्रशंसा	-12.2347
▁फांसी	-12.2347
▁फायदे	-12.2347
▁बंटवारा	-12.2347
▁बंटवारे	-12.2347
▁बक्सर	-12.2347
▁बरकरार	-12.2347
▁बलिदान	-12.2347
▁बीजेपी	-12.2347
▁बूझकर	-12.2347
▁ब्रटिश	-12.2347
▁ब्रॉडगेज	-12.2347
▁भगोरा	-12.2347
▁मद्रास	-12.2347
▁मध्यप्रदेश	-12.2347
▁मनोबल	-12.2347
▁मल्टीनेशनल	-12.2347
▁महेन्द्र	-12.2347
▁मार्ग्रेट	-12.2347
▁मिसरिख	-12.2347
▁मुंगेली	-12.2347
▁मुआवजे	-12.2347
▁मुकाबला	-12.2347
▁मुखर्जी	-12.2347
▁मुफ्त	-12.2347
▁मेडीकल	-12.2347
▁मैडिकल	-12.2347
▁मैनेजमेंट	-12.2347
▁यायपीठ	-12.2347
▁युनिवर्सिटी	-12.2347
▁रत्नागरि	-12.2347
▁राजपूत	-12.2347
▁रायबरेली	-12.2347
▁रीज़न	-12.2347
▁रेणुका	-12.2347
▁रेलगाड़ियों	-12.2347
▁लंबाई	-12.2347
▁लड़कियों	-12.2347
▁विदड्रा	-12.2347
▁विधानसभा	-12.2347
▁विभाजन	-12.2347
▁विरूद्ध	-12.2347
▁शासकीय	-12.2347
▁शाहजहांपुर	-12.2347
▁शोलापुर	-12.2347
▁श्लोक	-12.2347
▁संगठित	-12.2347
▁संदेह	-12.2347
▁संस्तुति	-12.2347
▁संस्थायें	-12.2347
▁सईदुज्जमा	-12.2347
▁समृद्ध	-12.2347
▁सरचार्ज	-12.2347
▁साझा	-12.2347
▁सामूहिक	-12.2347
▁साहित्य	-12.2347
▁सिलसिले	-12.2347
▁सुद्ृढ़	-12.2347
▁स्टेंडिंग	-12.2347
▁स्टॉपेज	-12.2347
▁स्रोत	-12.2347
▁हस्ताक्षर	-12.2347
▁हहसस	-12.2347
▁१९४७	-12.2347
▁१९८१	-12.2347
▁१९९३	-12.2347
[...]
