<pad>	0
<unk>	0
<s>	0
</s>	0
,	-3.35672
▁the	-3.4412
▁of	-4.08707
▁to	-4.21851
।	-4.34655
▁(	-4.55547
▁है	-4.62326
▁is	-4.68709
▁and	-4.70039
▁के	-4.70114
)	-4.71408
▁in	-4.79116
▁I	-4.96207
▁में	-4.97258
▁a	-5.02735
▁की	-5.02831
▁:	-5.0315
▁that	-5.08653
:	-5.1643
▁on	-5.21109
▁से	-5.2945
▁को	-5.36073
▁The	-5.39263
▁not	-5.39873
▁और	-5.42844
Interruptions	-5.44013
▁this	-5.47269
▁का	-5.50124
▁have	-5.51097
▁be	-5.51321
▁for	-5.52342
▁are	-5.57114
▁हैं	-5.60303
▁MR	-5.64635
▁it	-5.67358
▁कि	-5.7827
▁...	-5.7972
▁has	-5.80111
▁नहीं	-5.83682
▁by	-5.84231
▁SPEAKER	-5.855
▁पर	-5.90841
▁you	-5.91959
▁SHRI	-5.93389
▁will	-5.96247
▁Government	-6.00257
▁was	-6.01271
▁महोदय	-6.0243
▁लिए	-6.08626
▁Sir	-6.09873
▁श्री	-6.10001
▁Shri	-6.16308
▁as	-6.16568
▁)	-6.17992
▁we	-6.18098
▁इस	-6.19108
▁क	-6.19338
▁सरकार	-6.20763
▁भी	-6.20913
?	-6.21156
▁यह	-6.21965
▁Minister	-6.22367
s	-6.23496
▁been	-6.32227
▁with	-6.33321
▁मैं	-6.33905
▁House	-6.38342
▁हो	-6.40831
▁व्यवधान	-6.43128
▁should	-6.44502
▁from	-6.45214
▁would	-6.45632
▁To	-6.46467
▁which	-6.46956
▁जी	-6.47229
▁Need	-6.48853
▁there	-6.48893
▁कर	-6.49434
▁एक	-6.51134
▁Of	-6.51544
▁also	-6.5327
▁):	-6.54506
▁"	-6.55083
▁जो	-6.55942
▁न	-6.56107
▁करने	-6.56359
▁hon	-6.56493
▁किया	-6.57098
▁at	-6.57148
▁In	-6.57498
▁It	-6.58505
▁हूं	-6.60011
▁all	-6.61562
▁ने	-6.63993
▁अध्यक्ष	-6.68659
▁आप	-6.69404
▁am	-6.70151
▁Bill	-6.70214
▁Sabha	-6.70558
▁do	-6.72901
▁an	-6.76715
▁or	-6.77026
▁	-6.77253
▁तो	-6.78332
▁they	-6.78667
▁Lok	-6.79207
▁र	-6.82076
▁can	-6.82707
▁गया	-6.83395
▁he	-6.83437
/	-6.83631
▁मंत्री	-6.8409
▁very	-6.84533
▁We	-6.84702
▁India	-6.85407
▁take	-6.89024
▁your	-6.89578
▁This	-6.8988
▁our	-6.90708
▁दिया	-6.92043
’	-6.9254
▁A	-6.95151
▁people	-6.9592
▁Members	-6.96809
▁State	-6.97823
▁like	-6.98406
;	-7.00023
▁time	-7.00778
▁up	-7.03401
▁चाहिए	-7.04052
▁Title	-7.04161
▁ह	-7.04551
▁रहे	-7.05118
▁country	-7.05782
▁No	-7.06306
▁one	-7.066
▁Debates	-7.0688
▁म	-7.06885
▁CHAIRMAN	-7.08324
▁only	-7.08546
▁बात	-7.09875
▁no	-7.10009
▁about	-7.10132
▁other	-7.10166
▁रहा	-7.10365
▁था	-7.10581
▁सिंह	-7.11394
▁You	-7.11425
▁Please	-7.11624
▁any	-7.13387
▁जा	-7.13713
▁my	-7.13849
▁but	-7.15998
▁what	-7.19315
▁given	-7.19948
▁तक	-7.19995
▁ही	-7.20982
▁these	-7.21131
▁now	-7.21214
▁लेकिन	-7.22617
▁under	-7.25499
▁their	-7.25573
▁go	-7.2596
▁रही	-7.26155
▁were	-7.26173
▁me	-7.26917
▁करना	-7.26991
▁हम	-7.27808
▁।	-7.27915
▁*	-7.28042
▁some	-7.28056
▁who	-7.28762
▁had	-7.28878
▁per	-7.29015
▁व	-7.29145
▁बहुत	-7.29153
▁कोई	-7.29203
▁said	-7.30123
▁देश	-7.30224
▁जाए	-7.30667
▁his	-7.30963
▁लोगों	-7.31262
"	-7.31434
▁But	-7.32213
▁taken	-7.34694
▁स	-7.3558
▁Mr	-7.35968
▁DEPUTY	-7.36146
▁वह	-7.36422
®	-7.37164
▁तथा	-7.37637
▁क्षेत्र	-7.3806
'	-7.38138
▁matter	-7.38801
▁2	-7.41326
▁because	-7.41459
▁...(	-7.41662
▁made	-7.41771
▁Speaker	-7.42241
▁He	-7.42533
▁There	-7.43369
▁एवं	-7.43666
▁so	-7.43845
▁year	-7.45078
▁P	-7.452
▁want	-7.45337
▁may	-7.45595
▁them	-7.45804
▁माननीय	-7.46087
▁being	-7.46802
▁साथ	-7.47037
▁गई	-7.4739
▁S	-7.47406
▁Rs	-7.47482
▁If	-7.47498
▁know	-7.47819
▁issue	-7.48178
▁राज्य	-7.48372
▁more	-7.48564
▁say	-7.49005
▁if	-7.4905
▁सभापति	-7.49249
▁सदन	-7.49719
▁प्रदेश	-7.51254
▁प	-7.51604
▁out	-7.51622
▁लोग	-7.53332
▁speak	-7.53998
▁करता	-7.54807
▁समय	-7.55497
▁उपाध्यक्ष	-7.55503
▁into	-7.55883
▁Central	-7.56921
▁please	-7.57094
▁हुआ	-7.57121
▁him	-7.57665
▁द्वारा	-7.57669
▁चाहता	-7.57669
▁वहां	-7.58594
▁us	-7.58882
▁question	-7.59272
▁come	-7.59326
▁OF	-7.59335
▁Act	-7.59503
▁द	-7.60368
▁then	-7.60913
▁For	-7.61944
▁किसानों	-7.61985
▁1	-7.62495
▁So	-7.62641
▁point	-7.62721
▁On	-7.62883
▁यहां	-7.63919
▁here	-7.64115
▁They	-7.64231
▁ज	-7.64457
▁Now	-7.65099
▁Pradesh	-7.66679
▁after	-7.66679
▁3	-7.66741
▁give	-7.67481
▁December	-7.67687
th	-7.67733
▁order	-7.68284
▁कारण	-7.68488
▁त	-7.68692
▁बारे	-7.68714
▁Member	-7.68719
▁when	-7.69116
▁such	-7.69527
▁make	-7.69538
▁वे	-7.69854
▁केन्द्र	-7.69907
▁cannot	-7.69943
▁going	-7.69999
▁cent	-7.70137
A	-7.70276
▁two	-7.70357
▁माध्यम	-7.70739
▁What	-7.71827
▁इसके	-7.71837
▁5	-7.71883
▁And	-7.72262
▁आज	-7.72678
▁4	-7.72884
▁hrs	-7.73314
▁कुछ	-7.74608
▁August	-7.74825
▁हुए	-7.74825
▁That	-7.74929
▁रेल	-7.75229
▁क्या	-7.75923
▁Railway	-7.75946
▁ध्यान	-7.76582
▁K	-7.76658
▁या	-7.76718
▁Committee	-7.77052
▁record	-7.78565
▁request	-7.79699
▁years	-7.79776
▁विकास	-7.8019
▁Singh	-7.81097
▁उस	-7.82174
▁काम	-7.82424
▁बाद	-7.82486
▁[	-7.82561
▁दी	-7.83495
▁उत्तर	-7.83905
▁होने	-7.83961
▁इसलिए	-7.84174
▁THE	-7.84413
▁अभी	-7.84414
▁आपके	-7.85141
▁मांग	-7.85486
▁–	-7.8586
व्यवधान	-7.85954
▁2005	-7.86037
▁important	-7.86835
।...(	-7.87009
▁जाये	-7.87314
▁भारत	-7.87544
▁against	-7.8758
▁जब	-7.879
ing	-7.88294
▁ल	-7.88579
▁12	-7.8868
▁इन	-7.88759
▁statement	-7.89377
▁थी	-7.89563
▁सकता	-7.89825
▁,	-7.90253
▁>	-7.90949
▁रूप	-7.91082
▁National	-7.91094
▁कार्य	-7.91598
▁down	-7.91859
▁योजना	-7.92378
▁कम	-7.92475
▁10	-7.92719
▁M	-7.92888
(	-7.9302
▁करें	-7.9308
▁कुमार	-7.93405
▁Prime	-7.93429
▁2006	-7.93431
▁today	-7.9396
▁March	-7.94218
▁">	-7.94253
▁रेलवे	-7.94749
▁discussion	-7.94817
▁Regarding	-7.95014
▁बिहार	-7.95522
क	-7.95558
▁Parliament	-7.96083
▁case	-7.9616
▁कहा	-7.96167
▁Commission	-7.96624
▁11	-7.9711
▁पहले	-7.97714
▁देने	-7.97719
▁MINISTER	-7.98253
...	-7.98704
▁already	-7.98813
▁वाले	-7.99091
▁उन्हें	-7.99927
▁/	-8.00004
▁before	-8.00206
▁through	-8.00768
É	-8.00778
▁crore	-8.00857
▁दे	-8.00949
▁15	-8.00982
▁अपनी	-8.01056
▁+	-8.01154
▁6	-8.01293
▁ओर	-8.01307
▁States	-8.0131
▁At	-8.01399
▁As	-8.02358
▁Indian	-8.02599
▁8	-8.02604
▁over	-8.02762
▁थे	-8.02765
▁Report	-8.02833
▁information	-8.03345
▁must	-8.0363
▁C	-8.03927
▁मेरा	-8.04216
0	-8.04282
▁दो	-8.04537
न	-8.04603
▁its	-8.05107
▁Let	-8.05685
▁ग	-8.05832
▁जाने	-8.06282
ा	-8.06314
▁हुई	-8.07162
▁recorded	-8.07205
▁आ	-8.07275
▁2007	-8.07481
▁Therefore	-8.08082
▁‘	-8.08083
▁गए	-8.08087
▁last	-8.08322
*	-8.08379
▁many	-8.09001
▁Not	-8.09048
▁notice	-8.09699
▁first	-8.09902
▁Hon	-8.09925
SHRI	-8.10082
That	-8.10704
▁2003	-8.10893
▁much	-8.11477
▁Table	-8.11478
▁सभा	-8.12103
▁raised	-8.12439
▁whether	-8.12741
▁अपने	-8.12748
▁Ministry	-8.13059
▁आपको	-8.13065
▁same	-8.13699
▁तरह	-8.137
▁मुझे	-8.13702
▁farmers	-8.13719
▁विषय	-8.13996
▁आपने	-8.14375
▁allow	-8.14609
▁ब	-8.14615
▁20	-8.14996
▁बोलने	-8.1532
▁present	-8.15889
▁अगर	-8.16301
▁Court	-8.16433
▁14	-8.17046
▁think	-8.17055
▁करते	-8.17316
▁even	-8.17573
▁done	-8.17628
▁reply	-8.17924
▁“	-8.17924
▁passed	-8.17968
▁place	-8.18076
▁By	-8.18281
▁16	-8.1833
▁those	-8.18634
▁right	-8.18761
▁than	-8.19634
▁speech	-8.19644
▁प्रसाद	-8.19993
▁part	-8.20007
ी	-8.20326
▁7	-8.20402
▁situation	-8.20472
&	-8.20822
▁how	-8.21026
▁dated	-8.21377
2	-8.21697
>	-8.21947
▁motion	-8.22209
त	-8.22574
▁अनुरोध	-8.22766
):	-8.23062
▁उसके	-8.23124
▁2009	-8.23141
#	-8.23197
▁Budget	-8.2325
▁sit	-8.23471
▁करोड़	-8.23793
▁चर्चा	-8.23822
▁seat	-8.23963
▁होगा	-8.24199
▁Finance	-8.24539
▁Nothing	-8.24539
▁करके	-8.24554
▁why	-8.24897
▁provide	-8.25004
▁could	-8.25257
▁2001	-8.25624
▁Chair	-8.25978
▁वर्ष	-8.26282
▁new	-8.26486
▁support	-8.26792
▁V	-8.26938
▁just	-8.27074
i	-8.27445
▁13	-8.28087
▁Bihar	-8.28151
र	-8.28231
▁appeal	-8.28292
▁three	-8.28554
▁हमारे	-8.28555
▁get	-8.2873
▁सके	-8.28893
ल	-8.28958
▁2008	-8.28971
▁बजट	-8.29295
▁हेतु	-8.29678
▁क्योंकि	-8.29679
▁allowed	-8.29708
▁sector	-8.29845
▁उनकी	-8.30057
▁2004	-8.3006
▁&	-8.30596
▁मिल	-8.30613
▁day	-8.30621
▁30	-8.30645
▁2000	-8.30801
▁मेरे	-8.30819
▁ये	-8.30856
d	-8.30888
r	-8.30978
▁need	-8.31347
▁way	-8.31386
▁2002	-8.31465
▁public	-8.31555
▁see	-8.31818
▁Delhi	-8.31963
▁did	-8.31965
▁किसी	-8.32025
▁य	-8.32066
ों	-8.32233
▁व्यवस्था	-8.32342
▁मंत्रालय	-8.32349
▁सभी	-8.32351
▁उनके	-8.32353
▁problem	-8.32543
▁9	-8.32641
▁KUMAR	-8.32719
▁R	-8.3289
▁every	-8.33127
▁Deputy	-8.33517
▁18	-8.34022
▁during	-8.34698
▁दिल्ली	-8.34699
▁number	-8.34898
▁कहना	-8.351
▁Motion	-8.35307
▁नाम	-8.35443
▁प्रस्ताव	-8.35461
▁बार	-8.35661
▁आवश्यकता	-8.35895
▁कई	-8.35955
+	-8.3644
▁सकते	-8.36699
▁2010	-8.36701
▁महत्वपूर्ण	-8.37103
▁निर्माण	-8.37104
▁shall	-8.37511
▁श	-8.37605
ed	-8.37736
▁स्थिति	-8.37916
▁चाहते	-8.37918
▁जिससे	-8.38329
▁अन्य	-8.38744
▁Hour	-8.39153
▁July	-8.39567
▁पूरा	-8.39567
▁AND	-8.39985
▁पानी	-8.3999
▁concerned	-8.39991
e	-8.40316
▁further	-8.40402
▁again	-8.40812
▁मैंने	-8.4088
▁May	-8.40882
▁fact	-8.41033
▁सदस्य	-8.4106
▁where	-8.41235
1	-8.41427
▁price	-8.41474
R	-8.41529
▁When	-8.41671
स	-8.41712
▁अब	-8.42118
▁जाता	-8.42126
!	-8.42251
म	-8.4268
▁power	-8.42755
▁RANJAN	-8.43381
{	-8.43564
▁water	-8.43815
▁17	-8.43897
▁PRIYA	-8.44685
▁BASU	-8.44686
▁अ	-8.44934
▁Constitution	-8.45115
▁उन	-8.45115
▁President	-8.45123
▁adopted	-8.45125
▁यादव	-8.45126
▁does	-8.45165
▁between	-8.45565
▁minutes	-8.45633
▁अधिक	-8.45991
▁सकती	-8.46008
▁well	-8.46017
▁areas	-8.46677
▁put	-8.46679
▁copy	-8.46898
▁संसदीय	-8.469
▁saying	-8.46998
▁consideration	-8.47143
▁decision	-8.4715
▁Uttar	-8.47348
▁जाना	-8.47838
]	-8.47971
▁move	-8.48103
▁back	-8.48182
k	-8.4824
▁Party	-8.48252
▁section	-8.48509
▁19	-8.48554
▁let	-8.48702
▁DASMUNSI	-8.48704
▁पास	-8.48752
▁railway	-8.4896
▁बिल	-8.4898
▁ताकि	-8.49161
▁B	-8.4972
▁giving	-8.5008
▁समर्थन	-8.50543
▁Dr	-8.50653
▁area	-8.50693
▁उसे	-8.51043
▁Home	-8.51475
▁उन्होंने	-8.51476
▁mentioned	-8.51487
▁बैठ	-8.51783
▁ACHARIA	-8.51945
▁हमें	-8.51966
▁इसे	-8.52117
▁DEB	-8.52417
▁Parliamentary	-8.52418
▁called	-8.52432
▁far	-8.52919
▁work	-8.53099
▁land	-8.53101
▁regard	-8.53103
▁English	-8.53848
▁political	-8.54308
▁D	-8.54345
▁अत	-8.54435
▁पत	-8.54443
▁development	-8.54599
▁With	-8.54803
▁कृषि	-8.54811
▁law	-8.55099
▁Provide	-8.55264
▁Kumar	-8.55264
▁interest	-8.55524
▁action	-8.55588
▁conclude	-8.55757
▁different	-8.55781
▁April	-8.55782
▁सब	-8.55833
▁raise	-8.56038
▁line	-8.56083
▁provided	-8.56306
▁होता	-8.5635
▁beg	-8.56392
▁good	-8.56572
▁उपलब्ध	-8.56759
▁All	-8.56761
▁taking	-8.56765
▁subject	-8.57035
▁आपका	-8.57276
▁Chairman	-8.5776
▁डॉ	-8.57768
%	-8.57896
▁Railways	-8.58221
▁देना	-8.58272
▁23	-8.58401
▁November	-8.5876
▁इसमें	-8.5877
▁प्रो	-8.58774
▁अप	-8.58783
I	-8.58794
▁opportunity	-8.59773
▁विशेष	-8.59798
▁”	-8.59836
▁issues	-8.59854
▁कानून	-8.6023
▁ए	-8.60247
▁उनको	-8.60284
▁{	-8.60458
▁view	-8.60598
▁यदि	-8.60801
▁regarding	-8.60836
▁लाल	-8.60866
▁DR	-8.60871
5	-8.61063
▁ले	-8.61229
▁New	-8.61291
▁Library	-8.61311
▁See	-8.61316
4	-8.61506
▁till	-8.61826
▁making	-8.61829
▁Scheduled	-8.61837
▁लाख	-8.62328
)*	-8.62448
▁set	-8.62667
▁महोदया	-8.62783
▁25	-8.6301
a	-8.63158
▁ज्यादा	-8.634
▁world	-8.634
▁name	-8.63692
▁राष्ट्रीय	-8.63919
▁Why	-8.63934
▁भ	-8.64038
▁21	-8.64061
▁कक	-8.6407
▁certain	-8.64444
▁आर्थिक	-8.64462
▁LT	-8.64466
Hindi	-8.64843
▁राजस्थान	-8.64968
▁Recorded	-8.64998
▁adjourned	-8.64999
3	-8.65084
▁Information	-8.65536
▁versions	-8.66085
▁सी	-8.66495
▁इससे	-8.66639
▁22	-8.66726
▁Rajasthan	-8.67139
▁शामिल	-8.67164
▁upon	-8.67183
▁party	-8.67185
▁क्षेत्रों	-8.67252
ly	-8.67355
▁money	-8.67694
▁प्रकार	-8.67714
▁parties	-8.67717
▁Laid	-8.6772
▁दें	-8.67753
▁due	-8.68061
▁प्रतिशत	-8.68266
▁विधेयक	-8.68795
▁स्टेशन	-8.68798
▁ठीक	-8.68821
▁Gujarat	-8.68822
▁आई	-8.68993
▁L	-8.69308
▁respect	-8.69314
▁ऐसा	-8.69382
े	-8.69771
▁24	-8.69893
▁second	-8.69899
▁policy	-8.69942
▁प्रदान	-8.69943
▁without	-8.69944
▁लिया	-8.69948
▁इसका	-8.69974
▁District	-8.7031
▁national	-8.70895
▁जनता	-8.71079
▁बनाने	-8.71079
▁होती	-8.71114
▁report	-8.71386
▁तब	-8.71611
▁Madam	-8.71648
▁तरफ	-8.71649
▁लाभ	-8.72192
▁district	-8.72606
▁दीजिए	-8.72799
▁जहां	-8.728
ÉÉ	-8.72845
▁m	-8.72856
▁within	-8.72863
▁किसान	-8.73353
▁वाली	-8.73382
h	-8.73676
▁26	-8.73789
▁मामला	-8.73936
▁long	-8.73958
▁another	-8.73967
▁उसमें	-8.73968
▁साल	-8.74522
▁दिन	-8.74525
▁निवेदन	-8.74554
▁says	-8.74642
▁debate	-8.74921
▁understand	-8.75107
▁Bengal	-8.75115
▁ग्रामीण	-8.75122
▁entire	-8.75127
▁most	-8.75129
▁जिले	-8.75146
▁बीच	-8.75148
▁demand	-8.75483
8	-8.75649
▁आवश्यक	-8.75733
▁सुविधा	-8.75734
▁Mumbai	-8.75741
▁cè	-8.75741
▁having	-8.75741
▁following	-8.7575
E	-8.76147
▁जिस	-8.76312
▁तीन	-8.7632
▁लोक	-8.76321
▁attention	-8.76339
▁something	-8.7634
▁मेरी	-8.76342
▁होना	-8.7642
▁कल	-8.76804
▁बाढ़	-8.76941
▁रुपये	-8.76942
▁West	-8.77015
________________	-8.77725
▁विजय	-8.78158
▁five	-8.78158
▁stage	-8.78169
Placed	-8.78615
▁filed	-8.78777
▁steps	-8.78853
▁bring	-8.79147
▁प्रति	-8.79366
▁Affairs	-8.79388
▁होगी	-8.79403
▁things	-8.79569
D	-8.79674
▁seats	-8.79726
▁kind	-8.79787
▁system	-8.79811
▁Section	-8.79814
▁समस्या	-8.80002
▁Congress	-8.8001
▁धन्यवाद	-8.80012
▁नह	-8.80014
▁These	-8.80047
▁राम	-8.80447
▁next	-8.80635
▁उसका	-8.80647
▁words	-8.80752
▁days	-8.80954
▁clause	-8.81067
▁G	-8.81074
▁नोटिस	-8.81261
▁करेंगे	-8.81278
▁केवल	-8.81347
▁stand	-8.81356
व	-8.81591
▁serious	-8.81877
▁संख्या	-8.81897
▁पार्टी	-8.82515
▁Kerala	-8.82533
▁laid	-8.82533
▁How	-8.82536
▁हमने	-8.82571
▁उ	-8.82635
▁able	-8.82943
▁various	-8.83174
▁जाति	-8.83178
▁हमारी	-8.83182
▁vs	-8.83232
▁संबंध	-8.83762
▁`	-8.83826
▁own	-8.84434
▁पूरे	-8.84469
▁coming	-8.84472
▁p	-8.84578
▁जल	-8.84844
▁लगभग	-8.85122
▁got	-8.85191
▁किए	-8.85287
6	-8.85332
▁help	-8.85495
▁इसी	-8.8552
▁petitioner	-8.85584
▁रघुवंश	-8.8578
▁पूरी	-8.85781
▁few	-8.85781
▁CPIO	-8.85793
▁आपकी	-8.858
▁thing	-8.86251
Amendment	-8.86294
▁पी	-8.86399
▁गये	-8.86455
▁Then	-8.8677
▁T	-8.86901
▁both	-8.86958
▁प्राप्त	-8.87102
▁Chief	-8.8711
▁जानकारी	-8.8711
▁उत्पादन	-8.87116
▁राज्यों	-8.87206
▁re	-8.87467
▁Board	-8.87582
▁28	-8.87744
▁समाप्त	-8.87772
▁since	-8.87778
▁while	-8.8778
▁केन्द्रीय	-8.87791
▁ds	-8.8785
▁लाइन	-8.88419
▁मध्य	-8.88444
▁Governments	-8.88505
▁ई	-8.88513
▁¤	-8.88559
▁matters	-8.88642
▁Do	-8.88657
▁हर	-8.88931
▁SINGH	-8.89136
▁nothing	-8.89137
▁मल्होत्रा	-8.89137
▁came	-8.89139
t	-8.89369
▁find	-8.89583
▁level	-8.89621
▁N	-8.89626
▁कह	-8.89637
▁सवाल	-8.89796
▁Opposition	-8.89821
▁आग्रह	-8.89821
▁श्रीमती	-8.89839
▁चल	-8.89844
▁economic	-8.90292
▁person	-8.90301
▁करे	-8.90326
▁poor	-8.90479
▁security	-8.90511
.	-8.90526
ं	-8.90876
▁continue	-8.90978
▁रिपोर्ट	-8.9119
▁Business	-8.91205
▁above	-8.91205
▁मौका	-8.91206
▁मामले	-8.91207
▁happened	-8.91212
▁जाएगा	-8.91221
▁four	-8.91857
▁जैसे	-8.91906
▁उनका	-8.9191
▁appellant	-8.92402
▁'	-8.92489
▁सहायता	-8.92602
▁फिर	-8.92609
▁बड़ी	-8.92611
▁points	-8.92612
द	-8.9276
▁अपना	-8.93093
▁education	-8.93122
▁Rule	-8.93123
▁clear	-8.93276
▁anything	-8.93318
▁प्रधान	-8.93319
▁growth	-8.93325
▁सदस्यों	-8.93359
▁One	-8.9341
[	-8.93521
▁rise	-8.93802
▁proper	-8.94014
▁जांच	-8.94028
▁Clock	-8.94032
▁शिक्षा	-8.94039
▁जाती	-8.94056
y	-8.94233
▁amount	-8.94513
▁एस	-8.94552
▁rate	-8.94565
प	-8.94609
▁पूर्व	-8.94643
▁जिसके	-8.94755
▁अनुसूचित	-8.94756
l	-8.94833
▁call	-8.95213
▁After	-8.95292
▁February	-8.95477
▁चाहूंगा	-8.95477
▁मदद	-8.95479
▁funds	-8.95542
▁persons	-8.95681
▁doing	-8.95826
▁problems	-8.95841
C	-8.96059
▁tax	-8.96159
▁BÉE	-8.96166
▁financial	-8.96188
▁each	-8.96206
▁आने	-8.96223
▁moved	-8.96247
▁ask	-8.96266
▁Standing	-8.96943
▁1998	-8.96976
▁hours	-8.97037
▁provisions	-8.97081
▁her	-8.97117
▁IN	-8.97628
▁प्रतिवेदन	-8.97657
▁necessary	-8.97682
▁Discussion	-8.97687
▁Ram	-8.98342
▁विभाग	-8.98401
▁हजार	-8.98411
▁duty	-8.98429
▁काफी	-8.98437
▁पांच	-8.986
▁29	-8.98683
▁look	-8.98919
▁कदम	-8.99155
▁including	-8.99196
▁stated	-8.99198
▁नई	-8.99262
▁increase	-8.99704
▁Union	-8.99725
▁गांव	-8.9992
▁बिजली	-8.99938
▁Maharashtra	-8.99939
▁working	-8.99998
▁27	-9.00021
▁Tamil	-9.00482
▁गरीब	-9.00649
▁विचार	-9.00675
▁etc	-9.00702
▁शुरू	-9.00702
▁Supreme	-9.00702
▁रुपए	-9.00702
▁जिसमें	-9.00702
▁ऐसी	-9.00704
▁prices	-9.01052
▁great	-9.0144
▁निर्णय	-9.01442
▁06	-9.01476
▁देंगे	-9.01479
▁whole	-9.01483
▁asked	-9.01495
▁दक	-9.01545
▁particular	-9.02026
▁behalf	-9.02246
▁पैसा	-9.02246
▁Development	-9.02246
▁जिला	-9.02249
▁ऐसे	-9.0225
▁added	-9.02252
ज	-9.02551
▁50	-9.02602
▁except	-9.0298
▁E	-9.02997
▁therefore	-9.03027
▁available	-9.03028
▁Yes	-9.03031
▁दिए	-9.03039
K	-9.03188
▁cases	-9.03593
▁Thank	-9.03619
▁amendment	-9.03622
श्री	-9.03664
▁बंद	-9.03766
▁भूमि	-9.03812
▁अनुसार	-9.03815
▁सुरक्षा	-9.03816
ट	-9.0384
▁Demands	-9.03903
▁rules	-9.04006
▁nation	-9.04339
▁manner	-9.04389
▁Statement	-9.04411
▁thank	-9.04411
▁meet	-9.04576
▁उद्योग	-9.04583
▁कार्यवाही	-9.04609
▁My	-9.04655
▁o	-9.04709
▁बोल	-9.05093
▁rule	-9.05187
▁become	-9.05212
▁complete	-9.05366
▁हाउस	-9.05406
▁countries	-9.05408
▁possible	-9.05408
▁संबंधित	-9.05416
▁Is	-9.05602
▁position	-9.06009
▁गुजरात	-9.06183
▁Question	-9.06215
▁assessee	-9.06215
▁Our	-9.06219
▁trying	-9.06237
▁इसकी	-9.06249
▁period	-9.06808
▁मिनट	-9.07018
▁SOMNATH	-9.07028
▁Even	-9.07028
7	-9.07093
▁31	-9.07102
▁(1)	-9.07245
▁सड़क	-9.07799
▁Gandhi	-9.07843
▁जवाब	-9.07847
▁àÉå	-9.07848
▁affected	-9.07852
▁<	-9.07959
▁used	-9.07976
▁members	-9.08013
▁दर	-9.08039
▁introduce	-9.08649
▁brought	-9.08674
▁floor	-9.08674
▁Page	-9.08689
m	-9.08705
c	-9.0903
▁यही	-9.09146
▁चार	-9.09467
▁least	-9.09507
▁रोजगार	-9.09508
▁received	-9.09511
▁BÉEä	-9.09516
▁Ministers	-9.09589
▁मार्ग	-9.10315
▁police	-9.10347
▁रखा	-9.10358
▁man	-9.10614
▁आर	-9.10687
▁project	-9.10977
▁भाषण	-9.11168
▁small	-9.11188
▁STATE	-9.11194
▁पिछले	-9.11195
▁discuss	-9.11983
▁tell	-9.12012
▁कार्रवाई	-9.1205
▁नीति	-9.1205
▁हूँ	-9.12051
▁लिये	-9.12054
▁required	-9.12054
▁agree	-9.12644
▁side	-9.1272
¶	-9.12761
▁ध	-9.12804
▁प्रश्न	-9.12885
▁CHATTERJEE	-9.12912
▁Orissa	-9.12912
▁children	-9.12912
▁past	-9.12912
▁immediately	-9.1292
▁started	-9.12933
▁workers	-9.12939
▁सकें	-9.12997
▁00	-9.13439
▁service	-9.1359
▁मूल्य	-9.13755
▁स्थापना	-9.13781
▁together	-9.13782
▁PROF	-9.13785
▁RTI	-9.13797
▁रप	-9.13872
▁lot	-9.14439
▁use	-9.14503
▁U	-9.14586
▁राजमार्ग	-9.14625
▁कैसे	-9.14643
€	-9.14658
▁Introduction	-9.14659
▁आधार	-9.14703
▁months	-9.14738
▁वन	-9.15157
▁read	-9.153
▁lakh	-9.15348
<	-9.15366
▁special	-9.15526
▁AFFAIRS	-9.15543
▁MINISTRY	-9.15543
▁industry	-9.15543
▁gone	-9.15544
B	-9.15604
b	-9.15948
य	-9.16191
▁court	-9.16241
▁stands	-9.16252
▁lay	-9.1639
▁प्रभावित	-9.1641
▁Yadav	-9.16436
▁agriculture	-9.16436
▁लागू	-9.16436
▁Nadu	-9.16436
▁From	-9.16437
▁सुमन	-9.1644
▁Madhya	-9.16444
▁जाइए	-9.16449
▁करनी	-9.16499
▁H	-9.16577
▁J	-9.16773
▁letter	-9.17143
▁Prasad	-9.17308
▁Water	-9.17336
▁left	-9.17337
▁महाराष्ट्र	-9.17343
▁08	-9.1736
▁गांवों	-9.17366
▁hope	-9.18213
▁earlier	-9.18246
▁अलावा	-9.18246
▁मुलायम	-9.18246
▁Presentation	-9.18247
▁Andhra	-9.18249
▁itself	-9.18251
▁#	-9.18609
st	-9.18856
▁start	-9.18902
▁women	-9.1895
▁Department	-9.18962
▁Corporation	-9.18965
▁Leader	-9.18967
▁07	-9.19045
▁प्रयास	-9.19138
▁total	-9.19144
▁वित्त	-9.19153
▁control	-9.19162
▁®	-9.19164
▁आरक्षण	-9.19165
▁Grants	-9.1919
ग	-9.19406
▁Clause	-9.19893
▁सुधार	-9.20027
▁सामने	-9.2009
▁sure	-9.2009
▁Today	-9.20092
▁Amendment	-9.20094
▁बहस	-9.20097
▁योजनाओं	-9.20101
▁02	-9.20108
नत	-9.20382
▁feel	-9.20778
▁purpose	-9.20829
▁संशोधन	-9.21013
▁गयी	-9.2102
▁1999	-9.21027
▁भारी	-9.21028
▁learned	-9.21028
▁लेकर	-9.21039
▁नदी	-9.21045
▁measures	-9.21084
▁करती	-9.21107
▁Commissioner	-9.21126
▁कमी	-9.21149
▁रह	-9.21293
▁programme	-9.21773
▁scheme	-9.21773
▁उपयोग	-9.21939
▁business	-9.21967
▁rural	-9.21968
▁North	-9.21969
▁Up	-9.2197
▁कराने	-9.21977
▁जाते	-9.21995
▁Appellant	-9.22023
▁Th	-9.22184
▁पुल	-9.22251
श	-9.22518
▁application	-9.22707
▁Resolution	-9.22723
Zero	-9.22769
▁she	-9.2289
▁ensure	-9.22893
▁MADAM	-9.2292
▁शीघ्र	-9.2292
▁Rajya	-9.2292
▁facilities	-9.22921
▁getting	-9.22922
▁General	-9.22938
▁Kashmir	-9.23851
▁high	-9.23854
▁companies	-9.23882
▁अनुमति	-9.23882
▁Limited	-9.23882
▁बड़े	-9.23883
▁वाला	-9.23884
▁तहत	-9.23887
▁आपसे	-9.23907
▁स्थान	-9.24068
▁wants	-9.2407
▁बना	-9.24423
▁mention	-9.24588
▁member	-9.24658
¤	-9.24705
▁consider	-9.24784
▁खर्च	-9.24819
▁क्यों	-9.24849
▁अंतर्गत	-9.24853
▁non	-9.253
▁Bank	-9.25575
$	-9.25632
▁leave	-9.25834
▁sub	-9.25947
▁reasons	-9.26012
▁speaking	-9.26043
▁facts	-9.26287
n	-9.26329
▁cost	-9.26615
▁raising	-9.26823
▁कमेटी	-9.26823
▁UPA	-9.26825
▁told	-9.26883
▁दूर	-9.26934
o	-9.26957
▁मत	-9.2697
▁ख	-9.27345
▁Centre	-9.27621
MR	-9.27787
▁राशि	-9.27807
▁दूसरे	-9.27823
▁still	-9.27823
▁इतना	-9.27824
▁सबसे	-9.27827
▁सही	-9.27831
▁oÉä	-9.27845
▁तय	-9.28537
▁hear	-9.28598
▁Session	-9.28633
▁submission	-9.28637
▁ÉÊ	-9.28817
▁BÉEÉÒ	-9.28846
▁उसकी	-9.2885
▁discussed	-9.2886
▁04	-9.28864
▁संबंधी	-9.28879
al	-9.29185
▁Council	-9.29623
▁provision	-9.29661
▁03	-9.29809
▁ऑफ	-9.29852
▁REDDY	-9.29853
▁constituency	-9.29853
▁economy	-9.29853
▁अच्छा	-9.29854
▁course	-9.29856
▁दोनों	-9.29859
▁took	-9.29871
▁सेवा	-9.29996
▁views	-9.30242
▁respond	-9.30589
▁word	-9.30691
▁six	-9.30833
▁dh	-9.30842
▁जमीन	-9.30852
▁everybody	-9.30884
▁never	-9.30884
▁First	-9.30887
▁05	-9.30912
▁banks	-9.30988
ता	-9.31014
▁projects	-9.31121
▁districts	-9.31232
ii	-9.31512
▁permission	-9.31695
▁Lal	-9.31713
▁document	-9.3173
▁wrong	-9.31908
▁life	-9.31926
▁production	-9.31927
▁food	-9.31927
▁बजे	-9.31933
▁really	-9.31937
▁09	-9.31951
▁वर्षों	-9.31998
▁जाएं	-9.32047
▁01	-9.32117
...(	-9.32544
▁w	-9.32754
▁स्तर	-9.32947
▁तैयार	-9.32951
▁Tax	-9.32972
▁Public	-9.32976
▁Prof	-9.32978
▁आयोग	-9.32979
▁relief	-9.32979
▁अपील	-9.32982
▁Under	-9.32984
▁Shrimati	-9.32994
▁kindly	-9.33007
▁1.	-9.33053
▁2.	-9.33071
▁पक	-9.33171
▁आम	-9.33355
▁incident	-9.33471
u	-9.33843
▁reason	-9.33845
▁meeting	-9.33895
अध्यक्ष	-9.33895
▁listen	-9.33984
▁found	-9.33997
▁ऊपर	-9.34011
▁forward	-9.3402
▁ट्रेन	-9.34025
▁परियोजना	-9.34037
▁importance	-9.34043
▁स्वास्थ्य	-9.34044
▁BJP	-9.34045
▁बड़ा	-9.34045
▁Â	-9.34047
▁decided	-9.34065
▁Castes	-9.34091
▁बढ़	-9.34404
G	-9.34451
▁बन	-9.34858
▁Review	-9.35089
▁private	-9.35099
▁senior	-9.35115
▁2019	-9.35118
▁People	-9.35118
▁whatever	-9.35118
▁प्रभुनाथ	-9.35118
▁cé	-9.35118
▁Jammu	-9.35119
▁रहने	-9.35127
▁tomorrow	-9.35128
▁होनी	-9.35168
M	-9.35309
Not	-9.35559
▁इ	-9.35598
▁co	-9.35663
▁शहर	-9.36027
The	-9.36031
▁wish	-9.36168
▁social	-9.36186
▁Constituency	-9.36205
▁activities	-9.36205
▁उक्त	-9.36207
▁CIC	-9.36209
▁मुम्बई	-9.36212
▁उससे	-9.36213
▁SHRIMATI	-9.36217
▁आया	-9.36254
▁oÉ	-9.36274
▁Rules	-9.36504
ble	-9.36962
▁charge	-9.37082
▁amend	-9.37239
▁कनतप	-9.37293
▁basis	-9.37304
▁common	-9.37304
▁sorry	-9.37304
▁साहब	-9.37304
▁However	-9.37308
▁बढ़ाने	-9.37308
▁held	-9.37309
▁talking	-9.37332
▁3.	-9.37378
▁allowing	-9.37432
▁Order	-9.38195
▁Station	-9.38216
▁international	-9.38396
▁गंभीर	-9.38405
▁always	-9.38415
▁प्रस्तुत	-9.38415
▁sought	-9.38415
▁Authority	-9.38416
▁सारे	-9.38419
▁एम	-9.38422
▁free	-9.38454
▁0	-9.385
्स	-9.3901
▁parts	-9.3905
▁e	-9.39217
▁market	-9.39256
▁end	-9.39279
▁process	-9.39334
▁Scheme	-9.39336
▁correct	-9.39485
▁जरूरत	-9.39519
▁कोशिश	-9.39532
▁foreign	-9.39536
▁Financial	-9.39538
▁University	-9.39538
▁democracy	-9.39538
▁रामजीलाल	-9.39539
▁अलग	-9.39542
▁पड़ता	-9.39546
▁considered	-9.39565
▁means	-9.39665
▁once	-9.39702
▁ट	-9.39729
▁construction	-9.40471
▁आदि	-9.40659
▁Appeal	-9.40675
▁authority	-9.40675
▁future	-9.40675
▁referred	-9.40676
▁मुख्य	-9.40695
f	-9.40723
ä	-9.41003
▁डा	-9.41674
­	-9.41748
▁फसल	-9.41762
▁निर्देश	-9.41776
▁अवसर	-9.41799
▁संसद	-9.41822
▁yet	-9.41824
▁Acharia	-9.41825
▁increased	-9.41862
▁स्थापित	-9.41883
▁नए	-9.41925
कर	-9.42231
▁result	-9.42715
द्ृद्धड्ड	-9.42987
▁agricultural	-9.42987
▁true	-9.42987
▁employment	-9.42987
▁population	-9.42987
▁several	-9.42987
▁Karnataka	-9.42988
▁पुलिस	-9.42988
▁परन्तु	-9.42992
▁कभी	-9.42992
▁वृद्धि	-9.43019
▁नश	-9.43182
▁(2)	-9.43236
▁services	-9.43248
ड	-9.43449
▁rights	-9.43661
▁ruling	-9.43933
▁Fund	-9.43969
▁चुनाव	-9.44156
▁घोषणा	-9.44162
▁वर्तमान	-9.44163
▁happy	-9.44164
▁towards	-9.44189
”	-9.4481
▁state	-9.45136
▁large	-9.453
▁near	-9.45324
▁Gazette	-9.45327
▁though	-9.45338
▁Assam	-9.45354
▁PATIL	-9.45354
▁Police	-9.45354
▁relating	-9.45354
▁खिलाफ	-9.45354
▁जिलों	-9.45354
▁कीजिए	-9.45355
▁रखने	-9.45361
▁United	-9.45361
▁...*	-9.45364
▁questions	-9.45402
▁went	-9.45407
▁होते	-9.45426
At	-9.45483
▁उसी	-9.45504
ब	-9.45667
▁एन	-9.45744
▁प्र	-9.46313
▁decide	-9.46328
▁income	-9.46339
ÉÒ	-9.46347
▁मोहन	-9.46516
▁Express	-9.46529
▁विश्वविद्यालय	-9.46532
▁published	-9.46559
▁Income	-9.4656
▁बताया	-9.46562
▁हमारा	-9.46569
▁Date	-9.46571
▁जबकि	-9.46577
▁जल्दी	-9.46577
▁particularly	-9.46585
▁जिन	-9.46608
▁too	-9.4703
▁करन	-9.47137
▁keep	-9.47512
er	-9.47558
▁hand	-9.4756
ना	-9.47589
▁कार्यक्रम	-9.47755
▁Set	-9.47763
▁full	-9.47765
9	-9.47767
▁along	-9.47778
▁यात्रियों	-9.47778
▁June	-9.47778
▁अंग्रेजी	-9.4778
▁आगे	-9.47785
▁सूचना	-9.47802
▁देता	-9.47817
▁सुन	-9.4803
▁रख	-9.4812
▁names	-9.48229
▁धन	-9.48539
▁direct	-9.48753
▁quote	-9.48768
▁list	-9.48781
▁vote	-9.48788
▁date	-9.4879
▁Highway	-9.48817
▁अन	-9.4889
▁High	-9.49004
▁सीमा	-9.49012
▁Attention	-9.49013
▁Agriculture	-9.49014
▁PAWAN	-9.49014
▁heard	-9.49048
▁Accounts	-9.49087
▁£	-9.49106
▁i	-9.49123
▁leaders	-9.49201
▁!	-9.49502
▁?	-9.49528
▁O	-9.49537
▁ड	-9.49573
▁answer	-9.49987
▁account	-9.50032
▁sitting	-9.50062
▁minute	-9.50069
▁open	-9.50183
â	-9.50263
▁enough	-9.50263
▁अजमेर	-9.50263
▁बढ़ावा	-9.50264
▁submitted	-9.50265
▁बनाया	-9.50269
▁जीवन	-9.50278
▁BÉEÉä	-9.50283
▁comes	-9.50314
▁away	-9.50318
▁4.	-9.50343
▁amendments	-9.50573
▁́É	-9.50804
▁जन	-9.50883
▁$	-9.50995
S	-9.51104
▁crores	-9.51131
▁Officer	-9.51349
▁पैदा	-9.51528
▁SHIVRAJ	-9.51529
▁सिंचाई	-9.51529
▁पेयजल	-9.51529
▁BANSAL	-9.51529
▁प्रधानमंत्री	-9.5153
▁Otherwise	-9.5153
▁वित्तीय	-9.51533
▁अधिकारियों	-9.51533
▁CIT	-9.5155
▁hearing	-9.51576
▁मिला	-9.51601
▁specific	-9.5203
▁हां	-9.52088
▁drought	-9.52597
▁opinion	-9.52597
▁ground	-9.52615
▁leader	-9.52619
es	-9.52705
▁|	-9.52761
▁उठाया	-9.52814
▁खेती	-9.52815
▁2020	-9.5282
▁उक	-9.52845
▁figures	-9.5289
▁पा	-9.53096
▁%	-9.53123
ि	-9.53298
▁needs	-9.53467
▁others	-9.53716
▁ten	-9.53767
▁concern	-9.53852
▁pay	-9.53852
▁deal	-9.53857
▁बी	-9.5396
▁जगह	-9.54085
▁Second	-9.54107
▁गांधी	-9.54108
▁स्पष्ट	-9.54109
▁VIJAY	-9.54109
▁Secretary	-9.54109
▁Since	-9.54109
▁providing	-9.54109
▁society	-9.54109
▁संविधान	-9.54109
▁company	-9.5411
▁जयपुर	-9.54111
▁स्वीकृति	-9.54113
▁सुविधाएं	-9.54114
▁आयकर	-9.54115
▁employees	-9.54139
▁trains	-9.54299
▁vide	-9.55089
▁Road	-9.55224
▁proposal	-9.55228
▁happening	-9.55241
▁प्रावधान	-9.55399
▁major	-9.55422
▁Jharkhand	-9.55425
▁family	-9.55425
▁आकर्षित	-9.55425
▁बच्चों	-9.55425
▁खत्म	-9.55425
▁अच्छी	-9.55426
▁Construction	-9.55429
▁झारखंड	-9.5543
▁सुविधाओं	-9.55433
ÉÉÒ	-9.55972
F	-9.56477
▁train	-9.56509
▁चुका	-9.5675
▁सुझाव	-9.5675
▁Pakistan	-9.56755
▁कांग्रेस	-9.56757
▁कृपया	-9.56758
▁वजह	-9.56759
▁रिकार्ड	-9.5676
▁permitted	-9.5676
▁गृह	-9.5676
▁2022	-9.56765
▁देते	-9.56775
▁जानी	-9.56806
ई	-9.56947
▁डी	-9.57129
▁share	-9.57885
▁Tribunal	-9.57906
-	-9.57927
▁address	-9.58039
▁urge	-9.58081
▁adequate	-9.58092
ह	-9.58093
▁Insurance	-9.5811
▁Malhotra	-9.5811
▁relevant	-9.5811
▁घोषित	-9.5811
▁सामाजिक	-9.5811
▁Annual	-9.58111
▁व्यक्ति	-9.58111
▁जाएगी	-9.58124
▁She	-9.58705
ने	-9.59058
▁Plan	-9.59195
▁oil	-9.59262
▁legislation	-9.59281
▁mind	-9.59282
▁बैंक	-9.59452
▁परिवार	-9.59457
▁East	-9.5948
▁Tags	-9.5948
▁आबादी	-9.5948
▁चाहती	-9.5948
▁छत्तीसगढ़	-9.59481
▁Special	-9.59485
▁जाइये	-9.59486
▁proposed	-9.59491
▁कहीं	-9.59492
▁बोलना	-9.59493
▁expressed	-9.59495
▁करूंगा	-9.59498
▁asking	-9.59551
▁सर	-9.59656
▁road	-9.59994
▁best	-9.60102
▁notices	-9.60351
▁act	-9.60602
▁chance	-9.60639
▁region	-9.6066
▁procedure	-9.60669
▁pass	-9.60706
▁try	-9.60833
▁human	-9.60838
▁दक्षिण	-9.60845
▁पत्र	-9.60851
▁Company	-9.60869
▁Food	-9.6087
▁pending	-9.60872
▁Chennai	-9.60872
▁granted	-9.60879
▁जायेगा	-9.60884
▁लेने	-9.60892
▁च	-9.60926
▁institutions	-9.60976
्	-9.61285
▁powers	-9.61504
▁form	-9.61899
ो	-9.61899
▁office	-9.62053
▁station	-9.62081
▁पड़	-9.62189
▁withdraw	-9.62218
▁बाहर	-9.62246
▁अनेक	-9.62251
▁Power	-9.62271
▁2018	-9.62277
▁ADVANI	-9.62277
▁MALHOTRA	-9.62277
▁august	-9.62277
▁politics	-9.62277
▁written	-9.62277
▁दूसरी	-9.62277
▁Some	-9.62283
▁नियम	-9.62284
▁Ex	-9.62295
▁राय	-9.62307
▁जारी	-9.6234
▁c	-9.63223
ण	-9.63416
▁delay	-9.63468
▁Institute	-9.63475
▁note	-9.6364
▁गलत	-9.63672
▁Policy	-9.63706
▁community	-9.63706
▁justice	-9.63706
▁responsibility	-9.63706
▁yesterday	-9.63706
▁अधिवेशन	-9.63706
▁कर्मचारियों	-9.63706
▁prepared	-9.63707
▁2021	-9.63708
▁रावत	-9.63717
▁implemented	-9.63721
▁रूपये	-9.63725
▁उठा	-9.63728
▁पटल	-9.6373
▁Tribes	-9.63769
▁कोर्ट	-9.63779
▁समति	-9.63897
▁wanted	-9.63909
▁talk	-9.64896
▁step	-9.64961
▁भाग	-9.65085
▁अधिकार	-9.65106
▁दिशा	-9.65151
▁sent	-9.65153
▁Further	-9.65155
▁महीने	-9.65155
▁committed	-9.65155
▁treated	-9.6516
▁कराया	-9.65181
▁properly	-9.65189
▁requested	-9.65301
1⁄2	-9.65466
g	-9.65639
▁छ	-9.66104
ख	-9.66334
▁agreement	-9.66423
▁reservation	-9.66428
▁respondent	-9.66432
▁draw	-9.66576
▁कृपा	-9.666
▁Assistance	-9.66625
▁Private	-9.66625
▁Rural	-9.66625
▁अंदर	-9.66625
▁सिर्फ	-9.66625
▁minority	-9.66626
▁Punjab	-9.66627
▁Calling	-9.6663
▁involved	-9.66635
▁agreed	-9.66668
▁papers	-9.66708
▁un	-9.66768
▁दस	-9.66791
oÉ	-9.67085
▁sections	-9.6726
▁टी	-9.67392
V	-9.67821
▁week	-9.67901
▁records	-9.67906
▁hour	-9.67925
▁conduct	-9.68056
▁ऋण	-9.68056
▁Address	-9.6811
▁जनजाति	-9.68116
▁child	-9.68118
▁Assembly	-9.68118
▁anybody	-9.68118
▁else	-9.68118
▁industries	-9.68118
▁एक्सप्रेस	-9.68118
▁प्रार्थना	-9.68118
▁terrorism	-9.68118
▁संस्करण	-9.68118
▁assistance	-9.68118
▁gave	-9.68118
▁इंडिया	-9.6812
▁देखते	-9.6812
▁based	-9.6812
▁लगाने	-9.68125
▁proceedings	-9.68128
▁योजनाएं	-9.6813
▁details	-9.68146
▁forces	-9.68263
▁elections	-9.68307
▁100	-9.68677
▁सरकारों	-9.68905
▁एव	-9.69358
▁benefit	-9.69365
▁times	-9.69429
▁example	-9.6943
▁s	-9.69496
N	-9.69581
▁plan	-9.69599
▁main	-9.69617
▁तत्काल	-9.69626
▁पिछड़े	-9.69633
▁राहत	-9.69635
▁चीनी	-9.69639
▁announced	-9.6964
▁महाराजगंज	-9.69646
▁included	-9.69657
▁लगा	-9.69673
▁हजारों	-9.69683
▁units	-9.69731
▁lives	-9.69748
▁किये	-9.69847
च	-9.70013
w	-9.70903
▁refer	-9.70957
▁article	-9.70975
▁election	-9.70978
▁suggestion	-9.7098
▁An	-9.71003
▁खराब	-9.71097
▁protect	-9.71102
▁evidence	-9.7114
▁comprehensive	-9.7115
▁industrial	-9.7117
▁half	-9.71172
▁stood	-9.71172
▁किलोमीटर	-9.71172
▁निम्नलिखित	-9.71172
▁निर्धारित	-9.71172
▁responsible	-9.71172
▁आदमी	-9.71172
▁single	-9.71173
▁मिलेगा	-9.7118
▁later	-9.71189
▁आते	-9.71189
▁introduced	-9.7122
▁हव	-9.71344
▁issued	-9.71404
▁1,	-9.71683
▁Bills	-9.71995
▁attack	-9.72472
▁include	-9.72512
▁run	-9.72532
▁विरोध	-9.7271
▁लीजिए	-9.72731
▁JAIPAL	-9.72734
▁KHARABELA	-9.72734
▁SWAIN	-9.72734
▁infrastructure	-9.72734
▁पर्यटन	-9.72734
▁उचित	-9.72735
▁NDA	-9.72736
▁परिवर्तन	-9.72738
▁बाजार	-9.72742
▁उसको	-9.72743
▁पारित	-9.72744
▁passing	-9.72777
▁certainly	-9.72784
▁suggestions	-9.72933
ित	-9.73436
▁Law	-9.74115
▁Project	-9.74125
▁item	-9.74158
▁पंजाब	-9.74287
▁unfortunate	-9.74304
▁better	-9.74319
▁PARLIAMENTARY	-9.74321
▁Cabinet	-9.74322
▁गाड़ी	-9.74322
▁paid	-9.74323
▁लालू	-9.74332
▁सारी	-9.74332
▁PAL	-9.74332
▁दिनों	-9.74388
▁फ	-9.74409
▁goes	-9.7441
▁recommendations	-9.7441
▁Only	-9.74462
▁60	-9.74631
▁schemes	-9.74651
▁किस	-9.74793
▁places	-9.75253
▁सरकारी	-9.75259
▁१५	-9.75353
▁allocation	-9.75734
ए	-9.75757
▁Respondent	-9.75815
▁care	-9.75905
▁आदेश	-9.75907
▁जनपद	-9.75909
▁Take	-9.75925
▁Advani	-9.7593
▁छोटे	-9.75934
▁accused	-9.75937
▁higher	-9.75947
▁समाज	-9.75954
▁लें	-9.75961
▁completed	-9.75986
p	-9.7599
▁बातें	-9.7601
▁officers	-9.76099
▁झा	-9.76132
▁होकर	-9.76169
▁u	-9.76543
▁40	-9.76673
▁payment	-9.77373
▁आए	-9.77447
▁मनिस्टर	-9.77564
▁विस्तार	-9.77566
▁Adjournment	-9.77574
▁especially	-9.77574
▁सार्वजनिक	-9.77574
▁Security	-9.77574
▁समाधान	-9.77574
▁Basu	-9.77574
▁Will	-9.77574
▁esa	-9.77575
▁himself	-9.77575
▁मजदूरों	-9.77587
▁anti	-9.77595
▁नगर	-9.77655
▁मांगों	-9.7774
in	-9.77821
▁हों	-9.78114
▁F	-9.78217
▁seek	-9.78454
▁accept	-9.78944
▁Office	-9.79015
▁protection	-9.79015
▁Hindu	-9.79045
▁extend	-9.79179
▁स्थल	-9.79206
▁immediate	-9.79223
▁loss	-9.79233
▁भारतीय	-9.79235
▁aware	-9.79239
▁big	-9.7924
▁CHIDAMBARAM	-9.7924
▁October	-9.7924
▁early	-9.7924
▁themselves	-9.7924
▁इन्होंने	-9.7924
▁वितरण	-9.7924
▁बल्कि	-9.79241
▁chosen	-9.79241
▁around	-9.79242
▁reduced	-9.79254
▁५०	-9.79254
▁personal	-9.79259
▁functioning	-9.79262
▁extended	-9.79265
▁amended	-9.79278
▁ररत	-9.79292
▁known	-9.79349
▁BÉEÉ	-9.79395
▁कया	-9.79408
▁requesting	-9.79519
िक	-9.80023
▁उप	-9.80392
▁believe	-9.80696
▁Fourteen	-9.80887
▁सहयोग	-9.80905
▁Bench	-9.80928
▁submit	-9.80934
▁Between	-9.80935
▁YERRANNAIDU	-9.80935
▁either	-9.80935
▁विकसित	-9.80935
▁शैलेन्द्र	-9.80935
▁Kolkata	-9.80935
▁निश्चित	-9.80935
▁आचार्य	-9.80937
▁Many	-9.80937
▁अतः	-9.80938
▁existing	-9.80941
▁पसतत	-9.80942
▁लगाया	-9.80942
▁रखते	-9.80942
▁बनाई	-9.80952
▁मिले	-9.80994
▁कही	-9.81014
▁लिखा	-9.81043
पुर	-9.81096
▁अति	-9.81099
U	-9.81188
▁programmes	-9.81287
▁मिली	-9.8132
▁t	-9.82337
▁show	-9.82391
▁create	-9.82432
▁Demand	-9.82441
▁brief	-9.82612
▁cooperate	-9.82627
▁welcome	-9.82632
▁संसाधन	-9.82635
▁appropriate	-9.82639
▁current	-9.82641
▁below	-9.82659
▁सामना	-9.82659
▁इलाहाबाद	-9.82659
▁आदिवासी	-9.8266
▁Out	-9.8266
▁गन्ना	-9.8266
▁सुनिश्चित	-9.82661
▁अभाव	-9.82662
▁कौन	-9.82662
▁बयान	-9.82662
▁killed	-9.82663
▁(3)	-9.82663
▁भाषा	-9.82664
▁2023	-9.82664
▁List	-9.82668
▁उठाने	-9.82668
▁दिये	-9.8267
▁faced	-9.82677
▁जीरो	-9.82686
▁showing	-9.82697
▁products	-9.82709
▁गरीबों	-9.82715
ÉÉè	-9.82787
▁items	-9.82872
ियों	-9.83807
▁Reports	-9.8384
P	-9.8385
▁Nos	-9.84002
ion	-9.84092
▁labour	-9.84172
▁reference	-9.84212
▁Price	-9.84214
▁mean	-9.84235
▁appreciate	-9.84388
▁ग्राम	-9.844
▁खुराना	-9.84414
▁निजी	-9.84415
▁Appellate	-9.84415
▁संकट	-9.84416
▁implementation	-9.84416
▁outside	-9.84416
▁property	-9.84417
▁Being	-9.8442
▁Item	-9.84428
▁informed	-9.84433
▁इनके	-9.84435
▁fully	-9.84442
▁accepted	-9.84445
▁resources	-9.84464
▁discussing	-9.84492
▁पद	-9.84638
▁थ	-9.84666
▁Funds	-9.84706
nd	-9.84974
▁goods	-9.85114
▁80	-9.85287
▁सं	-9.8548
▁अध	-9.85641
ढ	-9.85891
rd	-9.85913
▁credit	-9.85954
▁assurance	-9.85986
▁Justice	-9.85996
▁government	-9.85997
▁allegation	-9.86005
▁seven	-9.86148
▁ARUN	-9.86151
▁local	-9.86196
▁अन्तर्गत	-9.862
▁न्याय	-9.86201
▁medical	-9.86201
▁status	-9.86201
▁according	-9.86202
▁irrigation	-9.86204
▁totally	-9.86233
▁less	-9.8624
▁seen	-9.86247
▁बता	-9.86585
▁१०	-9.866
ध	-9.86886
▁33	-9.86991
Ç	-9.87134
▁२०	-9.87162
J	-9.87252
ें	-9.87351
▁import	-9.87751
▁change	-9.87795
Shri	-9.8787
सभापति	-9.87871
▁दल	-9.87883
▁विदेश	-9.87959
▁DASGUPTA	-9.88018
▁GURUDAS	-9.88018
▁RADHAKRISHNAN	-9.88018
▁little	-9.88018
▁third	-9.88018
▁minorities	-9.88018
▁nature	-9.88018
▁चुकी	-9.88018
▁gauge	-9.88018
▁management	-9.88018
▁Rajiv	-9.88019
▁नीतियों	-9.88022
▁Due	-9.88025
▁Audited	-9.88025
▁चलने	-9.88036
▁देखा	-9.88042
▁created	-9.88044
▁बैठे	-9.88067
▁कराई	-9.88071
▁लाखों	-9.88103
▁passengers	-9.88166
▁terms	-9.88184
▁II	-9.88592
?...	-9.89415
▁५	-9.89649
▁Ordinance	-9.89666
▁पेश	-9.89782
▁हिन्दुस्तान	-9.89833
▁वापस	-9.89839
▁विवरण	-9.89841
▁जल्द	-9.89844
▁377	-9.89846
▁basic	-9.89868
▁Defence	-9.89869
▁RUPCHAND	-9.89869
▁THOMAS	-9.89869
▁inquiry	-9.89869
▁lwpuk	-9.89869
▁दूसरा	-9.89869
▁everything	-9.8987
▁खड़े	-9.8987
▁बिना	-9.8987
▁Advisory	-9.8987
▁इतने	-9.89871
▁स्थायी	-9.89874
▁रोकने	-9.89874
▁लगता	-9.89876
▁circumstances	-9.89886
▁His	-9.89888
▁nt	-9.89937
▁Ka	-9.89953
▁एल	-9.89963
▁रर	-9.90555
▁आय	-9.90813
an	-9.90953
▁associate	-9.91501
▁objection	-9.91552
महोदय	-9.91573
▁aspect	-9.91605
हिन्दी	-9.91606
▁बोर्ड	-9.91696
▁short	-9.91732
▁increasing	-9.91747
▁among	-9.91753
▁response	-9.91756
▁scale	-9.91756
▁sugar	-9.91756
▁हिमाचल	-9.91756
▁Jaipur	-9.91757
▁role	-9.91757
▁Manipur	-9.91758
▁रासा	-9.91758
▁पर्याप्त	-9.91758
▁द्ृष्टि	-9.91759
▁definitely	-9.91761
▁related	-9.91762
▁इसको	-9.91791
▁देकर	-9.91812
▁करीब	-9.91838
▁चाहे	-9.91933
▁ls	-9.91936
▁घर	-9.91949
▁पता	-9.91983
▁भर	-9.92362
▁off	-9.92421
▁lines	-9.92515
▁ली	-9.92852
▁post	-9.93401
▁Deb	-9.93427
▁bank	-9.93448
H	-9.93458
▁Programme	-9.9346
▁Election	-9.93479
▁officer	-9.93519
▁२	-9.93611
▁participate	-9.93654
▁काल	-9.93657
▁sufficient	-9.93659
▁essential	-9.93663
▁महत्व	-9.9367
▁Education	-9.9367
▁कककक	-9.93675
▁Farmers	-9.93679
▁Iraq	-9.93679
▁Nobody	-9.93679
▁Sayeed	-9.93679
▁poverty	-9.93679
▁तरीके	-9.93679
▁चुके	-9.93679
▁गंगा	-9.93681
▁During	-9.93681
▁उनमें	-9.93682
▁जोड़ने	-9.93684
▁तौर	-9.93685
▁ready	-9.93709
▁मिलने	-9.93715
▁करेगा	-9.93733
▁laying	-9.93762
▁5.	-9.93804
▁presented	-9.93816
▁टैक्स	-9.93851
▁आयु	-9.94735
री	-9.95008
▁रक्षा	-9.95133
▁घटना	-9.9534
▁petition	-9.95424
▁friend	-9.95426
।"	-9.95437
▁Notification	-9.95443
▁caste	-9.95453
▁करत	-9.95479
£	-9.95492
▁Land	-9.95603
▁बीमा	-9.95612
▁check	-9.95616
▁बनाए	-9.95633
▁Dasmunsi	-9.9564
▁Hearing	-9.9564
▁confidence	-9.9564
▁izkFkhZ	-9.9564
▁violence	-9.9564
▁टेलीफोन	-9.9564
▁विश्व	-9.9564
▁authorities	-9.9564
▁running	-9.9564
▁राजधानी	-9.9564
▁commitment	-9.95641
▁चौधरी	-9.95642
▁महिलाओं	-9.95642
▁सेवाओं	-9.95646
▁More	-9.95648
▁खाद्य	-9.95649
▁established	-9.95651
▁ÉÊBÉE	-9.95655
▁withdrawn	-9.95656
▁मदन	-9.95683
▁namely	-9.95705
▁वी	-9.95796
▁jobs	-9.9582
▁aspects	-9.95844
▁१	-9.9632
▁नन	-9.96358
ु	-9.96488
▁k	-9.97356
▁effect	-9.97358
▁produce	-9.97366
▁सव	-9.97386
▁practice	-9.97441
▁direction	-9.97453
▁age	-9.97461
▁express	-9.97562
▁disturb	-9.97577
▁केंद्र	-9.97626
▁force	-9.97635
TM	-9.97639
▁Every	-9.9764
▁अविलम्ब	-9.9764
▁BANERJEE	-9.9764
▁Ensure	-9.9764
▁Registrar	-9.9764
▁Steps	-9.9764
▁across	-9.9764
▁backward	-9.9764
▁यातायात	-9.9764
▁लगातार	-9.9764
▁China	-9.9764
▁Consideration	-9.9764
▁चालू	-9.9764
▁समिति	-9.97641
▁नुकसान	-9.97642
▁might	-9.97642
▁नियंत्रण	-9.97642
▁सूखे	-9.97646
▁appointed	-9.97646
▁elected	-9.97646
▁actually	-9.97647
▁connected	-9.97647
▁उनसे	-9.97648
▁जरूरी	-9.97658
▁Are	-9.97673
▁लेना	-9.97683
▁पड़ा	-9.97694
▁Action	-9.97697
▁schools	-9.97768
▁vk	-9.97773
▁बढ़ा	-9.97904
▁interests	-9.9845
▁l	-9.98531
ÉxÉ	-9.99136
▁remain	-9.99422
▁investment	-9.99479
▁million	-9.9948
▁अपन	-9.99563
▁रोड	-9.99569
▁inform	-9.99644
▁experience	-9.99655
▁general	-9.99663
▁natural	-9.99664
▁MEMBER	-9.99673
▁क्षमता	-9.99677
▁stop	-9.99679
▁विद्युत	-9.99679
▁CBI	-9.99681
▁Decision	-9.99681
▁VARKALA	-9.99681
▁living	-9.99681
▁विभिन्न	-9.99681
▁देवेन्द्र	-9.99681
▁myself	-9.99683
▁sense	-9.99683
▁unless	-9.99684
▁193	-9.99685
▁drinking	-9.99685
▁जानना	-9.99687
▁यहाँ	-9.9969
▁समस्याओं	-9.99692
▁whose	-9.99699
▁रखता	-9.99701
▁भेजा	-9.99707
▁आती	-9.99708
▁स्थानों	-9.99733
▁गरीबी	-9.99758
ला	-10.0069
▁आये	-10.0116
▁target	-10.0148
▁disinvestment	-10.0154
•	-10.0154
▁condition	-10.0156
▁Other	-10.0156
▁revenue	-10.0156
▁River	-10.0156
▁village	-10.0157
▁flood	-10.0157
clock	-10.0161
Mr	-10.0169
▁पक्ष	-10.017
▁RAM	-10.0171
▁आतंकवाद	-10.0173
▁खाद	-10.0174
▁health	-10.0175
▁दाम	-10.0176
▁Country	-10.0176
▁Eastern	-10.0176
▁Employment	-10.0176
▁Joint	-10.0176
▁Yojana	-10.0176
▁kept	-10.0176
▁आडवाणी	-10.0176
▁मुआवजा	-10.0176
▁धारा	-10.0176
▁lost	-10.0177
▁Raghuvansh	-10.0177
▁रामदास	-10.0177
▁safety	-10.0177
▁पटना	-10.0177
▁spoken	-10.0177
▁sports	-10.0178
▁जिम्मेदारी	-10.0178
▁लाना	-10.0178
▁seems	-10.0179
▁विदेशी	-10.018
▁शहरों	-10.0181
▁seriously	-10.0182
सी	-10.0204
▁met	-10.0247
▁१२	-10.0275
▁सम	-10.0291
▁v	-10.0339
▁send	-10.0362
▁fund	-10.0364
▁चला	-10.0365
▁dispute	-10.0367
▁term	-10.0367
▁month	-10.0368
▁job	-10.037
▁implement	-10.0383
▁declare	-10.0387
▁fair	-10.0387
▁old	-10.0389
▁AIYAR	-10.0389
▁Himachal	-10.0389
▁INFORMATION	-10.0389
▁Minimum	-10.0389
▁technology	-10.0389
▁छोटी	-10.0389
▁बातचीत	-10.0389
▁मुद्दा	-10.0389
▁मालूम	-10.0389
▁बसुदेव	-10.0389
▁खड़ा	-10.0389
▁इतनी	-10.0389
▁बोलेंगे	-10.039
▁disposed	-10.039
▁पैसे	-10.039
▁कमीशन	-10.039
▁दूंगा	-10.039
▁Before	-10.0391
▁legs	-10.0392
▁students	-10.0395
▁आता	-10.0396
O	-10.0403
▁करोड़ों	-10.0404
▁cd	-10.0407
▁villages	-10.0409
Q	-10.0414
▁बातों	-10.0435
ष	-10.0488
▁class	-10.0551
▁war	-10.0558
▁visit	-10.0577
▁real	-10.0578
~	-10.058
▁हल	-10.0584
▁expenditure	-10.0585
▁plaintiff	-10.0587
▁colleague	-10.0587
▁Forest	-10.0588
▁राज	-10.0602
▁स्वयं	-10.0602
▁forest	-10.0604
▁intervene	-10.0604
▁विद्यालय	-10.0604
▁लाईन	-10.0605
▁effective	-10.0605
▁व्यक्त	-10.0605
▁Who	-10.0606
▁inflation	-10.0606
▁Army	-10.0607
▁MUKHERJEE	-10.0607
▁huge	-10.0607
▁resume	-10.0607
▁इजाजत	-10.0607
▁नीचे	-10.0607
▁विश्वास	-10.0607
▁रुपया	-10.0607
▁शासन	-10.0607
▁अखिलेश	-10.0607
▁ठहराव	-10.0607
▁दिलाना	-10.0607
▁पावर	-10.0607
▁स्थानीय	-10.0607
▁fixed	-10.0607
▁कहते	-10.0608
▁morning	-10.0608
▁जायें	-10.0608
▁२००५	-10.0608
▁हालत	-10.0608
▁developed	-10.0609
▁बैंकों	-10.061
▁seeking	-10.0612
▁clearly	-10.0612
▁मिलता	-10.0612
▁telling	-10.0616
▁placed	-10.0623
▁charges	-10.0646
▁nor	-10.0649
▁यात्रा	-10.0654
▁35	-10.0658
भ	-10.0663
ar	-10.0664
kr	-10.0798
▁survey	-10.0807
▁doubt	-10.0808
▁profit	-10.0809
▁tribal	-10.0809
▁river	-10.0809
▁terrorist	-10.0809
x	-10.0809
iÉ	-10.0818
▁late	-10.0824
▁Eleven	-10.0824
▁गय	-10.0827
▁difficult	-10.0827
▁स्पीकर	-10.0828
▁Adequate	-10.0829
▁Reddy	-10.0829
▁capacity	-10.0829
▁facing	-10.0829
▁families	-10.0829
▁subsidy	-10.0829
▁quite	-10.0829
▁ढंग	-10.0829
▁बाकी	-10.0829
▁नदियों	-10.0829
▁वभिन्न	-10.0829
▁आपूर्ति	-10.0829
▁Medical	-10.0829
▁इन्हें	-10.0829
▁व्यापक	-10.0829
▁setting	-10.0829
▁सिफारिशों	-10.0829
▁alongwith	-10.0829
▁While	-10.083
▁नेशनल	-10.083
▁वेतन	-10.083
▁इनको	-10.083
▁shown	-10.083
▁largest	-10.0831
▁करेगी	-10.0832
▁internal	-10.0832
▁रहता	-10.0832
▁tonnes	-10.0833
▁directed	-10.0833
▁Problems	-10.0833
▁ago	-10.0835
▁एकड़	-10.0836
▁efforts	-10.0838
▁standing	-10.0842
▁pointed	-10.0856
▁knows	-10.0867
▁educational	-10.0891
▁Your	-10.0898
▁६	-10.0901
T	-10.0975
▁पन	-10.1024
▁lack	-10.1029
▁happen	-10.103
▁32	-10.1038
▁thought	-10.1038
▁Force	-10.1039
▁review	-10.1049
▁improve	-10.1053
▁urgent	-10.1055
▁via	-10.1056
▁Somnath	-10.1056
▁peace	-10.1056
MSOffice	-10.1056
▁MAMATA	-10.1056
▁YASHWANT	-10.1056
▁minimum	-10.1056
▁रघुनाथ	-10.1056
▁MAHAJAN	-10.1056
▁beyond	-10.1056
▁assessment	-10.1056
▁इन्हीं	-10.1056
▁अत्यंत	-10.1056
▁चाहिये	-10.1056
▁extent	-10.1056
▁लागत	-10.1056
▁conversion	-10.1056
▁priority	-10.1056
▁Year	-10.1056
▁parliamentary	-10.1056
▁majority	-10.1057
▁लाने	-10.1057
▁additional	-10.1057
▁शब्दों	-10.1058
▁Vijay	-10.1059
▁सत्र	-10.1059
▁वैशाली	-10.106
▁अधिकारी	-10.1061
▁listed	-10.1061
▁स्टेशनों	-10.1066
▁allegations	-10.1081
▁respondents	-10.1086
▁documents	-10.11
रा	-10.1101
▁courts	-10.1106
▁lakhs	-10.1107
▁demands	-10.1132
▁लगे	-10.1139
ur	-10.1154
▁जे	-10.1167
▁कष्ट	-10.1174
▁roads	-10.1201
ra	-10.1222
Éä	-10.1235
▁१४	-10.1257
▁View	-10.1267
▁Governor	-10.1268
cd	-10.127
▁आध	-10.1281
▁स्टेट	-10.1287
▁separate	-10.1287
▁उठाए	-10.1288
▁respective	-10.1288
▁favour	-10.1288
▁पैकेज	-10.1288
▁Kindly	-10.1289
▁Marg	-10.1289
▁behind	-10.1289
▁replied	-10.1289
▁xÉcÉÓ	-10.1289
▁अनाज	-10.1289
▁ऑवर	-10.1289
▁धार्मिक	-10.1289
▁भविष्य	-10.1289
▁वक्तव्य	-10.1289
▁सुषमा	-10.1289
▁compensation	-10.1289
▁assembled	-10.1289
▁entitled	-10.1289
▁allotted	-10.1289
▁संरक्षण	-10.1289
▁जानते	-10.1289
▁सहित	-10.1289
▁कितना	-10.129
▁2017	-10.129
▁बैठिए	-10.129
▁पीने	-10.1291
▁रखी	-10.1294
▁diseases	-10.1299
▁KUMARI	-10.13
▁terrorists	-10.1309
▁floods	-10.1311
▁कार्यों	-10.1312
▁supporting	-10.1313
▁कोल	-10.1325
▁incidents	-10.1332
▁legal	-10.1336
▁बोलिए	-10.1347
गर	-10.1352
▁b	-10.1353
▁हन	-10.1357
▁पहुंच	-10.1417
▁W	-10.1453
ती	-10.1493
▁Work	-10.1501
▁judgement	-10.1504
▁type	-10.1507
▁bridge	-10.1507
▁observation	-10.1507
▁passenger	-10.1507
▁Declare	-10.1523
▁congratulate	-10.1524
▁inter	-10.1524
▁वर्ग	-10.1525
▁स्थित	-10.1525
▁spoke	-10.1526
▁प्रक्रिया	-10.1526
▁राष्ट्र	-10.1526
▁Krishna	-10.1527
▁भावना	-10.1527
▁Expedite	-10.1527
▁administration	-10.1527
▁almost	-10.1527
▁commodities	-10.1527
▁consensus	-10.1527
▁आठवले	-10.1527
▁आश्वासन	-10.1527
▁जम्मू	-10.1527
▁मुद्दे	-10.1527
▁स्वीकार	-10.1527
▁कोयला	-10.1527
▁भुगतान	-10.1527
▁Various	-10.1527
▁अनधकरर	-10.1527
▁राष्ट्रपति	-10.1527
▁Supplementary	-10.1527
▁पेंशन	-10.1527
▁वर्मा	-10.1527
▁सामान्य	-10.1527
▁फायदा	-10.1527
▁गैस	-10.1527
▁यात्री	-10.1527
▁Mohan	-10.1528
▁चलाने	-10.1528
▁अनुदानों	-10.1529
▁visited	-10.1529
▁चले	-10.1531
▁cÉä	-10.1531
ji	-10.1532
▁ITA	-10.1536
▁नेता	-10.1557
▁मानव	-10.1569
▁जनहित	-10.1588
▁x	-10.1627
▁n	-10.1641
▁2,	-10.1653
▁३	-10.1667
▁constitutional	-10.171
▁माल	-10.171
▁गति	-10.1711
▁f	-10.1737
▁follow	-10.1745
▁face	-10.1748
▁Group	-10.1749
▁occasion	-10.1751
▁orders	-10.176
▁develop	-10.1764
▁wait	-10.1764
▁US	-10.1767
▁कृष्ण	-10.1768
▁strong	-10.1768
▁assure	-10.1768
▁release	-10.1768
▁recent	-10.1769
▁Gram	-10.177
▁धर्म	-10.1771
▁insurance	-10.1771
▁nobody	-10.1771
▁scope	-10.1771
▁simple	-10.1771
▁निम्नलखित	-10.1771
▁भर्ती	-10.1771
▁विधान	-10.1771
▁जोशी	-10.1771
▁सम्मिलित	-10.1771
▁थोड़ा	-10.1771
▁गन्ने	-10.1771
▁महाजन	-10.1771
▁PRAMOD	-10.1771
▁Parties	-10.1771
▁कर्मचारी	-10.1771
▁Health	-10.1771
▁Coal	-10.1771
▁unemployment	-10.1771
▁जातियों	-10.1771
▁रहते	-10.1772
▁रखना	-10.1772
▁बनाना	-10.1773
▁सात	-10.1773
▁changed	-10.1774
▁(4)	-10.1775
▁citizens	-10.1779
▁rupees	-10.178
▁comments	-10.1785
▁पुर	-10.1788
▁observations	-10.1791
▁friends	-10.1795
▁बनी	-10.1799
▁de	-10.1801
▁purposes	-10.1822
▁laws	-10.187
▁central	-10.1906
▁हित	-10.1921
L	-10.1923
▁लग	-10.1944
▁son	-10.1955
v	-10.1961
▁d	-10.1966
▁वि	-10.1979
▁limit	-10.1993
▁claim	-10.1995
▁bound	-10.2
▁language	-10.2
▁permit	-10.2
▁institution	-10.2005
Appellant	-10.2006
▁cross	-10.2014
▁Open	-10.2016
▁कत	-10.2017
▁उल्लेख	-10.202
▁स्वीकृत	-10.202
▁Economic	-10.2021
▁Technology	-10.2021
▁Those	-10.2021
▁defence	-10.2021
▁fiscal	-10.2021
▁अच्छे	-10.2021
▁अन्दर	-10.2021
▁गेहूं	-10.2021
▁वाजपेयी	-10.2021
▁हरियाणा	-10.2021
▁Nandigram	-10.2021
▁प्रणाली	-10.2021
▁उपरोक्त	-10.2021
▁somebody	-10.2021
▁Similarly	-10.2021
▁बाबा	-10.2021
▁dismissed	-10.2021
▁गठन	-10.2021
▁जैसा	-10.2021
▁iÉÉä	-10.2021
▁ननध	-10.2021
▁दौरान	-10.2021
▁former	-10.2022
▁इनकी	-10.2023
▁declared	-10.2024
▁Secondly	-10.2024
▁protected	-10.2024
▁हाई	-10.2025
▁global	-10.2026
▁जिसे	-10.2028
▁लेंगे	-10.203
▁Baba	-10.2031
▁ककक	-10.2042
▁rivers	-10.2043
▁२५	-10.2061
वां	-10.2068
▁using	-10.2074
......	-10.2074
▁जस	-10.2083
या	-10.212
▁reach	-10.2178
▁खरीद	-10.2182
▁सौ	-10.2182
▁budget	-10.2251
▁border	-10.2252
▁addition	-10.2253
▁Judge	-10.2254
▁live	-10.2255
▁individual	-10.2255
▁relation	-10.2257
▁भेज	-10.2265
▁मे	-10.2265
▁join	-10.2267
▁approach	-10.2269
▁supply	-10.2273
▁eight	-10.2273
▁प्रभाव	-10.2274
▁trade	-10.2274
▁निगम	-10.2274
▁नेपाल	-10.2275
▁admitted	-10.2275
▁कश्मीर	-10.2275
▁democratic	-10.2277
▁Chatterjee	-10.2277
▁January	-10.2277
▁Mulayam	-10.2277
▁PRANAB	-10.2277
▁SINHA	-10.2277
▁alone	-10.2277
▁arising	-10.2277
▁communities	-10.2277
▁energy	-10.2277
▁rather	-10.2277
▁regime	-10.2277
▁दासमुंशी	-10.2277
▁प्रारंभ	-10.2277
▁हिस्सा	-10.2277
▁nuclear	-10.2277
▁jute	-10.2277
▁स्वराज	-10.2277
▁treatment	-10.2277
▁खोलने	-10.2277
▁Hence	-10.2277
▁South	-10.2277
▁२००४	-10.2277
▁tried	-10.2278
▁failed	-10.2278
▁Jodhpur	-10.2278
▁BANKURA	-10.2278
▁quality	-10.2278
▁शंकर	-10.2278
▁बैठिये	-10.2278
▁बढ़ाया	-10.2278
▁पासवान	-10.2278
▁attitude	-10.2278
▁recently	-10.2279
▁HON	-10.2279
▁suggested	-10.2279
▁holding	-10.2281
▁rest	-10.2281
▁Line	-10.2282
▁bad	-10.2284
▁ABÉE	-10.2284
▁सड़कों	-10.2285
▁Ors	-10.2285
▁पूर्वी	-10.2287
▁नया	-10.2295
▁बिहारी	-10.2304
▁रोक	-10.2304
▁उपाय	-10.2305
कि	-10.233
▁पूर्ण	-10.2401
▁Vs	-10.2416
▁शक्ति	-10.2439
▁मन	-10.247
▁ककय	-10.2477
Respondent	-10.2504
▁file	-10.2516
▁connection	-10.252
▁field	-10.252
▁Service	-10.2521
▁house	-10.2522
▁Right	-10.2523
उपाध्यक्ष	-10.2526
▁expect	-10.2533
▁Schedule	-10.2538
▁final	-10.2538
▁America	-10.2539
▁महिला	-10.254
▁Labour	-10.254
▁Ganga	-10.254
▁Formula	-10.254
▁moment	-10.254
▁Enacting	-10.254
▁NORTH	-10.254
▁SHANKAR	-10.254
▁aforesaid	-10.254
▁agenda	-10.254
▁rice	-10.254
▁wheat	-10.254
▁घंटे	-10.254
▁सर्वेक्षण	-10.254
▁spent	-10.254
▁External	-10.254
Saka	-10.254
▁electricity	-10.254
▁प्रमुख	-10.254
▁Human	-10.254
▁राजेश	-10.254
▁जैसी	-10.2541
▁जिनमें	-10.2541
▁engaged	-10.2541
▁पड़ेगा	-10.2541
▁media	-10.2541
▁कुंवर	-10.2541
▁Taken	-10.2542
▁रहती	-10.2542
▁राजनीतिक	-10.2543
▁opposed	-10.2543
▁मंडल	-10.2543
▁जोड़ा	-10.2544
▁प्रस्तावित	-10.2544
▁quoted	-10.2546
ते	-10.255
▁reported	-10.2551
▁Ld	-10.2552
▁याद	-10.2556
▁thereon	-10.2556
▁टन	-10.2562
ये	-10.2591
▁submissions	-10.2592
▁rates	-10.2613
▁तेल	-10.2633
▁८	-10.2663
on	-10.274
No	-10.2745
▁Q	-10.2781
▁intention	-10.2787
▁cause	-10.2788
▁operation	-10.279
▁११	-10.2803
▁fight	-10.2806
▁प्रकाश	-10.2806
▁sell	-10.2807
▁पाकिस्तान	-10.2807
▁remember	-10.2808
▁illegal	-10.2808
▁Haryana	-10.281
▁agencies	-10.281
▁carried	-10.281
▁welfare	-10.281
▁आलू	-10.2811
▁Hyderabad	-10.2811
▁आवागमन	-10.2811
▁गोरखपुर	-10.2811
▁सर्वे	-10.2811
▁एंड	-10.2811
▁vf	-10.2811
▁1997	-10.2812
▁नियमित	-10.2812
▁Control	-10.2812
▁strongly	-10.2812
▁belonging	-10.2814
▁होंगे	-10.2815
▁मिलना	-10.2816
▁meaning	-10.2816
▁Dy	-10.282
am	-10.2824
▁rightly	-10.2824
▁कहां	-10.2826
▁नये	-10.2826
▁conditions	-10.2836
▁benefits	-10.2846
▁कब	-10.2849
?...(	-10.2851
▁सज	-10.2877
▁नत	-10.2879
▁ओ	-10.2933
▁बढ	-10.2936
▁r	-10.2942
▁Can	-10.2948
▁70	-10.2968
▁जान	-10.3011
▁सा	-10.3022
ू	-10.303
▁Re	-10.3053
▁oppose	-10.3063
▁hold	-10.3064
▁counsel	-10.3066
▁judgment	-10.3068
▁crop	-10.3069
लम	-10.307
▁MANI	-10.3072
▁explain	-10.3082
▁Accord	-10.3084
▁48	-10.3085
▁उदाहरण	-10.3085
▁privilege	-10.3085
▁कार्यालय	-10.3085
▁achieve	-10.3086
▁positive	-10.3086
▁alleged	-10.3087
▁Ranjan	-10.3088
▁SOUTH	-10.3088
▁September	-10.3088
▁referring	-10.3088
▁इस्तेमाल	-10.3088
▁धनराशि	-10.3088
▁प्राथमिकता	-10.3088
▁समुचित	-10.3088
▁mechanism	-10.3088
▁mining	-10.3088
▁२००६	-10.3088
▁Consolidated	-10.3088
▁Lunch	-10.3088
▁innocent	-10.3088
▁GDP	-10.3088
▁burden	-10.3088
▁निम्न	-10.3088
▁corruption	-10.3088
▁trial	-10.3089
▁Though	-10.3089
▁yourself	-10.3089
▁मिलेगी	-10.3089
▁merely	-10.3089
▁जिसकी	-10.3089
▁दरटन	-10.3089
▁किन्तु	-10.309
▁आदे	-10.309
▁उठाना	-10.309
▁growing	-10.309
▁ददल	-10.309
▁सांसद	-10.309
▁limited	-10.3091
▁एच	-10.3092
▁Air	-10.3093
▁led	-10.3093
▁medicines	-10.3094
▁उद्योगों	-10.3097
▁Sri	-10.3098
▁considering	-10.3099
▁Papers	-10.3102
▁थीं	-10.3103
▁loans	-10.3105
▁h	-10.3106
▁dks	-10.3108
▁Reported	-10.3111
j	-10.3118
▁men	-10.3118
▁grounds	-10.3131
▁देख	-10.316
वें	-10.3195
▁45	-10.3215
BÉEÉ	-10.3236
▁air	-10.3305
▁dk	-10.3314
ns	-10.3322
▁book	-10.3347
▁rail	-10.3351
▁Revenue	-10.3351
▁Part	-10.3353
▁sale	-10.3354
स्थापित	-10.3357
Cd	-10.3369
▁save	-10.3372
▁शब्द	-10.3372
▁अनुदान	-10.3372
▁उर्वरक	-10.3373
▁knowledge	-10.3374
▁vihy	-10.3374
▁Independence	-10.3374
▁KISHORE	-10.3374
▁Press	-10.3374
▁WTO	-10.3374
▁completion	-10.3374
▁exchange	-10.3374
▁fnukad	-10.3374
▁judicial	-10.3374
▁protest	-10.3374
▁proud	-10.3374
▁बच्चे	-10.3374
▁ANANTH	-10.3374
▁पटेल	-10.3374
▁performance	-10.3374
▁उत्पन्न	-10.3374
▁२००२	-10.3374
▁Ltd	-10.3374
▁thankful	-10.3374
▁विद्युतीकरण	-10.3374
▁Welfare	-10.3374
▁कितने	-10.3374
▁history	-10.3374
▁वालों	-10.3374
▁Rail	-10.3375
▁बिलासपुर	-10.3375
▁परियोजनाओं	-10.3375
▁ORDER	-10.3375
▁बताना	-10.3375
▁died	-10.3376
▁closed	-10.3376
▁sanctioned	-10.3376
▁बनने	-10.3376
▁सुधारने	-10.3376
▁coal	-10.3376
▁expected	-10.3376
िंग	-10.3377
▁accordingly	-10.3377
▁मात्रा	-10.3377
▁Indo	-10.3377
▁Here	-10.3379
▁soon	-10.338
▁keeping	-10.3383
▁thereto	-10.3383
▁बोला	-10.3386
▁ek	-10.3388
▁वव	-10.3388
▁जाकर	-10.3395
▁colleagues	-10.34
▁साधन	-10.3416
▁hands	-10.342
▁वही	-10.3429
▁समझ	-10.3457
▁Y	-10.3522
▁बह	-10.3527
ओं	-10.3552
▁सपोर्ट	-10.3571
▁अभ	-10.3589
▁योग्य	-10.3619
▁suggest	-10.3638
▁function	-10.3643
▁generation	-10.3645
▁package	-10.3646
▁strike	-10.3646
▁clarification	-10.3648
आप	-10.3653
▁मुख्यालय	-10.3665
▁वंचित	-10.3665
▁विपक्ष	-10.3665
▁examine	-10.3666
▁पर्यटक	-10.3666
▁गम्भीर	-10.3667
▁Vajpayee	-10.3668
▁उपभोक्ता	-10.3668
▁सूची	-10.3668
▁text	-10.3668
▁अधिकांश	-10.3668
▁Check	-10.3668
▁FINANCE	-10.3668
▁Gauge	-10.3668
▁NAIK	-10.3668
▁cooperation	-10.3668
▁crisis	-10.3668
▁deficit	-10.3668
▁तारीख	-10.3668
▁हुयी	-10.3668
▁Priya	-10.3668
▁quoting	-10.3668
▁प्रसारण	-10.3668
▁अथवा	-10.3668
▁व्यय	-10.3668
▁रंजन	-10.3668
▁सुरक्षित	-10.3668
▁संभव	-10.3668
▁witnesses	-10.3668
▁पूछना	-10.3669
▁Day	-10.3669
▁kilometres	-10.3669
▁billion	-10.3669
▁removed	-10.3669
▁सहमति	-10.3669
▁cut	-10.3669
▁constituted	-10.3669
▁movement	-10.3669
▁प्लांट	-10.367
▁मारे	-10.367
▁Lalu	-10.367
▁आवर	-10.367
▁दर्जा	-10.3671
▁followed	-10.3672
▁माना	-10.3674
▁fd	-10.3677
▁Muslims	-10.3683
▁crops	-10.3689
▁Rights	-10.369
▁directions	-10.3697
।">	-10.3702
▁३०	-10.3765
▁यू	-10.3826
▁unit	-10.3877
▁head	-10.3883
the	-10.3914
▁कुल	-10.3922
▁गर	-10.3938
▁export	-10.3943
▁grant	-10.3945
▁मर	-10.3947
▁propose	-10.3947
▁measure	-10.3948
▁criminal	-10.3949
▁stock	-10.3951
▁school	-10.3952
उप	-10.3954
▁makes	-10.3954
Railways	-10.3956
▁commission	-10.3962
▁मजदूर	-10.3966
▁परेशान	-10.3967
▁500	-10.3968
▁reduce	-10.3969
▁पालन	-10.3969
▁दलित	-10.3971
▁110067	-10.3971
▁Allahabad	-10.3971
▁Authenticated	-10.3971
▁Legislative	-10.3971
▁creating	-10.3971
▁instead	-10.3971
▁intervention	-10.3971
▁otherwise	-10.3971
▁university	-10.3971
▁औद्योगिक	-10.3971
▁दिसम्बर	-10.3971
▁प्रियरंजन	-10.3971
▁body	-10.3971
▁staff	-10.3971
▁कानपुर	-10.3971
▁आकृष्ट	-10.3971
▁जनसंख्या	-10.3971
▁महंगाई	-10.3971
▁अनंत	-10.3971
▁resignation	-10.3971
▁दिनांक	-10.3971
▁supposed	-10.3972
▁Just	-10.3972
▁recommended	-10.3972
▁सम्मान	-10.3972
▁growers	-10.3972
▁pressure	-10.3972
▁एफ	-10.3972
▁signed	-10.3972
▁Suman	-10.3972
▁लाया	-10.3973
▁Situation	-10.3973
▁प्रबंधन	-10.3973
▁पाया	-10.3974
▁unfortunately	-10.3974
▁कहने	-10.3974
▁directly	-10.3975
▁Copy	-10.3976
▁reading	-10.3984
▁sums	-10.3985
▁नहर	-10.3985
▁हई	-10.3992
▁Services	-10.3994
▁उसक	-10.4009
▁४	-10.401
▁stations	-10.4014
वा	-10.4029
▁nine	-10.4038
▁reports	-10.4077
२	-10.4117
▁आकर	-10.4173
ity	-10.4173
▁statements	-10.4213
शन	-10.4237
▁करा	-10.4248
▁हत्या	-10.4251
ation	-10.4252
▁suit	-10.4257
▁Bridge	-10.4262
▁material	-10.4263
▁death	-10.4264
▁newspaper	-10.4264
▁figure	-10.4264
▁farmer	-10.4265
▁37	-10.4272
▁maintain	-10.4277
▁add	-10.4278
▁जरूर	-10.4278
▁अद	-10.4278
▁react	-10.428
▁व्यापार	-10.428
▁Construct	-10.428
▁बंगाल	-10.428
▁honour	-10.428
▁प्रयोग	-10.4281
▁विवाद	-10.4281
▁Implementation	-10.4282
▁असर	-10.4283
▁Athawale	-10.4284
▁Everybody	-10.4284
▁Management	-10.4284
▁SHOURIE	-10.4284
▁SURESH	-10.4284
▁context	-10.4284
▁duties	-10.4284
▁opportunities	-10.4284
▁universities	-10.4284
▁कल्याण	-10.4284
▁गंगवार	-10.4284
▁जितनी	-10.4284
▁पाण्डेय	-10.4284
▁भार्गव	-10.4284
▁योगदान	-10.4284
▁विनती	-10.4284
▁संतोष	-10.4284
▁समीक्षा	-10.4284
▁previous	-10.4284
▁नौकरी	-10.4284
▁beginning	-10.4284
▁सब्सिडी	-10.4284
▁Nehru	-10.4284
▁राजीव	-10.4284
▁DEO	-10.4284
▁खैरे	-10.4284
▁RAIGANJ	-10.4284
▁शायद	-10.4284
▁आजादी	-10.4284
▁self	-10.4284
▁समझता	-10.4285
▁बढ़ती	-10.4285
▁RAO	-10.4285
▁spite	-10.4285
▁बोलते	-10.4285
▁मान्यवर	-10.4285
▁२००३	-10.4285
▁जायेगी	-10.4285
▁आभारी	-10.4286
▁बनाकर	-10.4286
▁आठ	-10.4287
▁रोका	-10.4288
▁माह	-10.4288
▁disturbing	-10.429
▁रूपए	-10.4291
▁Pal	-10.4293
▁defendant	-10.4293
▁Into	-10.4293
▁Atal	-10.4294
▁bringing	-10.4303
▁ु	-10.4305
▁ji	-10.4305
▁speakers	-10.4307
▁takes	-10.4317
▁सद	-10.4331
ठ	-10.4353
▁youth	-10.4371
▁58	-10.4404
▁टाइम	-10.4416
▁कर्ज	-10.4439
▁Account	-10.4497
or	-10.4523
वीं	-10.4562
▁condemn	-10.4577
▁return	-10.4579
▁challenge	-10.4584
▁building	-10.4585
▁complaint	-10.4587
▁loan	-10.4587
▁speaker	-10.4601
▁study	-10.4602
▁double	-10.4603
▁expedite	-10.4604
▁solve	-10.4604
▁fast	-10.4605
▁चिन्ता	-10.4606
▁Proper	-10.4606
▁CALCUTTA	-10.4606
▁MADHAVRAO	-10.4606
▁Radhakrishnan	-10.4606
▁SCINDIA	-10.4606
▁Thomas	-10.4606
▁compulsory	-10.4606
▁izFke	-10.4606
▁ourselves	-10.4606
▁traffic	-10.4606
▁अतरिक्त	-10.4606
▁उड़ीसा	-10.4606
▁तुरंत	-10.4606
▁पर्यावरण	-10.4606
▁बावजूद	-10.4606
▁दुनिया	-10.4606
▁रास्ता	-10.4606
▁गिरधारी	-10.4606
▁Nagpur	-10.4606
▁possession	-10.4606
▁अधनियम	-10.4606
▁परिवहन	-10.4606
▁Mandal	-10.4606
▁रावले	-10.4606
▁Alleged	-10.4606
▁moving	-10.4606
▁राजस्व	-10.4606
▁Where	-10.4607
▁श्रम	-10.4607
▁highest	-10.4607
▁प्रसिद्ध	-10.4607
▁Suresh	-10.4607
▁चलेगा	-10.4607
▁MEMBERS	-10.4607
▁framed	-10.4607
▁जिसका	-10.4608
▁Reservation	-10.4608
▁जाएंगे	-10.4611
▁परिवारों	-10.4612
▁dealing	-10.4616
▁बने	-10.4617
▁understanding	-10.4627
ार	-10.4629
▁दद	-10.4637
▁ordered	-10.4643
ली	-10.4651
▁200	-10.4652
▁states	-10.466
▁देशों	-10.4664
▁Raj	-10.4666
▁53	-10.4669
▁Clauses	-10.4676
▁mi	-10.4693
िए	-10.4694
▁36	-10.4714
▁gets	-10.478
▁सन	-10.4785
▁Sub	-10.4799
▁घ	-10.4804
able	-10.4818
and	-10.4822
▁मी	-10.4862
▁34	-10.4871
▁सन्	-10.4897
▁belong	-10.4913
▁comment	-10.4917
▁instance	-10.492
▁उत्पाद	-10.4929
▁wind	-10.4936
▁access	-10.4936
▁balance	-10.4937
▁मात्र	-10.4937
▁मंदिर	-10.4937
▁purchase	-10.4937
▁उपस्थित	-10.4939
▁low	-10.4939
▁विलास	-10.4939
▁मीटिंग	-10.4939
▁Chandra	-10.4939
▁About	-10.494
▁Additional	-10.494
▁Arunachal	-10.494
▁BOLPUR	-10.494
▁Chhattisgarh	-10.494
▁Early	-10.494
▁Faced	-10.494
▁Gupta	-10.494
▁Industry	-10.494
▁Release	-10.494
▁Steel	-10.494
▁TRIPATHY	-10.494
▁daily	-10.494
▁deceased	-10.494
▁facility	-10.494
▁heavy	-10.494
▁kerosene	-10.494
▁satisfied	-10.494
▁जितने	-10.494
▁परंतु	-10.494
▁प्रमोद	-10.494
▁सिस्टम	-10.494
▁Convention	-10.494
▁revised	-10.494
▁Patil	-10.494
▁despite	-10.494
▁BRAJA	-10.494
▁Electricity	-10.494
▁Women	-10.494
▁thus	-10.494
▁आदिवासियों	-10.494
▁हुये	-10.494
▁नियुक्ति	-10.494
▁ADHIR	-10.494
▁विगत	-10.494
▁wise	-10.494
▁गैर	-10.494
▁बजाय	-10.494
▁Lucknow	-10.494
▁introduction	-10.494
▁इतिहास	-10.494
▁ब्रिज	-10.494
▁दिखाई	-10.494
▁pertaining	-10.494
▁objectionable	-10.494
▁contained	-10.494
▁cooperative	-10.494
▁allocated	-10.4941
▁हाल	-10.4941
▁बेरोजगारी	-10.4942
▁examined	-10.4942
▁foodgrains	-10.4943
▁achieved	-10.4943
▁reached	-10.4943
▁released	-10.4943
▁देवरिया	-10.4944
▁assured	-10.4944
▁developing	-10.4945
▁विशेषकर	-10.4945
▁आना	-10.4948
▁paying	-10.495
▁मरम्मत	-10.495
▁बत	-10.4955
जी	-10.496
/;	-10.496
▁operations	-10.4964
▁bridges	-10.4967
▁happens	-10.4969
▁disputes	-10.4971
▁shows	-10.4978
गा	-10.4988
▁Highways	-10.4993
▁जुड़े	-10.4998
▁¶	-10.4999
▁पाल	-10.5002
ÉÚ	-10.5007
▁समान	-10.5016
▁मद	-10.5037
▁तर	-10.5052
▁NO	-10.507
▁सेना	-10.5077
▁Houses	-10.5102
▁ex	-10.5138
▁नय	-10.5148
▁’	-10.5206
li	-10.5209
▁aÉc	-10.5233
▁VÉÉä	-10.5248
▁exercise	-10.5261
▁2011	-10.5261
▁failure	-10.5262
▁suicide	-10.5263
▁paper	-10.5265
▁killing	-10.5265
▁route	-10.5265
▁recommendation	-10.5265
▁accord	-10.5278
▁दर्ज	-10.5278
iii	-10.528
▁मैम्बर	-10.5281
▁finish	-10.5281
▁चीज	-10.5281
▁परिणाम	-10.5282
▁आभार	-10.5282
▁turn	-10.5282
▁हाथ	-10.5282
▁छूट	-10.5282
▁commercial	-10.5282
▁ever	-10.5283
▁संस्थान	-10.5283
▁आत्महत्या	-10.5284
▁व्यवसाय	-10.5284
▁Develop	-10.5284
▁Agricultural	-10.5284
▁CHOWDHURY	-10.5284
▁Gangnath	-10.5284
▁KIRIT	-10.5284
▁LPG	-10.5284
▁Pension	-10.5284
▁Rupchand	-10.5284
▁SHARAD	-10.5284
▁SUDIP	-10.5284
▁Support	-10.5284
▁domestic	-10.5284
▁freight	-10.5284
▁message	-10.5284
▁sugarcane	-10.5284
▁अत्यधिक	-10.5284
▁इलाके	-10.5284
▁संचार	-10.5284
▁सुप्रीम	-10.5284
▁Ahmedabad	-10.5284
▁rehabilitation	-10.5284
▁emerging	-10.5284
▁Swain	-10.5284
▁percentage	-10.5284
▁समाचार	-10.5284
▁२००१	-10.5284
▁JPC	-10.5284
▁cities	-10.5284
kdkjh	-10.5285
▁throughout	-10.5285
▁Ayodhya	-10.5285
▁सुबह	-10.5285
▁तभी	-10.5285
▁बचाने	-10.5285
▁लेखा	-10.5285
▁observed	-10.5285
▁लिस्ट	-10.5285
▁Arun	-10.5285
▁culture	-10.5285
▁चायल	-10.5285
▁जनजातियों	-10.5286
▁Civil	-10.5286
▁approval	-10.5286
▁व्यक्तियों	-10.5286
▁चलते	-10.5286
▁शिमला	-10.5286
▁चलाई	-10.5286
▁Bihari	-10.5287
▁joint	-10.5287
▁ahead	-10.5288
▁became	-10.5288
▁भाव	-10.5288
▁produced	-10.5289
▁reforms	-10.529
▁उपलब्धता	-10.5291
▁speeches	-10.5292
िया	-10.5298
▁पुन	-10.5298
▁looking	-10.5302
▁houses	-10.531
▁बनाये	-10.5311
BÉE	-10.5313
▁Their	-10.5313
▁Projects	-10.5328
▁communal	-10.533
▁Leaders	-10.5359
xÉä	-10.5364
ÉÖ	-10.5368
▁उपर	-10.5369
जन	-10.5374
़	-10.5393
▁ि	-10.5465
▁pre	-10.5466
नी	-10.5502
▁g	-10.5532
ीय	-10.5563
▁लक	-10.5578
▁object	-10.5613
▁cover	-10.5614
ma	-10.5616
▁fall	-10.5618
▁sheet	-10.5618
▁Director	-10.562
▁contribution	-10.562
▁religion	-10.5621
▁American	-10.5621
▁group	-10.5622
▁organisation	-10.5623
▁gives	-10.5629
▁interrupt	-10.5634
▁walk	-10.5635
▁स्कीम	-10.5638
▁serve	-10.5639
▁traditional	-10.564
के	-10.564
▁आरोप	-10.5641
▁चरण	-10.5641
▁Author	-10.5641
▁चन्द्र	-10.5641
▁उच्च	-10.5641
▁BANATWALLA	-10.5641
▁BANDYOPADHYAY	-10.5641
▁Indira	-10.5641
▁Irrigation	-10.5641
▁Munirka	-10.5641
▁Procedure	-10.5641
▁SOMAIYA	-10.5641
▁bodies	-10.5641
▁examination	-10.5641
▁filter	-10.5641
▁grateful	-10.5641
▁improving	-10.5641
▁jurisdiction	-10.5641
▁neither	-10.5641
▁session	-10.5641
▁tourism	-10.5641
▁अंतर्राष्ट्रीय	-10.5641
▁अगले	-10.5641
▁अनुसंधान	-10.5641
▁आंदोलन	-10.5641
▁ऐतिहासिक	-10.5641
▁कार्यान्वयन	-10.5641
▁निरंतर	-10.5641
▁बिल्कुल	-10.5641
▁ब्याज	-10.5641
▁शुरु	-10.5641
▁हिसाब	-10.5641
▁Jute	-10.5642
▁PAWAR	-10.5642
▁spirit	-10.5642
▁रास्ते	-10.5642
▁CHANDRA	-10.5642
▁तमाम	-10.5642
▁filing	-10.5642
▁फिल्म	-10.5642
▁रोटी	-10.5642
▁चौहान	-10.5642
▁dead	-10.5642
▁Whatever	-10.5642
▁outset	-10.5642
▁बुलाया	-10.5642
▁हिन्दू	-10.5642
▁बोलिये	-10.5642
▁Facilities	-10.5642
▁पंजीयक	-10.5642
▁२०००	-10.5643
▁entered	-10.5643
▁Ramji	-10.5643
▁Also	-10.5643
▁becoming	-10.5644
▁पूछा	-10.5644
▁covered	-10.5644
▁लेते	-10.5644
▁योगी	-10.5644
▁सांसदों	-10.5645
▁According	-10.5645
▁परेशानी	-10.5645
▁सागर	-10.5645
▁personally	-10.5646
▁associated	-10.5646
▁नियमों	-10.5648
▁सजा	-10.5649
▁011	-10.565
▁आयात	-10.565
▁तैयारी	-10.5651
▁रहेगा	-10.5651
▁concerning	-10.5652
▁waste	-10.5655
▁requires	-10.5657
▁representatives	-10.5658
▁लय	-10.566
▁कोटा	-10.5664
▁tribals	-10.5673
हम	-10.5675
ÉÉÊiÉ	-10.5691
▁प्रदेशों	-10.5694
▁becomes	-10.5731
▁उपज	-10.5735
it	-10.5752
Éå	-10.5766
▁́ÉÉ	-10.5874
▁whom	-10.5898
▁जय	-10.5949
▁́Éä	-10.5975
१	-10.5983
▁link	-10.5984
▁affect	-10.5985
▁structure	-10.5987
▁pension	-10.5989
▁Article	-10.5989
▁sort	-10.5989
▁mistake	-10.5989
▁Agreement	-10.599
▁advantage	-10.599
▁committee	-10.599
▁announcement	-10.599
▁receipt	-10.5991
Th	-10.5996
▁राजनीति	-10.6008
▁स्कूल	-10.6008
▁संकल्प	-10.6009
▁बांध	-10.601
▁modern	-10.6011
▁civil	-10.6012
▁Govt	-10.6012
▁Memorandum	-10.6012
▁Over	-10.6012
▁Ramdas	-10.6012
▁World	-10.6012
▁concluding	-10.6012
▁excise	-10.6012
▁independent	-10.6012
▁legislative	-10.6012
▁policies	-10.6012
▁prosecution	-10.6012
▁religious	-10.6012
▁तुलना	-10.6012
▁नागपुर	-10.6012
▁प्रत्येक	-10.6012
▁प्रथम	-10.6012
▁प्राकृतिक	-10.6012
▁लखनऊ	-10.6012
▁वाटर	-10.6012
▁समझौता	-10.6012
▁definition	-10.6012
▁extension	-10.6012
▁truth	-10.6012
▁मृत्यु	-10.6012
▁संदर्भ	-10.6012
▁बरेली	-10.6012
▁जिन्हें	-10.6012
▁रेखा	-10.6012
▁WEST	-10.6012
▁unprecedented	-10.6012
▁confusion	-10.6012
▁Port	-10.6012
▁बंसल	-10.6012
▁खाली	-10.6012
▁Have	-10.6012
▁shortage	-10.6012
▁बांदा	-10.6012
▁कंपनी	-10.6012
▁बचाया	-10.6012
▁पिछड़ा	-10.6012
▁reality	-10.6012
▁Bodoland	-10.6013
▁औरंगाबाद	-10.6013
▁approved	-10.6013
▁बन्द	-10.6013
▁बदले	-10.6013
▁absolutely	-10.6014
▁Jain	-10.6014
▁Requested	-10.6014
▁सारा	-10.6015
▁हवाई	-10.6016
▁improved	-10.6016
pur	-10.6017
▁talked	-10.6018
▁addressed	-10.6018
▁कृपाल	-10.6018
▁undertakings	-10.6019
▁(5)	-10.6019
▁SC	-10.6023
▁training	-10.6023
▁सालों	-10.6028
▁newspapers	-10.6035
▁clock	-10.6039
▁देर	-10.6044
▁गत	-10.6053
▁शहरी	-10.6067
▁proposals	-10.6068
▁concerns	-10.6069
▁Zero	-10.6072
▁likely	-10.6076
ce	-10.6077
‍	-10.6094
▁47	-10.6111
▁मान	-10.6151
ri	-10.6154
▁49	-10.6172
re	-10.6194
▁news	-10.6217
▁बस	-10.6255
▁42	-10.626
X	-10.6297
ठ्ठह	-10.6305
▁१००	-10.6337
▁convey	-10.6367
▁sanction	-10.6367
▁lead	-10.6371
▁operate	-10.6372
▁threat	-10.6376
▁argument	-10.6376
▁highway	-10.6376
▁objective	-10.6377
▁accident	-10.6377
▁Muslim	-10.6377
▁Paper	-10.6377
▁पढ़	-10.6385
▁repeat	-10.639
▁अत्याचार	-10.6393
▁फंड	-10.6393
▁बराबर	-10.6394
▁पीड़ित	-10.6394
▁similar	-10.6394
▁चन्द्रपुर	-10.6394
▁season	-10.6395
▁दुर्घटना	-10.6396
▁आवास	-10.6396
▁strength	-10.6396
▁compel	-10.6396
▁बेहतर	-10.6396
▁Left	-10.6396
▁Patna	-10.6396
द्वड्ढ	-10.6396
▁BIKRAM	-10.6396
▁Backward	-10.6396
▁CHAKRABORTY	-10.6396
▁Drinking	-10.6396
▁Include	-10.6396
▁International	-10.6396
▁KINJARAPU	-10.6396
▁Rajsamand	-10.6396
▁diesel	-10.6396
▁explanation	-10.6396
▁silence	-10.6396
▁whenever	-10.6396
▁कंपनियों	-10.6396
▁किंतु	-10.6396
▁चित्रकूट	-10.6396
▁थोड़ी	-10.6396
▁प्राइवेट	-10.6396
▁भ्रष्टाचार	-10.6396
▁शेष	-10.6396
▁सप्ताह	-10.6396
▁Master	-10.6396
▁availability	-10.6396
▁creation	-10.6397
▁लोकतंत्र	-10.6397
▁primary	-10.6397
▁resolution	-10.6397
▁कार्ड	-10.6397
▁secularism	-10.6397
€“	-10.6397
▁JOS	-10.6397
▁recovery	-10.6397
▁संस्थाओं	-10.6397
▁Rawat	-10.6397
▁Salim	-10.6397
▁Dasgupta	-10.6397
▁इसलिये	-10.6397
▁उत्तरांचल	-10.6397
▁लम्बित	-10.6397
▁वार्षिक	-10.6397
▁शिवराज	-10.6397
▁Chairperson	-10.6397
▁Pradhan	-10.6397
▁खासकर	-10.6397
▁अटल	-10.6397
▁rejected	-10.6397
▁expunged	-10.6397
▁urban	-10.6397
▁thereafter	-10.6397
▁आमान	-10.6397
▁overall	-10.6397
▁Employees	-10.6398
▁suspended	-10.6398
▁reasonable	-10.6398
▁नेताओं	-10.6398
▁imposed	-10.6399
▁finding	-10.6399
▁initiated	-10.6399
▁ITAT	-10.6399
▁बढ़ने	-10.6399
▁norms	-10.64
▁caused	-10.64
▁ककककक	-10.64
फ	-10.6401
▁रबल	-10.6401
▁participated	-10.6402
▁देती	-10.6402
▁टीम	-10.6402
▁Matters	-10.6403
▁कराना	-10.6405
▁MPs	-10.6405
▁बनाम	-10.6407
▁young	-10.641
▁continued	-10.6411
▁Areas	-10.6411
▁Plant	-10.6415
▁clarifications	-10.6422
मा	-10.6427
▁Forces	-10.643
▁remains	-10.6434
▁कुमारी	-10.6439
▁thinking	-10.6442
▁कीमत	-10.6443
▁Cd	-10.6451
▁Mani	-10.6456
ant	-10.6457
▁तथ	-10.6466
▁heart	-10.6473
DR	-10.6486
▁Dal	-10.6494
▁Thanks	-10.6495
▁बाल	-10.6544
▁ननर	-10.6555
▁numbers	-10.6592
▁41	-10.66
▁ways	-10.66
▁appeals	-10.6606
is	-10.6639
▁मार	-10.6661
▁पे	-10.6677
▁ण	-10.6685
ers	-10.67
▁environment	-10.674
का	-10.6743
▁attempt	-10.6769
▁advance	-10.6772
यह	-10.6773
▁Trust	-10.6773
▁Panchayat	-10.6774
▁Request	-10.6774
▁operative	-10.6774
▁applicant	-10.6775
▁violation	-10.6776
▁offence	-10.6776
▁initiative	-10.6776
▁suffering	-10.6779
▁establish	-10.679
▁पहल	-10.679
▁broad	-10.6793
▁consent	-10.6793
▁दिक्कत	-10.6794
▁अस्पताल	-10.6794
▁सतना	-10.6795
▁normal	-10.6795
▁fire	-10.6795
▁सहमत	-10.6796
▁CPI	-10.6796
▁faith	-10.6796
▁Ashok	-10.6796
▁BALASORE	-10.6796
▁Bangalore	-10.6796
▁CHANDRAPPAN	-10.6796
▁Companies	-10.6796
▁Metro	-10.6796
▁POTA	-10.6796
▁SRIKAKULAM	-10.6796
▁Status	-10.6796
▁TECHNOLOGY	-10.6796
▁acquisition	-10.6796
▁coaches	-10.6796
▁grave	-10.6796
▁manufacturing	-10.6796
▁petrol	-10.6796
▁pollution	-10.6796
▁trouble	-10.6796
▁अंतर्विष्ट	-10.6796
▁आर्डर	-10.6796
▁गारंटी	-10.6796
▁जनजातीय	-10.6796
▁जालौन	-10.6796
▁प्रतिवर्ष	-10.6796
▁भयंकर	-10.6796
▁भीषण	-10.6796
▁मतलब	-10.6796
▁महसूस	-10.6796
▁लघु	-10.6796
▁Conference	-10.6796
▁VERSUS	-10.6796
▁Shankar	-10.6797
▁Shivraj	-10.6797
▁perusal	-10.6797
▁recruitment	-10.6797
▁stating	-10.6797
▁calamity	-10.6797
▁मार्च	-10.6797
▁अत्यन्त	-10.6797
▁Capital	-10.6797
▁मोशन	-10.6797
▁1961	-10.6797
▁Rao	-10.6797
▁circulated	-10.6797
▁Two	-10.6797
▁applicable	-10.6797
▁thirty	-10.6797
▁इंदिरा	-10.6797
▁चूंकि	-10.6797
▁संयंत्र	-10.6797
▁retired	-10.6797
▁Urban	-10.6797
▁difficulties	-10.6797
▁Pune	-10.6797
▁२२	-10.6797
▁ÉÊãÉA	-10.6797
▁सबको	-10.6797
▁भावनाओं	-10.6797
▁therewith	-10.6798
▁exactly	-10.6798
▁इनका	-10.6798
▁RSS	-10.6798
▁Accordingly	-10.6798
▁नागरिकों	-10.6799
▁city	-10.6799
▁difficulty	-10.6799
▁पवन	-10.6799
▁सकेगा	-10.68
▁नयी	-10.68
▁वहीं	-10.68
▁बीज	-10.68
▁पड़े	-10.6802
▁victims	-10.6802
▁आतंकवादी	-10.6802
▁fighting	-10.6802
▁एक्ट	-10.6803
▁conducted	-10.6803
▁highly	-10.6804
▁Nations	-10.6804
▁USA	-10.6805
▁Has	-10.6805
▁हत	-10.6805
▁reserves	-10.6805
▁कार्यक्रमों	-10.6805
▁completely	-10.6805
▁remarks	-10.6808
▁X	-10.6812
▁thousands	-10.6813
▁Kumari	-10.6818
▁deaths	-10.6822
▁बम	-10.6825
▁हिन्दी	-10.6829
▁occasions	-10.6829
ness	-10.6839
▁संस्कृति	-10.6862
▁१७	-10.6864
▁निकाल	-10.6873
▁letters	-10.6886
at	-10.6913
la	-10.692
▁90	-10.6936
गढ़	-10.6944
ां	-10.6953
▁55	-10.6966
ÉÉä	-10.6997
▁provides	-10.7022
▁कराए	-10.704
ous	-10.7053
▁________	-10.7059
▁j	-10.7077
ै	-10.7079
▁Indians	-10.7095
▁ठ	-10.7105
▁लाए	-10.7186
▁network	-10.7187
Z	-10.7188
▁दनांक	-10.719
▁idea	-10.7191
▁Reference	-10.7191
▁solution	-10.7192
▁judge	-10.7192
▁arrangement	-10.7192
▁Science	-10.7193
▁town	-10.7193
▁hundred	-10.7193
▁Caste	-10.7194
▁चुना	-10.7207
▁strengthen	-10.7207
▁बर्बाद	-10.721
▁feeling	-10.7211
▁Division	-10.7212
▁ratio	-10.7212
▁जुड़ा	-10.7213
▁खुद	-10.7213
▁forget	-10.7213
▁secular	-10.7213
▁शून्य	-10.7213
▁AJOY	-10.7213
▁Assistant	-10.7213
▁Bansal	-10.7213
▁Conduct	-10.7213
▁Doordarshan	-10.7213
▁Friday	-10.7213
▁Guarantee	-10.7213
▁Gurudas	-10.7213
▁KHANDURI	-10.7213
▁MAHTAB	-10.7213
▁Mahatma	-10.7213
▁NITISH	-10.7213
▁PUBLIC	-10.7213
▁Statutory	-10.7213
▁Stoppage	-10.7213
▁Universities	-10.7213
▁activity	-10.7213
▁guidance	-10.7213
▁producing	-10.7213
▁until	-10.7213
▁अफीम	-10.7213
▁आदित्यनाथ	-10.7213
▁इटावा	-10.7213
▁चिट्ठी	-10.7213
▁थर्मल	-10.7213
▁नालंदा	-10.7213
▁प्रारम्भ	-10.7213
▁मथुरा	-10.7213
▁मामलों	-10.7213
▁रिकॉर्ड	-10.7213
▁साबित	-10.7213
▁ौलए	-10.7213
▁Unless	-10.7213
▁distribution	-10.7213
▁मंत्रियों	-10.7213
▁समस्तीपुर	-10.7213
▁दूरदर्शन	-10.7213
▁मुरली	-10.7213
▁लिमिटेड	-10.7213
▁simply	-10.7213
▁गोयल	-10.7213
▁delegation	-10.7213
▁डिस्कशन	-10.7213
▁बुनियादी	-10.7213
▁penalty	-10.7213
▁खनन	-10.7213
▁विशिष्ट	-10.7213
▁स्टेटमेंट	-10.7213
▁Protection	-10.7213
▁इसीलिए	-10.7213
▁saw	-10.7213
▁Such	-10.7214
▁denied	-10.7214
▁कैबिनेट	-10.7214
▁झंझारपुर	-10.7214
▁भगवान	-10.7214
▁voting	-10.7214
▁Another	-10.7214
▁improvement	-10.7214
▁leadership	-10.7214
▁perhaps	-10.7214
▁कहूंगा	-10.7214
▁बदलने	-10.7214
▁1993	-10.7214
▁व्यापारियों	-10.7214
▁निवेश	-10.7214
▁पाठक	-10.7214
▁शरद	-10.7214
▁sold	-10.7214
▁अन्याय	-10.7214
▁देखकर	-10.7214
▁राजो	-10.7214
▁छात्रों	-10.7215
▁compared	-10.7215
▁लैंड	-10.7215
▁1991	-10.7215
▁Smt	-10.7215
▁कार्यरत	-10.7215
▁Benches	-10.7215
▁indicated	-10.7216
▁आसन	-10.7216
▁पहली	-10.7216
▁वाया	-10.7216
▁मान्यता	-10.7217
▁writing	-10.7217
▁रहना	-10.7218
▁customs	-10.7219
▁sources	-10.7219
▁plant	-10.722
▁upto	-10.7221
▁larger	-10.7222
▁150	-10.7222
▁दूरी	-10.7225
▁हमला	-10.7227
▁लाइनों	-10.7229
▁मगर	-10.7231
▁6.	-10.7234
▁accidents	-10.7235
▁SCs	-10.7235
▁groups	-10.7236
▁needed	-10.7239
▁अपर	-10.724
▁मिलों	-10.7241
▁विषयों	-10.7246
ies	-10.7257
▁càÉ	-10.7301
▁sides	-10.7311
sf	-10.7321
▁38	-10.7325
▁iz	-10.7395
▁decisions	-10.7401
▁बल	-10.7407
▁जमा	-10.7413
▁dis	-10.7415
▁ला	-10.7431
ÉxÉä	-10.7526
le	-10.7529
▁सुना	-10.7542
▁सका	-10.7581
▁७	-10.7589
▁रन	-10.7592
▁telephone	-10.7622
▁damage	-10.7625
▁rank	-10.7625
▁division	-10.7626
▁official	-10.7626
▁appointment	-10.7626
▁consultation	-10.7627
▁disease	-10.7628
▁sum	-10.7628
▁Tribe	-10.7628
▁page	-10.7629
▁representative	-10.7629
Motion	-10.7633
▁close	-10.764
▁।"	-10.7641
▁adjourn	-10.7641
▁arrest	-10.7642
▁plead	-10.7642
▁जंगल	-10.7643
▁ददन	-10.7643
▁break	-10.7643
▁carry	-10.7644
▁64	-10.7644
▁तहसील	-10.7644
▁मौजूद	-10.7645
▁लक्ष्य	-10.7645
▁enable	-10.7645
▁पश्चिम	-10.7645
▁Khan	-10.7646
▁मेट्रो	-10.7646
▁table	-10.7647
▁प्वाइंट	-10.7647
▁सफल	-10.7647
▁संभावना	-10.7648
▁कठिनाई	-10.7648
▁Commonwealth	-10.7648
▁Give	-10.7648
▁JUSTICE	-10.7648
▁KAPIL	-10.7648
▁KESHARI	-10.7648
▁Kunwar	-10.7648
▁Moreover	-10.7648
▁RAMESH	-10.7648
▁SIBAL	-10.7648
▁Sinha	-10.7648
▁Survey	-10.7648
▁Uttarakhand	-10.7648
▁administrative	-10.7648
▁campaign	-10.7648
▁clarify	-10.7648
▁column	-10.7648
▁conclusion	-10.7648
▁connectivity	-10.7648
▁continuing	-10.7648
▁everywhere	-10.7648
▁quintal	-10.7648
▁registration	-10.7648
▁research	-10.7648
▁territory	-10.7648
▁अहीर	-10.7648
▁उर्फ	-10.7648
▁गवर्नमेंट	-10.7648
▁जोधपुर	-10.7648
▁तुरन्त	-10.7648
▁नियंत्रित	-10.7648
▁पप्पू	-10.7648
▁प्रतदिन	-10.7648
▁फरवरी	-10.7648
▁Janata	-10.7648
▁MOHAN	-10.7648
▁harmony	-10.7648
▁impact	-10.7648
▁अनुभव	-10.7648
▁व्याप्त	-10.7648
▁स्वागत	-10.7648
▁जुलाई	-10.7648
▁djus	-10.7648
▁भागलपुर	-10.7648
▁रिजर्वेशन	-10.7648
▁अनुसूची	-10.7648
▁ममता	-10.7648
▁capital	-10.7648
▁प्रकट	-10.7648
▁सीमित	-10.7648
▁stopped	-10.7648
▁मुख्यमंत्री	-10.7648
▁Mantri	-10.7648
▁शांति	-10.7648
▁खड़ी	-10.7648
▁सोमनाथ	-10.7648
▁àÉcÉänaÉ	-10.7648
▁Thereafter	-10.7648
▁unparliamentary	-10.7648
▁वाराणसी	-10.7648
▁अकाल	-10.7648
▁trend	-10.7649
▁ओवर	-10.7649
▁ANIL	-10.7649
▁जिनके	-10.7649
▁Moved	-10.7649
▁पंढरपुर	-10.7649
▁1995	-10.7649
▁1984	-10.7649
▁खून	-10.7649
▁वोट	-10.7649
▁prevailing	-10.7649
▁core	-10.7649
▁pulses	-10.7649
▁delivered	-10.7649
▁1996	-10.765
▁appeared	-10.765
▁2015	-10.765
▁फिरोजाबाद	-10.765
▁scheduled	-10.765
▁condemned	-10.7651
▁देगी	-10.7652
▁मीटर	-10.7652
▁leading	-10.7652
▁teachers	-10.7654
▁selling	-10.7654
▁संसाधनों	-10.7654
▁hectares	-10.7655
▁plots	-10.7655
▁पाई	-10.7655
▁waiting	-10.7655
▁notification	-10.7655
▁सोच	-10.7655
▁implementing	-10.7656
▁मिलकर	-10.7658
▁decades	-10.7659
▁उपयोगी	-10.7661
▁looked	-10.7662
▁नि	-10.7665
▁FAA	-10.7665
▁तीनों	-10.7666
▁75	-10.7667
▁feelings	-10.7669
▁challenges	-10.7675
▁supported	-10.7676
▁para	-10.7679
▁1⁄2	-10.7694
▁कारणों	-10.7702
▁उठाये	-10.7704
▁बच	-10.7708
▁talks	-10.7708
▁1986	-10.7718
▁Banks	-10.7738
▁गण	-10.7744
▁agrees	-10.775
ड़	-10.7754
▁बुला	-10.7767
▁amounts	-10.777
▁RE	-10.7771
▁Hindi	-10.7776
ÉMÉ	-10.7784
ro	-10.7818
▁works	-10.7833
ÉE	-10.7861
▁जज	-10.7864
äãÉ	-10.7922
▁वास्तविक	-10.7963
▁वक	-10.7972
ment	-10.7996
▁writ	-10.8049
en	-10.8055
▁जाम	-10.8074
▁sentence	-10.8077
▁desire	-10.8078
▁Unit	-10.808
▁principle	-10.808
▁require	-10.808
▁father	-10.8081
▁arise	-10.8081
▁portion	-10.8081
▁Legislature	-10.8082
▁crime	-10.8082
▁Christian	-10.8082
▁track	-10.8083
▁rain	-10.8083
Second	-10.8088
र्	-10.8089
▁प्रबंध	-10.8095
▁construct	-10.8095
▁proceed	-10.8096
▁खान	-10.8096
▁बेरोजगार	-10.8098
▁spread	-10.8099
▁मोहम्मद	-10.8099
▁जिम्मेदार	-10.8099
▁सम्बन्ध	-10.8099
▁lower	-10.8099
▁प्रदर्शन	-10.8099
▁विज्ञान	-10.8099
▁Bangladesh	-10.81
▁initiate	-10.81
▁खेल	-10.81
▁Admitted	-10.81
▁revision	-10.8101
▁worth	-10.8101
▁लोन	-10.8102
▁Transport	-10.8102
▁genuine	-10.8102
▁progress	-10.8102
▁Trade	-10.8102
▁GANDHI	-10.8102
▁Surat	-10.8102
▁middle	-10.8102
—	-10.8102
▁Aiyar	-10.8102
▁Appropriation	-10.8102
▁Banatwalla	-10.8102
▁Chandigarh	-10.8102
▁Compensation	-10.8102
▁Export	-10.8102
▁Industries	-10.8102
▁JAITLEY	-10.8102
▁Khurana	-10.8102
▁Northern	-10.8102
▁System	-10.8102
▁UTI	-10.8102
▁Unfortunately	-10.8102
▁Whenever	-10.8102
▁agency	-10.8102
▁category	-10.8102
▁decree	-10.8102
▁freedom	-10.8102
▁humble	-10.8102
▁maximum	-10.8102
▁monsoon	-10.8102
▁personnel	-10.8102
▁presence	-10.8102
▁salary	-10.8102
▁·	-10.8102
▁अशोक	-10.8102
▁जिन्होंने	-10.8102
▁दूध	-10.8102
▁निरीक्षण	-10.8102
▁प्रदूषण	-10.8102
▁फैसला	-10.8102
▁यमुना	-10.8102
▁यूनियन	-10.8102
▁सलेमपुर	-10.8102
▁स्पीच	-10.8102
▁हमेशा	-10.8102
▁tragedy	-10.8102
▁मनोहर	-10.8102
▁हंसराज	-10.8102
▁Jaipal	-10.8103
▁machinery	-10.8103
▁reduction	-10.8103
▁कम्पनी	-10.8103
▁अहमदाबाद	-10.8103
▁Extraordinary	-10.8103
▁कटाव	-10.8103
▁कठिनाइयों	-10.8103
▁Basic	-10.8103
▁दबाव	-10.8103
▁प्रगति	-10.8103
▁Through	-10.8103
▁ultimately	-10.8103
▁Industrial	-10.8103
▁PRASAD	-10.8103
▁Rashtriya	-10.8103
▁suitable	-10.8103
▁बाबू	-10.8103
▁Made	-10.8103
▁DMK	-10.8103
▁Monitoring	-10.8103
▁पहुंचाने	-10.8103
▁specifically	-10.8103
▁àÉé	-10.8103
▁सोनिया	-10.8103
▁गाड़ियों	-10.8103
▁दोषी	-10.8103
▁Supply	-10.8104
▁sad	-10.8104
▁मैम्बर्स	-10.8104
▁तेजी	-10.8104
▁बदलाव	-10.8104
▁सकेंगे	-10.8104
▁represented	-10.8104
▁vision	-10.8104
▁कमपन	-10.8104
▁played	-10.8104
▁anyone	-10.8105
▁Pay	-10.8105
▁sentiments	-10.8105
▁arrested	-10.8105
▁whereas	-10.8105
▁desired	-10.8105
▁बीमारी	-10.8105
▁सूखा	-10.8105
▁इच्छा	-10.8106
▁चीजों	-10.8106
▁headed	-10.8106
▁Allowances	-10.8106
▁served	-10.8107
▁हितों	-10.8107
▁greater	-10.8107
▁रेट	-10.8107
▁नष्ट	-10.8108
▁चलता	-10.8109
▁राव	-10.8109
▁attacked	-10.8109
▁slogans	-10.8109
▁benefited	-10.811
▁बोले	-10.8111
▁करिये	-10.8111
▁merits	-10.8112
▁mills	-10.8112
:"	-10.8121
▁mentioning	-10.8121
▁principles	-10.8122
▁interested	-10.8125
▁concluded	-10.8127
▁calling	-10.8127
▁मई	-10.8133
as	-10.8141
▁Non	-10.8146
▁nä	-10.8158
▁includes	-10.8161
पर	-10.8167
▁बीस	-10.8171
मैं	-10.8174
▁खंड	-10.8177
xÉÉ	-10.8185
▁clauses	-10.8249
छ	-10.8252
Y	-10.8263
▁Districts	-10.8266
▁पाए	-10.8273
▁अपीलाथ	-10.8277
ाा	-10.8279
ÉiÉ	-10.828
▁actions	-10.8292
▁99	-10.8319
इस	-10.8327
▁bear	-10.8354
एं	-10.837
पी	-10.8372
▁गेज	-10.8417
यों	-10.8453
▁82	-10.8454
▁;	-10.8459
▁43	-10.8473
▁पम	-10.8478
▁यथ	-10.8483
▁१८	-10.8485
▁देव	-10.8497
▁74	-10.8538
▁top	-10.8539
▁मक	-10.8542
▁हज	-10.8542
▁मल	-10.8547
/1	-10.8553
▁depend	-10.8555
▁transfer	-10.8556
▁School	-10.8556
▁contention	-10.8557
▁home	-10.8558
▁difference	-10.8559
▁requirement	-10.8559
▁thousand	-10.8559
ाई	-10.8559
▁effort	-10.8559
est	-10.8567
▁stay	-10.8572
▁मजबूर	-10.8575
▁नागरिक	-10.8575
▁हे	-10.8576
▁endeavour	-10.8576
▁मकान	-10.8576
▁impose	-10.8576
▁permanent	-10.8576
▁माफ	-10.8577
▁annual	-10.8577
▁peaceful	-10.8577
▁actual	-10.8577
▁शुल्क	-10.8577
▁प्रोजेक्ट	-10.8578
▁शिकायत	-10.8578
▁potential	-10.8578
▁Border	-10.8579
▁Distribution	-10.8579
▁Games	-10.8579
▁KURIEN	-10.8579
▁Sugarcane	-10.8579
▁Urged	-10.8579
▁concrete	-10.8579
▁demolition	-10.8579
▁identified	-10.8579
▁izLrqr	-10.8579
▁necessity	-10.8579
▁reducing	-10.8579
▁ऊर्जा	-10.8579
▁कटौती	-10.8579
▁चन्द्रकांत	-10.8579
▁तरीकों	-10.8579
▁निर्वाचन	-10.8579
▁नीतीश	-10.8579
▁पलायन	-10.8579
▁पाटील	-10.8579
▁पूंजी	-10.8579
▁प्राधिकरण	-10.8579
▁बधाई	-10.8579
▁मुंबई	-10.8579
▁housing	-10.8579
▁quorum	-10.8579
▁परिणामस्वरूप	-10.8579
▁revival	-10.8579
▁अंतिम	-10.8579
▁चेयरमैन	-10.8579
▁वैसे	-10.8579
▁transferred	-10.8579
▁अवधि	-10.8579
▁गंगनाथ	-10.8579
▁Magistrate	-10.8579
▁Having	-10.8579
▁पुरानी	-10.8579
▁sex	-10.8579
▁Most	-10.8579
▁punished	-10.8579
▁Instead	-10.8579
▁Regulatory	-10.8579
▁Tripura	-10.8579
▁understood	-10.8579
▁PIO	-10.8579
▁Workers	-10.8579
▁extremely	-10.8579
▁settled	-10.8579
▁बुरी	-10.8579
▁करवा	-10.8579
▁घटनाओं	-10.8579
▁path	-10.858
▁team	-10.858
▁निर्धारण	-10.858
▁हावड़ा	-10.858
▁देखने	-10.858
▁repeatedly	-10.858
▁चलाया	-10.858
▁Bharati	-10.858
▁assets	-10.8581
▁spending	-10.8582
▁चाहें	-10.8582
▁drawn	-10.8582
▁Speech	-10.8583
▁पाने	-10.8584
▁taxes	-10.8584
▁रहेंगे	-10.8584
▁remained	-10.8584
▁wages	-10.8585
▁कहता	-10.8585
▁relates	-10.8587
▁tribes	-10.8587
▁पत्रों	-10.8587
▁ld	-10.8588
▁ट्रेनों	-10.859
▁gas	-10.859
▁cÉÒ	-10.8591
▁नौ	-10.8592
▁respected	-10.8599
▁officials	-10.86
▁लेन	-10.8602
▁MD	-10.8605
▁organisations	-10.8605
▁claims	-10.8617
▁वर्षा	-10.8622
▁changes	-10.8631
ve	-10.8632
▁बदल	-10.8643
▁noted	-10.8647
▁accounts	-10.8656
cä	-10.866
ÉãÉ	-10.8661
▁GEN	-10.8667
▁केर्	-10.8674
ally	-10.8721
एस	-10.8727
▁mother	-10.8734
▁incidental	-10.8752
▁ना	-10.8795
gi	-10.8801
▁मा	-10.8808
गंज	-10.882
ia	-10.883
AR	-10.8832
▁54	-10.8855
मत	-10.8861
▁पूछ	-10.8866
ic	-10.8876
आ	-10.8901
hi	-10.893
▁सत	-10.8932
▁टर	-10.8933
hÉ	-10.8941
iv	-10.8943
सर	-10.8961
man	-10.8979
less	-10.8983
▁Ji	-10.8991
िन	-10.9
।[	-10.9014
▁earn	-10.9016
०००	-10.902
ौ	-10.9035
▁contract	-10.9053
▁behave	-10.9054
▁site	-10.9054
▁tea	-10.9055
▁apprehension	-10.9056
▁substance	-10.9056
▁value	-10.9056
▁round	-10.9056
▁tradition	-10.9057
▁investigation	-10.9057
▁exemption	-10.9058
▁representation	-10.9058
▁vehicle	-10.9059
▁hospital	-10.9059
Date	-10.9062
▁centre	-10.9062
▁Das	-10.9064
Bill	-10.9064
▁grow	-10.9068
▁transport	-10.9072
▁light	-10.9073
▁apply	-10.9074
▁Reserve	-10.9075
▁न्यायालय	-10.9076
▁उद्देश्य	-10.9076
▁blame	-10.9076
▁सेंटर	-10.9076
▁focus	-10.9076
▁promote	-10.9076
▁यूपीए	-10.9076
▁technical	-10.9076
▁Shiv	-10.9077
▁significant	-10.9077
▁Last	-10.9077
▁substantial	-10.9077
▁श्रमिक	-10.9077
▁एरिया	-10.9078
▁Tea	-10.9078
▁परिस्थिति	-10.9078
▁bail	-10.9078
▁hard	-10.9079
▁क्षति	-10.9079
▁AHAMED	-10.9079
▁BAALU	-10.9079
▁CHOWDHARY	-10.9079
▁Cauvery	-10.9079
▁Comptroller	-10.9079
▁Conversion	-10.9079
▁Essential	-10.9079
▁Foreign	-10.9079
▁FÉäjÉ	-10.9079
▁HOME	-10.9079
▁Jaswant	-10.9079
▁Kendriya	-10.9079
▁Kripal	-10.9079
▁Level	-10.9079
▁Manager	-10.9079
▁Monday	-10.9079
▁PDS	-10.9079
▁Pandit	-10.9079
▁SALIM	-10.9079
▁VAIKO	-10.9079
▁Yerrannaidu	-10.9079
▁coconut	-10.9079
▁disaster	-10.9079
▁discrimination	-10.9079
▁integrity	-10.9079
▁lhihvkbZvks	-10.9079
▁paddy	-10.9079
▁picture	-10.9079
▁recognition	-10.9079
▁worst	-10.9079
▁अध्ययन	-10.9079
▁आक्रोश	-10.9079
▁इलाका	-10.9079
▁इलाकों	-10.9079
▁कारपोरेशन	-10.9079
▁जौनपुर	-10.9079
▁पीछे	-10.9079
▁पैमाने	-10.9079
▁फतेहपुर	-10.9079
▁लमिटेड	-10.9079
▁वीरेन्द्र	-10.9079
▁सम्बद्ध	-10.9079
▁सीनियर	-10.9079
}	-10.9079
▁Shailendra	-10.9079
▁plight	-10.9079
▁unnecessarily	-10.9079
▁आगामी	-10.9079
▁पाइंट	-10.9079
▁Jawaharlal	-10.9079
▁existence	-10.9079
▁किनारे	-10.9079
▁Assessee	-10.9079
▁Code	-10.9079
▁deprived	-10.9079
▁distinguished	-10.9079
▁सत्ता	-10.9079
▁Babri	-10.9079
▁competent	-10.9079
▁Madurai	-10.9079
▁Block	-10.9079
▁६०	-10.9079
▁Auditor	-10.9079
▁Sonia	-10.9079
▁Trial	-10.9079
▁चार्ज	-10.9079
▁surprised	-10.9079
▁फ्री	-10.9079
▁code	-10.9079
▁Vigilance	-10.9079
▁अतिरिक्त	-10.9079
▁अमेरिका	-10.9079
▁कर्नाटक	-10.9079
▁बीकानेर	-10.9079
▁बेचने	-10.9079
▁मिनिस्टर	-10.9079
▁night	-10.9079
▁medium	-10.9079
▁registered	-10.9079
▁वहाँ	-10.9079
▁धान	-10.9079
▁neglected	-10.9079
▁चीजें	-10.9079
▁destroyed	-10.908
▁जून	-10.908
▁डीजल	-10.908
▁Passing	-10.908
▁Nath	-10.908
▁putting	-10.908
▁negligence	-10.908
▁पड़ती	-10.908
▁इनमें	-10.908
▁Divisional	-10.908
▁deleted	-10.908
▁lok	-10.9081
▁CHANDIGARH	-10.9081
▁Howrah	-10.9081
▁average	-10.9081
▁suffered	-10.9081
▁बढ़ाकर	-10.9081
▁तकनीकी	-10.9081
▁BY	-10.9081
▁proved	-10.9081
▁vegetables	-10.9081
▁representing	-10.9082
▁monitoring	-10.9082
▁रखकर	-10.9082
▁maintained	-10.9082
▁दलितों	-10.9083
▁ऐ	-10.9083
▁Patents	-10.9083
▁दलों	-10.9086
▁wherein	-10.9086
▁लगी	-10.9087
▁कार्यो	-10.9091
▁पड़ी	-10.9091
डी	-10.9092
▁appears	-10.9094
▁कयों	-10.9103
▁पश	-10.9105
▁findings	-10.9105
▁बैठक	-10.9112
▁relations	-10.9118
▁types	-10.9121
▁पहुंचा	-10.9134
ry	-10.9135
▁replying	-10.9138
▁आपस	-10.9138
▁केन्द्रों	-10.914
▁articles	-10.9144
▁51	-10.9147
म्	-10.9151
▁offices	-10.9151
ÉÉÊ	-10.9159
▁votes	-10.9161
▁Nagar	-10.9178
▁रत	-10.9193
ir	-10.9198
डा	-10.921
ol	-10.9224
W	-10.9228
xÉ	-10.9244
▁जोन	-10.9273
▁होम	-10.928
०	-10.9302
to	-10.9318
▁बज	-10.9325
iÉÉ	-10.9354
AG	-10.9376
की	-10.938
▁vis	-10.9399
▁कन	-10.944
▁१३	-10.947
▁अव	-10.9473
▁आग	-10.9479
से	-10.9481
▁आशा	-10.9507
ंस	-10.9516
UR	-10.9563
▁अधध	-10.9567
▁play	-10.9576
▁suffer	-10.9577
▁enter	-10.9577
▁spend	-10.9578
▁debt	-10.9584
▁airport	-10.9584
▁tourist	-10.9585
▁animal	-10.9585
▁kg	-10.9585
▁rupee	-10.9585
गण	-10.9588
Ministers	-10.959
Sir	-10.9591
▁Area	-10.9592
▁crossing	-10.9593
▁prevent	-10.9595
▁छोड़	-10.9597
▁learn	-10.9597
▁पंचायत	-10.9599
▁पह	-10.9599
▁wide	-10.96
▁levy	-10.9601
▁मंजूर	-10.9602
▁encourage	-10.9602
▁resign	-10.9602
▁announce	-10.9602
▁ऑफिस	-10.9602
▁सैनिक	-10.9602
▁receive	-10.9602
▁prove	-10.9603
▁unanimous	-10.9603
▁Natural	-10.9603
▁इंडस्ट्री	-10.9604
▁भवन	-10.9604
▁Lanka	-10.9604
▁लीडर	-10.9604
▁वक्त	-10.9604
▁व्यवहार	-10.9604
▁प्रशासन	-10.9605
▁Implement	-10.9605
▁मैटर	-10.9605
окумент	-10.9605
▁Ajmer	-10.9605
▁Akhilesh	-10.9605
▁CHENNITHALA	-10.9605
▁Credit	-10.9605
▁DELHI	-10.9605
▁Detailed	-10.9605
▁FCI	-10.9605
▁George	-10.9605
▁JASWANT	-10.9605
▁Jaitley	-10.9605
▁MADHUSUDAN	-10.9605
▁PANDA	-10.9605
▁RBI	-10.9605
▁UNDER	-10.9605
▁aggression	-10.9605
▁amenities	-10.9605
▁behaviour	-10.9605
▁communication	-10.9605
▁corporate	-10.9605
▁erosion	-10.9605
▁felt	-10.9605
▁impugned	-10.9605
▁patience	-10.9605
▁supplied	-10.9605
▁task	-10.9605
▁इत्यादि	-10.9605
▁उम्मीद	-10.9605
▁कौशाम्बी	-10.9605
▁गवर्नमैंट	-10.9605
▁ग्रहण	-10.9605
▁जसवंत	-10.9605
▁जायसवाल	-10.9605
▁ज्ञान	-10.9605
▁ठोस	-10.9605
▁दर्शाने	-10.9605
▁निर्यात	-10.9605
▁प्रोत्साहन	-10.9605
▁साढ़े	-10.9605
▁स्थगित	-10.9605
▁RAJESH	-10.9605
▁Recruitment	-10.9605
▁causing	-10.9605
▁sabha	-10.9605
▁कोयले	-10.9605
▁पनतशत	-10.9605
▁Prabhunath	-10.9605
▁suspension	-10.9605
▁निर्भर	-10.9605
▁चावल	-10.9605
▁उपयुक्त	-10.9605
▁fuel	-10.9605
▁tune	-10.9605
▁निपटने	-10.9605
▁MAJ	-10.9605
▁अमरीका	-10.9605
▁पुराने	-10.9605
▁hike	-10.9605
▁military	-10.9605
▁दस्तावेज़	-10.9605
▁hence	-10.9605
▁स्वतंत्रता	-10.9605
▁everyday	-10.9605
▁इधर	-10.9605
▁गीते	-10.9605
▁Mission	-10.9605
▁अधीन	-10.9605
▁adjournment	-10.9605
▁Crop	-10.9605
▁मतदान	-10.9605
▁गंगाराम	-10.9605
▁आपत्ति	-10.9605
▁Guard	-10.9605
▁आदरणीय	-10.9605
▁नवादा	-10.9605
It	-10.9606
▁Life	-10.9606
▁obtained	-10.9606
▁Pawan	-10.9606
▁promulgated	-10.9606
▁estimated	-10.9606
▁1992	-10.9606
▁आएगा	-10.9606
▁जातियां	-10.9606
▁रीवा	-10.9606
▁NT	-10.9606
▁भूमिका	-10.9607
▁determined	-10.9607
▁negatived	-10.9607
▁घाटा	-10.9607
▁Whether	-10.9607
▁collected	-10.9607
▁खुशी	-10.9607
▁Goa	-10.9608
▁constructed	-10.9608
▁Conservation	-10.9608
▁परसेंट	-10.9608
▁चलती	-10.9608
▁avoid	-10.9608
▁पश्चिमी	-10.9608
▁yielding	-10.9608
▁unity	-10.9608
▁भेजे	-10.9609
▁wishes	-10.9609
▁आधारित	-10.9609
▁board	-10.9609
▁hit	-10.9609
▁depending	-10.9609
▁गंभीरता	-10.9609
▁́Éc	-10.961
▁Recommendations	-10.961
▁कहें	-10.961
▁playing	-10.961
▁पथ	-10.961
▁affecting	-10.9611
▁blasts	-10.9611
▁imported	-10.9612
▁forth	-10.9614
▁अधिकारों	-10.9614
▁भागों	-10.9614
▁सीट	-10.9616
ak	-10.9617
▁डक	-10.9617
▁forced	-10.9618
ksa	-10.962
▁equal	-10.962
▁पकक	-10.9628
▁चली	-10.9628
▁complaints	-10.9638
▁बचा	-10.9645
▁Iran	-10.9645
▁केबल	-10.9656
टी	-10.9656
▁castes	-10.966
बी	-10.9661
▁IT	-10.9665
ले	-10.9666
▁सरकारें	-10.9668
▁minds	-10.9683
▁रात	-10.9695
सा	-10.9697
▁खास	-10.9707
३	-10.9709
▁reads	-10.9726
सू	-10.9743
ÉÊ	-10.9821
▁मै	-10.9825
▁वष	-10.9839
ul	-10.9866
▁भू	-10.9878
ाम	-10.9889
te	-10.9983
▁अस	-11.0007
▁2003,	-11.0088
पत	-11.0089
▁Committees	-11.0095
ओ	-11.0128
▁concept	-11.0138
▁female	-11.0138
▁precedent	-11.0138
▁cyclone	-11.0138
▁Train	-11.014
▁Ground	-11.014
▁eye	-11.014
श्रीमती	-11.0146
डॉ	-11.0146
▁मु	-11.0149
ad	-11.015
ंड	-11.0152
▁remind	-11.0153
▁monitor	-11.0154
▁sign	-11.0154
▁Four	-11.0156
▁cast	-11.0156
▁Look	-11.0156
▁गणेश	-11.0157
▁चैनल	-11.0157
▁मौत	-11.0158
▁खनिज	-11.0158
▁Audit	-11.0158
▁substitute	-11.0158
▁संगठन	-11.0158
▁सूरत	-11.0159
▁length	-11.0159
▁original	-11.0159
▁Vaiko	-11.0159
▁Environment	-11.0159
▁डिमांड	-11.0159
▁Region	-11.016
▁प्रोजैक्ट	-11.016
▁वास्तव	-11.016
▁प्लीज	-11.016
▁फाइनेंस	-11.016
▁सामान	-11.016
‚	-11.0161
▁Adopted	-11.0161
▁Affected	-11.0161
▁Application	-11.0161
▁Arising	-11.0161
▁BROADCASTING	-11.0161
▁Bhopal	-11.0161
▁Census	-11.0161
▁Commerce	-11.0161
▁DEVELOPMENT	-11.0161
▁Green	-11.0161
▁Inquiry	-11.0161
▁Irregularities	-11.0161
▁Nagarpalika	-11.0161
▁Neeraj	-11.0161
▁Parishad	-11.0161
▁RULE	-11.0161
▁Relevant	-11.0161
▁Relief	-11.0161
▁Scindia	-11.0161
▁Seattle	-11.0161
▁Social	-11.0161
▁Spices	-11.0161
▁Sports	-11.0161
▁Tourism	-11.0161
▁atmosphere	-11.0161
▁biggest	-11.0161
▁black	-11.0161
▁built	-11.0161
▁criteria	-11.0161
▁disclosure	-11.0161
▁electrification	-11.0161
▁fault	-11.0161
▁kilogram	-11.0161
▁maintenance	-11.0161
▁productivity	-11.0161
▁silk	-11.0161
▁translation	-11.0161
▁vkosnu	-11.0161
▁अम्बेडकर	-11.0161
▁अयोध्या	-11.0161
▁आंकड़ों	-11.0161
▁आबंटित	-11.0161
▁आश्वस्त	-11.0161
▁उत्तराखंड	-11.0161
▁कोलकाता	-11.0161
▁प्लेटफार्म	-11.0161
▁बाईपास	-11.0161
▁महात्मा	-11.0161
▁मेगावाट	-11.0161
▁संचालन	-11.0161
▁समझौते	-11.0161
▁Representation	-11.0161
▁SBI	-11.0161
▁Total	-11.0161
▁dedicated	-11.0161
▁serial	-11.0161
▁vacancies	-11.0161
▁मिट्टी	-11.0161
▁Administration	-11.0161
▁Devendra	-11.0161
▁Sector	-11.0161
▁livelihood	-11.0161
▁sensitive	-11.0161
▁प्रशिक्षण	-11.0161
▁संवेदनशील	-11.0161
▁Chandrappan	-11.0161
▁dignity	-11.0161
▁punishment	-11.0161
▁घंटों	-11.0161
▁cultivation	-11.0161
▁मोहले	-11.0161
▁इकाई	-11.0161
▁निदान	-11.0161
▁procurement	-11.0161
▁छावनी	-11.0161
▁त्रिपाठी	-11.0161
▁ववरद	-11.0161
▁Finally	-11.0161
▁travel	-11.0161
▁खतरा	-11.0161
▁controlled	-11.0161
▁जनरल	-11.0161
▁2024	-11.0161
▁Long	-11.0161
▁Third	-11.0161
▁stoppage	-11.0161
▁दिलाने	-11.0161
▁categorically	-11.0161
▁आउट	-11.0161
▁AIIMS	-11.0161
▁आएगी	-11.0161
▁Sadak	-11.0161
▁बताइए	-11.0161
▁किताब	-11.0161
▁Eighth	-11.0161
▁Measures	-11.0161
▁Very	-11.0161
▁चकित्सा	-11.0161
▁Regional	-11.0161
▁Devi	-11.0162
▁detailed	-11.0162
▁JUDICIAL	-11.0162
▁woman	-11.0162
▁सीतामढ़ी	-11.0162
▁सुरेश	-11.0162
▁Personnel	-11.0162
▁contrary	-11.0162
▁accountability	-11.0162
▁Uttaranchal	-11.0162
▁Asian	-11.0162
▁classes	-11.0163
▁OBCs	-11.0163
▁खाने	-11.0163
▁रोजी	-11.0163
▁formation	-11.0163
▁श्रमिकों	-11.0163
▁Addresses	-11.0163
▁Complainant	-11.0164
▁deep	-11.0164
▁लगाना	-11.0164
▁counter	-11.0164
▁ररज	-11.0164
▁drugs	-11.0165
▁मिलनी	-11.0165
▁thereby	-11.0165
▁बची	-11.0165
▁ववव	-11.0166
▁बोलें	-11.0166
▁dealt	-11.0167
▁Does	-11.0167
▁PW	-11.0167
▁पदों	-11.0169
▁disputed	-11.0169
▁स्थलों	-11.0169
▁dam	-11.0169
Dr	-11.017
▁formed	-11.017
▁mere	-11.017
▁handed	-11.0171
▁गलती	-11.0172
▁चेयर	-11.0176
वर	-11.0176
▁opening	-11.0178
▁उसने	-11.0178
▁एकल	-11.0179
▁listening	-11.0181
▁animals	-11.0182
▁ending	-11.0183
▁केस	-11.0183
▁९	-11.0184
▁जायेंगे	-11.0192
▁instances	-11.0194
▁grants	-11.0198
▁demanding	-11.0198
▁उतर	-11.0203
▁individuals	-11.0204
▁मजबूत	-11.021
▁जम	-11.0228
▁Hindus	-11.0228
01	-11.0229
▁अपराध	-11.0233
ksx	-11.0238
▁environmental	-11.0241
▁44	-11.0245
▁meetings	-11.0267
ज़	-11.0268
▁Co	-11.0269
▁_____________	-11.0272
▁car	-11.0276
ीकरण	-11.0278
द्धठ्ठ	-11.03
ha	-11.0304
cÉ	-11.0305
▁**	-11.0306
ãÉ	-11.0315
ाव	-11.0326
▁Boards	-11.033
▁93	-11.0332
▁Ban	-11.0341
▁systems	-11.0344
▁1990	-11.0352
z	-11.0371
नगर	-11.0399
▁पस	-11.0406
▁रण	-11.0417
▁Youth	-11.0434
ंट	-11.0435
,000	-11.0456
्य	-11.0462
▁लॉ	-11.0467
ंग	-11.0482
▁popular	-11.05
2]	-11.0542
▁नस	-11.0558
▁सक	-11.0564
▁discussions	-11.0595
▁68	-11.0596
▁78	-11.0602
▁Dam	-11.0621
▁flow	-11.0628
एक	-11.0633
कक	-11.0654
▁दिखा	-11.0655
यो	-11.068
▁vital	-11.0691
nt	-11.0708
▁yield	-11.0722
▁represent	-11.0722
▁test	-11.0722
▁voice	-11.0724
▁Issue	-11.0725
▁danger	-11.0726
▁storage	-11.0726
▁equipment	-11.0726
▁Airport	-11.0727
▁litre	-11.0727
▁1500	-11.0728
▁cylinder	-11.0728
▁phone	-11.0728
▁bomb	-11.0728
▁establishment	-11.0729
▁Consumer	-11.0729
▁girl	-11.0729
▁standard	-11.0729
▁citizen	-11.0729
द्रठ्ठ	-11.0729
सूचना	-11.0734
▁begin	-11.0735
▁गं	-11.0741
▁collect	-11.0741
▁सूख	-11.0744
▁यूनिट	-11.0744
▁build	-11.0745
▁प्रतिबंध	-11.0745
▁परिषद	-11.0745
▁quota	-11.0746
▁उद्यम	-11.0746
▁massacre	-11.0746
▁Direct	-11.0746
▁tackle	-11.0746
▁revive	-11.0746
▁constitute	-11.0746
▁अखबार	-11.0746
▁अंत	-11.0748
▁active	-11.0748
▁stretch	-11.0748
▁कराये	-11.0748
▁चयन	-11.0748
▁खबर	-11.0748
▁Panda	-11.0748
▁असुविधा	-11.0748
▁multi	-11.0749
▁हानि	-11.0749
ó	-11.0749
▁APPELLATE	-11.0749
▁Chidambaram	-11.0749
▁Circle	-11.0749
▁Maruti	-11.0749
▁Mukherjee	-11.0749
▁Nalanda	-11.0749
▁Okay	-11.0749
▁Research	-11.0749
▁Sanction	-11.0749
▁Sharad	-11.0749
▁Shimla	-11.0749
▁Somaiya	-11.0749
▁Telephone	-11.0749
▁Thermal	-11.0749
▁Tourist	-11.0749
▁challenging	-11.0749
▁conspiracy	-11.0749
▁crude	-11.0749
▁declaration	-11.0749
▁disposal	-11.0749
▁facilitate	-11.0749
▁fishermen	-11.0749
▁frfFk	-11.0749
▁however	-11.0749
▁inclusion	-11.0749
▁izfr	-11.0749
▁iznku	-11.0749
▁journey	-11.0749
▁judice	-11.0749
▁located	-11.0749
▁losing	-11.0749
▁petroleum	-11.0749
▁pursuance	-11.0749
▁remunerative	-11.0749
▁scenario	-11.0749
▁tobacco	-11.0749
▁trading	-11.0749
▁unemployed	-11.0749
▁unfair	-11.0749
▁vast	-11.0749
▁vulnerable	-11.0749
▁अनिवार्य	-11.0749
▁अभियान	-11.0749
▁किशोर	-11.0749
▁खेद	-11.0749
▁गुणवत्ता	-11.0749
▁ठाकुर	-11.0749
▁निरन्तर	-11.0749
▁परिवर्तित	-11.0749
▁बाहुल्य	-11.0749
▁भोपाल	-11.0749
▁मायावती	-11.0749
▁मोबाइल	-11.0749
▁रांची	-11.0749
▁विस्तृत	-11.0749
▁श्रेणी	-11.0749
▁हमीरपुर	-11.0749
▁Commodities	-11.0749
▁Madan	-11.0749
▁इंतजाम	-11.0749
▁जहाँ	-11.0749
▁फीसदी	-11.0749
▁विदर्भ	-11.0749
▁सार्थक	-11.0749
ô	-11.0749
▁Patel	-11.0749
▁कॉटन	-11.0749
°	-11.0749
▁कितनी	-11.0749
▁फैक्ट्री	-11.0749
▁SAHU	-11.0749
▁Twenty	-11.0749
▁philosophy	-11.0749
▁temporary	-11.0749
▁प्रयत्न	-11.0749
▁VÉÉaÉä	-11.0749
▁settlement	-11.0749
▁सुशील	-11.0749
▁shortfall	-11.0749
▁प्रकोप	-11.0749
▁pronounced	-11.0749
▁ÉÊBÉEaÉÉ	-11.0749
▁अर्थव्यवस्था	-11.0749
▁पुनः	-11.0749
▁prior	-11.0749
▁impression	-11.0749
▁छोटा	-11.0749
▁४०	-11.0749
▁beedi	-11.0749
▁dependent	-11.0749
▁Kanpur	-11.0749
▁accordance	-11.0749
▁Masjid	-11.0749
▁कारगर	-11.0749
▁भागीदारी	-11.0749
▁सीधे	-11.0749
▁कयोंकि	-11.0749
▁धरती	-11.0749
▁TAX	-11.0749
▁Petroleum	-11.0749
▁Safety	-11.0749
▁शोषण	-11.0749
▁Mahajan	-11.0749
▁basically	-11.0749
▁controlling	-11.0749
▁deemed	-11.0749
▁Kendra	-11.0749
▁Vilas	-11.0749
▁affairs	-11.0749
▁expenses	-11.0749
▁वाहनों	-11.0749
▁Tenth	-11.075
▁Thus	-11.075
▁लिखकर	-11.075
▁रूल	-11.075
▁clearance	-11.075
▁forum	-11.075
▁सहारा	-11.075
▁दर्शन	-11.075
▁व्यक्तिगत	-11.075
▁आफ	-11.075
▁Gas	-11.075
▁gÉÉÒ	-11.075
▁justified	-11.075
▁1994	-11.075
▁defined	-11.075
▁१९९९	-11.075
▁जार्ज	-11.075
▁पकरर	-11.075
▁factory	-11.0751
▁repeated	-11.0751
▁उपकरणों	-11.0751
▁seriousness	-11.0751
▁RETD	-11.0751
▁Shiksha	-11.0751
▁संगठनों	-11.0751
▁कककककक	-11.0751
▁लगाई	-11.0752
▁दारा	-11.0753
▁regional	-11.0753
▁Treated	-11.0753
▁पढ़ा	-11.0753
▁challenged	-11.0754
▁channels	-11.0754
▁event	-11.0754
▁आधे	-11.0754
▁pilgrims	-11.0754
▁नधि	-11.0757
▁fruits	-11.0757
▁Contd	-11.0757
▁विदेशों	-11.0757
▁Maoists	-11.0758
▁मूल	-11.0758
▁Anr	-11.0759
▁Inter	-11.0759
▁ON	-11.0759
▁विरोधी	-11.076
▁STs	-11.076
▁answered	-11.0761
▁Sr	-11.0762
▁listened	-11.0762
▁बैठकर	-11.0763
▁accepting	-11.0763
▁extending	-11.0763
▁meant	-11.0764
▁VÉÉÒ	-11.0765
▁obligations	-11.0765
▁Fertilizers	-11.0766
▁standards	-11.0769
▁noon	-11.0769
▁marketing	-11.077
▁hospitals	-11.0773
▁गोवा	-11.0775
▁करिए	-11.0777
▁कानूनों	-11.0778
▁worked	-11.0779
▁objectives	-11.078
▁नही	-11.0781
▁राजस्थानी	-11.0781
▁VÉÉ	-11.0781
▁रि	-11.0789
▁De	-11.079
▁•	-11.0793
▁profits	-11.0803
▁रहें	-11.0806
""	-11.0813
▁attacks	-11.0826
▁reservations	-11.0831
▁regions	-11.0835
▁shares	-11.0838
▁Officers	-11.0844
▁dates	-11.0846
▁रद	-11.085
▁डे	-11.0854
▁Stations	-11.0857
▁बताएं	-11.0879
▁रखे	-11.0901
▁हटा	-11.0905
▁पार	-11.0934
▁250	-11.0949
▁debates	-11.0954
▁oÉÉ	-11.0961
▁front	-11.0965
ive	-11.0969
ंद	-11.0984
ang	-11.1025
▁39	-11.1029
?"	-11.1032
▁रखें	-11.1056
गी	-11.1062
na	-11.1063
▁sectors	-11.1072
ियां	-11.1095
▁Courts	-11.1119
▁रे	-11.1128
ine	-11.1152
▁सर्व	-11.1161
▁Or	-11.119
बर	-11.1193
▁52	-11.1201
▁Go	-11.1222
▁अनधक	-11.1243
▁iÉ	-11.125
अ	-11.1265
दो	-11.1291
▁constitution	-11.1309
▁सु	-11.1312
iÉä	-11.1324
▁लिख	-11.1326
he	-11.1347
▁appear	-11.1347
▁finance	-11.135
▁mark	-11.1351
▁occupation	-11.1352
▁collection	-11.1352
▁inspection	-11.1352
▁truck	-11.1353
▁Resource	-11.1354
▁consumer	-11.1354
▁Head	-11.1355
age	-11.1357
|	-11.1359
We	-11.1362
BÉD	-11.1364
▁treat	-11.1366
▁press	-11.1366
▁connect	-11.1367
▁तकनीक	-11.1368
▁gS	-11.1368
▁शिकार	-11.1371
▁confine	-11.1371
▁decline	-11.1371
kjk	-11.1372
▁definite	-11.1372
▁exact	-11.1372
▁अपीलकता	-11.1373
▁प्राथमिक	-11.1373
▁परम्परा	-11.1373
▁corrupt	-11.1373
▁attract	-11.1373
▁Import	-11.1373
▁अनुमान	-11.1373
▁uniform	-11.1373
▁प्लान	-11.1373
▁speed	-11.1373
▁प्रताप	-11.1374
▁rich	-11.1374
▁गोपाल	-11.1374
▁Resident	-11.1374
▁ACCOUNTANT	-11.1374
▁ANADI	-11.1374
▁ARJUN	-11.1374
▁Abhiyan	-11.1374
▁Ambedkar	-11.1374
▁Bhargava	-11.1374
▁Cantonment	-11.1374
▁Combined	-11.1374
▁Confidence	-11.1374
▁DEFENCE	-11.1374
▁GOWDA	-11.1374
▁HANNAN	-11.1374
▁Keonjhar	-11.1374
▁MOLLAH	-11.1374
▁Paswan	-11.1374
▁Providing	-11.1374
▁Reasons	-11.1374
▁Silk	-11.1374
▁Start	-11.1374
▁TRIBUNAL	-11.1374
▁Yashwant	-11.1374
▁Yojna	-11.1374
▁adjudication	-11.1374
▁arms	-11.1374
▁atrocities	-11.1374
▁blood	-11.1374
▁doubling	-11.1374
▁encouraging	-11.1374
▁equity	-11.1374
▁lafpdk	-11.1374
▁lanHkZ	-11.1374
▁principal	-11.1374
▁starvation	-11.1374
▁strategy	-11.1374
▁title	-11.1374
▁tribunal	-11.1374
▁ugha	-11.1374
▁अपहरण	-11.1374
▁अभिभाषण	-11.1374
▁अरुण	-11.1374
▁आवंटन	-11.1374
▁कृपलानी	-11.1374
▁जिक्र	-11.1374
▁जितना	-11.1374
▁ठप्प	-11.1374
▁डिबेट	-11.1374
▁नम्बर	-11.1374
▁नासिक	-11.1374
▁नेतृत्व	-11.1374
▁पत्थर	-11.1374
▁प्रतिदिन	-11.1374
▁प्रवेश	-11.1374
▁मंदसौर	-11.1374
▁यथाशीघ्र	-11.1374
▁श्रीचन्द	-11.1374
▁सैंट्रल	-11.1374
▁स्पेशल	-11.1374
▁हस्तक्षेप	-11.1374
▁Prakash	-11.1374
▁absence	-11.1374
▁defaulters	-11.1374
▁इश्यू	-11.1374
▁एयरपोर्ट	-11.1374
▁कारखाने	-11.1374
▁allotment	-11.1374
▁stability	-11.1374
▁आसपास	-11.1374
▁दोहरीकरण	-11.1374
▁JOSHI	-11.1374
▁massive	-11.1374
▁occurred	-11.1374
▁चांस	-11.1374
▁अफसोस	-11.1374
▁कंट्रोल	-11.1374
▁planning	-11.1374
▁ऑर्डर	-11.1374
▁टिकट	-11.1374
▁Manmohan	-11.1374
▁SETHI	-11.1374
▁planned	-11.1374
▁Khanna	-11.1374
▁अलवर	-11.1374
▁rti	-11.1374
▁tokc	-11.1374
▁Without	-11.1374
▁Payment	-11.1374
ड्ढद	-11.1374
▁लड़ाई	-11.1374
▁LAW	-11.1374
▁डैम	-11.1374
▁रूलिंग	-11.1374
▁raw	-11.1374
▁option	-11.1374
▁Dinesh	-11.1374
▁PRAKASH	-11.1374
▁barrel	-11.1374
▁competence	-11.1374
▁कलकत्ता	-11.1374
▁Mathura	-11.1374
▁mobile	-11.1374
▁अमरेली	-11.1374
▁fresh	-11.1374
▁Energy	-11.1374
▁probably	-11.1374
▁जन्म	-11.1374
▁Ramesh	-11.1374
▁केंद्रीय	-11.1375
▁bit	-11.1375
▁suddenly	-11.1375
▁जिनकी	-11.1375
▁सोचना	-11.1375
▁पढ़ने	-11.1375
▁लगेगा	-11.1375
▁carefully	-11.1375
▁घाटे	-11.1375
▁२८	-11.1375
▁halt	-11.1375
▁Maintenance	-11.1375
▁झांसी	-11.1375
▁feet	-11.1375
▁८०	-11.1375
▁Rajesh	-11.1375
▁आयेगा	-11.1376
▁sometimes	-11.1376
▁गम्भीरता	-11.1376
▁witnessed	-11.1376
▁मणि	-11.1376
▁समस्याएं	-11.1376
▁Canal	-11.1376
▁misused	-11.1376
▁Lastly	-11.1377
▁labourers	-11.1377
▁PER	-11.1377
▁encouraged	-11.1377
ेगा	-11.1377
▁माफी	-11.1378
▁असम	-11.1378
▁कीमतों	-11.1378
▁withdrawal	-11.1378
▁headquarters	-11.1378
▁returned	-11.1378
▁पाता	-11.1378
▁effectively	-11.1379
▁जव	-11.1379
▁solved	-11.1379
▁friendly	-11.1379
▁मजदूरी	-11.138
▁वर्गों	-11.138
▁मिलती	-11.1381
▁रमन	-11.1381
▁thereof	-11.1381
▁mainly	-11.1381
▁सम्भल	-11.1381
▁तार	-11.1382
▁देवी	-11.1384
▁funding	-11.1385
▁sending	-11.1386
▁क्षेत्रीय	-11.1386
▁remaining	-11.1386
▁जगहों	-11.1386
▁developmental	-11.1386
▁Hat	-11.1389
▁Had	-11.1389
▁aside	-11.1389
▁methods	-11.1392
▁entirely	-11.1393
▁resulting	-11.1395
▁विभागों	-11.1395
ाद	-11.1396
▁requirements	-11.14
▁87	-11.1401
▁Christians	-11.1402
▁नं	-11.1405
▁professional	-11.1409
un	-11.1417
▁sales	-11.1418
▁causes	-11.1421
▁follows	-11.1426
▁गईं	-11.1428
▁posts	-11.144
▁write	-11.1444
▁Prices	-11.1447
▁कलम	-11.1448
▁weeks	-11.146
▁procedures	-11.1466
▁legislations	-11.1467
▁१९	-11.1479
▁काट	-11.1481
▁साथी	-11.1486
▁Corporations	-11.1514
▁Sh	-11.1519
इए	-11.1564
▁petitioners	-11.1571
▁पहुंचे	-11.1579
टर	-11.1582
ÉxÉÉ	-11.1586
्ष	-11.1611
▁59	-11.1619
▁नल	-11.1621
▁ban	-11.1665
▁कोट	-11.1702
▁महान	-11.1711
▁बे	-11.1718
उ	-11.1729
▁वर	-11.1733
▁सह	-11.174
्म	-11.1751
▁71	-11.1779
▁SA	-11.1782
▁69	-11.1842
द्ध	-11.1872
मी	-11.1872
दी	-11.1883
▁अनय	-11.1899
थ	-11.1905
▁67	-11.1925
▁department	-11.1932
वल	-11.1945
▁हक	-11.195
घ	-11.1954
ky	-11.1961
ont	-11.1962
▁__________	-11.1967
_	-11.1981
४	-11.1983
▁VÉ	-11.1997
6]	-11.2013
▁promise	-11.2017
▁Common	-11.2017
▁outlay	-11.2017
▁dream	-11.2018
▁Chamber	-11.2018
▁mine	-11.2019
▁room	-11.2019
▁Building	-11.202
▁quarter	-11.202
▁Zone	-11.202
▁product	-11.202
▁method	-11.202
▁Fertilizer	-11.2021
▁Grant	-11.2021
▁student	-11.2021
▁resource	-11.2021
▁२६	-11.2021
अपील	-11.2026
Appeal	-11.2026
ण्ड	-11.2027
▁Well	-11.2028
▁tender	-11.2033
▁विमान	-11.2034
▁suspend	-11.2034
▁slow	-11.2035
▁trust	-11.2036
▁fish	-11.2036
▁Book	-11.2036
In	-11.2037
▁खाद्यान्न	-11.2038
▁निवास	-11.2038
▁mandate	-11.2038
▁रोज	-11.2038
▁criticise	-11.2038
▁घायल	-11.2038
▁frame	-11.2038
▁evolve	-11.2038
▁investigate	-11.2038
▁authorise	-11.2038
▁resolve	-11.2038
▁छात्र	-11.2038
▁allocate	-11.2038
▁compare	-11.2038
▁प्रोग्राम	-11.2038
▁formulate	-11.2038
▁restore	-11.2038
▁Again	-11.2039
▁Chand	-11.2039
▁प्रचार	-11.204
▁पार्लियामेंट	-11.204
▁नवीन	-11.204
▁penal	-11.204
▁संज्ञान	-11.204
▁चिंता	-11.204
▁super	-11.204
▁HANDIQUE	-11.204
बचदा	-11.204
▁Afghanistan	-11.204
▁Armed	-11.204
▁Assessing	-11.204
▁Bokaro	-11.204
▁COMMITTEE	-11.204
▁Completion	-11.204
▁Earlier	-11.204
▁Etawah	-11.204
▁Institutions	-11.204
▁KURUP	-11.204
▁Kandhamal	-11.204
▁MANOHAR	-11.204
▁MURLI	-11.204
▁Mistry	-11.204
▁Organisation	-11.204
▁PANSKURA	-11.204
▁Pollution	-11.204
▁Southern	-11.204
▁Treasury	-11.204
▁Western	-11.204
▁YADAV	-11.204
▁achieving	-11.204
▁afraid	-11.204
▁aÉÉäVÉxÉÉ	-11.204
▁boost	-11.204
▁closure	-11.204
▁courage	-11.204
▁dialogue	-11.204
▁izkIr	-11.204
▁judiciary	-11.204
▁opposing	-11.204
▁outstanding	-11.204
▁privatisation	-11.204
▁quantum	-11.204
▁retail	-11.204
▁risk	-11.204
▁straight	-11.204
▁unorganised	-11.204
▁whichever	-11.204
▁wisdom	-11.204
▁आवंटित	-11.204
▁ऐलान	-11.204
▁कपड़ा	-11.204
▁खन्ना	-11.204
▁झारखण्ड	-11.204
▁दृष्टिकोण	-11.204
▁नालन्दा	-11.204
▁नितीय	-11.204
▁पिछली	-11.204
▁पुरःस्थापित	-11.204
▁प्राचीन	-11.204
▁बनातवाला	-11.204
▁बनायी	-11.204
▁मलेरिया	-11.204
▁मुताबिक	-11.204
▁मुल्क	-11.204
▁वायदा	-11.204
▁विनय	-11.204
▁शेयर	-11.204
▁संकेत	-11.204
▁सम्पर्क	-11.204
▁सीधा	-11.204
▁हिंदुस्तान	-11.204
▁हुसैन	-11.204
▁हेक्टेयर	-11.204
▁हैक्टेयर	-11.204
▁calamities	-11.204
▁न्यूनतम	-11.204
▁फलस्वरूप	-11.204
▁सम्पूर्ण	-11.204
▁1980	-11.204
▁Children	-11.204
▁transparency	-11.204
▁vius	-11.204
▁निकट	-11.204
▁पहाड़ी	-11.204
▁बकाया	-11.204
▁Should	-11.204
▁data	-11.204
▁injunction	-11.204
▁सीमावर्ती	-11.204
▁Pawar	-11.204
▁Installment	-11.204
▁Pathak	-11.204
▁डेढ़	-11.204
▁Chakraborty	-11.2041
▁vested	-11.2041
▁उपबंध	-11.2041
▁संयुक्त	-11.2041
▁interpretation	-11.2041
▁external	-11.2041
▁lying	-11.2041
▁preferred	-11.2041
▁चित्तौड़गढ़	-11.2041
▁Nagaland	-11.2041
▁àÉVÉ	-11.2041
▁धरना	-11.2041
▁संवैधानिक	-11.2041
▁travelling	-11.2041
▁ÉÊnaÉÉ	-11.2041
▁इस्तीफा	-11.2041
▁बिछाने	-11.2041
▁guilty	-11.2041
▁लंबित	-11.2041
▁Prasar	-11.2041
▁नंबर	-11.2041
▁अवगत	-11.2041
▁factories	-11.2041
▁सीधी	-11.2041
▁gap	-11.2041
▁Salempur	-11.2041
▁burnt	-11.2041
▁cold	-11.2041
▁पार्टियों	-11.2041
▁budgetary	-11.2041
▁́ÉÆ	-11.2041
▁Whose	-11.2041
▁Approval	-11.2041
▁FAO	-11.2041
▁संघ	-11.2041
▁जिनको	-11.2041
▁Free	-11.2041
▁Recently	-11.2041
▁liability	-11.2041
▁निवासियों	-11.2041
▁BPL	-11.2041
▁CHIRAYINKIL	-11.2041
▁Calcutta	-11.2041
▁Gaya	-11.2041
▁अधिनियम	-11.2041
▁जबलपुर	-11.2041
▁चन्द्रशेखर	-11.2041
▁कटिहार	-11.2041
▁Godhra	-11.2041
▁मानते	-11.2041
▁छपरा	-11.2041
▁लूट	-11.2041
▁Five	-11.2041
▁हाईवे	-11.2041
▁उपभोक्ताओं	-11.2041
▁Objects	-11.2041
▁घटनाएं	-11.2041
▁acquired	-11.2041
▁अर्थ	-11.2041
▁Passed	-11.2041
▁selected	-11.2041
▁आएंगे	-11.2041
▁लगाए	-11.2042
▁dear	-11.2042
▁furnished	-11.2042
▁unable	-11.2042
▁neighbouring	-11.2042
▁पढ़कर	-11.2042
▁प्रकाशित	-11.2042
▁Yesterday	-11.2042
▁उधर	-11.2042
▁NREGA	-11.2042
▁utilised	-11.2042
▁originally	-11.2043
▁restored	-11.2043
▁बनानी	-11.2043
▁Thousands	-11.2043
▁declined	-11.2043
▁Provident	-11.2043
▁losses	-11.2044
▁पृष्ठ	-11.2044
▁५००	-11.2044
▁passes	-11.2044
▁बढ़ाई	-11.2044
▁amongst	-11.2044
▁damaged	-11.2044
▁वोटर	-11.2045
▁हमको	-11.2045
▁linked	-11.2045
▁healthy	-11.2045
▁Assessment	-11.2045
▁सड़कें	-11.2045
▁उत्पादों	-11.2046
▁respectively	-11.2046
▁gSA	-11.2046
▁naturally	-11.2046
▁Sikhs	-11.2047
▁नलए	-11.2047
▁अहम	-11.2048
sh	-11.2048
▁walking	-11.2048
▁भेजी	-11.2048
▁linking	-11.2048
▁Pha	-11.2048
▁experienced	-11.205
▁एम्स	-11.2051
▁camps	-11.2051
▁india	-11.2052
▁opened	-11.2053
▁कय	-11.2055
▁600	-11.2055
▁मिलें	-11.2056
▁UN	-11.2061
▁Resources	-11.2062
दन	-11.2062
ent	-11.2065
▁अनध	-11.2065
▁goal	-11.2066
▁vehicles	-11.2067
▁centres	-11.2067
▁demanded	-11.2068
▁rains	-11.207
▁hundreds	-11.2073
▁Requests	-11.2074
▁fear	-11.2074
▁84	-11.208
▁helping	-11.2081
▁functions	-11.2087
▁heads	-11.2088
▁fields	-11.2092
▁56	-11.2099
ta	-11.2101
▁plaintiffs	-11.2103
▁practices	-11.2109
▁Notifications	-11.211
▁ित	-11.2112
▁evening	-11.2121
▁seeks	-11.2126
▁runs	-11.2128
▁बर	-11.214
▁एकता	-11.2143
▁65	-11.2143
▁acts	-11.2146
▁Geeta	-11.2151
▁योग्यता	-11.2154
▁79	-11.2157
▁आद	-11.219
▁emphasis	-11.219
▁starts	-11.2191
▁Placed	-11.2218
AN	-11.2226
▁85	-11.2235
AT	-11.2248
▁गो	-11.2249
)[	-11.2256
▁Sections	-11.2264
▁72	-11.2269
▁हि	-11.227
गत	-11.227
ts	-11.2285
▁खोले	-11.2291
▁remark	-11.2298
▁won	-11.2301
▁Apart	-11.2311
▁सो	-11.2313
OL	-11.2316
▁subjects	-11.2321
▁दिल	-11.233
▁lands	-11.2333
ेशन	-11.2343
▁St	-11.2351
▁महा	-11.2359
▁1985	-11.2365
ंगी	-11.2382
ाह	-11.239
5]	-11.2413
▁रू	-11.2424
▁सल	-11.2427
ty	-11.2442
▁कु	-11.2448
vi	-11.2455
ÉÉiÉ	-11.2463
▁मग	-11.2521
वी	-11.2551
15	-11.2553
ाय	-11.2555
▁Rama	-11.257
17	-11.2579
▁Naga	-11.2606
da	-11.2616
स्ट	-11.2622
▁निकल	-11.2628
▁मूव	-11.2632
▁२३	-11.2635
10	-11.266
▁inclusive	-11.2664
ship	-11.2695
▁कार्यकाल	-11.2699
▁विलम्ब	-11.27
▁elect	-11.2717
▁advise	-11.273
▁safeguard	-11.2731
▁Collector	-11.2732
▁Inspector	-11.2732
▁alternative	-11.2732
▁achievement	-11.2732
▁Tribal	-11.2733
▁paragraph	-11.2733
▁firm	-11.2733
▁affidavit	-11.2734
▁Proposal	-11.2734
▁fertilizer	-11.2734
▁platform	-11.2734
▁expression	-11.2735
▁obligation	-11.2735
▁map	-11.2736
▁गिर	-11.2745
▁deliver	-11.2747
▁संस्था	-11.2747
▁worker	-11.2747
▁witness	-11.2748
▁रोग	-11.2748
▁Connect	-11.275
▁compliment	-11.275
▁couple	-11.275
▁शांत	-11.2751
▁buy	-11.2751
▁deny	-11.2751
▁Enhance	-11.2751
▁आज़ाद	-11.2752
▁insert	-11.2752
▁Bharat	-11.2752
▁अदालत	-11.2752
▁enhance	-11.2752
▁influence	-11.2752
▁Hindustan	-11.2752
▁गुजर	-11.2752
▁negative	-11.2752
▁appoint	-11.2752
▁misuse	-11.2752
▁highlight	-11.2752
▁instant	-11.2753
▁चीन	-11.2753
▁वैज्ञानिक	-11.2753
▁severe	-11.2753
▁उपकरण	-11.2753
▁efficient	-11.2753
▁quiet	-11.2753
▁लम्बा	-11.2754
▁print	-11.2754
▁born	-11.2754
▁रक	-11.2754
▁Mamata	-11.2754
▁ब्रजेश	-11.2754
▁rubber	-11.2754
▁दृष्टि	-11.2754
▁sovereign	-11.2755
▁Village	-11.2755
▁confident	-11.2755
▁आश्चर्य	-11.2755
▁पेट्रोल	-11.2755
▁अवस्था	-11.2755
▁false	-11.2755
▁statistics	-11.2755
▁पंक्ति	-11.2755
▁AZAD	-11.2755
▁Acquisition	-11.2755
▁Actually	-11.2755
▁Already	-11.2755
▁Australia	-11.2755
▁Aviation	-11.2755
▁BENCH	-11.2755
▁Banerjee	-11.2755
▁Because	-11.2755
▁Besides	-11.2755
▁British	-11.2755
▁EAST	-11.2755
▁Fernandes	-11.2755
▁Heeralal	-11.2755
▁Hotel	-11.2755
▁MISTRY	-11.2755
▁MUMBAI	-11.2755
▁Owaisi	-11.2755
▁PALANIMANICKAM	-11.2755
▁PILOT	-11.2755
▁PRABODH	-11.2755
▁RASHID	-11.2755
▁SEVERAL	-11.2755
▁Salary	-11.2755
▁Solve	-11.2755
▁Verma	-11.2755
▁although	-11.2755
▁chargesheet	-11.2755
▁choice	-11.2755
▁declaring	-11.2755
▁earliest	-11.2755
▁fashion	-11.2755
▁irrespective	-11.2755
▁issuing	-11.2755
▁literacy	-11.2755
▁operating	-11.2755
▁receiving	-11.2755
▁verdict	-11.2755
▁अप्रैल	-11.2755
▁करायी	-11.2755
▁कारखाना	-11.2755
▁खजुराहो	-11.2755
▁धनबाद	-11.2755
▁धीमी	-11.2755
▁पंचवर्षीय	-11.2755
▁परभनी	-11.2755
▁पालिसी	-11.2755
▁पुरजोर	-11.2755
▁भौगोलिक	-11.2755
▁मुहैया	-11.2755
▁मूलभूत	-11.2755
▁रेवती	-11.2755
▁लोकसभा	-11.2755
▁सफाई	-11.2755
▁साम्प्रदायिक	-11.2755
▁सेंट्रल	-11.2755
▁हरिकेवल	-11.2755
▁Madhavrao	-11.2755
▁abroad	-11.2755
▁identity	-11.2755
▁डेवलपमेंट	-11.2755
▁तिवारी	-11.2755
▁फैजाबाद	-11.2755
▁रिप्लाई	-11.2755
▁determination	-11.2755
▁incurred	-11.2755
▁steel	-11.2755
▁इंडियन	-11.2755
▁राजनैतिक	-11.2755
▁besides	-11.2755
▁statistical	-11.2755
▁इकाइयों	-11.2755
▁पेट्रोलियम	-11.2755
▁governance	-11.2755
▁oÉàÉaÉ	-11.2755
▁Cess	-11.2755
▁Major	-11.2755
▁compelled	-11.2755
▁Golden	-11.2755
▁भरूच	-11.2755
▁specified	-11.2755
▁injured	-11.2755
▁critical	-11.2755
▁prescribed	-11.2755
▁प्रौद्योगिकी	-11.2755
▁Planning	-11.2755
▁क्वैश्चन	-11.2755
▁दैनिक	-11.2755
▁ववपक	-11.2755
▁́ÉcÉÆ	-11.2755
▁Mehta	-11.2755
द्धद्ध	-11.2755
▁ãÉÉäMÉÉå	-11.2755
▁मेहता	-11.2755
▁VRS	-11.2755
हद्व	-11.2755
▁परिस्थितियों	-11.2755
▁प्रसारित	-11.2755
▁माग	-11.2755
▁हटाया	-11.2755
▁नाते	-11.2755
▁डबल	-11.2755
▁आगरा	-11.2755
▁पोटा	-11.2755
▁पड़ेगी	-11.2755
▁Naik	-11.2755
▁reflected	-11.2755
▁Repeal	-11.2755
▁संजय	-11.2755
▁स्थगन	-11.2755
▁Everything	-11.2755
▁undertaken	-11.2755
▁१९९८	-11.2755
▁opium	-11.2755
▁नजर	-11.2755
▁आठवीं	-11.2755
▁उदयपुर	-11.2755
▁burning	-11.2755
▁कालेज	-11.2755
▁sustained	-11.2756
▁instructions	-11.2756
▁agitated	-11.2756
▁Both	-11.2756
▁Salem	-11.2756
▁जिसको	-11.2756
▁लाभकारी	-11.2756
▁करवाने	-11.2756
▁holy	-11.2756
▁intended	-11.2756
▁1982	-11.2756
▁BÉEÉàÉ	-11.2756
▁Pending	-11.2756
▁पशु	-11.2756
▁2012	-11.2756
▁dt	-11.2756
▁50,000	-11.2756
▁Did	-11.2756
▁MÉaÉÉ	-11.2756
▁Setting	-11.2756
▁सपष	-11.2756
▁नोट	-11.2756
▁भोजपुरी	-11.2756
heli	-11.2756
▁1981	-11.2756
▁मुरादाबाद	-11.2756
▁Gramin	-11.2757
▁Advaniji	-11.2757
▁shouting	-11.2757
▁rF	-11.2757
▁लिखे	-11.2757
▁Sarva	-11.2757
▁इंटर	-11.2757
▁converted	-11.2757
▁Thirdly	-11.2757
▁deeply	-11.2757
▁लगने	-11.2757
▁घाटी	-11.2757
▁divided	-11.2757
▁hardly	-11.2757
▁आतंकवादियों	-11.2757
▁ट्रैक	-11.2757
▁Judicial	-11.2758
▁VHP	-11.2758
६	-11.2758
▁farming	-11.2758
▁maybe	-11.2758
▁Educational	-11.2758
▁partners	-11.2758
▁doctors	-11.2758
▁proceeded	-11.2758
▁prevention	-11.2759
▁सुनने	-11.2759
▁दंगे	-11.2759
▁पकरण	-11.2759
▁सम्बन्धी	-11.2759
▁पसत	-11.2759
▁पवार	-11.276
▁Panchayati	-11.276
▁normally	-11.276
▁कराकर	-11.276
▁Shipping	-11.276
▁signal	-11.276
▁आपदा	-11.276
ेंगे	-11.276
▁purchased	-11.276
▁भाई	-11.276
▁yes	-11.2761
बा	-11.2761
▁bearing	-11.2761
▁पहला	-11.2761
▁Chemicals	-11.2761
▁dollars	-11.2761
▁देनी	-11.2763
▁कागज	-11.2763
▁door	-11.2763
▁godowns	-11.2763
▁ill	-11.2764
▁aspirations	-11.2764
▁Once	-11.2765
▁longer	-11.2765
▁यानी	-11.2765
▁Annex	-11.2765
▁nearly	-11.2766
▁restrictions	-11.2769
▁nÚ	-11.2769
▁inside	-11.2769
▁Eleventh	-11.2771
▁फसलों	-11.2771
▁none	-11.2773
▁concessions	-11.2774
▁III	-11.2775
▁रहत	-11.2778
▁processing	-11.278
▁elaborate	-11.2782
▁seed	-11.2785
्ड	-11.2786
▁sufferings	-11.2791
▁वल	-11.2793
▁historical	-11.2794
▁तट	-11.2796
▁criminals	-11.2803
▁Parts	-11.2806
▁Rivers	-11.2825
िट	-11.2828
▁Md	-11.2829
▁imports	-11.2836
il	-11.2846
▁pro	-11.2864
▁Daman	-11.2892
▁costs	-11.2905
ap	-11.2905
▁y	-11.2916
▁xÉ	-11.2923
oa	-11.2926
ÉäVÉ	-11.2937
▁tu	-11.2942
ेज	-11.2951
▁calls	-11.2961
▁levels	-11.2973
▁finds	-11.2973
▁देखें	-11.2984
▁77	-11.2988
84	-11.3002
bi	-11.3003
▁सेल	-11.3007
20	-11.3021
जा	-11.3026
ाल	-11.3052
we	-11.3062
ks	-11.309
ised	-11.3095
▁Motions	-11.3132
रों	-11.3148
▁१६	-11.3154
▁81	-11.3184
0/	-11.3208
Mum	-11.3209
▁३१	-11.3214
▁सश	-11.3237
▁माता	-11.3239
▁62	-11.3249
el	-11.3255
Éc	-11.3274
र्स	-11.3297
▁डाल	-11.3298
▁मो	-11.3332
गांव	-11.3334
▁समझा	-11.3341
**	-11.3342
▁regular	-11.3355
wa	-11.3384
कार	-11.341
cÉÒ	-11.3411
रण	-11.3435
▁कराएं	-11.344
▁फल	-11.3454
▁४५	-11.3457
▁उठ	-11.3462
आर	-11.3471
▁दि	-11.3483
▁convert	-11.3497
▁invite	-11.3498
▁Post	-11.3499
▁bill	-11.3499
▁marginal	-11.35
वे	-11.35
▁murder	-11.35
▁port	-11.3501
▁Vidyalaya	-11.3503
▁temple	-11.3503
▁certificate	-11.3503
▁marriage	-11.3503
▁घट	-11.3503
▁game	-11.3503
▁grievance	-11.3504
▁zone	-11.3504
▁allowance	-11.3504
▁concession	-11.3504
▁decade	-11.3504
nÚ	-11.3509
General	-11.3509
RTI	-11.3509
CPIO	-11.3509
fd	-11.3511
▁repeal	-11.3517
▁fix	-11.3518
▁खेत	-11.3519
▁drain	-11.3519
▁throw	-11.3519
▁पहचान	-11.352
▁commend	-11.3521
▁बहाल	-11.3521
▁divide	-11.3521
▁recall	-11.3521
▁प्रखंड	-11.3521
▁remove	-11.3522
▁पेड़	-11.3522
▁तथ्य	-11.3522
▁indigenous	-11.3522
▁मुश्किल	-11.3522
▁unilateral	-11.3522
▁आंकड़े	-11.3522
▁नियुक्त	-11.3523
▁तबाह	-11.3523
ाबाद	-11.3523
/2017	-11.3524
▁apart	-11.3524
▁ãÉÉäMÉ	-11.3524
▁हिस्से	-11.3524
/2019	-11.3524
▁आन्दोलन	-11.3524
BLE	-11.3524
अिभ	-11.3524
▁143(3)	-11.3524
▁ANBUMANI	-11.3524
▁Although	-11.3524
▁BASIRHAT	-11.3524
▁BWISWMUTHIARY	-11.3524
▁Bajrang	-11.3524
▁Basudeb	-11.3524
▁Faizabad	-11.3524
▁Family	-11.3524
▁Gorakhpur	-11.3524
▁HOOGLY	-11.3524
▁Kirit	-11.3524
▁Kottayam	-11.3524
▁MANISHANKAR	-11.3524
▁MUVATTUPUZHA	-11.3524
▁Nepal	-11.3524
▁PANDIAN	-11.3524
▁RAMADOSS	-11.3524
▁SIRPOTDAR	-11.3524
▁Samariya	-11.3524
▁Sriganganagar	-11.3524
▁SÉÉÉÊcA	-11.3524
▁UMMAREDDY	-11.3524
▁Understanding	-11.3524
▁Vanaja	-11.3524
▁Volcker	-11.3524
▁WATER	-11.3524
▁advice	-11.3524
▁anguish	-11.3524
▁anywhere	-11.3524
▁appropriation	-11.3524
▁beneficiaries	-11.3524
▁birth	-11.3524
▁competition	-11.3524
▁complex	-11.3524
▁easy	-11.3524
▁entry	-11.3524
▁erred	-11.3524
▁identify	-11.3524
▁inadequate	-11.3524
▁opposition	-11.3524
▁oriented	-11.3524
▁partition	-11.3524
▁pleasure	-11.3524
▁proportion	-11.3524
▁purchasing	-11.3524
▁routine	-11.3524
▁science	-11.3524
▁stress	-11.3524
▁subsidiary	-11.3524
▁urgency	-11.3524
▁wherever	-11.3524
▁अनुपूरक	-11.3524
▁अनुरूप	-11.3524
▁आबंटन	-11.3524
▁आशंका	-11.3524
▁उज्जैन	-11.3524
▁उद्घाटन	-11.3524
▁उन्नाव	-11.3524
▁एसोसिएट	-11.3524
▁कम्पनियों	-11.3524
▁कार्यसूची	-11.3524
▁जर्जर	-11.3524
▁ज्ञात	-11.3524
▁डिस्टर्ब	-11.3524
▁दोबारा	-11.3524
▁नियोजन	-11.3524
▁निर्वाचित	-11.3524
▁पवित्र	-11.3524
▁फूड	-11.3524
▁भांति	-11.3524
▁मािणत	-11.3524
▁मुद्दों	-11.3524
▁मुस्लिम	-11.3524
▁लक्ष्मीनारायण	-11.3524
▁शुगर	-11.3524
▁शैक्षणिक	-11.3524
▁संक्षेप	-11.3524
▁संचालित	-11.3524
▁सकारात्मक	-11.3524
▁साहिब	-11.3524
▁सुमित्रा	-11.3524
▁सैयद	-11.3524
▁1951	-11.3524
▁KRISHNADAS	-11.3524
▁Natwar	-11.3524
▁conservation	-11.3524
▁distance	-11.3524
▁enquiry	-11.3524
▁irregularities	-11.3524
▁leaving	-11.3524
▁stamp	-11.3524
▁ग्रुप	-11.3524
▁सुन्दर	-11.3524
▁Bhutan	-11.3524
▁Maharajganj	-11.3524
▁Promotion	-11.3524
▁Sarna	-11.3524
▁lady	-11.3524
▁अर्जुन	-11.3524
▁scientific	-11.3524
▁तुंत	-11.3524
▁लेखापरीक्षित	-11.3524
▁शाहनवाज़	-11.3524
▁criticism	-11.3524
▁expansion	-11.3524
▁शैडयूल्ड	-11.3524
▁Sunil	-11.3524
▁खतरे	-11.3524
▁२००७	-11.3524
▁INCOME	-11.3524
▁Raised	-11.3524
▁ownership	-11.3524
▁retirement	-11.3524
▁फर्नान्डीज़	-11.3524
▁स्िथति	-11.3524
▁Fair	-11.3524
▁lunch	-11.3524
▁electoral	-11.3524
▁बुलाऊंगा	-11.3524
▁Rajput	-11.3524
▁164641	-11.3524
▁BILL	-11.3524
▁चपेट	-11.3524
▁मीडिया	-11.3524
▁मोदी	-11.3524
▁Gulf	-11.3524
▁Raipur	-11.3524
▁७५	-11.3524
▁valid	-11.3524
▁Suzuki	-11.3524
▁interim	-11.3524
▁model	-11.3524
▁सप्लाई	-11.3524
▁दवाओं	-11.3524
▁Rasa	-11.3524
▁Three	-11.3524
▁weaker	-11.3524
▁RESOURCES	-11.3524
▁strategic	-11.3524
CBIND	-11.3525
▁Dalit	-11.3525
▁organised	-11.3525
▁नेटवर्क	-11.3525
▁employed	-11.3525
▁Cooperative	-11.3525
▁Sanjay	-11.3525
▁अगस्त	-11.3525
▁निर्मित	-11.3525
▁Sikkim	-11.3525
▁driven	-11.3525
▁स्वामी	-11.3525
▁सैशन	-11.3525
▁लेखे	-11.3525
▁संबद्ध	-11.3525
▁समझते	-11.3525
▁Haj	-11.3525
▁Till	-11.3525
▁deliberately	-11.3525
▁Based	-11.3525
▁बलिया	-11.3525
▁indian	-11.3525
▁साफ	-11.3525
▁पाएगा	-11.3525
▁exceeding	-11.3525
▁भाषाओं	-11.3525
▁सीमेंट	-11.3526
▁जटिया	-11.3526
▁सम्मानित	-11.3526
▁Considering	-11.3526
▁attended	-11.3526
▁ग्वालियर	-11.3526
▁रसायन	-11.3526
▁लगाये	-11.3526
▁2014	-11.3526
▁गेट	-11.3526
▁बुनकरों	-11.3526
▁equally	-11.3527
▁सेवानिवृत्त	-11.3527
▁viable	-11.3527
▁economically	-11.3527
▁confined	-11.3527
▁रायपुर	-11.3527
▁Upon	-11.3527
▁misleading	-11.3527
▁अखबारों	-11.3527
▁योजनाएँ	-11.3527
▁राज्यपाल	-11.3527
▁शाम	-11.3528
▁बताई	-11.3528
▁पंचायतों	-11.3528
▁लिखी	-11.3528
▁involving	-11.3528
▁scientists	-11.3528
▁acres	-11.3528
▁Bankura	-11.3528
▁चलाना	-11.3528
▁बेगूसराय	-11.3528
▁सैनिकों	-11.3528
▁AIDS	-11.3529
▁इंदौर	-11.3529
▁subsidies	-11.3529
▁रवि	-11.353
▁tanks	-11.353
▁NH	-11.353
▁VÉÉA	-11.353
▁parents	-11.353
▁आवश्यकताओं	-11.3531
▁पर्यटकों	-11.3531
▁व्यापारी	-11.3531
▁indicates	-11.3531
▁claimed	-11.3531
▁onwards	-11.3531
▁Fourth	-11.3532
ÉÉoÉ	-11.3532
▁जेल	-11.3533
▁interrupting	-11.3533
▁पेट	-11.3533
▁20,000	-11.3533
▁targeted	-11.3533
▁1000	-11.3534
KMR	-11.3534
▁Published	-11.3534
▁रहेगी	-11.3535
▁consequences	-11.3536
▁grains	-11.3536
▁AO	-11.3537
▁वर्षो	-11.3538
▁cadres	-11.3538
▁kms	-11.3538
▁हआ	-11.3538
▁देगा	-11.3539
▁IPC	-11.3539
▁patients	-11.3539
▁पान	-11.3541
▁corrected	-11.3541
▁forwarded	-11.3542
▁notified	-11.3542
▁contents	-11.3542
▁charged	-11.3543
▁Posts	-11.3544
▁ou	-11.3544
▁factors	-11.3545
▁addressing	-11.3547
▁mines	-11.3548
▁FA	-11.3548
▁consumers	-11.3549
▁ruled	-11.355
ाना	-11.355
▁girls	-11.3551
▁cleared	-11.3551
▁षर	-11.3553
(1)	-11.3553
▁values	-11.3555
▁depends	-11.3557
▁सच	-11.3559
▁Was	-11.3563
▁नक	-11.3565
▁willing	-11.3567
▁153	-11.3571
▁belongs	-11.3572
▁Kol	-11.3573
ter	-11.3574
▁fourth	-11.3579
▁लन	-11.3581
न्	-11.3583
▁(2008	-11.3583
▁noticed	-11.3591
▁Elections	-11.3608
▁presenting	-11.3619
▁allocations	-11.3623
kar	-11.3628
IN	-11.3633
▁देशी	-11.3635
▁Sessions	-11.3683
▁कोच	-11.3704
▁knowing	-11.3711
्री	-11.3719
रन	-11.3723
▁nations	-11.3728
्त	-11.3739
ti	-11.3739
▁2005,	-11.3746
▁4)	-11.3748
ance	-11.3749
ाया	-11.376
25	-11.3763
▁2000/	-11.3765
ीन	-11.3781
▁Global	-11.3783
ÉÆ	-11.3787
▁डि	-11.3827
▁स्व	-11.3844
▁98	-11.3845
▁76	-11.3848
▁दा	-11.3852
▁regards	-11.3865
▁railways	-11.388
6"	-11.3883
पा	-11.3886
ist	-11.3939
å	-11.3946
▁बेच	-11.396
ÉÇ	-11.3977
se	-11.3981
िस	-11.3998
90	-11.401
▁इं	-11.4018
सम	-11.4019
▁संत	-11.4021
▁बा	-11.4041
▁110	-11.4053
op	-11.4057
▁73	-11.4062
ate	-11.4065
SA	-11.4084
्ल	-11.4099
▁400	-11.4101
ka	-11.4103
िल	-11.4106
▁ष	-11.4145
िव	-11.4161
▁बुद्ध	-11.4182
▁खुल	-11.4182
▁di	-11.4188
ारा	-11.4199
▁हैड	-11.4209
3]	-11.4213
िये	-11.4216
ST	-11.4229
▁गाड	-11.4242
us	-11.4247
▁male	-11.4247
ee	-11.425
▁रा	-11.426
▁टक	-11.4293
यक	-11.4299
▁३३	-11.43
ru	-11.4302
▁Improve	-11.4305
▁सरल	-11.4309
09	-11.431
▁700	-11.431
▁Along	-11.4323
▁interfere	-11.4329
▁repair	-11.4329
▁patent	-11.433
▁Temple	-11.4332
▁Federation	-11.4332
▁Point	-11.4332
▁spot	-11.4332
▁piece	-11.4333
▁Team	-11.4334
▁residence	-11.4334
""""	-11.4334
▁drawback	-11.4334
▁convention	-11.4334
▁Its	-11.4334
▁FIR	-11.4335
▁Professor	-11.4335
▁saving	-11.4336
▁occur	-11.4336
▁plantation	-11.4337
▁content	-11.4337
▁Flood	-11.4337
▁expert	-11.4337
▁employee	-11.4338
▁Regulation	-11.4339
संशोधन	-11.4343
▁factor	-11.4343
There	-11.4345
▁25,000	-11.4348
▁touch	-11.4349
▁recommend	-11.435
▁consult	-11.435
▁defend	-11.435
▁adopt	-11.435
▁10,000	-11.4352
▁fnYyh	-11.4352
▁डूब	-11.4353
▁assist	-11.4353
▁विस्फोट	-11.4353
▁हिमालय	-11.4354
▁मिश्र	-11.4354
▁खुश	-11.4354
▁अनुबंध	-11.4354
▁सिफारिश	-11.4354
▁rescue	-11.4354
▁मापदंड	-11.4354
▁replace	-11.4354
▁बेकार	-11.4355
▁Introduce	-11.4355
▁दायित्व	-11.4355
▁समुदाय	-11.4355
▁delete	-11.4355
▁prepare	-11.4355
▁Political	-11.4355
▁Pandey	-11.4355
▁tremendous	-11.4355
▁Immediate	-11.4356
ÉVÉ	-11.4356
▁MP	-11.4356
▁Make	-11.4356
Fd	-11.4356
▁Withdraw	-11.4356
▁यूनिवर्सिटी	-11.4357
▁मनिस्ट्री	-11.4357
▁character	-11.4357
▁लाइसेंस	-11.4357
▁Swami	-11.4357
▁अंडर	-11.4357
▁दिवस	-11.4357
▁लक्ष्मण	-11.4357
Insertion	-11.4357
▁1989	-11.4357
▁ALVA	-11.4357
▁Agency	-11.4357
▁Airlines	-11.4357
▁BALCO	-11.4357
▁COMMISSION	-11.4357
▁Church	-11.4357
▁Excellency	-11.4357
▁Extend	-11.4357
▁FkhA	-11.4357
▁GEORGE	-11.4357
▁GOPAL	-11.4357
▁Geete	-11.4357
▁Guwahati	-11.4357
▁JAGANNATH	-11.4357
▁KHUNGGUR	-11.4357
▁KIRTI	-11.4357
▁Kanyakumari	-11.4357
▁Kerosene	-11.4357
▁Kutch	-11.4357
▁MADHUKAR	-11.4357
▁MARGARET	-11.4357
▁MAVELIKARA	-11.4357
▁Mangalore	-11.4357
▁Minority	-11.4357
▁Mizoram	-11.4357
▁Nasik	-11.4357
▁Particularly	-11.4357
▁Quadrilateral	-11.4357
▁Radio	-11.4357
▁SANSUMA	-11.4357
▁Sushma	-11.4357
▁THANGKABALU	-11.4357
▁TRICHUR	-11.4357
▁Territory	-11.4357
▁ancient	-11.4357
▁behaving	-11.4357
▁century	-11.4357
▁consumption	-11.4357
▁copies	-11.4357
▁delimitation	-11.4357
▁discretion	-11.4357
▁evident	-11.4357
▁gksdj	-11.4357
▁hawkers	-11.4357
▁injustice	-11.4357
▁insurgency	-11.4357
▁interference	-11.4357
▁irrelevant	-11.4357
▁irresponsible	-11.4357
▁laca	-11.4357
▁liberty	-11.4357
▁magnitude	-11.4357
▁memorandum	-11.4357
▁menace	-11.4357
▁milk	-11.4357
▁outcome	-11.4357
▁phenomenon	-11.4357
▁pride	-11.4357
▁secret	-11.4357
▁socio	-11.4357
▁space	-11.4357
▁studied	-11.4357
▁vkSj	-11.4357
▁अग्रवाल	-11.4357
▁अध्यादेश	-11.4357
▁अनुच्छेद	-11.4357
▁अपितु	-11.4357
▁अवश्य	-11.4357
▁अविनाश	-11.4357
▁आदमियों	-11.4357
▁इराक	-11.4357
▁इलाज	-11.4357
▁उत्पीड़न	-11.4357
▁एक्सप्रैस	-11.4357
▁कीर्ति	-11.4357
▁चीफ	-11.4357
▁ज़ीरो	-11.4357
▁तकलीफ	-11.4357
▁त्राहि	-11.4357
▁पुनर्वास	-11.4357
▁पुस्तक	-11.4357
▁प्रखण्ड	-11.4357
▁फ़िरोज़ाबाद	-11.4357
▁बढ़ोत्तरी	-11.4357
▁मस्जिद	-11.4357
▁महीनों	-11.4357
▁मुकदमा	-11.4357
▁मुगलसराय	-11.4357
▁मेहरबानी	-11.4357
▁रवीन्द्र	-11.4357
▁लम्बे	-11.4357
▁लाभान्वित	-11.4357
▁वातावरण	-11.4357
▁वापिस	-11.4357
▁विपरीत	-11.4357
▁शिक्षण	-11.4357
▁सईद	-11.4357
▁सत्यनारायण	-11.4357
▁सलीम	-11.4357
▁साजिश	-11.4357
▁सितम्बर	-11.4357
▁स्टील	-11.4357
▁BAC	-11.4357
▁Japanese	-11.4357
▁Maheshwari	-11.4357
▁Varkala	-11.4357
▁advertisement	-11.4357
▁compliance	-11.4357
▁situated	-11.4357
▁परमीशन	-11.4357
▁बरसात	-11.4357
▁Republic	-11.4357
▁क्रमांक	-11.4357
▁दयनीय	-11.4357
▁पॉलिसी	-11.4357
▁महावीर	-11.4357
▁Pronouncement	-11.4357
▁शादी	-11.4357
▁Estimates	-11.4357
▁Floor	-11.4357
▁injury	-11.4357
▁निरसन	-11.4357
▁सर्वसम्मति	-11.4357
▁Murli	-11.4357
▁भोजन	-11.4357
""""""""""""""""	-11.4357
▁समक्ष	-11.4357
▁Rajkot	-11.4357
▁proof	-11.4357
▁लखित	-11.4357
▁Shortage	-11.4357
▁क्षतिग्रस्त	-11.4357
▁imposition	-11.4357
▁story	-11.4357
▁पर्वतीय	-11.4357
▁European	-11.4357
▁Interim	-11.4357
▁́ÉvÉÉxÉ	-11.4357
▁आधुनिकीकरण	-11.4357
▁टेबल	-11.4357
▁रोजाना	-11.4357
▁Room	-11.4357
▁regulatory	-11.4357
▁श्रद्धालुओं	-11.4357
▁sovereignty	-11.4357
▁जरिए	-11.4357
▁स्टेटमैंट	-11.4358
▁संदेश	-11.4358
▁१९३	-11.4358
▁Oil	-11.4358
▁प्राइमरी	-11.4358
▁पूर्वांचल	-11.4358
▁extra	-11.4358
åMÉä	-11.4358
▁MATTERS	-11.4358
▁dangerous	-11.4358
▁described	-11.4358
▁विरुद्ध	-11.4358
▁मुक्त	-11.4358
▁properties	-11.4358
▁छः	-11.4358
▁Like	-11.4358
▁निजीकरण	-11.4358
▁आयोजित	-11.4358
cit	-11.4358
▁confirmed	-11.4358
▁Formulate	-11.4358
▁घोर	-11.4358
▁SONIA	-11.4358
▁SOME	-11.4358
▁Anil	-11.4358
▁पैदावार	-11.4358
▁Disinvestment	-11.4358
▁Tsunami	-11.4358
▁queries	-11.4358
▁valuable	-11.4358
▁अल्मोड़ा	-11.4358
▁चिमूर	-11.4358
▁फोन	-11.4358
▁बोकारो	-11.4358
▁dividend	-11.4358
▁1976	-11.4358
▁Rajendra	-11.4358
▁primarily	-11.4358
▁quickly	-11.4358
▁आयुक्त	-11.4358
▁सस्ती	-11.4358
▁सूर्य	-11.4358
▁देखिए	-11.4358
▁whereby	-11.4358
▁Sangh	-11.4358
▁sir	-11.4358
▁salaries	-11.4358
▁Deo	-11.4358
▁सम्बन्धित	-11.4358
▁everyone	-11.4359
▁स्वरूप	-11.4359
▁कीमतें	-11.4359
▁आदश	-11.4359
▁छोड़कर	-11.4359
▁Ananth	-11.4359
▁घाट	-11.4359
▁2016	-11.4359
▁acceptable	-11.4359
▁निकालने	-11.4359
▁Called	-11.4359
▁व्यापारिक	-11.4359
▁Gate	-11.4359
▁एयर	-11.4359
▁नौजवानों	-11.4359
▁मानना	-11.4359
▁सेवाएं	-11.4359
▁उत्पादकों	-11.4359
▁payable	-11.4359
▁incorporated	-11.4359
▁अल्पसंख्यकों	-11.4359
▁समझने	-11.4359
▁2013	-11.4359
▁shifting	-11.436
▁रोको	-11.436
▁असव	-11.436
▁touched	-11.436
▁लाकर	-11.436
▁disclosed	-11.436
32]	-11.436
▁RAILWAYS	-11.436
▁पाती	-11.436
▁पेपर	-11.436
▁Budgetary	-11.436
▁खेतों	-11.436
▁borne	-11.436
▁व्यवस्थापन	-11.436
▁२४	-11.436
▁जानता	-11.436
▁मिशन	-11.436
▁soft	-11.4361
▁आजकल	-11.4361
▁avoided	-11.4361
▁आहत	-11.4361
▁रद्द	-11.4361
▁latest	-11.4362
▁वाक	-11.4362
▁निर्देशित	-11.4362
▁strengthened	-11.4362
▁लगाकर	-11.4362
▁सबके	-11.4363
▁conveyed	-11.4363
22]	-11.4363
▁finally	-11.4363
▁स्कूलों	-11.4363
▁कबज	-11.4363
▁सुनकर	-11.4363
▁Prevention	-11.4363
▁riots	-11.4363
▁trees	-11.4363
▁separately	-11.4364
▁निकाला	-11.4364
▁353	-11.4364
▁spreading	-11.4365
▁explained	-11.4365
▁approached	-11.4365
▁उच	-11.4366
▁पदश	-11.4366
▁repeating	-11.4366
▁माने	-11.4366
▁भीतर	-11.4366
▁adequately	-11.4369
▁खर	-11.4369
५	-11.437
▁lies	-11.437
▁(6)	-11.437
▁जनपदों	-11.4371
▁fine	-11.4371
▁fares	-11.4371
▁delayed	-11.4372
▁trained	-11.4373
▁deposit	-11.4374
▁unions	-11.4374
▁Constitutional	-11.4376
▁responded	-11.4377
▁experts	-11.4377
▁जरा	-11.4378
ान	-11.4378
▁बढ़ी	-11.4381
▁Fourteenth	-11.4382
▁सरक	-11.4383
▁marks	-11.4385
▁57	-11.4388
ran	-11.4393
▁differences	-11.4393
▁लोकल	-11.4395
▁subjected	-11.4399
ey	-11.4399
▁Panchayats	-11.44
▁offer	-11.4402
▁केरल	-11.4405
▁religions	-11.4406
▁अहमद	-11.4406
राम	-11.4413
▁Acts	-11.4415
▁Rd	-11.4415
▁die	-11.442
▁शत	-11.442
AL	-11.4425
▁limits	-11.4427
▁३५	-11.4428
हत	-11.4443
▁effects	-11.4444
kA	-11.4447
▁appealing	-11.4449
▁परि	-11.4464
▁रुक	-11.4467
▁departmental	-11.4469
▁Roads	-11.449
▁विनम्र	-11.451
▁जोड़	-11.4512
एँ	-11.4515
ary	-11.4526
▁Bal	-11.4528
नन	-11.4529
▁ra	-11.4534
▁à	-11.4555
▁अनुपात	-11.4562
▁ठहर	-11.4572
et	-11.4574
99	-11.4588
▁बतल	-11.4593
▁sea	-11.4606
▁83	-11.462
वार	-11.4621
▁Ito	-11.4626
▁_________	-11.463
▁Sa	-11.4641
▁नर	-11.4644
ति	-11.4657
ng	-11.4671
▁परव	-11.4671
▁बुरा	-11.4681
07	-11.4709
▁महाराज	-11.4715
▁developments	-11.4725
▁___________	-11.4751
▁पड	-11.4754
▁Per	-11.4763
ny	-11.4766
▁दुख	-11.4817
ोर	-11.4823
q	-11.4824
50	-11.4837
65	-11.4847
रत	-11.4853
▁इनसे	-11.4856
▁सि	-11.4862
्‍	-11.4874
VÉÉ	-11.4882
▁86	-11.489
▁कट	-11.4923
▁हद	-11.4957
ॉ	-11.4962
ors	-11.4964
so	-11.4968
▁92	-11.4988
▁46	-11.4993
xÉÉÒ	-11.4998
▁aid	-11.5
स्	-11.5012
ÉÉn	-11.5019
िय	-11.502
▁Commissions	-11.5021
▁Ms	-11.5048
मेंट	-11.5049
सन	-11.5072
ंगे	-11.5072
▁स्	-11.5097
फर	-11.5115
▁दवा	-11.512
PUR	-11.5124
ÉaÉ	-11.5136
ted	-11.5142
▁7,	-11.515
वान	-11.5179
▁Any	-11.5183
▁चाह	-11.5185
▁न्यूज	-11.5186
न्स	-11.5196
▁par	-11.5219
वाई	-11.5234
▁generate	-11.5239
▁Repair	-11.5241
▁error	-11.5241
▁fabric	-11.5243
▁approve	-11.5243
▁fit	-11.5244
▁claimant	-11.5244
▁reserve	-11.5244
▁interview	-11.5244
▁God	-11.5245
▁parcel	-11.5246
चौदहवीं	-11.5247
▁medicine	-11.5247
▁version	-11.5247
▁alia	-11.5247
▁mill	-11.5248
for	-11.5248
1⁄4	-11.5249
ऐ	-11.5249
मुिनरका	-11.525
हिंदी	-11.525
contd	-11.5251
Copy	-11.5251
वैशाली	-11.5252
▁लो	-11.5252
What	-11.5252
1]	-11.5255
▁exempt	-11.5259
▁afford	-11.5259
▁1,000	-11.526
om	-11.5261
▁Thirteen	-11.5261
▁mislead	-11.5262
▁उग्रवाद	-11.5263
▁Israel	-11.5263
▁समूह	-11.5263
▁कॉलेज	-11.5263
▁सख्त	-11.5263
▁accommodate	-11.5264
▁ताकत	-11.5264
▁argue	-11.5264
▁guarantee	-11.5264
▁pursue	-11.5264
▁inquire	-11.5264
▁utilise	-11.5264
▁draft	-11.5264
▁बुनकर	-11.5264
▁keen	-11.5264
▁extensive	-11.5264
▁औ	-11.5264
▁physical	-11.5265
▁habit	-11.5265
▁dj	-11.5265
▁manage	-11.5265
▁इंस्टीटयूट	-11.5265
▁युवा	-11.5266
ism	-11.5266
▁अपेक्षा	-11.5266
▁cess	-11.5266
▁पार्क	-11.5266
▁Manohar	-11.5266
▁alert	-11.5266
▁गुना	-11.5266
▁success	-11.5266
▁प्रतनधि	-11.5266
▁आधुनिक	-11.5266
▁रिजर्व	-11.5266
▁निधि	-11.5266
▁drop	-11.5266
▁बंगला	-11.5266
▁Broad	-11.5266
▁Shanker	-11.5266
▁BÉEÉaÉÇ	-11.5266
▁panchayat	-11.5266
▁AJIT	-11.5266
▁Ahir	-11.5266
▁BIJOY	-11.5266
▁Bikaner	-11.5266
▁CIVIL	-11.5266
▁COMMERCE	-11.5266
▁CUTTACK	-11.5266
▁Chinese	-11.5266
▁Disapproval	-11.5266
▁Electrification	-11.5266
▁FRANCIS	-11.5266
▁GUPTA	-11.5266
▁Hannan	-11.5266
▁Integrated	-11.5266
▁Jaunpur	-11.5266
▁Judiciary	-11.5266
▁KYNDIAH	-11.5266
▁Katihar	-11.5266
▁Khaire	-11.5266
▁Kharabela	-11.5266
▁Kishore	-11.5266
▁MAYILADUTURAI	-11.5266
▁Mishra	-11.5266
▁Moradabad	-11.5266
▁NARAYANASAMY	-11.5266
▁NAVEEN	-11.5266
▁Nanavati	-11.5266
▁Nitish	-11.5266
▁Nuclear	-11.5266
▁Palanpur	-11.5266
▁Panel	-11.5266
▁Prabodh	-11.5266
▁RAJIV	-11.5266
▁RAMADASS	-11.5266
▁RENUKA	-11.5266
▁Rajdhani	-11.5266
▁Refinery	-11.5266
▁Relating	-11.5266
▁SUBBARAMI	-11.5266
▁Secretariat	-11.5266
▁Societies	-11.5266
▁TRANSPORT	-11.5266
▁Trichy	-11.5266
▁Tripathy	-11.5266
▁VILAS	-11.5266
▁Valley	-11.5266
▁Virudhunagar	-11.5266
▁appellate	-11.5266
▁applied	-11.5266
▁carbon	-11.5266
▁categories	-11.5266
▁changing	-11.5266
▁composite	-11.5266
▁comprising	-11.5266
▁contractual	-11.5266
▁cultural	-11.5266
▁degree	-11.5266
▁disabled	-11.5266
▁edible	-11.5266
▁havoc	-11.5266
▁hurt	-11.5266
▁iqfyl	-11.5266
▁lafLFkr	-11.5266
▁mainstream	-11.5266
▁outbreak	-11.5266
▁perspective	-11.5266
▁possibility	-11.5266
▁preliminary	-11.5266
▁query	-11.5266
▁silent	-11.5266
▁societies	-11.5266
▁statutory	-11.5266
▁stipulated	-11.5266
▁stringent	-11.5266
▁surplus	-11.5266
▁terminal	-11.5266
▁twice	-11.5266
▁unorganized	-11.5266
▁urea	-11.5266
▁variety	-11.5266
▁àÉÉxÉxÉÉÒaÉ	-11.5266
▁ãÉÉJÉ	-11.5266
▁ãÉäÉÊBÉExÉ	-11.5266
▁अटैंशन	-11.5266
▁अतएव	-11.5266
▁अधिसूचना	-11.5266
▁आधिकारिक	-11.5266
▁आलोक	-11.5266
▁उत्थान	-11.5266
▁उपेक्षा	-11.5266
▁उल्लिखित	-11.5266
▁एजेंसी	-11.5266
▁कतिपय	-11.5266
▁खिलवाड़	-11.5266
▁गेहलोत	-11.5266
▁घाघरा	-11.5266
▁चंद्रकांत	-11.5266
▁चतुर्भुज	-11.5266
▁चम्पारण	-11.5266
▁जनवरी	-11.5266
▁जिलाधिकारी	-11.5266
▁ज्ञापन	-11.5266
▁तरीका	-11.5266
▁थावरचन्द	-11.5266
▁दुरुपयोग	-11.5266
▁धीरे	-11.5266
▁नर्मदा	-11.5266
▁नवम्बर	-11.5266
▁पम्प	-11.5266
▁पुन्नू	-11.5266
▁प्रहलाद	-11.5266
▁बनासकांठा	-11.5266
▁भारतवर्ष	-11.5266
▁महराजगंज	-11.5266
▁महामहिम	-11.5266
▁मामूली	-11.5266
▁रिलीफ	-11.5266
▁रिसर्च	-11.5266
▁व्यावसायिक	-11.5266
▁शुद्ध	-11.5266
▁संतुलित	-11.5266
▁सजीवन	-11.5266
▁सोमैया	-11.5266
▁स्थाई	-11.5266
▁हरदोई	-11.5266
▁हालांकि	-11.5266
▁हिंसा	-11.5266
▁Bilaspur	-11.5266
▁Executive	-11.5266
▁Housing	-11.5266
▁TRAI	-11.5266
▁convenience	-11.5266
▁vacant	-11.5266
▁जाधव	-11.5266
▁दासगुप्त	-11.5266
▁शताब्दी	-11.5266
▁सिन्हा	-11.5266
ÉcÖiÉ	-11.5266
▁blockade	-11.5266
▁combination	-11.5266
▁heritage	-11.5266
▁indeed	-11.5266
▁असंतोष	-11.5266
▁किरीट	-11.5266
▁नरेन्द्र	-11.5266
▁भेदभाव	-11.5266
▁सैक्रेटरी	-11.5266
▁KARUNAKARAN	-11.5266
▁complainant	-11.5266
▁participation	-11.5266
▁अधिग्रहण	-11.5266
▁कगार	-11.5266
▁चाहूंगी	-11.5266
▁शुरूआत	-11.5266
▁संशोधित	-11.5266
▁Probably	-11.5266
▁Sugar	-11.5266
▁रेडियो	-11.5266
▁anniversary	-11.5266
▁बालाघाट	-11.5266
▁राजेन्द्र	-11.5266
▁Tehelka	-11.5266
▁often	-11.5266
▁क्रासिंग	-11.5266
▁approximately	-11.5266
▁committing	-11.5266
▁distinction	-11.5266
▁एडजर्नमेंट	-11.5266
▁Bharatiya	-11.5267
▁Joshi	-11.5267
▁अपेक्षित	-11.5267
▁पाटिल	-11.5267
▁प्राइस	-11.5267
▁०६	-11.5267
▁सचिव	-11.5267
▁चुनौती	-11.5267
▁Coimbatore	-11.5267
▁सलाह	-11.5267
▁Mirzapur	-11.5267
▁नीतियाँ	-11.5267
▁राजभर	-11.5267
▁उतनी	-11.5267
▁Goyal	-11.5267
▁तमिलनाडु	-11.5267
▁gq	-11.5267
▁पुष्कर	-11.5267
▁महाले	-11.5267
▁BIFR	-11.5267
▁commentary	-11.5267
▁Classes	-11.5267
▁globalisation	-11.5267
▁सम्पत्ति	-11.5267
▁आरक्षित	-11.5267
▁1963	-11.5267
▁संपूर्ण	-11.5267
▁मालिकों	-11.5267
▁Presiding	-11.5267
▁fallen	-11.5267
▁आवाज	-11.5267
▁पूछिए	-11.5267
▁1949	-11.5267
▁Kota	-11.5267
▁चाहेंगे	-11.5267
▁KHAN	-11.5267
▁सुनवाई	-11.5267
▁iÉBÉE	-11.5267
▁MURTHI	-11.5267
▁NSFDC	-11.5267
▁Package	-11.5267
▁व्यास	-11.5267
▁शाजापुर	-11.5267
▁करवाया	-11.5267
▁Annexure	-11.5267
▁guided	-11.5267
▁दिखाया	-11.5267
▁Drought	-11.5267
▁गुजरने	-11.5267
▁Marketing	-11.5267
▁जोड़कर	-11.5267
▁चौक	-11.5267
▁सरोज	-11.5267
▁subsidised	-11.5267
▁Customs	-11.5267
▁strictly	-11.5267
▁Coming	-11.5267
▁गोपालगंज	-11.5267
▁गौरव	-11.5268
▁दिलाया	-11.5268
▁हटाने	-11.5268
▁empowered	-11.5268
▁Laluji	-11.5268
▁विशेषज्ञों	-11.5268
▁Ward	-11.5268
▁powerful	-11.5268
▁subsequently	-11.5268
▁मुसलमानों	-11.5268
▁तर्ज	-11.5268
▁enacted	-11.5268
▁bothered	-11.5268
▁पालनपुर	-11.5268
▁ईस्ट	-11.5268
han	-11.5268
▁famous	-11.5268
▁सफलता	-11.5268
▁verify	-11.5268
▁डदन	-11.5269
▁GENERAL	-11.5269
▁MIDNAPORE	-11.5269
▁चाय	-11.5269
▁उठाते	-11.5269
▁आसानी	-11.5269
▁अपीलीय	-11.5269
▁पाते	-11.5269
▁भेजने	-11.5269
▁offered	-11.5269
▁teaching	-11.5269
▁cultivators	-11.5269
▁guidelines	-11.5269
▁Minutes	-11.5269
▁न्यायिक	-11.5269
▁substantially	-11.527
▁advised	-11.527
▁formulated	-11.527
▁घटन	-11.527
▁ALI	-11.527
▁ITDP	-11.527
▁रामजी	-11.5271
▁Undertakings	-11.5271
▁एक्शन	-11.5271
▁witnessing	-11.5271
▁voluntary	-11.5272
▁tabled	-11.5272
▁बीना	-11.5272
▁badly	-11.5273
▁turned	-11.5273
▁elements	-11.5273
▁implications	-11.5273
▁मिलाकर	-11.5273
▁honoured	-11.5274
▁मील	-11.5274
▁बनकर	-11.5274
▁TV	-11.5275
▁मपन	-11.5275
▁features	-11.5275
▁विपक्षी	-11.5276
▁mid	-11.5276
▁JM	-11.5276
▁briefly	-11.5276
▁City	-11.5276
▁कश्मीरी	-11.5277
▁negotiations	-11.5277
▁regulations	-11.5277
▁जिसने	-11.5278
▁कहकर	-11.5278
▁components	-11.5279
▁involves	-11.5279
▁Within	-11.5279
▁तीय	-11.5279
▁घरों	-11.5279
▁राशिद	-11.5279
▁appreciated	-11.528
▁flights	-11.5281
▁reaching	-11.5281
▁बैठने	-11.5281
▁gains	-11.5281
▁दकय	-11.5281
▁Working	-11.5282
▁वपत	-11.5283
▁बीत	-11.5284
▁कड़ी	-11.5284
04	-11.5284
▁नगरी	-11.5284
▁farm	-11.5284
▁करानी	-11.5285
▁सुनी	-11.5286
▁zones	-11.5291
▁Jal	-11.5291
▁Dated	-11.5292
▁seeds	-11.5292
▁projected	-11.5293
▁उपचार	-11.5294
▁कहे	-11.5295
▁adding	-11.5297
▁वनों	-11.53
▁Trains	-11.53
▁घटा	-11.53
▁eyes	-11.5301
▁tourists	-11.5302
▁7.	-11.5303
▁amending	-11.5304
▁तेज	-11.5306
▁ीय	-11.5307
▁mis	-11.531
ÉA	-11.5311
▁named	-11.5313
▁(2007	-11.5314
▁initiatives	-11.5314
13]	-11.5314
▁आरा	-11.5317
▁lease	-11.5319
▁कानूनी	-11.532
▁Am	-11.533
तक	-11.5344
▁(14	-11.5352
▁66	-11.5356
▁300	-11.5359
▁millions	-11.536
▁seeing	-11.5364
▁creates	-11.5378
▁उत्तरी	-11.5382
31	-11.5386
▁speaks	-11.5389
▁भरे	-11.539
▁130	-11.539
]®	-11.5407
▁sat	-11.5434
▁omit	-11.5437
▁Schemes	-11.5438
▁पल	-11.5439
▁Centres	-11.546
ÉBÉEä	-11.5464
▁Resolutions	-11.5469
▁वहन	-11.5482
)...	-11.5488
ag	-11.5502
ेंट	-11.5502
▁हा	-11.5508
नस	-11.5523
▁looks	-11.5525
▁शिव	-11.5536
▁Vi	-11.554
ll	-11.5542
▁भूख	-11.5545
▁continues	-11.5546
4]	-11.5569
▁award	-11.5578
पन	-11.5633
▁Multi	-11.5651
ala	-11.5677
03	-11.568
ling	-11.5682
्र	-11.5685
11	-11.5693
▁बढ़ता	-11.5694
esh	-11.5705
हा	-11.5725
▁दु	-11.5735
▁notes	-11.5764
▁टेस्ट	-11.5794
àÉä	-11.581
झ	-11.5816
▁खा	-11.5828
▁अनु	-11.5833
▁thinks	-11.5859
35	-11.5862
id	-11.5866
यर	-11.5868
▁री	-11.5877
िं	-11.5878
ेड	-11.5893
▁125	-11.5894
▁RAVI	-11.5932
्ा	-11.5938
▁_______	-11.5957
land	-11.5971
▁Nil	-11.5987
ped	-11.5996
▁शम	-11.6003
▁ha	-11.6009
tic	-11.604
▁z	-11.6056
▁350	-11.6057
▁AC	-11.6085
▁अन्त	-11.6105
ÉÉMÉ	-11.6106
▁sa	-11.6115
र्ट	-11.612
▁ad	-11.612
▁requests	-11.6138
HA	-11.6144
▁2008,	-11.6156
▁शोध	-11.6156
तन	-11.6166
ूंगा	-11.6169
ाएंगे	-11.6176
As	-11.6203
▁दिला	-11.621
CIT	-11.6211
▁डब्ल्यू	-11.6217
▁सस	-11.6221
▁attend	-11.6238
▁fail	-11.6239
▁exist	-11.624
▁Bodo	-11.6241
▁ordinance	-11.6241
▁agitation	-11.6241
▁deduction	-11.6241
▁lose	-11.6241
▁fu	-11.6241
▁design	-11.6242
▁master	-11.6242
प्र	-11.6243
▁fundamental	-11.6243
▁Channel	-11.6243
▁Principal	-11.6243
रो	-11.6244
▁detail	-11.6245
▁candidate	-11.6245
▁Standard	-11.6245
▁Hundred	-11.6246
▁Passenger	-11.6246
▁restriction	-11.6247
▁merit	-11.6247
▁undertaking	-11.6247
▁Problem	-11.6247
▁patient	-11.6247
▁exception	-11.625
पूर्ण	-11.625
▁union	-11.625
▁Nation	-11.6251
Annex	-11.6251
Need	-11.6252
माननीय	-11.6252
साथ	-11.6252
This	-11.6252
सिं	-11.6253
▁enjoy	-11.6259
▁distress	-11.6259
▁वसूल	-11.6259
▁insist	-11.626
nä	-11.6261
▁Protect	-11.6261
▁AR	-11.6261
▁ऐस	-11.6262
▁Front	-11.6262
▁Increase	-11.6263
▁Bhojpur	-11.6263
▁rape	-11.6263
▁discharge	-11.6263
▁plea	-11.6264
▁authenticate	-11.6264
▁Allocate	-11.6264
▁determine	-11.6264
▁अल्पसंख्यक	-11.6264
▁cite	-11.6264
▁blind	-11.6264
▁load	-11.6264
▁constructive	-11.6265
▁Certain	-11.6265
▁continuous	-11.6265
▁careful	-11.6265
▁cash	-11.6265
▁राइट	-11.6265
▁मृतक	-11.6265
▁RAILWAY	-11.6266
▁करवाये	-11.6266
▁recollect	-11.6266
▁ठेकेदार	-11.6266
▁conscious	-11.6266
▁कठिन	-11.6266
▁सुरेन्द्र	-11.6266
▁एडजर्न	-11.6266
▁Anant	-11.6266
▁safe	-11.6266
▁दुर्भाग्य	-11.6266
▁तीर्थ	-11.6266
GARHWAL	-11.6266
▁AGRICULTURE	-11.6266
▁AJNALA	-11.6266
▁ALLEPPEY	-11.6266
▁Absence	-11.6266
▁Ajoy	-11.6266
▁Ambassador	-11.6266
▁Aurangabad	-11.6266
▁Baalu	-11.6266
▁BÉEÉxÉÚxÉ	-11.6266
▁Caused	-11.6266
▁Chowdhary	-11.6266
▁Complete	-11.6266
▁Criminal	-11.6266
▁Fatehpur	-11.6266
▁Gowda	-11.6266
▁Growers	-11.6266
▁HIGHWAYS	-11.6266
▁JALAPPA	-11.6266
▁Jabalpur	-11.6266
▁Killing	-11.6266
▁Language	-11.6266
▁Lpg	-11.6266
▁MANMOHAN	-11.6266
▁MANOJ	-11.6266
▁Minorities	-11.6266
▁Narmada	-11.6266
▁Ninth	-11.6266
▁PARANJPE	-11.6266
▁PATHAK	-11.6266
▁PRABHU	-11.6266
▁PRIME	-11.6266
▁Processing	-11.6266
▁RATTAN	-11.6266
▁ROAD	-11.6266
▁Raghunath	-11.6266
▁Remunerative	-11.6266
▁SHIV	-11.6266
▁Sometimes	-11.6266
▁Sorry	-11.6266
▁Task	-11.6266
▁Trivandrum	-11.6266
▁VISAKHAPATNAM	-11.6266
▁Yamuna	-11.6266
▁assigned	-11.6266
▁associating	-11.6266
▁auction	-11.6266
▁averred	-11.6266
▁background	-11.6266
▁belief	-11.6266
▁cattle	-11.6266
▁chamber	-11.6266
▁choose	-11.6266
▁coalition	-11.6266
▁commencing	-11.6266
▁contended	-11.6266
▁ensuring	-11.6266
▁entities	-11.6266
▁evaluation	-11.6266
▁facie	-11.6266
▁ftyk	-11.6266
▁independence	-11.6266
▁indulgence	-11.6266
▁injuries	-11.6266
▁intelligence	-11.6266
▁okafNr	-11.6266
▁ordinary	-11.6266
▁plenty	-11.6266
▁purview	-11.6266
▁remedy	-11.6266
▁sponsored	-11.6266
▁thrust	-11.6266
▁twenty	-11.6266
▁upgradation	-11.6266
▁virtue	-11.6266
▁vuqlkj	-11.6266
▁अतधक	-11.6266
▁अस्तित्व	-11.6266
▁आरंभ	-11.6266
▁इंश्योरेंस	-11.6266
▁इलियास	-11.6266
▁उन्हीं	-11.6266
▁ऊंची	-11.6266
▁एशिया	-11.6266
▁कच्चे	-11.6266
▁कटियार	-11.6266
▁खारबेल	-11.6266
▁गतवधियों	-11.6266
▁चटर्जी	-11.6266
▁जीविका	-11.6266
▁तलाश	-11.6266
▁तादाद	-11.6266
▁दामोदर	-11.6266
▁दूरसंचार	-11.6266
▁धमकी	-11.6266
▁नधपनत	-11.6266
▁निर्दोष	-11.6266
▁नौकरियों	-11.6266
▁पद्धति	-11.6266
▁परामर्श	-11.6266
▁फाईल	-11.6266
▁बिजनेस	-11.6266
▁बिश्नोई	-11.6266
▁भुखमरी	-11.6266
▁मनमाड	-11.6266
▁मिनिमम	-11.6266
▁मेजर	-11.6266
▁यशवंत	-11.6266
▁रिक्वैस्ट	-11.6266
▁रियासत	-11.6266
▁लम्बी	-11.6266
▁विकल्प	-11.6266
▁शिलान्यास	-11.6266
▁शिवनकर	-11.6266
▁शेखपुरा	-11.6266
▁शौचालय	-11.6266
▁संपर्क	-11.6266
▁सत्यव्रत	-11.6266
▁सब्जी	-11.6266
▁सर्विस	-11.6266
▁सर्वोच्च	-11.6266
▁सांस्कृतिक	-11.6266
▁सैंकड़ों	-11.6266
▁सोमवार	-11.6266
▁हरिद्वार	-11.6266
▁हार्दिक	-11.6266
▁Administrative	-11.6266
▁Amreli	-11.6266
▁Champaran	-11.6266
▁Community	-11.6266
▁Hansraj	-11.6266
▁climate	-11.6266
▁cotton	-11.6266
▁ongoing	-11.6266
▁rajya	-11.6266
▁अय्यर	-11.6266
▁रणनीति	-11.6266
▁सरसों	-11.6266
,1998	-11.6266
▁Bhawan	-11.6266
▁Computerised	-11.6266
▁HARIN	-11.6266
▁Swaraj	-11.6266
▁cancer	-11.6266
▁stake	-11.6266
▁शाखा	-11.6266
▁Ruling	-11.6266
▁Suspension	-11.6266
▁चक्र	-11.6266
▁बीपीएल	-11.6266
▁Judev	-11.6266
▁logic	-11.6266
▁एग्रीमेंट	-11.6266
▁चंडीगढ़	-11.6266
▁cheaper	-11.6266
▁कठोर	-11.6266
▁बढ़ोतरी	-11.6266
▁स्वर्णिम	-11.6266
▁Jalaun	-11.6266
▁supplementary	-11.6266
▁forged	-11.6266
▁iron	-11.6266
▁निजात	-11.6266
▁dynamic	-11.6266
▁अनधवक	-11.6266
▁dropped	-11.6266
▁Would	-11.6266
▁अलीगढ़	-11.6266
▁नदियां	-11.6266
▁darkness	-11.6267
▁hunger	-11.6267
▁iÉlÉÉ	-11.6267
▁normalcy	-11.6267
▁entrusted	-11.6267
▁inflicted	-11.6267
▁retarded	-11.6267
▁मलियन	-11.6267
▁मार्केटिंग	-11.6267
▁Revised	-11.6267
▁fought	-11.6267
▁उल्लंघन	-11.6267
▁दर्शाता	-11.6267
▁हथकरघा	-11.6267
▁participating	-11.6267
▁violating	-11.6267
▁Vice	-11.6267
▁tenure	-11.6267
▁महतो	-11.6267
▁Kurup	-11.6267
▁०२	-11.6267
▁Share	-11.6267
▁selection	-11.6267
▁porters	-11.6267
▁बहुल	-11.6267
▁मशीन	-11.6267
▁Population	-11.6267
▁दावा	-11.6267
▁disallowed	-11.6267
▁launched	-11.6267
▁recognized	-11.6267
▁Lord	-11.6267
▁बस्ती	-11.6267
▁पुराना	-11.6267
▁बताएंगे	-11.6267
▁सुविधायें	-11.6267
▁अन्यथा	-11.6267
▁violated	-11.6267
▁गुजरती	-11.6267
▁Agarwal	-11.6267
▁levelled	-11.6267
▁माफिया	-11.6267
▁Mollah	-11.6267
▁सरदार	-11.6267
▁transportation	-11.6267
▁लैटर	-11.6267
nagar	-11.6267
▁mentally	-11.6267
▁plaint	-11.6267
▁बीड़ी	-11.6267
▁feed	-11.6267
▁refused	-11.6267
▁दौरा	-11.6267
▁सुनूंगा	-11.6267
▁rally	-11.6267
▁चोरी	-11.6267
▁तत्कालीन	-11.6267
▁esteemed	-11.6267
▁cÚÆ	-11.6267
▁residing	-11.6267
▁मिर्जापुर	-11.6267
▁मुंगेर	-11.6267
▁यािपत	-11.6267
▁सूचित	-11.6267
▁एकमात्र	-11.6267
▁चुरू	-11.6267
▁Which	-11.6267
▁Sec	-11.6267
▁व्यवस्थित	-11.6267
▁recognised	-11.6267
▁मैडम	-11.6267
▁JHA	-11.6267
▁Tomorrow	-11.6267
▁सुनिये	-11.6267
▁सिद्ध	-11.6267
▁सस्ते	-11.6267
▁Been	-11.6267
▁पिछड़ी	-11.6267
▁प्रशासनिक	-11.6268
▁restricted	-11.6268
▁उठकर	-11.6268
▁राजगढ़	-11.6268
▁फुट	-11.6268
▁agriculturists	-11.6268
▁busy	-11.6268
▁1954	-11.6268
▁LAL	-11.6268
▁dry	-11.6268
▁mixed	-11.6268
▁thrown	-11.6268
▁obviously	-11.6268
▁successfully	-11.6268
▁Rani	-11.6268
▁पैरा	-11.6268
▁दुर्घटनाएं	-11.6268
▁communicated	-11.6268
▁शर्मा	-11.6268
▁adversely	-11.6268
▁earnestly	-11.6268
▁Chairmen	-11.6268
19]	-11.6268
▁Barq	-11.6268
▁Mines	-11.6268
▁Maybe	-11.6268
▁सुविधाएँ	-11.6268
▁delivery	-11.6268
▁परियोजनाएं	-11.6268
▁विहार	-11.6268
▁grown	-11.6269
▁मेले	-11.6269
▁educated	-11.6269
▁ignored	-11.6269
▁Cola	-11.6269
▁regularly	-11.6269
▁बनेगा	-11.6269
▁करायें	-11.6269
▁मालेगांव	-11.6269
▁पूर्ति	-11.6269
▁Laying	-11.6269
▁मानता	-11.6269
▁Profit	-11.6269
▁Old	-11.6269
12]	-11.6269
▁समानता	-11.6269
▁देखना	-11.6269
▁खरीदने	-11.6269
24]	-11.6269
▁लेबर	-11.627
▁reserved	-11.627
▁invited	-11.627
▁unanimously	-11.627
10]	-11.627
▁resolved	-11.627
TMS	-11.6271
▁सकेगी	-11.6271
▁anger	-11.6271
▁someone	-11.6271
▁बताने	-11.6271
▁घटी	-11.6271
▁visual	-11.6271
▁lesser	-11.6271
▁टेक	-11.6271
▁Deve	-11.6271
▁भवनों	-11.6271
▁pharmaceuticals	-11.6272
▁ट्रेनें	-11.6272
23]	-11.6272
▁admit	-11.6272
▁fees	-11.6272
▁कपास	-11.6272
▁खेलों	-11.6272
▁कहती	-11.6273
▁connecting	-11.6273
▁pressing	-11.6273
▁उपजस	-11.6273
▁प्रतिस्थापित	-11.6273
▁advanced	-11.6273
▁Col	-11.6273
▁मिलाने	-11.6274
Ch	-11.6274
▁चरणों	-11.6274
▁refugees	-11.6274
▁entering	-11.6274
▁oÉBÉEä	-11.6274
▁finished	-11.6274
▁अवल	-11.6275
▁मिलते	-11.6276
▁presentation	-11.6276
▁joined	-11.6277
▁बीमार	-11.6277
▁admissible	-11.6277
▁ÉÊàÉãÉ	-11.6278
▁प्राप्ति	-11.6278
▁चलना	-11.6278
▁(7)	-11.6279
▁condemning	-11.6279
▁वाद	-11.6279
▁checked	-11.628
▁inputs	-11.628
▁धकरण	-11.6281
▁एवम	-11.6281
▁राजा	-11.6282
▁cards	-11.6282
▁अवस्थित	-11.6282
▁ABÉD	-11.6283
▁correctly	-11.6283
▁किलो	-11.6283
▁contd	-11.6284
▁deserves	-11.6285
▁aims	-11.6285
▁colleges	-11.6285
▁earnings	-11.6285
मन	-11.6285
▁कायम	-11.6285
▁लेता	-11.6286
▁ननक	-11.6286
▁DG	-11.6286
▁visiting	-11.6286
▁आयोजन	-11.6291
8]	-11.6292
बल	-11.6292
▁होंगी	-11.6293
▁grievances	-11.6293
rs	-11.6293
▁भम	-11.6294
▁०	-11.6294
▁Be	-11.6295
▁fertilizers	-11.6295
▁platforms	-11.6295
▁वाई	-11.6297
▁राजमार्गों	-11.6297
▁खत	-11.6297
▁Zones	-11.6297
▁पति	-11.6301
▁represents	-11.6302
▁साथियों	-11.6302
▁प्रतिवेदनों	-11.6302
▁Mahal	-11.6303
▁survive	-11.6304
▁रकम	-11.6305
▁helped	-11.6305
▁दरों	-11.6306
▁भूल	-11.6306
▁बोली	-11.6306
▁responding	-11.6307
▁कार	-11.6307
▁२९	-11.6312
▁upset	-11.6312
▁arises	-11.6312
▁भीड़	-11.6314
▁गज	-11.6314
▁वधि	-11.6315
▁towns	-11.6317
ैक	-11.6318
11]	-11.6319
▁attempts	-11.6319
▁1956:	-11.6321
▁affects	-11.6323
▁sorts	-11.6325
▁बैठी	-11.6331
▁मह	-11.6333
▁materials	-11.6334
▁खोज	-11.6334
▁पनत	-11.6338
▁862	-11.6347
▁सत्य	-11.6353
▁षव	-11.6355
▁AN	-11.6357
▁5%	-11.6365
▁Ba	-11.6366
▁कामों	-11.6381
▁Ordinances	-11.6381
▁Justices	-11.6386
टा	-11.6387
▁references	-11.6388
▁भारती	-11.6389
isation	-11.639
▁Offices	-11.6394
क्स	-11.6394
▁payments	-11.6397
▁examples	-11.6407
▁गहरा	-11.6411
▁Al	-11.6425
।(	-11.6425
▁timely	-11.6447
▁दह	-11.6448
▁जोर	-11.6452
▁recording	-11.6452
▁वत	-11.646
▁Sam	-11.6469
ting	-11.6479
um	-11.6482
▁mentions	-11.6488
▁61	-11.6499
▁Rai	-11.6507
▁2(	-11.6525
ैं	-11.6532
▁thanks	-11.6542
tra	-11.6543
▁particulars	-11.6544
▁aam	-11.6549
यथ	-11.6552
up	-11.6573
▁Z	-11.6589
sa	-11.66
▁पोस्ट	-11.6602
▁जुड़	-11.6611
▁kinds	-11.6615
▁आस	-11.664
▁कोने	-11.6652
28	-11.6656
ÉÉVÉ	-11.6669
▁]	-11.6671
्ट	-11.6673
▁सोन	-11.6677
▁२१	-11.6683
नों	-11.6699
30	-11.6707
ip	-11.6712
▁दश	-11.6723
▁TH	-11.6724
ड़ी	-11.6749
ÉàÉ	-11.675
िला	-11.676
)"	-11.676
ated	-11.6774
▁Gu	-11.6782
▁Cha	-11.6785
▁मांगें	-11.6786
▁फोर्स	-11.6788
ow	-11.6796
▁पू	-11.6821
▁विधि	-11.6827
▁ma	-11.6832
ara	-11.6846
▁______________	-11.6851
▁plane	-11.6873
à	-11.6886
▁"(	-11.6891
▁फैल	-11.6926
▁Se	-11.6946
▁se	-11.6955
7]	-11.6958
▁बारह	-11.6959
23	-11.6995
धि	-11.6996
▁बाग	-11.7006
▁मि	-11.7017
do	-11.7029
▁94	-11.7036
▁MÉ	-11.7049
▁fo	-11.7056
SS	-11.7057
रोध	-11.7077
ूर	-11.7078
ence	-11.7078
▁97	-11.7079
▁àÉ	-11.7086
000/	-11.7097
▁2000,	-11.7105
वह	-11.7106
▁सुख	-11.7123
तल	-11.7127
ON	-11.7138
als	-11.7145
(1)(	-11.7145
▁ho	-11.7146
▁पप	-11.7146
elecommunication	-11.7147
▁उत	-11.7156
▁pathetic	-11.7166
PO	-11.7185
▁चौ	-11.7188
▁red	-11.7196
de	-11.7201
▁पित	-11.7215
àÉ	-11.7218
▁वो	-11.7218
MÉÉÊ	-11.722
▁झ	-11.7233
सस	-11.7261
िटी	-11.7265
ष्ट	-11.7283
oo	-11.7285
▁मध	-11.7304
▁मना	-11.7306
▁बनाएं	-11.7313
▁1956	-11.7319
मल	-11.7332
▁AY	-11.7342
नाथ	-11.7342
ca	-11.7343
▁prohibit	-11.7346
▁contain	-11.7349
▁800	-11.7351
▁commit	-11.7352
▁conflict	-11.7352
▁corner	-11.7352
▁textile	-11.7352
▁prayer	-11.7352
कारी	-11.7354
▁define	-11.7354
▁margin	-11.7354
(2)	-11.7354
▁circular	-11.7354
▁sphere	-11.7354
▁Tata	-11.7355
▁explosive	-11.7355
▁signature	-11.7356
▁foundation	-11.7356
▁relate	-11.7356
▁Interest	-11.7356
▁limitation	-11.7356
▁device	-11.7356
▁employer	-11.7356
▁Case	-11.7356
▁extremist	-11.7356
▁multinational	-11.7357
▁daughter	-11.7357
▁wagon	-11.7357
▁college	-11.7357
▁cadre	-11.7357
▁tribe	-11.7358
▁reform	-11.7358
▁shop	-11.7358
▁tonne	-11.7358
▁driver	-11.7359
▁Rate	-11.7361
Fld	-11.7361
▁समब	-11.7362
Published	-11.7362
Contd	-11.7362
देवरिया	-11.7363
▁en	-11.7363
40	-11.7363
▁km	-11.7365
ising	-11.7366
▁earning	-11.7366
▁गौर	-11.7369
▁invest	-11.737
▁reject	-11.7371
▁kill	-11.7371
▁agro	-11.7372
▁15,000	-11.7372
▁match	-11.7372
▁Sixteen	-11.7372
▁combat	-11.7373
▁अनुकूल	-11.7374
▁drive	-11.7374
▁बरबाद	-11.7374
▁नक्सलवाद	-11.7374
▁reconsider	-11.7374
▁Present	-11.7374
▁फाटक	-11.7374
▁खुशहाल	-11.7374
▁exploit	-11.7375
▁regulate	-11.7375
▁अंचल	-11.7375
▁ignore	-11.7375
▁enlighten	-11.7375
▁disclose	-11.7375
▁मेडिकल	-11.7375
▁incorporate	-11.7375
▁dispose	-11.7375
▁realise	-11.7375
▁BIHAR	-11.7375
▁adverse	-11.7376
▁subsequent	-11.7376
▁डॉक्टर	-11.7376
▁sudden	-11.7376
▁आसान	-11.7376
▁schedule	-11.7376
MENT	-11.7376
▁earnest	-11.7376
▁तीव्र	-11.7376
▁undertake	-11.7376
▁अमेंडमेंट	-11.7377
▁पश्चात	-11.7377
▁ढ	-11.7377
▁अनुशंसा	-11.7377
▁बाधा	-11.7377
▁prima	-11.7377
▁गिरफ्तार	-11.7377
▁नधा	-11.7377
▁Agra	-11.7377
lidation	-11.7377
▁Prabhu	-11.7377
▁व्याख्या	-11.7377
▁स्वर्ण	-11.7377
μ	-11.7377
▁कौशल	-11.7377
▁BSNL	-11.7377
▁PREM	-11.7377
▁cricket	-11.7377
▁custody	-11.7377
▁AIADMK	-11.7378
▁Acute	-11.7378
▁Arjun	-11.7378
▁BANGALORE	-11.7378
▁BANGARAPPA	-11.7378
▁BERHAMPORE	-11.7378
▁Beedi	-11.7378
▁Bhubaneshwar	-11.7378
▁Century	-11.7378
▁Chattisgarh	-11.7378
▁Chouhan	-11.7378
▁Churu	-11.7378
▁Closure	-11.7378
▁Contained	-11.7378
▁DASMUNSHI	-11.7378
▁DHANANJAYA	-11.7378
▁DUSHYANT	-11.7378
▁Effective	-11.7378
▁Either	-11.7378
▁Encephalitis	-11.7378
▁FDI	-11.7378
▁Fundamental	-11.7378
▁Girdhari	-11.7378
▁HIV	-11.7378
▁Half	-11.7378
▁Heavy	-11.7378
▁INDUSTRY	-11.7378
▁Intelligence	-11.7378
▁Investment	-11.7378
▁Jagannath	-11.7378
▁Jalpaiguri	-11.7378
▁Jhansi	-11.7378
▁Judgment	-11.7378
▁Kolhapur	-11.7378
▁Kyoto	-11.7378
▁Local	-11.7378
▁MIRYALGUDA	-11.7378
▁Madhusudan	-11.7378
▁Mahurkar	-11.7378
▁Malaria	-11.7378
▁Manamadurai	-11.7378
▁Next	-11.7378
▁Ownership	-11.7378
▁PASWAN	-11.7378
▁PETITION	-11.7378
▁PRATAP	-11.7378
▁Proposed	-11.7378
▁Protocol	-11.7378
▁Rifles	-11.7378
▁SABHA	-11.7378
▁SENGUPTA	-11.7378
▁SWAMY	-11.7378
▁Sagar	-11.7378
▁Saheb	-11.7378
▁Santosh	-11.7378
▁Shourie	-11.7378
▁TIRUNELVELI	-11.7378
▁Ultimately	-11.7378
▁VENKATESWARLU	-11.7378
▁Varanasi	-11.7378
▁Written	-11.7378
▁acute	-11.7378
▁apologise	-11.7378
▁assumption	-11.7378
▁backlog	-11.7378
▁beautiful	-11.7378
▁compulsion	-11.7378
▁conscience	-11.7378
▁constituencies	-11.7378
▁derogatory	-11.7378
▁disciplinary	-11.7378
▁discriminatory	-11.7378
▁driving	-11.7378
▁eligible	-11.7378
▁elsewhere	-11.7378
▁emergency	-11.7378
▁enormous	-11.7378
▁episode	-11.7378
▁exemplary	-11.7378
▁extremism	-11.7378
▁fifth	-11.7378
▁fraud	-11.7378
▁guillotine	-11.7378
▁ideology	-11.7378
▁imperative	-11.7378
▁imposing	-11.7378
▁indulging	-11.7378
▁juncture	-11.7378
▁languishing	-11.7378
▁liabilities	-11.7378
▁mandatory	-11.7378
▁obliged	-11.7378
▁overcome	-11.7378
▁pattern	-11.7378
▁perishable	-11.7378
▁prestige	-11.7378
▁prone	-11.7378
▁relevance	-11.7378
▁restoration	-11.7378
▁satisfy	-11.7378
▁southern	-11.7378
▁struck	-11.7378
▁supreme	-11.7378
▁teeth	-11.7378
▁transparent	-11.7378
▁अकेले	-11.7378
▁अचानक	-11.7378
▁अड्डे	-11.7378
▁अवकाश	-11.7378
▁अविलंब	-11.7378
▁उर्दू	-11.7378
▁एनडीए	-11.7378
▁कच्चा	-11.7378
▁कब्जा	-11.7378
▁कर्तव्य	-11.7378
▁कांतिलाल	-11.7378
▁कि०मी०	-11.7378
▁क्रियान्वित	-11.7378
▁क्वालिटी	-11.7378
▁खतरनाक	-11.7378
▁ख्याल	-11.7378
▁गठित	-11.7378
▁गतिविधियों	-11.7378
▁गरिडीह	-11.7378
▁गार्ड	-11.7378
▁चिंतित	-11.7378
▁चेन्नई	-11.7378
▁जहाज	-11.7378
▁जेटली	-11.7378
▁टूरिज्म	-11.7378
▁डाउन	-11.7378
▁डिसकशन	-11.7378
▁डुमरियागंज	-11.7378
▁डेयरी	-11.7378
▁तालुका	-11.7378
▁देखभाल	-11.7378
▁देवराजभाई	-11.7378
▁ध्वस्त	-11.7378
▁नागभीड़	-11.7378
▁नेहरू	-11.7378
▁परसेन्ट	-11.7378
▁पहाड़ियों	-11.7378
▁पुनर्गठन	-11.7378
▁प्रोत्साहित	-11.7378
▁प्रोवीजन	-11.7378
▁बनर्जी	-11.7378
▁बहिर्गमन	-11.7378
▁बिलकुल	-11.7378
▁बीएसएनएल	-11.7378
▁बैसीमुथियारी	-11.7378
▁भरपाई	-11.7378
▁भावनाबेन	-11.7378
▁मद्देनजर	-11.7378
▁मर्जी	-11.7378
▁मित्रसेन	-11.7378
▁मीणा	-11.7378
▁मुख्यमंत्रियों	-11.7378
▁रिलीज	-11.7378
▁रेवाड़ी	-11.7378
▁वगैरह	-11.7378
▁वाकआउट	-11.7378
▁वैक्सीन	-11.7378
▁वैश्विक	-11.7378
▁व्यतीत	-11.7378
▁शैक्षिक	-11.7378
▁श्रीगंगानगर	-11.7378
▁सक्षम	-11.7378
▁सबसिडी	-11.7378
▁सम्मेलन	-11.7378
▁सम्राट	-11.7378
▁सर्वाधिक	-11.7378
▁सामग्री	-11.7378
▁सुखदेव	-11.7378
▁हरीभाऊ	-11.7378
ष्ट्र	-11.7378
▁Ajit	-11.7378
▁DURGAPUR	-11.7378
▁Narendra	-11.7378
▁PURI	-11.7378
▁Summit	-11.7378
▁आर्टिकल	-11.7378
▁ओवरब्रिज	-11.7378
▁बेल्लारी	-11.7378
▁महादेवराव	-11.7378
▁सब्जैक्ट	-11.7378
▁Duty	-11.7378
▁Kalyan	-11.7378
▁oath	-11.7378
▁requisite	-11.7378
▁ट्रांसमिशन	-11.7378
▁निराशा	-11.7378
▁भानु	-11.7378
▁Amarnath	-11.7378
▁dwellers	-11.7378
▁painful	-11.7378
▁RUDY	-11.7378
▁meantime	-11.7378
▁rainfall	-11.7378
▁उपलबध	-11.7378
▁फरूखाबाद	-11.7378
▁infrastructural	-11.7378
▁बोझ	-11.7378
▁उम्र	-11.7378
▁कार्यक्षमता	-11.7378
▁seamen	-11.7378
▁ट्रैक्टर	-11.7378
▁Gopal	-11.7378
▁Raniganj	-11.7378
▁Everyday	-11.7378
▁baseless	-11.7378
▁nLrkostksa	-11.7378
▁tkjh	-11.7378
▁शिवहर	-11.7378
▁ekax	-11.7378
▁size	-11.7378
▁अलवी	-11.7378
▁Except	-11.7378
▁अर्जित	-11.7378
▁नांदेड़	-11.7378
▁Rajnath	-11.7378
▁गिना	-11.7378
▁बहुमत	-11.7378
▁Suratgarh	-11.7378
▁scam	-11.7378
▁पूजा	-11.7378
▁प्रोसेसिंग	-11.7378
▁फास्ट	-11.7378
▁immense	-11.7378
▁memory	-11.7378
▁हासिल	-11.7378
▁Karia	-11.7378
▁जरुरत	-11.7378
▁Number	-11.7378
▁आज़मी	-11.7378
▁nå	-11.7378
▁relaxation	-11.7378
ड्ड	-11.7378
▁दागी	-11.7378
▁नरेगा	-11.7378
▁Coalfields	-11.7378
▁बोरिंग	-11.7378
responsibilities	-11.7378
▁Servicemen	-11.7378
▁गरिमा	-11.7378
▁Rashtrapatiji	-11.7378
▁oÉÉlÉ	-11.7378
▁productive	-11.7378
▁dumping	-11.7378
▁संस्थाएं	-11.7378
▁recession	-11.7378
▁मार्क	-11.7378
▁FOR	-11.7378
▁Sardar	-11.7378
▁cutting	-11.7378
▁समस्त	-11.7378
▁Srinagar	-11.7378
▁progressive	-11.7378
▁broken	-11.7378
▁fate	-11.7378
▁मण्डल	-11.7378
DEP	-11.7378
▁राशन	-11.7378
▁executed	-11.7378
▁waiver	-11.7378
▁obey	-11.7378
▁पशुओं	-11.7378
▁simultaneously	-11.7378
▁समस्यायें	-11.7378
▁GOI	-11.7378
▁Navy	-11.7378
▁प्लीज़	-11.7378
▁villagers	-11.7378
▁रोज़	-11.7378
▁शुक्ला	-11.7378
▁manned	-11.7378
▁चुने	-11.7378
▁paise	-11.7378
▁alarming	-11.7378
▁deployed	-11.7378
▁warming	-11.7378
▁adoption	-11.7378
▁servicemen	-11.7378
▁तत्वों	-11.7378
▁Taj	-11.7378
▁Bush	-11.7378
▁619	-11.7378
▁Tehsil	-11.7378
▁earmarked	-11.7378
▁efficiency	-11.7379
▁green	-11.7379
▁उतना	-11.7379
▁BEFORE	-11.7379
▁Fifth	-11.7379
▁Kannur	-11.7379
▁whoever	-11.7379
▁àÉÆjÉÉÒ	-11.7379
▁कश्यप	-11.7379
▁जवाहर	-11.7379
▁बेतिया	-11.7379
▁भिन्न	-11.7379
▁भूतपूर्व	-11.7379
▁युद्ध	-11.7379
▁राजकीय	-11.7379
▁सीबीआई	-11.7379
▁होशियारपुर	-11.7379
▁मास्टर	-11.7379
▁शिक्षकों	-11.7379
▁Harin	-11.7379
▁Indore	-11.7379
▁criticize	-11.7379
▁footing	-11.7379
▁rolling	-11.7379
▁स्टैंडिंग	-11.7379
▁डालने	-11.7379
▁Uday	-11.7379
▁वनिवेश	-11.7379
▁विस्थापितों	-11.7379
▁contributed	-11.7379
▁manufactured	-11.7379
▁demolished	-11.7379
▁attached	-11.7379
▁आस्था	-11.7379
▁1972	-11.7379
▁borrowing	-11.7379
▁Mining	-11.7379
▁शर्तों	-11.7379
▁पूछने	-11.7379
▁prayed	-11.7379
▁०७	-11.7379
▁लीडर्स	-11.7379
▁वोटिंग	-11.7379
▁nÉä	-11.7379
▁Notaries	-11.738
▁flying	-11.738
▁बारिश	-11.738
30]	-11.738
▁invested	-11.738
▁जिनका	-11.738
▁1973	-11.738
▁मारने	-11.738
▁answerable	-11.738
▁Complaint	-11.738
▁क्लास	-11.738
▁दरभंगा	-11.738
▁नैशनल	-11.738
▁महाविद्यालय	-11.738
▁वायु	-11.738
▁nationalised	-11.738
▁किराए	-11.738
▁१९९७	-11.738
▁साहेब	-11.738
▁cited	-11.738
▁सौदा	-11.738
▁bus	-11.7381
▁खोला	-11.7381
▁managed	-11.7381
▁ship	-11.7381
▁सुनते	-11.7381
ÉoÉÆ	-11.7381
21]	-11.7381
33]	-11.7381
▁Drugs	-11.7381
▁जेलों	-11.7381
▁तथ्यों	-11.7381
▁७०	-11.7381
▁बचाव	-11.7381
▁पाये	-11.7381
▁Naturally	-11.7381
▁widely	-11.7381
▁contractors	-11.7381
▁निषाद	-11.7381
▁बेकारी	-11.7382
▁enhanced	-11.7382
▁शरण	-11.7382
▁DEV	-11.7382
▁हरिन	-11.7382
▁insisting	-11.7382
▁failing	-11.7382
▁promised	-11.7382
If	-11.7382
14]	-11.7382
▁निवासी	-11.7383
▁ककककककक	-11.7383
▁prevented	-11.7383
RAIL	-11.7383
▁तबाही	-11.7383
▁BaÉ	-11.7383
▁बनती	-11.7383
▁सीटों	-11.7383
▁substituted	-11.7383
▁धपर	-11.7383
▁Anna	-11.7384
▁उठाई	-11.7384
▁सहायक	-11.7384
▁जंगलों	-11.7384
▁पड़ने	-11.7384
▁अस्पतालों	-11.7385
▁allegedly	-11.7385
▁positively	-11.7385
▁cow	-11.7385
▁वषक	-11.7385
▁मंडी	-11.7385
▁बालक	-11.7385
▁TO	-11.7386
▁Introduced	-11.7386
िड	-11.7386
▁Motors	-11.7386
▁NGOs	-11.7386
▁PSUs	-11.7386
▁pertains	-11.7386
▁हाथों	-11.7386
▁learning	-11.7386
▁exercised	-11.7386
▁सोचा	-11.7386
▁मझ	-11.7388
▁arresting	-11.7388
▁carrying	-11.7388
▁लाई	-11.7388
▁saved	-11.7388
▁essentially	-11.7388
▁weapons	-11.7388
▁Mills	-11.7388
▁shortly	-11.7388
▁नाले	-11.7389
▁कनतपनत	-11.7389
▁waited	-11.7389
▁हरित	-11.7389
▁deserve	-11.7389
▁356	-11.739
▁reviewed	-11.739
▁प्रभावी	-11.7391
▁Times	-11.7391
▁lawyers	-11.7391
▁estimates	-11.7391
▁जाएंगी	-11.7391
▁disturbed	-11.7392
▁Petitions	-11.7392
▁352	-11.7393
▁granting	-11.7393
▁10,000/	-11.7393
▁observes	-11.7393
▁constraints	-11.7393
▁हमसे	-11.7394
▁रटन	-11.7394
▁interruptions	-11.7395
▁brothers	-11.7396
▁आयी	-11.7396
कल	-11.7397
▁महोदयः	-11.7397
▁lacking	-11.7398
▁wagons	-11.7398
▁PAN	-11.7398
▁अनेकों	-11.7399
▁सुझावों	-11.74
▁specially	-11.7401
▁importing	-11.7403
▁जोगी	-11.7403
▁Buddha	-11.7404
▁greatly	-11.7405
▁Floods	-11.7405
▁Regulations	-11.7405
▁conducting	-11.7409
▁drawing	-11.7409
▁ननगर	-11.741
▁जाली	-11.741
▁withdrawing	-11.741
▁ररक	-11.7412
▁quarters	-11.7412
▁promises	-11.7412
▁mostly	-11.7413
▁answering	-11.7415
▁tests	-11.7417
ÉxÉÉÒ	-11.7417
▁wasted	-11.7418
▁needy	-11.7421
▁owned	-11.7421
▁crossings	-11.7422
▁aim	-11.7422
▁mothers	-11.7425
▁homes	-11.7427
▁wing	-11.7429
▁स्टे	-11.7429
▁crimes	-11.7429
▁debated	-11.743
▁agreeing	-11.7432
▁damages	-11.7432
▁dhA	-11.7432
▁publicly	-11.7432
▁pages	-11.7433
▁xÉä	-11.7433
▁plants	-11.7435
▁violations	-11.7437
▁highways	-11.7439
▁कास्ट	-11.7441
▁ू	-11.7441
▁गव	-11.7443
You	-11.7445
▁अमल	-11.7453
▁Man	-11.7454
81	-11.7454
▁Meh	-11.7461
▁~	-11.7462
▁judgments	-11.7463
▁holds	-11.7463
▁borders	-11.747
▁बारी	-11.7472
▁नव	-11.7475
▁उनक	-11.7476
▁thoughts	-11.7484
▁सकी	-11.7486
▁forests	-11.7487
इ	-11.7489
▁Others	-11.7492
▁revenues	-11.7492
▁investments	-11.7495
▁1%	-11.75
▁objections	-11.7505
▁governments	-11.7512
▁credits	-11.7512
ेंस	-11.7516
दार	-11.7526
aram	-11.7529
।”	-11.7536
▁मांगा	-11.7542
वन	-11.7543
▁Tribunals	-11.7556
▁फार्म	-11.756
▁deals	-11.7564
pa	-11.7566
ाएं	-11.7566
▁fn	-11.7568
▁रिक्त	-11.7568
▁sittings	-11.757
िका	-11.7577
तत	-11.7588
im	-11.7596
▁ends	-11.7607
▁1100	-11.7619
27	-11.7624
▁Par	-11.7626
▁Amendments	-11.7638
▁Departments	-11.7641
▁àÉc	-11.7649
▁Su	-11.7663
▁sha	-11.7682
▁आदर	-11.7687
हर	-11.7699
▁कम्प्यूटर	-11.7725
00	-11.7734
06	-11.7745
ाइज	-11.7745
▁फोर	-11.7751
▁Sena	-11.7756
धकरण	-11.776
जद	-11.776
▁brings	-11.7772
di	-11.7794
टल	-11.7798
▁खरीदा	-11.7804
▁63	-11.7806
को	-11.7809
ात्मक	-11.7825
▁gun	-11.785
वारा	-11.7869
००	-11.788
मे	-11.7883
ub	-11.7889
नल	-11.7903
AM	-11.7915
ंक	-11.7929
▁शि	-11.7949
▁pan	-11.7953
,...(	-11.7963
▁कर्जा	-11.8011
ization	-11.8022
ाइ	-11.8031
करण	-11.8044
ेट	-11.8055
▁́ÉxÉ	-11.8073
94	-11.8074
▁bio	-11.8079
▁रहन	-11.8097
ेश्वर	-11.8102
▁रोड़	-11.8104
▁बद	-11.8107
▁Lo	-11.8112
▁मांगे	-11.8127
▁Ma	-11.8139
▁दशा	-11.8146
13	-11.8177
जल	-11.8192
रस	-11.821
कन	-11.8215
।...	-11.8241
▁पो	-11.8246
र्ष	-11.8253
▁पच	-11.8258
no	-11.8276
▁ãÉMÉ	-11.829
▁जर	-11.8301
red	-11.8309
ram	-11.8309
त्त	-11.832
▁Sai	-11.8331
▁1998,	-11.834
56	-11.8352
▁194	-11.8356
▁यथा	-11.8366
ची	-11.8372
▁निकाले	-11.8378
ER	-11.8397
ati	-11.8408
14	-11.8416
IT	-11.8421
िश	-11.8429
▁एक्स	-11.8434
पे	-11.8438
▁140	-11.8441
▁वेस्ट	-11.8462
कया	-11.8468
àÉÉ	-11.8474
▁तोड़	-11.8493
ill	-11.85
kd	-11.8505
▁रंग	-11.8519
ven	-11.8525
than	-11.8527
va	-11.8531
▁tri	-11.8538
▁सिटी	-11.8538
▁profession	-11.8555
__________	-11.8559
▁मेन	-11.8561
ish	-11.857
▁पव	-11.857
,200	-11.8592
▁command	-11.8598
▁gain	-11.86
▁promotion	-11.8601
▁resort	-11.8602
▁Attack	-11.8602
▁finger	-11.8602
▁preparation	-11.8602
▁gate	-11.8603
▁jail	-11.8603
▁Meeting	-11.8604
वभागीय	-11.8604
▁discipline	-11.8604
▁reaction	-11.8605
▁warning	-11.8605
▁Association	-11.8606
▁Sale	-11.8606
▁camp	-11.8606
▁motive	-11.8606
▁custom	-11.8607
war	-11.8607
▁Notice	-11.8607
▁flight	-11.8607
▁boy	-11.8607
▁consequence	-11.8607
▁grain	-11.8607
▁brother	-11.8608
▁slogan	-11.8608
▁hectare	-11.8608
▁plot	-11.8608
▁source	-11.8608
▁Matter	-11.8608
hereinafter	-11.8608
▁Maoist	-11.8608
▁ideal	-11.8609
ends	-11.8609
अपीलाथ	-11.861
ारी	-11.861
न्द	-11.8611
ˆ	-11.8611
India	-11.8612
सम्भल	-11.8612
CMA	-11.8612
Vijay	-11.8613
SHRIMATI	-11.8613
Laid	-11.8613
बिहार	-11.8613
मेरे	-11.8613
मेरा	-11.8613
ut	-11.8614
One	-11.8614
आई	-11.8614
बार	-11.8616
CSA	-11.8616
▁covering	-11.8617
kZ	-11.8618
▁टूट	-11.8619
▁spoil	-11.862
▁enact	-11.862
▁expand	-11.8621
▁perform	-11.8621
▁destroy	-11.8621
▁fill	-11.8621
▁furnish	-11.8621
▁̃	-11.8621
▁वाक्य	-11.8622
▁teach	-11.8623
▁defray	-11.8623
▁deliberate	-11.8623
▁fell	-11.8623
▁cloth	-11.8623
▁शान्त	-11.8623
▁curb	-11.8623
ÉvaÉFÉ	-11.8624
▁prevail	-11.8624
▁दस्तावेज	-11.8624
▁rid	-11.8624
▁एग्रीकल्चर	-11.8624
▁निष्कर्ष	-11.8624
▁हथियार	-11.8624
▁Dev	-11.8624
▁गड़बड़	-11.8624
▁tolerate	-11.8625
▁concede	-11.8625
▁भोजपुर	-11.8625
▁Asansol	-11.8625
▁arrive	-11.8625
▁secure	-11.8625
▁Call	-11.8625
▁कामगार	-11.8625
▁caution	-11.8625
▁suppress	-11.8625
▁नौजवान	-11.8625
▁मित्र	-11.8625
▁expunge	-11.8625
▁shri	-11.8625
▁Near	-11.8625
▁apparent	-11.8626
▁fulfil	-11.8626
▁obvious	-11.8626
▁successful	-11.8626
▁Undertake	-11.8626
▁असमर्थ	-11.8627
▁flag	-11.8627
▁प्रसार	-11.8627
▁branch	-11.8627
▁पपपप	-11.8627
▁RESOURCE	-11.8627
▁Shah	-11.8627
ÉEÉÒ	-11.8627
▁करूं	-11.8627
▁एतराज	-11.8627
▁संरचना	-11.8627
▁फॉर	-11.8627
▁compete	-11.8627
▁लाएं	-11.8627
▁Hari	-11.8627
▁Surendra	-11.8627
▁भुवन	-11.8627
▁Japan	-11.8627
▁Korba	-11.8627
▁rectify	-11.8627
▁universal	-11.8627
▁उपधारा	-11.8627
▁लोहरदगा	-11.8627
Eighty	-11.8628
Phalguna	-11.8628
▁Addl	-11.8628
▁Agenda	-11.8628
▁Anybody	-11.8628
▁Arora	-11.8628
▁BARAMATI	-11.8628
▁BARAN	-11.8628
▁Banaskantha	-11.8628
▁Bangarappa	-11.8628
▁Bofors	-11.8628
▁Brar	-11.8628
▁CENTRAL	-11.8628
▁Category	-11.8628
▁Chandrakant	-11.8628
▁Communist	-11.8628
▁Constitute	-11.8628
▁Coolum	-11.8628
▁Countries	-11.8628
▁Death	-11.8628
▁Definitely	-11.8628
▁Dhubri	-11.8628
▁EXTERNAL	-11.8628
▁Enterprises	-11.8628
▁Excise	-11.8628
▁FERNANDES	-11.8628
▁Factory	-11.8628
▁Facts	-11.8628
▁Families	-11.8628
▁HOOGHLY	-11.8628
▁HUMAN	-11.8628
▁Hills	-11.8628
▁Hospital	-11.8628
▁Hussain	-11.8628
▁IDUKKI	-11.8628
▁Idukki	-11.8628
▁Incidents	-11.8628
▁JANARDHANA	-11.8628
▁Junction	-11.8628
▁KASHIRAM	-11.8628
▁Khasra	-11.8628
▁LATUR	-11.8628
▁Laning	-11.8628
▁Laxminarayan	-11.8628
▁Maritime	-11.8628
▁Ministries	-11.8628
▁Musharraf	-11.8628
▁Mysore	-11.8628
▁NATCHIAPPAN	-11.8628
▁ONGC	-11.8628
▁Oath	-11.8628
▁PATEL	-11.8628
▁PLANNING	-11.8628
▁PONNANI	-11.8628
▁PRAFUL	-11.8628
▁PRASANNA	-11.8628
▁PRAVIN	-11.8628
▁Potable	-11.8628
▁Pvt	-11.8628
▁RANA	-11.8628
▁RASHTRAPAL	-11.8628
▁RPF	-11.8628
▁Ranchi	-11.8628
▁SHANKER	-11.8628
▁SHIPPING	-11.8628
▁SONTOSH	-11.8628
▁SUDARSANA	-11.8628
▁Sachin	-11.8628
▁Samastipur	-11.8628
▁Separate	-11.8628
▁Several	-11.8628
▁Sharma	-11.8628
▁Succession	-11.8628
▁Surface	-11.8628
▁TARIT	-11.8628
▁TOPDAR	-11.8628
▁Tehsildar	-11.8628
▁Telugu	-11.8628
▁Treaty	-11.8628
▁Trinamool	-11.8628
▁Tuesday	-11.8628
▁VINOD	-11.8628
▁admissibility	-11.8628
▁admission	-11.8628
▁affiliation	-11.8628
▁agents	-11.8628
▁announcing	-11.8628
▁applies	-11.8628
▁blaming	-11.8628
▁breach	-11.8628
▁brilliant	-11.8628
▁bureaucracy	-11.8628
▁capable	-11.8628
▁colonies	-11.8628
▁crucial	-11.8628
▁crux	-11.8628
▁decorum	-11.8628
▁denial	-11.8628
▁disapproval	-11.8628
▁dissatisfied	-11.8628
▁duly	-11.8628
▁eastern	-11.8628
▁examining	-11.8628
▁excellent	-11.8628
▁foeticide	-11.8628
▁gandhi	-11.8628
▁generating	-11.8628
▁gratitude	-11.8628
▁imprisonment	-11.8628
▁indicating	-11.8628
▁intervening	-11.8628
▁introducing	-11.8628
▁khasra	-11.8628
▁livestock	-11.8628
▁mRrjh	-11.8628
▁maiden	-11.8628
▁manifesto	-11.8628
▁minimising	-11.8628
▁necessarily	-11.8628
▁occurrence	-11.8628
▁paucity	-11.8628
▁peasants	-11.8628
▁prerogative	-11.8628
▁remote	-11.8628
▁removal	-11.8628
▁shape	-11.8628
▁split	-11.8628
▁technologies	-11.8628
▁tragic	-11.8628
▁transmission	-11.8628
▁utilisation	-11.8628
▁varxZr	-11.8628
▁vuqikyu	-11.8628
▁weather	-11.8628
▁ÉÊnããÉÉÒ	-11.8628
▁́ÉänxÉ	-11.8628
▁अन्तर्राष्ट्रीय	-11.8628
▁अफेयर्स	-11.8628
▁अवैध	-11.8628
▁असंगठित	-11.8628
▁आदर्श	-11.8628
▁आधारभूत	-11.8628
▁इश्यु	-11.8628
▁उत्खनन	-11.8628
▁कार्यान्वित	-11.8628
▁क्िंवटल	-11.8628
▁खीरी	-11.8628
▁चार्जशीट	-11.8628
▁चाहूँगा	-11.8628
▁जहानाबाद	-11.8628
▁टहल	-11.8628
▁डिपार्टमेंट	-11.8628
▁ढींडसा	-11.8628
▁धंधे	-11.8628
▁धुले	-11.8628
▁नश्िचत	-11.8628
▁निगरानी	-11.8628
▁पन्द्रह	-11.8628
▁पुणे	-11.8628
▁पुष्टि	-11.8628
▁प्रकल्प	-11.8628
▁प्रकृति	-11.8628
▁प्रसंस्करण	-11.8628
▁प्रेरणा	-11.8628
▁फाइनेंशियल	-11.8628
▁फीट	-11.8628
▁बंगलौर	-11.8628
▁बर्खास्त	-11.8628
▁बहिष्कार	-11.8628
▁बिजनौर	-11.8628
▁ब्यौरा	-11.8628
▁माणिकराव	-11.8628
▁मुर्मू	-11.8628
▁मोतिहारी	-11.8628
▁रतिलाल	-11.8628
▁राधाकृष्णन	-11.8628
▁रिपील	-11.8628
▁रॉयल्टी	-11.8628
▁रोकथाम	-11.8628
▁रोज़गार	-11.8628
▁लातूर	-11.8628
▁लाभप्रद	-11.8628
▁वनियामक	-11.8628
▁वर्धा	-11.8628
▁वितरित	-11.8628
▁विपणन	-11.8628
▁विशाल	-11.8628
▁शाक्य	-11.8628
▁शारदा	-11.8628
▁शुरुआत	-11.8628
▁षडयंत्र	-11.8628
▁संग्रहालय	-11.8628
▁सचिवालय	-11.8628
▁सबमिशन	-11.8628
▁सरप्लस	-11.8628
▁साक्ष्य	-11.8628
▁साझेदारी	-11.8628
▁सामरिक	-11.8628
▁सिंहभूम	-11.8628
▁सिलेंडर	-11.8628
▁सीरियस	-11.8628
▁सुबोध	-11.8628
▁सुलभ	-11.8628
▁स्टाफ	-11.8628
▁स्वाईं	-11.8628
▁स्वाभाविक	-11.8628
▁हड़ताल	-11.8628
▁हफ्ते	-11.8628
▁हैदराबाद	-11.8628
▁हैल्थ	-11.8628
▁िसंह	-11.8628
▁Lives	-11.8628
▁Swayam	-11.8628
▁declining	-11.8628
▁mutual	-11.8628
▁tape	-11.8628
▁अनावश्यक	-11.8628
▁अवलोकन	-11.8628
▁केसिज	-11.8628
▁क्षेत्रफल	-11.8628
▁गुरुदास	-11.8628
▁टावर	-11.8628
▁निर्वाह	-11.8628
▁मुकदमे	-11.8628
▁रघुराज	-11.8628
▁वर्णन	-11.8628
▁वीरप्पन	-11.8628
▁सिक्योरिटी	-11.8628
▁सुभाष	-11.8628
▁३७७	-11.8628
▁1921	-11.8628
▁Baliram	-11.8628
▁Bhavnagar	-11.8628
▁Colony	-11.8628
▁barred	-11.8628
▁cement	-11.8628
▁quantity	-11.8628
▁इंतजार	-11.8628
▁कौशलेन्द्र	-11.8628
▁चन्देल	-11.8628
▁पैट्रोलियम	-11.8628
▁मर्यादा	-11.8628
▁मांझी	-11.8628
▁मार्बल	-11.8628
▁Bombay	-11.8628
▁Bring	-11.8628
▁absent	-11.8628
▁bold	-11.8628
▁narrow	-11.8628
▁कम्युनिस्ट	-11.8628
▁गोंदिया	-11.8628
▁महोबा	-11.8628
▁मेहसाणा	-11.8628
ÉVÉãÉÉÒ	-11.8628
▁Malda	-11.8628
▁Parmar	-11.8628
▁automatically	-11.8628
▁coordination	-11.8628
▁diplomatic	-11.8628
▁reconstruction	-11.8628
▁shameful	-11.8628
▁अमीर	-11.8628
▁कम्युनिटी	-11.8628
▁टीकाकरण	-11.8628
▁संग्रह	-11.8628
▁१९९६	-11.8628
▁Modi	-11.8628
▁framework	-11.8628
▁thermal	-11.8628
▁बिक्री	-11.8628
▁विश्लेषण	-11.8628
▁miserable	-11.8628
▁plus	-11.8628
▁viz	-11.8628
▁लिंक	-11.8628
▁हिन्दुओं	-11.8628
▁आर्मी	-11.8628
▁साक्षरता	-11.8628
▁सुखाड़	-11.8628
▁१९८०	-11.8628
▁devolution	-11.8628
▁push	-11.8628
▁संखया	-11.8628
▁सीताराम	-11.8628
▁Bhagalpur	-11.8628
▁Udhampur	-11.8628
▁बोडो	-11.8628
▁scrutiny	-11.8628
▁महेश्वर	-11.8628
▁Tibetan	-11.8628
▁diversity	-11.8628
▁oÉÖÉÊ	-11.8628
▁FOOD	-11.8628
▁Iron	-11.8628
▁adulteration	-11.8628
▁उद्योगपतियों	-11.8628
▁जरिये	-11.8628
▁Behar	-11.8628
▁Haldia	-11.8628
▁मंदी	-11.8628
▁छात्राओं	-11.8628
ganj	-11.8628
▁Paul	-11.8628
▁eradicate	-11.8628
▁अनुमोदन	-11.8628
▁comprised	-11.8628
▁motivated	-11.8628
▁worried	-11.8628
▁कमजोर	-11.8628
▁युवकों	-11.8628
▁Coca	-11.8628
▁हालात	-11.8628
▁110001	-11.8628
▁Waterways	-11.8628
▁कॉलिंग	-11.8628
▁Ramchandra	-11.8628
▁humanitarian	-11.8628
▁बनवाने	-11.8628
▁CGHS	-11.8628
▁इरादा	-11.8628
▁CHARAN	-11.8628
▁File	-11.8628
▁Vision	-11.8628
▁agitating	-11.8628
▁propriety	-11.8628
▁भूरिया	-11.8628
▁संवर्धन	-11.8628
▁Functioning	-11.8628
▁preparing	-11.8628
▁भूमिहीन	-11.8628
▁हादसा	-11.8628
▁MOHD	-11.8628
▁०१	-11.8628
▁रोष	-11.8628
▁probe	-11.8628
▁समपार	-11.8628
▁329283	-11.8628
▁जंक्शन	-11.8628
▁considerably	-11.8628
▁मोटर	-11.8628
▁television	-11.8628
▁२००	-11.8628
▁Ahamed	-11.8628
▁भंडारण	-11.8628
▁polluted	-11.8628
▁पासपोर्ट	-11.8628
▁विष्णु	-11.8628
▁आधा	-11.8628
▁खुदाई	-11.8628
▁आपदाओं	-11.8628
▁́ÉÉãÉä	-11.8628
nkf	-11.8628
▁Mother	-11.8628
▁courtesy	-11.8628
▁दौर	-11.8628
▁key	-11.8628
▁मसला	-11.8628
▁precisely	-11.8628
▁चिकित्सा	-11.8628
▁प्रश्नकाल	-11.8628
▁pure	-11.8628
▁PMO	-11.8628
▁ककतस	-11.8628
▁माइन्स	-11.8628
▁shocking	-11.8628
▁पकड़ा	-11.8628
▁आंखों	-11.8628
▁प्रांतों	-11.8628
▁सिफारिशें	-11.8628
▁Adhir	-11.8628
▁हत्याएं	-11.8628
▁buses	-11.8628
▁Bachi	-11.8628
▁acceptance	-11.8628
▁memo	-11.8628
▁wealth	-11.8628
▁comply	-11.8628
▁compensate	-11.8629
▁रामराव	-11.8629
▁CHAND	-11.8629
▁लीटर	-11.8629
▁हाल्ट	-11.8629
▁टैकस	-11.8629
▁revealed	-11.8629
▁isolated	-11.8629
▁nutrition	-11.8629
▁डिप्टी	-11.8629
▁नैनीताल	-11.8629
▁परमाणु	-11.8629
▁शेखर	-11.8629
▁स्टोरेज	-11.8629
▁क्रिकेट	-11.8629
▁काश्तकारों	-11.8629
▁Extension	-11.8629
▁iÉaÉ	-11.8629
▁Closed	-11.8629
▁honourable	-11.8629
▁बुवाई	-11.8629
▁खुदरा	-11.8629
▁consistently	-11.8629
▁मौतें	-11.8629
▁५७	-11.8629
▁occupied	-11.8629
▁बाबरी	-11.8629
▁Bible	-11.8629
▁passage	-11.8629
▁minister	-11.8629
▁सुनेंगे	-11.8629
▁शिकायतें	-11.8629
▁Products	-11.8629
▁Submissions	-11.8629
▁compartments	-11.8629
▁कराते	-11.8629
▁distributed	-11.8629
▁Gond	-11.8629
▁दशक	-11.8629
▁ज्यादातर	-11.8629
▁फर्क	-11.8629
▁engineering	-11.8629
▁देखेंगे	-11.8629
▁प्रोजैक्ट्स	-11.863
▁अधिकतर	-11.863
▁बढ़ेगा	-11.863
▁पचास	-11.863
▁1/2	-11.863
▁diverted	-11.863
▁बनेंगे	-11.863
▁Against	-11.863
▁परीक्षण	-11.863
▁binding	-11.863
▁continuously	-11.863
▁Presidential	-11.863
▁filled	-11.863
▁physically	-11.863
▁जलगांव	-11.863
▁सुश्री	-11.863
▁Immediately	-11.863
▁दसवीं	-11.863
▁दखल	-11.863
▁कहेंगे	-11.863
▁Cell	-11.863
▁धाम	-11.863
▁818	-11.8631
▁arisen	-11.8631
▁wards	-11.8631
▁fulfilling	-11.8631
▁hereby	-11.8631
▁Doha	-11.8631
50]	-11.8631
▁उपर्युक्त	-11.8631
▁awarded	-11.8631
▁बगल	-11.8631
▁निंदा	-11.8631
▁पढ़ाई	-11.8631
▁sincere	-11.8631
▁Doda	-11.8631
▁perused	-11.8631
▁rent	-11.8631
▁दर्द	-11.8631
▁रैली	-11.8631
▁argued	-11.8631
▁guaranteed	-11.8631
▁pursued	-11.8631
▁फैली	-11.8631
▁inquired	-11.8631
▁वसूली	-11.8631
▁poorest	-11.8631
▁realised	-11.8631
▁furnishing	-11.8631
▁केंद्रित	-11.8632
▁Goods	-11.8632
▁aspersions	-11.8632
▁deliberations	-11.8632
▁ट्रेनिंग	-11.8632
▁रहिए	-11.8632
▁investors	-11.8632
▁कार्यकरण	-11.8632
▁Mid	-11.8632
▁मानकर	-11.8632
▁श्रीप्रकाश	-11.8632
▁दंगा	-11.8632
▁marked	-11.8633
▁पेय	-11.8633
▁''	-11.8633
▁दराज	-11.8633
▁investigated	-11.8633
▁5000	-11.8633
▁evolved	-11.8633
▁authorised	-11.8633
▁yielded	-11.8633
▁officially	-11.8633
▁चतरा	-11.8633
▁वचन	-11.8633
▁taxation	-11.8633
▁रोड्स	-11.8633
16]	-11.8634
▁Amar	-11.8634
▁फसलें	-11.8634
▁postal	-11.8634
▁throwing	-11.8634
▁सलए	-11.8634
▁बढ़ाना	-11.8634
▁promoted	-11.8634
▁pattas	-11.8634
▁एण्ड	-11.8634
▁रखती	-11.8634
▁सीजन	-11.8635
▁awareness	-11.8635
▁355	-11.8635
▁Thirteenth	-11.8636
▁SCC	-11.8636
▁Asia	-11.8636
▁Training	-11.8637
▁Expunged	-11.8637
▁Via	-11.8637
▁रायगढ़	-11.8637
▁mountains	-11.8637
▁Communications	-11.8637
▁Diseases	-11.8637
▁MLAs	-11.8637
▁reflects	-11.8637
▁अंतर	-11.8637
▁राजे	-11.8637
▁संस्थानों	-11.8637
▁करेंगी	-11.8638
▁traders	-11.8638
▁ननव	-11.8638
lh	-11.8638
▁उत्पादक	-11.8639
▁(9)	-11.8639
▁None	-11.8639
▁अभभ	-11.8639
▁constructing	-11.8639
▁loot	-11.8639
▁crossed	-11.864
▁बनता	-11.8641
73	-11.8641
▁currently	-11.8641
▁मेल	-11.8642
▁falling	-11.8642
▁objecting	-11.8642
▁लि	-11.8642
▁NPAs	-11.8643
▁corridors	-11.8643
▁Places	-11.8643
krr	-11.8643
▁weekly	-11.8643
▁intervened	-11.8644
▁indirect	-11.8644
▁incentives	-11.8644
▁केंद्रों	-11.8644
▁सदर	-11.8645
▁1600	-11.8645
▁minerals	-11.8645
▁politicians	-11.8645
▁casual	-11.8645
▁booking	-11.8646
▁30,000	-11.8646
▁openly	-11.8646
▁पकट	-11.8647
▁पुरी	-11.8647
▁Notices	-11.8648
▁Sales	-11.8648
▁CSA	-11.8649
▁रूपया	-11.8649
▁झेल	-11.8649
▁daughters	-11.8651
­]	-11.8653
▁urged	-11.8653
▁प्रावधानों	-11.8653
▁exists	-11.8654
▁banking	-11.8655
▁दक्षिणी	-11.8655
▁approves	-11.8656
ऩ	-11.8656
▁patents	-11.8659
▁50%	-11.8662
▁games	-11.8662
▁प्रयासों	-11.8665
▁अनस	-11.8665
▁acting	-11.8666
▁Tool	-11.8667
▁मांगने	-11.8668
▁Ali	-11.8668
*...(	-11.8669
48	-11.867
▁trucks	-11.8671
▁जह	-11.8672
▁establishments	-11.8673
▁bombs	-11.8673
▁yields	-11.8673
▁खर्चा	-11.8674
ण्	-11.8674
▁weak	-11.8675
▁क्त	-11.8678
▁events	-11.8678
▁airports	-11.8678
▁Nd	-11.8679
▁traditions	-11.8681
ललन	-11.8685
▁Units	-11.8687
hd	-11.8687
स्त	-11.8687
▁Sciences	-11.8692
ees	-11.8693
▁offences	-11.8695
▁184	-11.8698
▁threats	-11.8698
ATION	-11.87
▁falls	-11.8703
▁हए	-11.8703
▁संतुष्ट	-11.8705
▁killings	-11.8706
shed	-11.8708
▁165	-11.8712
ाओं	-11.8712
▁sleep	-11.8712
़ा	-11.8716
nder	-11.8716
▁stocks	-11.8717
▁पट	-11.8719
our	-11.8723
▁AM	-11.8723
▁connections	-11.8731
▁बैठा	-11.8731
▁यक	-11.8732
▁interesting	-11.8737
▁Jha	-11.8752
▁sons	-11.8767
qu	-11.8775
PP	-11.8776
ue	-11.878
▁किशन	-11.8782
▁करो	-11.8786
">	-11.8787
▁540	-11.8795
▁नम	-11.8797
िकरण	-11.8807
26	-11.8808
ES	-11.8809
all	-11.881
▁agreements	-11.8814
▁३६	-11.8816
bru	-11.8829
▁करण	-11.8832
▁happenings	-11.8836
▁करव	-11.8843
▁निकले	-11.8847
▁lists	-11.8851
▁decides	-11.8856
era	-11.8864
▁results	-11.8865
▁constructions	-11.887
▁theory	-11.8872
SO	-11.8878
▁386	-11.8883
▁123	-11.8889
▁बसा	-11.8896
▁महारा	-11.8906
▁card	-11.8912
▁questioning	-11.8916
▁feels	-11.8923
ium	-11.8929
▁कोष	-11.8934
WL	-11.8934
रर	-11.8937
▁beings	-11.894
▁ca	-11.8946
गन	-11.8948
44	-11.8961
▁उन्नत	-11.8972
▁video	-11.8973
ja	-11.898
▁अक	-11.8988
ating	-11.8989
यू	-11.8989
▁Kar	-11.9005
000	-11.9009
▁ones	-11.9027
▁economics	-11.9031
ga	-11.9033
▁th	-11.9035
▁रूट	-11.9058
तर	-11.9058
arq	-11.9077
/05)	-11.9078
सत	-11.9085
hood	-11.912
क्त	-11.9129
▁dues	-11.9133
कम	-11.9136
▁Mrs	-11.9139
▁96	-11.9161
मो	-11.9176
▁//	-11.9186
▁lift	-11.9189
▁st	-11.9206
nch	-11.9213
स्थ	-11.9213
द्र	-11.9216
▁रज	-11.922
बू	-11.9221
▁डिस	-11.9234
▁considerations	-11.9254
राज	-11.9256
▁वैल	-11.926
कों	-11.9261
▁audit	-11.9265
co	-11.9279
▁बचत	-11.9287
जो	-11.9295
NG	-11.9301
में	-11.9305
रे	-11.9343
ay	-11.9347
08	-11.9353
▁दव	-11.9387
▁दाल	-11.9391
▁डर	-11.943
▁242	-11.9435
ell	-11.9451
▁cr	-11.9454
▁liberal	-11.9461
ियन	-11.947
ैस	-11.9472
▁शोर	-11.9475
अन	-11.948
ड़ा	-11.9485
▁kh	-11.9487
ोड	-11.9495
▁क्रम	-11.9495
घाट	-11.9501
▁Pra	-11.9504
ÉiÉÉ	-11.9506
be	-11.9513
ÉaÉä	-11.9522
RA	-11.9523
ING	-11.9532
▁Po	-11.9548
05	-11.9551
▁103	-11.9556
ऊंगा	-11.9567
त्र	-11.9585
डिया	-11.9605
वि	-11.9617
▁१५०	-11.9627
▁अल	-11.9646
▁88	-11.9648
▁1971	-11.9648
NA	-11.9653
कत	-11.9653
▁भा	-11.967
▁उन्नति	-11.9673
mit	-11.9682
ÉhÉ	-11.9684
ug	-11.9687
यां	-11.9689
▁आल	-11.9698
▁९००	-11.9706
▁lie	-11.9707
▁इसक	-11.9713
ko	-11.9717
▁अदा	-11.9727
नर	-11.9728
▁Municipal	-11.9761
▁करार	-11.9791
▁slum	-11.9799
way	-11.9804
▁कॉ	-11.9806
77	-11.9817
्द	-11.9829
▁बदला	-11.9838
2008	-11.984
7,	-11.9844
▁टोल	-11.9847
▁240	-11.9858
ः	-11.9861
9]	-11.9867
▁मख	-11.9869
ore	-11.987
▁symbol	-11.9876
▁Pa	-11.988
▁op	-11.988
पति	-11.9882
▁अम	-11.9891
▁तु	-11.9893
▁intend	-11.9893
ions	-11.9897
▁Ko	-11.9905
pal	-11.9906
▁रु	-11.9906
▁नद	-11.9925
▁"1	-11.9925
चा	-11.9928
▁Kan	-11.9929
ni	-11.9941
22	-11.9949
▁क्	-11.9953
▁अर	-11.9961
▁सेतु	-11.9965
▁ताल्लुक	-11.9977
▁historic	-11.998
▁1952	-11.9988
ton	-11.9994
▁Short	-12.0008
▁ka	-12.001
▁रस	-12.0011
ful	-12.0011
,500	-12.0015
▁Ph	-12.0019
▁दुकान	-12.002
Member	-12.0021
▁nos	-12.0021
▁इक	-12.0022
▁उपलब्धि	-12.0025
ÉÎ	-12.0026
▁shout	-12.0027
▁cents	-12.0028
SL	-12.003
▁shelter	-12.0031
▁Deposit	-12.0031
▁Mineral	-12.0031
▁Vishwa	-12.0031
▁chemical	-12.0031
▁film	-12.0031
▁litigation	-12.0031
▁score	-12.0031
▁range	-12.0031
▁defection	-12.0031
▁block	-12.0032
▁blow	-12.0032
▁phrase	-12.0032
ब्र	-12.0033
▁observe	-12.0033
▁contact	-12.0033
▁involve	-12.0033
▁Textile	-12.0035
▁licence	-12.0035
▁politician	-12.0035
▁mineral	-12.0036
▁constraint	-12.0036
▁component	-12.0036
▁aspiration	-12.0036
▁fruit	-12.0036
▁victim	-12.0036
▁organization	-12.0037
▁teacher	-12.0037
▁MSP	-12.0038
▁Park	-12.0038
मैन	-12.0039
▁wage	-12.0039
zero	-12.004
Speech	-12.0041
central	-12.0041
`	-12.0041
मुझे	-12.0041
Title	-12.0041
Why	-12.0041
Let	-12.0042
Page	-12.0043
▁height	-12.0045
▁Traffic	-12.0046
बद	-12.0048
▁Jai	-12.0048
▁admi	-12.0049
▁contest	-12.0049
▁neglect	-12.0049
▁shift	-12.005
मंडल	-12.005
▁prompt	-12.0051
▁occupy	-12.0052
▁worry	-12.0052
▁माइन	-12.0052
▁cater	-12.0052
▁detect	-12.0052
▁गोंड	-12.0052
▁पाठ	-12.0052
▁श्याम	-12.0052
▁परिवाद	-12.0053
▁Mohammad	-12.0053
▁मब	-12.0053
▁नलकूप	-12.0053
▁streamline	-12.0053
▁procure	-12.0053
▁विकलांग	-12.0053
▁विधायक	-12.0053
▁तटबंध	-12.0053
▁praise	-12.0053
▁engage	-12.0053
▁पंडित	-12.0053
▁तीर्थस्थल	-12.0053
▁आश्रित	-12.0053
▁suppose	-12.0054
▁मुसलमान	-12.0054
▁accuse	-12.0054
▁BÉEà	-12.0054
▁पार्ट	-12.0054
▁consequent	-12.0054
▁practical	-12.0054
▁Record	-12.0054
/2018	-12.0054
▁strict	-12.0054
▁जानवर	-12.0054
▁extreme	-12.0054
▁डयूटी	-12.0055
▁मबनध	-12.0055
▁कत्ल	-12.0055
▁ट्राइबल	-12.0055
▁MPLAD	-12.0055
▁coast	-12.0055
▁Eight	-12.0055
▁लाये	-12.0056
▁BANSA	-12.0056
▁confer	-12.0056
▁Jadhav	-12.0056
▁श्रद्धालु	-12.0056
▁Moti	-12.0056
▁sick	-12.0056
▁husband	-12.0056
▁cruel	-12.0056
▁आतंक	-12.0056
▁academic	-12.0056
▁लिमिट	-12.0056
▁ऑन	-12.0056
▁Child	-12.0056
/2014	-12.0056
iruvananthapuram	-12.0056
▁26180514	-12.0056
▁ALVI	-12.0056
▁ARAMBAGH	-12.0056
▁ASADUDDIN	-12.0056
▁Aggrieved	-12.0056
▁Ajnala	-12.0056
▁BADAGARA	-12.0056
▁BENGAL	-12.0056
▁BHARDWAJ	-12.0056
▁Baxla	-12.0056
▁Bharuch	-12.0056
▁Bhubaneswar	-12.0056
▁Bishnoi	-12.0056
▁Bureau	-12.0056
▁BÉDaÉÉåÉÊBÉE	-12.0056
▁BÉEcÉÓ	-12.0056
▁CHATURVEDI	-12.0056
▁CHEMICALS	-12.0056
▁COMMUNICATIONS	-12.0056
▁CONSUMER	-12.0056
▁Complex	-12.0056
▁Cooch	-12.0056
▁Cooperation	-12.0056
▁Cotton	-12.0056
▁DEPARTMENT	-12.0056
▁DHENKANAL	-12.0056
▁DISCUSSION	-12.0056
▁DISTRIBUTION	-12.0056
▁Daily	-12.0056
▁Dehradun	-12.0056
▁Delegation	-12.0056
▁Delimitation	-12.0056
▁Delta	-12.0056
▁Desam	-12.0056
▁Diesel	-12.0056
▁Dilip	-12.0056
▁Dissatisfied	-12.0056
▁Diversion	-12.0056
▁Each	-12.0056
▁Ernakulam	-12.0056
▁Erode	-12.0056
▁Explanatory	-12.0056
▁FAMILY	-12.0056
▁FERTILIZERS	-12.0056
▁Freedom	-12.0056
▁Gadchiroli	-12.0056
▁Ganesh	-12.0056
▁HEALTH	-12.0056
▁John	-12.0056
▁KOTTAYAM	-12.0056
▁Kalaignar	-12.0056
▁Kandla	-12.0056
▁Kannada	-12.0056
▁Karunanidhi	-12.0056
▁Katwa	-12.0056
▁LAID	-12.0056
▁LAKSHMAN	-12.0056
▁LTTE	-12.0056
▁Legal	-12.0056
▁MAHABUBNAGAR	-12.0056
▁MNCs	-12.0056
▁Malaysia	-12.0056
▁Merchant	-12.0056
▁Monsoon	-12.0056
▁Murthy	-12.0056
▁NABARD	-12.0056
▁NSTFDC	-12.0056
▁Nikhil	-12.0056
▁ORISSA	-12.0056
▁OWAISI	-12.0056
▁Ocean	-12.0056
▁Overseas	-12.0056
▁PANDIYAN	-12.0056
▁PANJA	-12.0056
▁PATNAIK	-12.0056
▁PRADHAN	-12.0056
▁PREMAJAM	-12.0056
▁Pandian	-12.0056
▁Penal	-12.0056
▁Pondicherry	-12.0056
▁Ponnuswamy	-12.0056
▁Pope	-12.0056
▁Primary	-12.0056
▁RESOLUTION	-12.0056
▁ROY	-12.0056
▁Rahman	-12.0056
▁Rawale	-12.0056
▁Registration	-12.0056
▁Retired	-12.0056
▁Revival	-12.0056
▁Russia	-12.0056
▁SATPATHY	-12.0056
▁SHYAMA	-12.0056
▁SIMRANJIT	-12.0056
▁SIVAKASI	-12.0056
▁SWARAJ	-12.0056
▁Salaries	-12.0056
▁Saurashtra	-12.0056
▁Secretaries	-12.0056
▁Shafiqur	-12.0056
▁Showing	-12.0056
▁Signed	-12.0056
▁Singhbhum	-12.0056
▁Subsequently	-12.0056
▁Sumitra	-12.0056
▁Sunderbans	-12.0056
▁TABLE	-12.0056
▁TATHAGATA	-12.0056
▁TENALI	-12.0056
▁Terrorism	-12.0056
▁Thirty	-12.0056
▁Thursday	-12.0056
▁Tiwari	-12.0056
▁Tobacco	-12.0056
▁Treatment	-12.0056
▁Twelfth	-12.0056
▁Udaipur	-12.0056
▁Vinay	-12.0056
▁Voting	-12.0056
▁Vyas	-12.0056
▁WELFARE	-12.0056
▁Warming	-12.0056
▁White	-12.0056
▁Winter	-12.0056
▁accusing	-12.0056
▁acquitted	-12.0056
▁aggrieved	-12.0056
▁altogether	-12.0056
▁appreciation	-12.0056
▁beneficial	-12.0056
▁beneficiary	-12.0056
▁bottom	-12.0056
▁carnage	-12.0056
▁census	-12.0056
▁clarified	-12.0056
▁condolences	-12.0056
▁conferencing	-12.0056
▁controversy	-12.0056
▁copra	-12.0056
▁debating	-12.0056
▁departure	-12.0056
▁domain	-12.0056
▁duration	-12.0056
▁easily	-12.0056
▁enabling	-12.0056
▁enhancing	-12.0056
▁entries	-12.0056
▁explanatory	-12.0056
▁firing	-12.0056
▁fledged	-12.0056
▁foHkkx	-12.0056
▁forgotten	-12.0056
▁ftlesa	-12.0056
▁glad	-12.0056
▁humbly	-12.0056
▁identification	-12.0056
▁inconvenience	-12.0056
▁invitation	-12.0056
▁kilometers	-12.0056
▁lacs	-12.0056
▁levied	-12.0056
▁lquokbZ	-12.0056
▁manpower	-12.0056
▁maritime	-12.0056
▁meagre	-12.0056
▁naming	-12.0056
▁oÉàÉoaÉÉ	-12.0056
▁paramilitary	-12.0056
▁peculiar	-12.0056
▁pertinent	-12.0056
▁photograph	-12.0056
▁placing	-12.0056
▁prime	-12.0056
▁rFkk	-12.0056
▁ratified	-12.0056
▁reassembled	-12.0056
▁replacing	-12.0056
▁ritual	-12.0056
▁satisfaction	-12.0056
▁satisfactory	-12.0056
▁securities	-12.0056
▁sharp	-12.0056
▁stopping	-12.0056
▁succumb	-12.0056
▁sympathy	-12.0056
▁tariff	-12.0056
▁twelve	-12.0056
▁unmanned	-12.0056
▁unusual	-12.0056
▁upheld	-12.0056
▁victory	-12.0056
▁wrote	-12.0056
▁xcå	-12.0056
▁́ÉolÉÉ	-12.0056
▁अजीत	-12.0056
▁अड्डा	-12.0056
▁अतिशीघ्र	-12.0056
▁अनुपालन	-12.0056
▁अनुसरण	-12.0056
▁आंतरिक	-12.0056
▁आईएसआई	-12.0056
▁आकाशवाणी	-12.0056
▁आरम्भ	-12.0056
▁इण्डस्ट्रीज	-12.0056
▁इस्पात	-12.0056
▁उन्नयन	-12.0056
▁उरई	-12.0056
▁ऊंचे	-12.0056
▁एग्रो	-12.0056
▁एजेंसियां	-12.0056
▁ऑयल	-12.0056
▁ओलावृष्टि	-12.0056
▁करुणा	-12.0056
▁कांगड़ा	-12.0056
▁कावेरी	-12.0056
▁किल्लत	-12.0056
▁केमिकल	-12.0056
▁खरीफ	-12.0056
▁गाजियाबाद	-12.0056
▁गावित	-12.0056
▁चतुर्वेदी	-12.0056
▁चौबे	-12.0056
▁जलस्तर	-12.0056
▁झुग्गी	-12.0056
▁टेक्नोलॉजी	-12.0056
▁ततपश	-12.0056
▁तत्पश्चात्	-12.0056
▁दर्शाया	-12.0056
▁दादा	-12.0056
▁दूसरों	-12.0056
▁दृष्िट	-12.0056
▁दोपहर	-12.0056
▁धंधा	-12.0056
▁नखिल	-12.0056
▁निकोबार	-12.0056
▁नियंत्रक	-12.0056
▁निर्वहन	-12.0056
▁पत्नी	-12.0056
▁पायलट	-12.0056
▁पीठासीन	-12.0056
▁पृथक	-12.0056
▁प्रदूषित	-12.0056
▁प्रमोशन	-12.0056
▁प्रेरित	-12.0056
▁प्रोरोग	-12.0056
▁फैसले	-12.0056
▁बर्क	-12.0056
▁बांकुरा	-12.0056
▁बाबागंगनाथमाग	-12.0056
▁बुंदेलखंड	-12.0056
▁बैकवर्ड	-12.0056
▁भत्ता	-12.0056
▁भयानक	-12.0056
▁भाजपा	-12.0056
▁मनसुखभाई	-12.0056
▁महालेखापरीक्षक	-12.0056
▁मुजफ्फरनगर	-12.0056
▁मुद्रा	-12.0056
▁याचिका	-12.0056
▁युग	-12.0056
▁रिक्वेस्ट	-12.0056
▁रिजैक्ट	-12.0056
▁रिवोल्युशन	-12.0056
▁रेड्डी	-12.0056
▁लैड	-12.0056
▁वर्कशाप	-12.0056
▁वर्णित	-12.0056
▁वसावा	-12.0056
▁विमर्श	-12.0056
▁विवाह	-12.0056
▁सप्लीमेंट्री	-12.0056
▁सब्जियों	-12.0056
▁समूचे	-12.0056
▁सम्पदा	-12.0056
▁सवीकार	-12.0056
▁सांगवान	-12.0056
▁सिवनी	-12.0056
▁सुचारू	-12.0056
▁हन्नान	-12.0056
▁हरिभाऊ	-12.0056
▁हसनपुर	-12.0056
▁हेमलाल	-12.0056
▁हैंडपम्प	-12.0056
▁होडल्या	-12.0056
▁१९९१	-12.0056
▁1953	-12.0056
▁Computerized	-12.0056
▁MATHUR	-12.0056
▁SUNIL	-12.0056
▁Senior	-12.0056
▁VaÉÉnÉ	-12.0056
▁dying	-12.0056
▁executive	-12.0056
▁govt	-12.0056
▁oversee	-12.0056
▁valuation	-12.0056
▁आशय	-12.0056
▁कुल्लू	-12.0056
▁दुश्मन	-12.0056
▁पततव	-12.0056
▁प्रतक्रिया	-12.0056
▁बौद्ध	-12.0056
▁भीलवाड़ा	-12.0056
▁Abu	-12.0056
▁Adra	-12.0056
▁Consequent	-12.0056
▁Empowerment	-12.0056
▁MARAN	-12.0056
▁dispensaries	-12.0056
▁नाईक	-12.0056
▁रेलगाड़ी	-12.0056
▁oÉnoaÉ	-12.0056
▁spell	-12.0056
▁verified	-12.0056
▁Nodal	-12.0056
▁aircraft	-12.0056
▁behest	-12.0056
▁uncertainty	-12.0056
▁आकलन	-12.0056
▁चौथा	-12.0056
▁बरौनी	-12.0056
▁alive	-12.0056
▁vicious	-12.0056
▁जन्मभूमि	-12.0056
▁निराकरण	-12.0056
▁मंशा	-12.0056
▁मंहगाई	-12.0056
▁शकधर	-12.0056
▁साधारण	-12.0056
▁Announcement	-12.0056
▁beaten	-12.0056
▁harassment	-12.0056
▁sake	-12.0056
▁प्रणालियों	-12.0056
▁रुपयों	-12.0056
▁लाठी	-12.0056
▁वकतव्य	-12.0056
▁शाहाबाद	-12.0056
oÉÉÊãÉA	-12.0056
▁Durgapur	-12.0056
▁elementary	-12.0056
▁provocation	-12.0056
▁ठक्कर	-12.0056
▁AIR	-12.0056
▁Chittoor	-12.0056
▁Maldives	-12.0056
▁Palghat	-12.0056
▁Raigarh	-12.0056
▁Revolution	-12.0056
▁conference	-12.0056
▁reverse	-12.0056
▁rose	-12.0056
▁सीएजी	-12.0056
▁शीघ्रातिशीघ्र	-12.0056
▁BERHAMP	-12.0056
▁Clearance	-12.0056
▁liberalisation	-12.0056
▁कॉमन	-12.0056
▁Alwar	-12.0056
▁oÉnxÉ	-12.0056
▁गंडक	-12.0056
▁घोसी	-12.0056
▁टर्म	-12.0056
▁मोल्लाह	-12.0056
▁Petrol	-12.0056
▁astrology	-12.0056
▁सिरसा	-12.0056
▁ितवादीगण	-12.0056
▁hazardous	-12.0056
▁taught	-12.0056
▁Street	-12.0056
▁depth	-12.0056
▁priorities	-12.0056
▁प्रतिपक्ष	-12.0056
▁बुलाएंगे	-12.0056
▁millennium	-12.0056
▁लड़की	-12.0056
▁सिंधिया	-12.0056
▁caught	-12.0056
▁undisputed	-12.0056
▁Acharya	-12.0056
▁BSF	-12.0056
▁एकाउंट	-12.0056
▁मनीष	-12.0056
▁मौके	-12.0056
▁शून्यकाल	-12.0056
▁संघर्ष	-12.0056
▁Movement	-12.0056
▁धरने	-12.0056
▁शैड	-12.0056
▁horticulture	-12.0056
▁strange	-12.0056
▁महंगी	-12.0056
▁संभाग	-12.0056
▁Mundaji	-12.0056
▁टर्मिनल	-12.0056
▁तीसरा	-12.0056
▁सिग्नल	-12.0056
▁1924	-12.0056
▁cholera	-12.0056
▁विक्रय	-12.0056
▁bona	-12.0056
▁कथन	-12.0056
▁cÉäMÉÉ	-12.0056
▁fascist	-12.0056
▁successive	-12.0056
▁सम्माननीय	-12.0056
▁oÉBÉEiÉÉ	-12.0056
▁bought	-12.0056
▁गरौठा	-12.0056
▁गुस्सा	-12.0056
▁टेलीविजन	-12.0056
▁डिवीजन	-12.0056
▁परिचालन	-12.0056
▁मुनाफा	-12.0056
▁Palani	-12.0056
▁बिन्दुओं	-12.0056
▁सीमान्त	-12.0056
▁classified	-12.0056
▁downtrodden	-12.0056
▁चुनकर	-12.0056
▁deleting	-12.0056
▁परिसर	-12.0056
▁Workmen	-12.0056
▁अर्थात्	-12.0056
▁प्रतिभा	-12.0056
▁मिलावट	-12.0056
▁NICD	-12.0056
▁civilisation	-12.0056
▁Katpadi	-12.0056
▁Branch	-12.0056
▁càÉå	-12.0056
▁Everyone	-12.0056
▁ÉÊBÉEoÉÉÒ	-12.0056
▁समाजवादी	-12.0057
▁rising	-12.0057
▁लास्ट	-12.0057
▁calculation	-12.0057
▁creed	-12.0057
▁preventive	-12.0057
▁बिंदुओं	-12.0057
▁उललख	-12.0057
▁Slaughter	-12.0057
▁यूरिया	-12.0057
▁Yet	-12.0057
▁Mayawati	-12.0057
▁convicted	-12.0057
▁lodged	-12.0057
▁transacted	-12.0057
▁मेहनत	-12.0057
▁उपयोगिता	-12.0057
▁singh	-12.0057
▁निकासी	-12.0057
▁शकुनी	-12.0057
▁परर	-12.0057
▁लोधी	-12.0057
▁वाणिज्य	-12.0057
▁तलब	-12.0057
▁Kalu	-12.0057
▁xÉBÉEä	-12.0057
▁percent	-12.0057
▁आनशक	-12.0057
▁माहौल	-12.0057
▁inflationary	-12.0057
▁स्टोन	-12.0057
▁प्लानिंग	-12.0057
▁stable	-12.0057
▁लैण्ड	-12.0057
▁साकार	-12.0057
▁ANWAR	-12.0057
▁recovered	-12.0057
▁rendered	-12.0057
▁input	-12.0057
▁coastal	-12.0057
▁प्रहर	-12.0057
▁जवानों	-12.0057
▁minor	-12.0057
▁overrun	-12.0057
▁वस्तु	-12.0057
▁बढ़ेगी	-12.0057
▁sq	-12.0057
▁1962	-12.0057
▁relied	-12.0057
▁सोचते	-12.0057
▁Increasing	-12.0057
▁प्रयोजन	-12.0057
Asstt	-12.0057
▁1970	-12.0057
▁गाड़ियां	-12.0057
▁ITO	-12.0057
▁Chaudhary	-12.0057
▁IDPL	-12.0057
▁Lakhs	-12.0057
▁SUSHMA	-12.0057
▁charging	-12.0057
▁कार्मिक	-12.0057
▁पैदल	-12.0057
▁मंत्रिमंडल	-12.0057
▁मुननरका	-12.0057
▁सम्पन्न	-12.0057
▁सलूम्बर	-12.0057
▁Recovery	-12.0057
▁पट्टी	-12.0057
▁ब्राडगेज	-12.0057
▁मैनपुरी	-12.0057
▁divert	-12.0057
▁९९	-12.0057
▁सच्चाई	-12.0057
▁pilgrimage	-12.0058
▁बिन्दु	-12.0058
▁Gita	-12.0058
▁निकलने	-12.0058
▁certified	-12.0058
▁washed	-12.0058
▁कौल	-12.0058
▁बनेगी	-12.0058
▁प्रान्त	-12.0058
▁Satyam	-12.0058
▁उपसस	-12.0058
▁́ÉÉÆ	-12.0058
▁succeeded	-12.0058
▁बेनी	-12.0058
▁indicators	-12.0058
▁workmen	-12.0058
▁abused	-12.0058
▁िन	-12.0058
▁mathematics	-12.0058
▁profitable	-12.0058
▁निकलता	-12.0058
▁reiterated	-12.0058
▁Respected	-12.0058
▁रचना	-12.0058
▁Rise	-12.0058
▁प्रक्रियाओं	-12.0058
▁Vajpayeeji	-12.0058
▁मज़दूरों	-12.0058
▁DEVE	-12.0058
▁४००	-12.0058
▁1947	-12.0058
▁respectfully	-12.0058
▁सतनामी	-12.0058
▁प्रैस	-12.0058
▁Later	-12.0058
▁मागग	-12.0058
▁डालकर	-12.0058
▁lathi	-12.0058
▁धाराओं	-12.0058
Va	-12.0059
▁दर्जनों	-12.0059
▁Certainly	-12.0059
38]	-12.0059
▁जमाने	-12.0059
▁सदियों	-12.0059
▁Somnathji	-12.0059
▁exposed	-12.0059
▁एवम्	-12.0059
▁1923	-12.0059
▁oÉÆ	-12.0059
▁गर्मी	-12.0059
▁मित्रों	-12.0059
▁reflection	-12.0059
▁lending	-12.0059
▁Lankan	-12.0059
▁Anand	-12.0059
▁बताते	-12.0059
▁Seventh	-12.0059
▁Site	-12.0059
▁इंडस्ट्रीज	-12.0059
▁मसले	-12.0059
▁humanity	-12.0059
▁कमाने	-12.0059
▁Sixth	-12.006
39]	-12.006
▁membership	-12.006
▁Including	-12.006
▁Awas	-12.006
▁Fast	-12.006
▁बांका	-12.006
▁वार्ता	-12.006
▁रखिए	-12.006
▁कार्पोरेशन	-12.006
▁Loan	-12.006
▁लेवी	-12.006
▁AMAR	-12.006
▁जुड़ी	-12.006
▁consulted	-12.006
▁कामगारों	-12.006
▁नगरीय	-12.006
ÉäoÉ	-12.0061
▁ककककककककक	-12.0061
20]	-12.0061
▁निदेशक	-12.0061
▁समुदायों	-12.0061
▁expanding	-12.0061
▁performing	-12.0061
▁replaced	-12.0061
▁डॉक्टरों	-12.0061
▁रोकना	-12.0061
▁Broadcasting	-12.0061
▁Sittings	-12.0061
▁averments	-12.0061
▁sportspersons	-12.0061
▁translates	-12.0061
34]	-12.0061
29]	-12.0061
▁वादा	-12.0061
▁printed	-12.0061
▁णजसक	-12.0061
▁भेजकर	-12.0061
▁देखता	-12.0061
▁1948	-12.0061
▁बैठेंगे	-12.0061
▁rare	-12.0062
▁इनकम	-12.0062
▁बनाते	-12.0062
▁भार	-12.0062
Members	-12.0062
▁SMP	-12.0062
▁मानवता	-12.0062
▁लगना	-12.0062
▁भले	-12.0062
use	-12.0063
iÉxÉÉ	-12.0063
56]	-12.0063
▁चैनलों	-12.0063
▁75%	-12.0063
▁यापन	-12.0063
▁निकला	-12.0063
▁Same	-12.0064
▁गढ़वाल	-12.0064
▁स्तरीय	-12.0064
▁jump	-12.0064
17]	-12.0064
▁machines	-12.0064
▁modifications	-12.0064
▁hotels	-12.0064
▁बताता	-12.0064
▁mega	-12.0064
▁Persons	-12.0064
▁मंजूरी	-12.0065
▁Fifty	-12.0065
▁करूंगी	-12.0065
▁उमा	-12.0065
▁players	-12.0065
▁thereunder	-12.0065
26]	-12.0065
▁ability	-12.0065
▁उठाकर	-12.0065
▁treating	-12.0066
▁बैठकों	-12.0066
▁interrupted	-12.0066
▁objected	-12.0066
▁ought	-12.0067
▁ररप	-12.0067
▁Exchanges	-12.0067
▁booths	-12.0067
▁hi	-12.0067
▁parameters	-12.0067
▁segments	-12.0067
▁टिप्पणियों	-12.0067
▁मार्गो	-12.0067
▁Taxes	-12.0068
▁fide	-12.0068
▁बराबरी	-12.0068
▁मौजूदा	-12.0068
▁love	-12.0068
▁Forty	-12.0068
▁लेती	-12.0068
▁expedited	-12.0069
▁7,000	-12.0069
▁staying	-12.0069
▁रहित	-12.0069
▁जगत	-12.0069
▁घी	-12.007
▁generally	-12.007
▁साधनों	-12.007
▁ÉÊoÉ	-12.007
▁रहकर	-12.007
▁बसे	-12.007
▁smaller	-12.0071
▁strengthening	-12.0071
▁बनें	-12.0071
▁establishing	-12.0071
▁Jos	-12.0072
▁Amend	-12.0074
▁बिन्द	-12.0075
▁काटे	-12.0075
▁maintaining	-12.0076
▁aged	-12.0077
▁organizations	-12.0077
▁suggesting	-12.0077
▁हमले	-12.0077
▁intends	-12.0077
STs	-12.0077
▁खादी	-12.0078
रू	-12.0078
▁risen	-12.0079
▁सबने	-12.0079
▁गला	-12.008
▁joining	-12.008
▁Powered	-12.0083
▁कालिंग	-12.0083
▁ships	-12.0083
▁multinationals	-12.0083
▁contains	-12.0083
▁shops	-12.0083
▁seem	-12.0084
▁निर्	-12.0085
▁(8)	-12.0086
▁Hundreds	-12.0086
▁Passengers	-12.0086
▁expressing	-12.0087
▁रखत	-12.0087
▁parcels	-12.009
ali	-12.009
▁अवसरों	-12.0091
▁खाना	-12.0091
▁Shed	-12.0092
­­	-12.0092
9#	-12.0092
कण	-12.0092
टिप्पणियां	-12.0093
▁ended	-12.0093
▁wasting	-12.0095
▁हनन	-12.0095
▁attacking	-12.0096
▁protecting	-12.0096
nyway	-12.0098
▁q	-12.0098
▁पुलों	-12.0098
▁seventh	-12.0099
▁देरी	-12.0099
▁ensured	-12.0099
▁503	-12.0099
▁Proposals	-12.0099
▁safeguards	-12.0099
▁firms	-12.0099
▁सरत	-12.01
ai	-12.01
▁89	-12.0101
▁Bengali	-12.0102
▁मूल्यों	-12.0102
▁प्रश्नों	-12.0102
▁dreams	-12.0103
▁तन	-12.0104
▁चारों	-12.0104
▁हू	-12.0104
▁271	-12.0104
▁secondly	-12.0105
▁डाक	-12.0106
line	-12.0106
हार	-12.0108
▁allies	-12.0108
•"	-12.0109
▁Consumers	-12.0109
▁phones	-12.0109
▁cylinders	-12.0109
▁दण	-12.0112
▁Grounds	-12.0112
▁emphasize	-12.0119
▁representations	-12.012
▁चारा	-12.0121
▁starting	-12.0124
▁कोइ	-12.0124
▁ककस	-12.0125
▁Legislatures	-12.0125
▁सख	-12.0126
▁282	-12.0126
▁813	-12.0128
▁newly	-12.0132
▁जानें	-12.0133
▁8.	-12.0134
▁प्रत	-12.0134
▁arrangements	-12.0138
▁arguments	-12.0138
▁leads	-12.0138
PR	-12.0138
्रा	-12.0138
OF	-12.014
▁presently	-12.0141
▁receipts	-12.0141
▁covers	-12.0145
▁VI	-12.0145
▁firstly	-12.0146
▁16%	-12.0149
▁मं	-12.0151
ियल	-12.0152
Ind	-12.0153
▁returns	-12.0154
58	-12.0156
▁Mh	-12.0156
▁दज	-12.0159
▁youths	-12.016
▁2011,	-12.0162
not	-12.0164
▁8%	-12.0164
▁थाना	-12.0166
▁Sl	-12.0166
▁books	-12.0167
▁काला	-12.0168
▁यत	-12.0169
▁113	-12.017
▁अन्तर	-12.017
▁तल	-12.0178
(3)	-12.0179
ेस	-12.0182
▁languages	-12.0183
▁Mor	-12.0185
▁faces	-12.0186
+0	-12.0189
▁Governors	-12.0193
▁backing	-12.0194
▁बै	-12.0194
सि	-12.0202
ku	-12.0205
ेगी	-12.0206
▁खसर	-12.0209
▁petitions	-12.0219
▁don	-12.0223
रद	-12.0232
iy	-12.0234
tion	-12.0237
▁-	-12.0242
ik	-12.0242
▁जाय	-12.0245
hat	-12.0248
ांग	-12.0253
▁Laws	-12.0257
लल	-12.0259
▁प्रा	-12.0281
▁टू	-12.0283
▁forms	-12.0286
दर	-12.0293
dha	-12.0297
▁उध	-12.0297
सिंह	-12.0305
8/	-12.0317
▁bed	-12.0318
▁guard	-12.0329
jan	-12.0334
"#	-12.0335
▁Pr	-12.0338
▁सास	-12.0338
pat	-12.0347
▁पौ	-12.0357
कारा	-12.0358
▁:::	-12.0369
ंत	-12.0376
▁bother	-12.0382
oÉä	-12.0385
gs	-12.0393
▁खुले	-12.0395
▁जजस	-12.0406
ft	-12.0407
HU	-12.0417
▁रेज	-12.042
ाड़	-12.0424
▁बहने	-12.0427
of	-12.0437
..."	-12.0448
शील	-12.0455
▁positions	-12.0457
ॉट	-12.0467
ानी	-12.0482
▁डेटा	-12.0489
▁cane	-12.0505
▁appellants	-12.0517
▁अख	-12.0524
▁fl	-12.0524
▁अनत	-12.0539
PT	-12.0544
िल्ली	-12.0591
ize	-12.0593
ुन	-12.0598
12	-12.0601
लय	-12.0614
रती	-12.0616
ाले	-12.0619
▁हैंड	-12.0628
).	-12.0659
nÉ	-12.0662
धध	-12.0667
वत	-12.0669
ौर	-12.067
▁sets	-12.0681
▁Term	-12.0682
ian	-12.0697
▁98,	-12.07
SN	-12.0707
▁Te	-12.0714
▁मुक	-12.0716
29	-12.0722
BÉEä	-12.0729
▁देखे	-12.0732
''	-12.0737
▁ore	-12.0741
▁318	-12.0743
क्	-12.0744
▁sound	-12.0745
▁गौ	-12.0746
▁गु	-12.0767
tt	-12.077
गल	-12.0772
▁Jo	-12.0785
thi	-12.0814
▁lo	-12.082
▁कद	-12.0829
▁२७	-12.0846
▁५१	-12.0859
▁mal	-12.0869
ial	-12.0885
वाल	-12.0912
▁"...	-12.0928
▁Bar	-12.0942
▁Ch	-12.0943
vil	-12.0946
ैक्स	-12.0948
सु	-12.0971
▁आव	-12.0983
▁substantiate	-12.0985
ck	-12.0988
▁lk	-12.1005
▁motions	-12.1006
aya	-12.1013
Æ	-12.1015
▁बु	-12.1022
▁situations	-12.1023
टि	-12.1041
▁99,	-12.1044
▁oÉBÉEÉ	-12.1057
34	-12.1061
▁SH	-12.1071
▁बैंच	-12.1072
rk	-12.1072
पक	-12.1105
खय	-12.1115
▁2009)	-12.1134
▁incomplete	-12.1139
▁Da	-12.1142
वक	-12.1144
खर	-12.1145
Ò	-12.1159
86	-12.1165
▁दय	-12.1176
▁मचा	-12.1177
लए	-12.1183
▁कहिए	-12.1184
▁Sen	-12.1185
ise	-12.1227
▁ते	-12.1236
्या	-12.1236
ities	-12.1251
bh	-12.1254
मय	-12.1257
▁अपमान	-12.1266
57	-12.1266
▁चर	-12.1268
▁àÉÖ	-12.1273
AY	-12.1274
▁सप	-12.1275
ेल	-12.1275
16	-12.1276
ED	-12.1288
ple	-12.1317
▁गा	-12.1326
▁1987	-12.1326
ग्र	-12.1332
▁Ra	-12.1333
▁emphasise	-12.1341
एन	-12.1362
▁जक	-12.1363
ैया	-12.1373
▁डायरेक्ट	-12.1377
िम	-12.1385
चन	-12.1399
▁समा	-12.1402
OR	-12.1409
िमा	-12.1412
▁Put	-12.1418
मैंट	-12.1425
▁उसम	-12.1428
MA	-12.1434
▁1986,	-12.1445
▁रै	-12.1457
दान	-12.146
▁कोआपरेट	-12.1467
रिया	-12.1477
▁गहर	-12.1477
यल	-12.1477
▁650	-12.1483
▁अपराधी	-12.1487
▁Get	-12.1487
▁हट	-12.1493
▁Car	-12.1503
▁ÉÊxÉ	-12.1513
▁रो	-12.1517
मु	-12.1523
▁बोर	-12.1528
▁अरब	-12.1535
her	-12.1546
▁!,	-12.1561
men	-12.1563
▁९०	-12.1565
पट	-12.1572
▁CH	-12.1574
▁120	-12.1578
▁उठायें	-12.1584
▁मां	-12.1585
▁खस	-12.159
▁वद	-12.1595
2009	-12.1599
ँ	-12.16
ही	-12.1606
ire	-12.1617
लख	-12.1626
▁आक	-12.1628
95	-12.1635
300	-12.1642
▁BO	-12.1645
▁Petition	-12.1653
लर	-12.1655
ujh	-12.166
▁Kanti	-12.166
ight	-12.1672
▁author	-12.1676
IB	-12.1682
▁Dum	-12.1687
▁empower	-12.1694
▁collapse	-12.1695
▁electric	-12.1696
▁neighbour	-12.1697
one	-12.1697
▁Catholic	-12.1697
▁Comrade	-12.1697
▁scholarship	-12.1697
▁scene	-12.1698
▁tribute	-12.1698
▁concentrate	-12.1698
▁relationship	-12.1698
▁lapse	-12.1699
em	-12.1699
▁net	-12.1699
▁Place	-12.1699
मंत्री	-12.17
▁perception	-12.17
▁conviction	-12.17
▁estimate	-12.17
▁blast	-12.17
▁hardship	-12.17
ग्रस्त	-12.1701
▁Sainik	-12.1701
▁Mitra	-12.1701
▁Observation	-12.1701
▁VIP	-12.1701
▁College	-12.1702
▁Headquarter	-12.1702
▁Provision	-12.1702
▁corridor	-12.1702
▁incentive	-12.1702
▁Time	-12.1702
▁lawyer	-12.1702
▁regulation	-12.1703
ौली	-12.1703
▁NPA	-12.1703
▁leg	-12.1703
Agrahayana	-12.1703
ङ	-12.1703
▁lesson	-12.1704
रटन	-12.1704
▁negotiation	-12.1704
▁godown	-12.1705
दास	-12.1705
ग्राम	-12.1706
True	-12.1707
deep	-12.1708
route	-12.1708
PAN	-12.1708
Before	-12.1708
महाराजगंज	-12.1708
–	-12.1708
Madhya	-12.1708
including	-12.1708
यदि	-12.1709
वहां	-12.1709
सागर	-12.1709
THE	-12.171
Act	-12.171
मैंने	-12.1711
हमने	-12.1712
आपने	-12.1713
ज्ञ	-12.1713
▁soap	-12.1713
Now	-12.1713
▁Select	-12.1715
▁Pass	-12.1715
istic	-12.1715
▁register	-12.1716
▁obtain	-12.1716
▁मज़दूर	-12.1717
▁eleven	-12.1717
▁Move	-12.1717
▁pick	-12.1717
ादन	-12.1717
▁Fifteen	-12.1717
▁augment	-12.1718
▁fulfill	-12.1718
▁भंडार	-12.1718
न्ड	-12.1718
▁wonder	-12.1718
▁Consider	-12.1719
▁justify	-12.1719
▁Broadcast	-12.1719
▁सैक्टर	-12.1719
▁drink	-12.1719
▁निदेश	-12.1719
▁आंध्र	-12.1719
▁जबरदस्त	-12.1719
▁deviate	-12.1719
▁तालाब	-12.172
▁brave	-12.172
▁select	-12.172
▁आखिर	-12.172
▁शर्त	-12.172
FB	-12.172
▁deed	-12.172
▁moral	-12.172
▁Stand	-12.172
▁leak	-12.172
ल्लाह	-12.172
▁communicate	-12.172
▁dare	-12.172
Ex	-12.172
▁consolidate	-12.172
▁harm	-12.172
▁attach	-12.172
▁demolish	-12.172
▁Saroj	-12.172
▁कृषक	-12.172
▁promulgate	-12.172
▁Respect	-12.1721
▁eloquent	-12.1721
▁Kumbh	-12.1721
▁expose	-12.1721
▁Sushil	-12.1721
▁quick	-12.1721
▁Lay	-12.1721
▁consistent	-12.1721
▁Similar	-12.1721
▁मुझ	-12.1721
▁बहु	-12.1721
▁किस्म	-12.1721
▁पदार्थो	-12.1721
BIND	-12.1721
aries	-12.1721
▁पपपपपप	-12.1722
▁स्वच्छ	-12.1722
▁SCIENCE	-12.1722
▁डिपो	-12.1722
▁ग्यारह	-12.1722
▁प्रमाण	-12.1722
▁ambit	-12.1722
▁उत्साह	-12.1722
▁चिन्ह	-12.1722
▁Shakespeare	-12.1722
▁महंगा	-12.1722
▁cry	-12.1722
▁recess	-12.1722
▁quo	-12.1722
▁विशेषज्ञ	-12.1722
▁Narayan	-12.1722
▁Rashtrapati	-12.1722
▁AoÉ	-12.1722
▁null	-12.1722
▁interact	-12.1722
▁Gold	-12.1722
▁कुमाऊं	-12.1722
▁Islam	-12.1722
▁ÉÊBÉEoÉÉxÉ	-12.1722
▁catch	-12.1722
ाधान	-12.1723
▁चित्तौड़	-12.1723
▁repay	-12.1723
▁Kamal	-12.1723
▁Clear	-12.1723
▁federal	-12.1723
▁supplement	-12.1723
▁hydro	-12.1723
▁Bharti	-12.1723
▁Manoj	-12.1723
▁दोहरा	-12.1723
reporter	-12.1723
▁हकीकत	-12.1723
Retd	-12.1723
Vaisakha	-12.1723
ÉVÉMÉÆVÉ	-12.1723
▁AARON	-12.1723
▁ACHARYA	-12.1723
▁AMBEDKAR	-12.1723
▁ATHAWALE	-12.1723
▁AURANGABAD	-12.1723
▁Activities	-12.1723
▁Advocate	-12.1723
▁Amount	-12.1723
▁Anderson	-12.1723
▁Anniversary	-12.1723
▁Arrah	-12.1723
▁Assets	-12.1723
▁BADNORE	-12.1723
▁BHUBANESWAR	-12.1723
▁Biju	-12.1723
▁Bikram	-12.1723
▁Birth	-12.1723
▁Bpl	-12.1723
▁Braja	-12.1723
▁Bsnl	-12.1723
▁Buxar	-12.1723
▁CHACKO	-12.1723
▁CHAOBA	-12.1723
▁CHAVAN	-12.1723
▁CHENNAI	-12.1723
▁CONVENTION	-12.1723
▁COOCHBEHAR	-12.1723
▁Centaur	-12.1723
▁Chambal	-12.1723
▁Chhatisgarh	-12.1723
▁Chowdhury	-12.1723
▁Circular	-12.1723
▁Commencing	-12.1723
▁Compulsory	-12.1723
▁Constituencies	-12.1723
▁Continue	-12.1723
▁Convert	-12.1723
▁Copra	-12.1723
▁Dahyabhai	-12.1723
▁Damodar	-12.1723
▁Datta	-12.1723
▁Declaration	-12.1723
▁Delkar	-12.1723
▁Democratic	-12.1723
▁Dibrugarh	-12.1723
▁Domestic	-12.1723
▁Elected	-12.1723
▁Emergency	-12.1723
▁Enough	-12.1723
▁Enquiry	-12.1723
▁Erosion	-12.1723
▁Expenditure	-12.1723
▁Film	-12.1723
▁Gandak	-12.1723
▁Gratuity	-12.1723
▁Gwalior	-12.1723
▁HUSSAIN	-12.1723
▁Harbour	-12.1723
▁Historical	-12.1723
▁Index	-12.1723
▁Investigate	-12.1723
▁Investigating	-12.1723
▁Jantar	-12.1723
▁KALYAN	-12.1723
▁KANUNGO	-12.1723
▁Karunakaran	-12.1723
▁Kashyap	-12.1723
▁Katiyar	-12.1723
▁Kotdwar	-12.1723
▁Laxman	-12.1723
▁Likewise	-12.1723
▁MANEKA	-12.1723
▁MANGALORE	-12.1723
▁MANN	-12.1723
▁MUNIYAPPA	-12.1723
▁Managing	-12.1723
▁Mantar	-12.1723
▁Maveli	-12.1723
▁Misrikh	-12.1723
▁MÉxxÉä	-12.1723
▁NATIONAL	-12.1723
▁NIKHIL	-12.1723
▁Nagbhid	-12.1723
▁Nigam	-12.1723
▁Obcs	-12.1723
▁Occasion	-12.1723
▁Overbridge	-12.1723
▁POTO	-12.1723
▁PRABHAKAR	-12.1723
▁PRITHVIRAJ	-12.1723
▁Pandiyan	-12.1723
▁Parbhani	-12.1723
▁Pramod	-12.1723
▁Prevailing	-12.1723
▁Proclamation	-12.1723
▁Procurement	-12.1723
▁Progress	-12.1723
▁Register	-12.1723
▁Rehabilitation	-12.1723
▁Resort	-12.1723
▁Restart	-12.1723
▁Route	-12.1723
▁SARDAR	-12.1723
▁SIKDAR	-12.1723
▁Santhali	-12.1723
▁Saryu	-12.1723
▁Semiconductor	-12.1723
▁Shajapur	-12.1723
▁Shekhar	-12.1723
▁Sheopur	-12.1723
▁Smith	-12.1723
▁Society	-12.1723
▁Subhash	-12.1723
▁Supplied	-12.1723
▁Surinder	-12.1723
▁SÉÉciÉÉ	-12.1723
▁SÉÉcÚÆMÉÉ	-12.1723
▁TADA	-12.1723
▁TAPAN	-12.1723
▁TCPDF	-12.1723
▁TOURISM	-12.1723
▁TRILOCHAN	-12.1723
▁Tehalka	-12.1723
▁Tendulkar	-12.1723
▁Tirunelveli	-12.1723
▁Track	-12.1723
▁Transfer	-12.1723
▁Transmitter	-12.1723
▁ULUBERIA	-12.1723
▁Urdu	-12.1723
▁Vidarbha	-12.1723
▁Vidyutikaran	-12.1723
▁Vikas	-12.1723
▁Vinod	-12.1723
▁Violence	-12.1723
▁Vizhinjam	-12.1723
▁WRIT	-12.1723
▁Wednesday	-12.1723
▁Wireless	-12.1723
▁accompanied	-12.1723
▁accusation	-12.1723
▁anomalies	-12.1723
▁appreciating	-12.1723
▁approving	-12.1723
▁arriving	-12.1723
▁artificial	-12.1723
▁battle	-12.1723
▁bifurcation	-12.1723
▁brain	-12.1723
▁brand	-12.1723
▁buck	-12.1723
▁carriage	-12.1723
▁centuries	-12.1723
▁chancellor	-12.1723
▁comparison	-12.1723
▁competitive	-12.1723
▁concurrence	-12.1723
▁constrained	-12.1723
▁contingency	-12.1723
▁continuation	-12.1723
▁corresponding	-12.1723
▁culprits	-12.1723
▁dairy	-12.1723
▁deciding	-12.1723
▁defamatory	-12.1723
▁deficiencies	-12.1723
▁defying	-12.1723
▁demise	-12.1723
▁depreciation	-12.1723
▁desirable	-12.1723
▁dkjZokbZ	-12.1723
▁dual	-12.1723
▁east	-12.1723
▁effluents	-12.1723
▁electronic	-12.1723
▁excess	-12.1723
▁exclusion	-12.1723
▁factual	-12.1723
▁fencing	-12.1723
▁fifteen	-12.1723
▁fourteen	-12.1723
▁gender	-12.1723
▁gradually	-12.1723
▁grass	-12.1723
▁healthcare	-12.1723
▁identical	-12.1723
▁ideological	-12.1723
▁ignoring	-12.1723
▁improper	-12.1723
▁inception	-12.1723
▁infectious	-12.1723
▁infringement	-12.1723
▁infructuous	-12.1723
▁insured	-12.1723
▁integral	-12.1723
▁investigating	-12.1723
▁izfroknh	-12.1723
▁kidney	-12.1723
▁kisans	-12.1723
▁ladies	-12.1723
▁layXu	-12.1723
▁legitimate	-12.1723
▁liable	-12.1723
▁malaria	-12.1723
▁mifLFkr	-12.1723
▁monetary	-12.1723
▁motor	-12.1723
▁muslim	-12.1723
▁neigh	-12.1723
▁nomination	-12.1723
▁northern	-12.1723
▁overwhelming	-12.1723
▁oÉÉÊàÉÉÊiÉ	-12.1723
▁pakistan	-12.1723
▁plurality	-12.1723
▁polity	-12.1723
▁possibly	-12.1723
▁privatised	-12.1723
▁privatising	-12.1723
▁promoting	-12.1723
▁rationale	-12.1723
▁rebel	-12.1723
▁regret	-12.1723
▁remuneration	-12.1723
▁replies	-12.1723
▁restart	-12.1723
▁rival	-12.1723
▁sharing	-12.1723
▁somewhere	-12.1723
▁sophisticated	-12.1723
▁sorrow	-12.1723
▁substantive	-12.1723
▁superfast	-12.1723
▁surcharge	-12.1723
▁systematic	-12.1723
▁tackling	-12.1723
▁technological	-12.1723
▁telecom	-12.1723
▁untold	-12.1723
▁urging	-12.1723
▁vaÉÉxÉ	-12.1723
▁versus	-12.1723
▁ÉËoÉc	-12.1723
▁अक्सर	-12.1723
▁अखंडता	-12.1723
▁अधिग्रहीत	-12.1723
▁अधूरे	-12.1723
▁अध्यापक	-12.1723
▁अर्पित	-12.1723
▁अवरुद्ध	-12.1723
▁अवैधािनक	-12.1723
▁अशांति	-12.1723
▁असहाय	-12.1723
▁आकर्िषत	-12.1723
▁आजमगढ़	-12.1723
▁आजीविका	-12.1723
▁आरोग्य	-12.1723
▁इंकवायरी	-12.1723
▁इंक्वायरी	-12.1723
▁इंडस्ट्रियल	-12.1723
▁इमारतों	-12.1723
▁उन्मूलन	-12.1723
▁उ०प्र०	-12.1723
▁ओएनजीसी	-12.1723
▁कंपनियां	-12.1723
▁कमर्शियल	-12.1723
▁करप्शन	-12.1723
▁क़श्िचयन	-12.1723
▁कालोनियां	-12.1723
▁कुँवर	-12.1723
▁केबिनेट	-12.1723
▁कैन्टोनमैंट	-12.1723
▁कोडरमा	-12.1723
▁क्रमिनल	-12.1723
▁क्रियान्वयन	-12.1723
▁क्रॉसिंग	-12.1723
▁खदानों	-12.1723
▁घंटा	-12.1723
▁चम्बल	-12.1723
▁चलायी	-12.1723
▁चिखलिया	-12.1723
▁चेतावनी	-12.1723
▁जगदम्बिका	-12.1723
▁जनगणना	-12.1723
▁जनजीवन	-12.1723
▁जयाबेन	-12.1723
▁जलाशय	-12.1723
▁जानलेवा	-12.1723
▁जुल्म	-12.1723
▁जूट	-12.1723
▁ज्योति	-12.1723
▁ज्वाइंट	-12.1723
▁टैरेरिज्म	-12.1723
▁ट्राइब्स	-12.1723
▁ट्रैफिक	-12.1723
▁डिपार्टमैंट	-12.1723
▁डिब्बे	-12.1723
▁तम्बाकू	-12.1723
▁तानाशाही	-12.1723
▁तिरुवनंतपुरम	-12.1723
▁तूफ़ानी	-12.1723
▁त्यागपत्र	-12.1723
▁त्रिपुरा	-12.1723
▁दमोह	-12.1723
▁दािणडक	-12.1723
▁द्यण्ड्ढ	-12.1723
▁द्वितीय	-12.1723
▁द्ृष्टिकोण	-12.1723
▁धरोहर	-12.1723
▁धीरज	-12.1723
▁ध्यानाकर्षण	-12.1723
▁नकारात्मक	-12.1723
▁नगण्य	-12.1723
▁नजदीक	-12.1723
▁पंजीकार	-12.1723
▁परिसीमन	-12.1723
▁पहुँच	-12.1723
▁पिटाई	-12.1723
▁पीढ़ी	-12.1723
▁पैसेंजर	-12.1723
▁पौराणिक	-12.1723
▁प्रतीत	-12.1723
▁प्रदर्शित	-12.1723
▁प्रशंसा	-12.1723
▁फांसी	-12.1723
▁बंटवारे	-12.1723
▁बक्सर	-12.1723
▁बरकरार	-12.1723
▁बाधित	-12.1723
▁बीजेपी	-12.1723
▁बूझकर	-12.1723
▁ब्रटिश	-12.1723
▁ब्रॉडगेज	-12.1723
▁भगोरा	-12.1723
▁मद्रास	-12.1723
▁महताब	-12.1723
▁मिसरिख	-12.1723
▁मुंगेली	-12.1723
▁मुआवजे	-12.1723
▁मुकाबला	-12.1723
▁मुखर्जी	-12.1723
▁मेडीकल	-12.1723
▁मैडिकल	-12.1723
▁युनिवर्सिटी	-12.1723
▁रत्नागरि	-12.1723
▁रात्रि	-12.1723
▁रायबरेली	-12.1723
▁रेणुका	-12.1723
▁लड़कियों	-12.1723
▁विदड्रा	-12.1723
▁विधानसभा	-12.1723
▁विभाजन	-12.1723
▁शासकीय	-12.1723
▁शाहजहांपुर	-12.1723
▁शोलापुर	-12.1723
▁श्लोक	-12.1723
▁संगठित	-12.1723
▁संवरा	-12.1723
▁सईदुज्जमा	-12.1723
▁सतयता	-12.1723
▁सरचार्ज	-12.1723
▁सामूहिक	-12.1723
▁सिमरिया	-12.1723
▁सिलसिले	-12.1723
▁सुद्ृढ़	-12.1723
▁स्टेंडिंग	-12.1723
▁स्टॉपेज	-12.1723
▁हहसस	-12.1723
▁१९४७	-12.1723
▁१९९३	-12.1723
pkp	-12.1723
ȣ	-12.1723
▁1988	-12.1723
▁Alliance	-12.1723
▁Citizenship	-12.1723
▁Crisis	-12.1723
▁Giripar	-12.1723
▁Making	-12.1723
▁Perhaps	-12.1723
▁Rank	-12.1723
▁Singapore	-12.1723
▁Swamy	-12.1723
▁analysis	-12.1723
▁annexure	-12.1723
▁army	-12.1723
▁edge	-12.1723
▁अमैंडमैंट	-12.1723
▁आइटम	-12.1723
▁इंफ्रास्ट्रक्चर	-12.1723
▁इंसाफ	-12.1723
▁इलेक्शन	-12.1723
▁कपिल	-12.1723
▁जिंदगी	-12.1723
▁जितेन्द्र	-12.1723
▁नियत	-12.1723
▁मिल्क	-12.1723
▁रीज़न	-12.1723
▁शरीर	-12.1723
▁Bound	-12.1723
▁Choudhary	-12.1723
▁DOME	-12.1723
▁IAEA	-12.1723
▁Naidu	-12.1723
▁Ratangarh	-12.1723
▁Spread	-12.1723
▁Tripathi	-12.1723
▁generic	-12.1723
▁gentleman	-12.1723
▁upliftment	-12.1723
▁गावों	-12.1723
▁बंटवारा	-12.1723
▁मैनेजमेंट	-12.1723
▁HEA	-12.1723
▁IPL	-12.1723
▁Priority	-12.1723
▁drama	-12.1723
▁worse	-12.1723
▁कालीदास	-12.1723
▁गुजारिश	-12.1723
▁धारकों	-12.1723
▁महेन्द्र	-12.1723
▁Reduction	-12.1723
▁Revive	-12.1723
▁disbursement	-12.1723
▁heaven	-12.1723
▁intensive	-12.1723
▁location	-12.1723
▁nodal	-12.1723
▁quack	-12.1723
▁́ÉtÉÖiÉ	-12.1723
▁एक्सपोर्ट	-12.1723
▁कुपोषण	-12.1723
▁प्रतनधित्व	-12.1723
snb	-12.1723
▁Baddi	-12.1723
▁licensed	-12.1723
▁series	-12.1723
▁अमृतसर	-12.1723
▁इम्पोर्ट	-12.1723
▁बिगड़	-12.1723
▁मनोबल	-12.1723
/2016	-12.1723
Sravana	-12.1723
[...]
