<pad>	0
<unk>	0
<s>	0
</s>	0
,	-3.36127
▁the	-3.43626
▁of	-4.0826
▁to	-4.21403
।	-4.32868
▁(	-4.55456
▁है	-4.61931
▁is	-4.68334
▁and	-4.69618
▁के	-4.69782
)	-4.7129
▁in	-4.78901
▁I	-4.95843
▁में	-4.96852
▁की	-5.02425
▁a	-5.02691
▁:	-5.04438
▁that	-5.08215
:	-5.14773
▁on	-5.20754
▁से	-5.29191
▁को	-5.35802
▁The	-5.3879
▁not	-5.39366
▁और	-5.42435
Interruptions	-5.43543
▁this	-5.46836
▁का	-5.5006
▁have	-5.50659
▁be	-5.50955
▁for	-5.5192
▁are	-5.56703
▁हैं	-5.59933
▁MR	-5.64238
▁it	-5.67044
▁कि	-5.7799
▁...	-5.79524
▁has	-5.79675
▁	-5.81069
▁नहीं	-5.83244
▁by	-5.83805
▁SPEAKER	-5.85063
▁पर	-5.90877
▁you	-5.91497
▁SHRI	-5.93168
▁will	-5.95814
▁Government	-5.99826
▁was	-6.00788
▁महोदय	-6.02018
▁लिए	-6.08193
▁Sir	-6.09447
▁श्री	-6.09897
▁Shri	-6.15911
▁as	-6.16431
▁we	-6.17883
▁इस	-6.18794
▁क	-6.19679
?	-6.20043
▁सरकार	-6.20345
▁भी	-6.20633
▁यह	-6.2153
▁Minister	-6.22032
▁)	-6.25193
▁been	-6.31802
▁with	-6.32871
▁मैं	-6.33478
▁House	-6.379
▁हो	-6.40541
s	-6.42869
▁व्यवधान	-6.4315
▁should	-6.44168
▁from	-6.44778
▁would	-6.45194
▁To	-6.46206
▁which	-6.46517
▁जी	-6.46958
▁Need	-6.48425
▁there	-6.48559
▁कर	-6.49171
▁Of	-6.51099
▁एक	-6.51203
▁also	-6.52832
▁):	-6.54507
▁जो	-6.55843
▁करने	-6.55974
▁"	-6.56011
▁hon	-6.56092
▁किया	-6.56675
▁न	-6.57167
▁In	-6.57336
▁at	-6.57562
▁It	-6.5826
▁हूं	-6.59573
▁all	-6.61362
▁ने	-6.63885
▁अध्यक्ष	-6.68359
▁आप	-6.6939
▁Bill	-6.69945
▁am	-6.70064
▁Sabha	-6.70304
▁do	-6.72519
▁or	-6.76736
▁an	-6.76757
▁तो	-6.78117
▁they	-6.78454
▁Lok	-6.78767
▁can	-6.82176
▁गया	-6.82959
▁र	-6.83406
▁मंत्री	-6.83663
▁very	-6.84115
▁he	-6.84265
▁We	-6.84402
▁India	-6.84947
▁take	-6.88543
▁This	-6.89465
▁your	-6.89486
▁our	-6.90468
/	-6.91712
▁दिया	-6.91791
’	-6.93259
▁people	-6.95582
▁Members	-6.96367
▁State	-6.97487
▁like	-6.98079
▁A	-6.99853
▁time	-7.00355
;	-7.00606
▁up	-7.03025
▁चाहिए	-7.03613
▁Title	-7.03736
▁रहे	-7.04704
▁country	-7.05343
▁ह	-7.05383
▁No	-7.06127
▁Debates	-7.06442
▁one	-7.06657
▁CHAIRMAN	-7.07887
▁only	-7.08063
▁no	-7.09155
▁बात	-7.09439
▁about	-7.09695
▁म	-7.09712
▁other	-7.09752
▁रहा	-7.09931
▁था	-7.10532
▁सिंह	-7.1097
▁You	-7.11005
▁Please	-7.11188
▁any	-7.12932
▁my	-7.13622
▁जा	-7.13958
▁but	-7.15564
▁what	-7.18877
▁given	-7.19531
▁तक	-7.19579
▁ही	-7.20754
▁now	-7.2079
▁these	-7.20844
▁लेकिन	-7.22181
▁their	-7.25234
▁under	-7.25243
▁go	-7.25522
▁रही	-7.25718
▁were	-7.2576
▁करना	-7.26549
▁me	-7.27265
▁some	-7.27616
▁हम	-7.27637
▁who	-7.28361
▁had	-7.28442
▁बहुत	-7.28712
▁per	-7.28762
▁कोई	-7.28887
▁*	-7.29238
▁said	-7.29684
▁देश	-7.29868
▁जाए	-7.30233
▁his	-7.30797
▁लोगों	-7.30819
▁व	-7.31588
▁But	-7.3172
"	-7.3426
▁taken	-7.3431
®	-7.34992
▁Mr	-7.35642
▁DEPUTY	-7.3571
▁वह	-7.36182
▁तथा	-7.37209
▁क्षेत्र	-7.37773
▁matter	-7.38377
▁स	-7.38527
'	-7.40081
▁because	-7.41029
▁made	-7.41337
▁...(	-7.41555
▁Speaker	-7.41803
▁He	-7.42797
▁There	-7.43038
▁2	-7.43039
▁एवं	-7.43223
▁so	-7.43277
▁year	-7.44647
▁want	-7.44914
▁may	-7.4515
▁them	-7.45637
▁माननीय	-7.45917
▁being	-7.46312
▁साथ	-7.46618
▁गई	-7.46951
▁Rs	-7.47053
▁If	-7.47121
▁know	-7.47357
▁issue	-7.47735
▁राज्य	-7.48103
▁more	-7.48131
▁say	-7.4858
▁if	-7.48696
▁सभापति	-7.48988
▁सदन	-7.49287
▁P	-7.49488
▁प्रदेश	-7.5083
▁out	-7.51438
▁प	-7.52241
▁S	-7.52418
▁लोग	-7.52903
▁speak	-7.53561
▁करता	-7.54363
▁समय	-7.55061
▁उपाध्यक्ष	-7.55196
▁into	-7.558
▁Central	-7.56504
▁हुआ	-7.56681
▁please	-7.56771
▁him	-7.57202
▁चाहता	-7.57229
▁द्वारा	-7.5723
▁वहां	-7.58177
▁OF	-7.58919
▁question	-7.58924
▁come	-7.58927
▁us	-7.5897
▁Act	-7.5908
▁।	-7.60869
▁किसानों	-7.61552
▁For	-7.61698
▁On	-7.62342
▁द	-7.62595
▁So	-7.62717
▁point	-7.63004
▁यहां	-7.63478
▁then	-7.63497
▁They	-7.63874
▁here	-7.63974
▁1	-7.64651
▁Now	-7.64671
▁ज	-7.65599
▁Pradesh	-7.6624
▁after	-7.66244
▁give	-7.66993
▁December	-7.67249
▁order	-7.67857
▁कारण	-7.68069
▁बारे	-7.68278
▁Member	-7.68343
▁when	-7.68679
▁such	-7.69086
▁make	-7.69105
▁cannot	-7.69524
▁going	-7.69549
▁केन्द्र	-7.69676
▁cent	-7.69689
▁two	-7.69928
▁वे	-7.70184
▁माध्यम	-7.70315
▁3	-7.71022
▁त	-7.71272
▁What	-7.71431
▁इसके	-7.71518
th	-7.721
▁आज	-7.72239
▁And	-7.72243
▁hrs	-7.72883
▁कुछ	-7.74169
▁हुए	-7.74382
▁August	-7.74386
▁रेल	-7.74809
▁क्या	-7.75499
▁Railway	-7.7552
▁That	-7.75853
▁ध्यान	-7.76327
▁Committee	-7.76625
▁5	-7.76992
▁या	-7.7734
▁4	-7.7767
▁record	-7.78138
▁request	-7.79265
▁years	-7.79327
▁विकास	-7.79749
▁Singh	-7.80719
▁उस	-7.81792
▁बाद	-7.82078
▁काम	-7.82465
▁K	-7.82577
▁[	-7.8314
व्यवधान	-7.83452
▁दी	-7.83466
▁होने	-7.83554
▁इसलिए	-7.83763
▁उत्तर	-7.83815
▁अभी	-7.83987
▁THE	-7.83997
▁आपके	-7.84758
▁मांग	-7.84791
▁–	-7.85677
▁important	-7.86402
।...(	-7.86676
▁जाये	-7.87094
▁भारत	-7.87113
▁against	-7.87141
A	-7.87195
▁जब	-7.87578
▁2005	-7.88476
▁statement	-7.88951
▁थी	-7.89142
▁सकता	-7.89384
▁इन	-7.89872
▁12	-7.90434
▁रूप	-7.90636
▁National	-7.90667
▁कार्य	-7.91165
▁down	-7.91437
▁योजना	-7.91954
▁>	-7.92046
▁Prime	-7.92999
▁करें	-7.93005
▁कुमार	-7.9316
▁कम	-7.93513
▁today	-7.93565
▁March	-7.93777
▁">	-7.93837
▁रेलवे	-7.94309
▁discussion	-7.9438
▁Regarding	-7.94586
▁ल	-7.94623
▁बिहार	-7.95114
▁Parliament	-7.95651
▁case	-7.9573
▁कहा	-7.95732
▁Commission	-7.96208
▁2006	-7.96384
...	-7.96793
▁पहले	-7.97272
▁देने	-7.97285
▁10	-7.97725
▁M	-7.97742
▁MINISTER	-7.97813
▁already	-7.98374
▁वाले	-7.98649
(	-7.98655
▁उन्हें	-7.99503
▁11	-7.99709
▁before	-7.99772
▁through	-8.00327
▁crore	-8.00424
▁अपनी	-8.00615
▁States	-8.00844
▁ओर	-8.00869
▁At	-8.01618
▁+	-8.01991
▁दे	-8.02178
▁Indian	-8.02289
▁थे	-8.02329
▁Report	-8.02402
▁As	-8.02442
▁over	-8.02641
▁information	-8.02935
▁must	-8.03187
▁मेरा	-8.03818
▁15	-8.04196
▁its	-8.04502
▁दो	-8.04877
▁/	-8.0515
▁Let	-8.05281
▁जाने	-8.05864
▁6	-8.06636
▁हुई	-8.06718
▁recorded	-8.06765
▁8	-8.06974
SHRI	-8.07455
▁गए	-8.07646
▁Therefore	-8.07656
▁last	-8.07907
▁‘	-8.08213
That	-8.08289
▁many	-8.08562
▁Not	-8.08988
▁notice	-8.09257
*	-8.09468
▁first	-8.0948
▁C	-8.09639
ing	-8.09681
▁Hon	-8.0973
▁2007	-8.10167
▁ग	-8.10846
▁Table	-8.11039
▁much	-8.11041
▁आ	-8.11669
▁सभा	-8.1196
▁raised	-8.12008
▁whether	-8.12307
▁अपने	-8.12313
▁Ministry	-8.12627
▁आपको	-8.12686
É	-8.12779
▁same	-8.13258
▁तरह	-8.13262
▁farmers	-8.13285
▁मुझे	-8.13303
▁2003	-8.13398
▁विषय	-8.13567
▁आपने	-8.14005
▁allow	-8.14873
▁बोलने	-8.14882
▁present	-8.15481
▁अगर	-8.15863
▁Court	-8.15998
):	-8.16164
▁think	-8.16624
▁करते	-8.16873
▁even	-8.17128
▁done	-8.17198
▁reply	-8.1749
▁passed	-8.17533
▁20	-8.17569
▁place	-8.17584
▁By	-8.17628
▁ब	-8.17745
▁those	-8.18194
▁“	-8.18202
▁right	-8.18343
0	-8.18484
▁speech	-8.19199
▁than	-8.19269
▁प्रसाद	-8.19552
▁part	-8.19984
▁situation	-8.20032
▁how	-8.20625
>	-8.20811
▁dated	-8.20947
&	-8.21125
▁motion	-8.21764
▁16	-8.21841
#	-8.22103
▁अनुरोध	-8.22325
▁7	-8.22376
▁उसके	-8.22706
▁Budget	-8.2281
▁करोड़	-8.23368
▁चर्चा	-8.23384
▁seat	-8.23535
▁होगा	-8.23751
▁sit	-8.2388
▁14	-8.23935
▁Finance	-8.24099
▁Nothing	-8.24109
क	-8.2419
▁करके	-8.24201
▁why	-8.24454
▁provide	-8.24507
▁could	-8.24816
▁2009	-8.25436
▁Chair	-8.25522
▁वर्ष	-8.26059
▁new	-8.26064
▁support	-8.26353
▁just	-8.26641
▁Bihar	-8.27662
▁appeal	-8.27867
▁three	-8.28113
▁हमारे	-8.28115
▁get	-8.28343
▁सके	-8.28832
▁बजट	-8.2886
▁हेतु	-8.29234
▁क्योंकि	-8.29248
▁allowed	-8.2927
▁sector	-8.29412
▁उनकी	-8.29624
▁2001	-8.29951
▁मिल	-8.30047
▁day	-8.3026
▁मेरे	-8.30435
▁ये	-8.30848
▁public	-8.31131
▁way	-8.31141
▁need	-8.31285
▁V	-8.31489
▁2000	-8.31498
▁Delhi	-8.31521
▁did	-8.3153
▁किसी	-8.31574
▁see	-8.31677
▁2008	-8.31792
▁व्यवस्था	-8.31905
▁मंत्रालय	-8.3191
▁सभी	-8.31919
▁उनके	-8.31939
▁problem	-8.32112
▁30	-8.32242
▁KUMAR	-8.32275
▁every	-8.32681
▁&	-8.32864
▁Deputy	-8.33076
▁2004	-8.33082
▁य	-8.33717
▁13	-8.33894
▁2002	-8.3408
▁during	-8.34264
▁दिल्ली	-8.34266
▁number	-8.34465
▁कहना	-8.34657
▁प्रस्ताव	-8.35029
▁Motion	-8.35045
▁आवश्यकता	-8.35458
▁नाम	-8.35472
▁कई	-8.35533
ा	-8.3561
▁बार	-8.35877
+	-8.35988
▁सकते	-8.36256
▁महत्वपूर्ण	-8.36664
▁निर्माण	-8.3668
▁shall	-8.37092
▁2010	-8.37325
▁चाहते	-8.37476
▁स्थिति	-8.3749
▁9	-8.37869
▁जिससे	-8.37892
▁अन्य	-8.38303
▁Hour	-8.38714
▁R	-8.38796
न	-8.38836
▁July	-8.39124
▁पूरा	-8.39125
▁concerned	-8.3956
▁पानी	-8.39575
▁18	-8.39867
▁further	-8.39962
ी	-8.40305
▁again	-8.40377
▁AND	-8.40419
▁मैंने	-8.4055
▁fact	-8.40551
▁सदस्य	-8.40595
▁May	-8.40681
▁where	-8.40754
▁price	-8.41043
▁When	-8.41268
{	-8.41386
▁जाता	-8.41677
▁श	-8.41702
▁अब	-8.42105
▁power	-8.42327
▁RANJAN	-8.42949
▁water	-8.43619
!	-8.44235
▁BASU	-8.44241
▁PRIYA	-8.44243
▁यादव	-8.44682
▁President	-8.44684
▁adopted	-8.44684
▁does	-8.4475
▁between	-8.45124
▁minutes	-8.45189
▁Constitution	-8.45277
▁अधिक	-8.45548
▁सकती	-8.45568
]	-8.45816
▁put	-8.463
▁copy	-8.46463
▁संसदीय	-8.46475
▁areas	-8.46487
▁saying	-8.46543
▁well	-8.46703
▁consideration	-8.46711
▁decision	-8.46716
▁उन	-8.46753
2	-8.46813
▁Uttar	-8.46932
▁जाना	-8.47407
▁Party	-8.4781
त	-8.47874
▁section	-8.48077
▁back	-8.48134
▁DASMUNSI	-8.48263
▁let	-8.48299
▁पास	-8.48321
▁17	-8.48475
▁railway	-8.48524
▁move	-8.48532
d	-8.48549
र	-8.48603
▁बिल	-8.48616
▁ताकि	-8.48717
▁giving	-8.4964
▁समर्थन	-8.50101
▁उसे	-8.50638
▁Dr	-8.50671
▁बैठ	-8.50822
▁area	-8.50839
▁Home	-8.51033
▁उन्होंने	-8.51054
▁mentioned	-8.51065
▁ACHARIA	-8.51504
▁हमें	-8.5159
▁इसे	-8.51805
▁DEB	-8.51971
▁Parliamentary	-8.51979
▁called	-8.51999
▁19	-8.52022
ों	-8.52125
▁regard	-8.52667
▁work	-8.52675
▁land	-8.52758
▁English	-8.53443
▁far	-8.53543
▁political	-8.53884
e	-8.54103
▁अ	-8.54134
▁development	-8.54167
▁With	-8.54324
▁कृषि	-8.54395
▁law	-8.54668
▁Provide	-8.54799
▁पत	-8.54836
▁interest	-8.551
▁action	-8.55187
▁Kumar	-8.55224
▁अत	-8.55282
▁conclude	-8.55304
▁April	-8.55339
▁raise	-8.55557
▁line	-8.55781
▁सब	-8.55823
r	-8.55866
▁beg	-8.55882
▁provided	-8.55882
▁होता	-8.55889
▁good	-8.5614
▁different	-8.56312
▁All	-8.56333
▁taking	-8.56334
▁subject	-8.56601
▁आपका	-8.56896
▁उपलब्ध	-8.5729
▁Chairman	-8.57338
ed	-8.57649
▁देना	-8.57824
▁Railways	-8.58076
▁November	-8.58319
▁डॉ	-8.58435
▁इसमें	-8.58502
▁अप	-8.58655
R	-8.5895
▁विशेष	-8.59322
▁opportunity	-8.59333
▁issues	-8.59386
▁B	-8.5955
▁कानून	-8.59801
▁उनको	-8.59849
▁view	-8.60226
▁”	-8.60381
▁regarding	-8.60387
i	-8.60404
▁यदि	-8.60413
▁Library	-8.6087
▁लाल	-8.6094
▁See	-8.61019
▁making	-8.61399
▁Scheduled	-8.61439
▁DR	-8.61451
▁D	-8.61513
▁till	-8.6192
▁ले	-8.61957
)*	-8.62161
▁New	-8.62193
▁{	-8.62213
▁set	-8.62253
▁लाख	-8.62345
▁प्रो	-8.62463
▁23	-8.62477
Hindi	-8.62519
▁महोदया	-8.62555
▁ज्यादा	-8.62958
▁name	-8.63252
▁राष्ट्रीय	-8.63518
▁Why	-8.63559
▁world	-8.63766
▁कक	-8.63785
▁आर्थिक	-8.6403
▁LT	-8.64033
%	-8.64335
▁certain	-8.64428
▁राजस्थान	-8.64518
▁adjourned	-8.64558
▁Recorded	-8.64578
▁ए	-8.64823
▁Information	-8.65124
▁versions	-8.65644
▁इससे	-8.66309
▁शामिल	-8.6672
▁Rajasthan	-8.66724
▁party	-8.66754
▁क्षेत्रों	-8.66794
▁upon	-8.66941
▁money	-8.67257
▁प्रकार	-8.67273
▁parties	-8.67275
▁दें	-8.6731
▁Laid	-8.6736
▁due	-8.67619
▁25	-8.67771
▁प्रतिशत	-8.67824
▁भ	-8.68253
▁विधेयक	-8.6836
▁स्टेशन	-8.68373
▁ठीक	-8.68375
▁Gujarat	-8.68854
▁ऐसा	-8.68948
▁policy	-8.69499
▁सी	-8.6952
▁प्रदान	-8.69523
▁लिया	-8.69536
▁without	-8.69536
▁इसका	-8.69671
▁respect	-8.69724
▁21	-8.69868
▁District	-8.69878
▁national	-8.70574
▁आई	-8.7061
▁जनता	-8.70634
▁बनाने	-8.70641
▁होती	-8.70655
1	-8.70854
▁second	-8.70938
▁report	-8.70964
▁तब	-8.71112
▁Madam	-8.71227
ल	-8.71247
▁22	-8.71507
▁district	-8.72186
▁तरफ	-8.72288
▁जहां	-8.72362
▁दीजिए	-8.72376
▁लाभ	-8.72767
▁within	-8.72782
▁किसान	-8.7292
▁वाली	-8.72955
▁मामला	-8.7349
▁another	-8.73538
▁उसमें	-8.73567
▁long	-8.73652
▁दिन	-8.74095
▁निवेदन	-8.74111
▁says	-8.74169
▁साल	-8.74223
▁24	-8.74416
▁debate	-8.74465
▁Bengal	-8.74604
▁entire	-8.74691
▁बीच	-8.747
▁जिले	-8.74702
▁most	-8.74725
▁demand	-8.75057
▁cè	-8.75293
▁Mumbai	-8.75298
▁सुविधा	-8.75298
▁following	-8.75307
▁ग्रामीण	-8.75315
▁having	-8.75315
▁आवश्यक	-8.75593
▁understand	-8.75614
▁जिस	-8.75806
▁attention	-8.75899
▁something	-8.75901
▁तीन	-8.75902
▁मेरी	-8.7591
▁होना	-8.75951
▁L	-8.76101
▁m	-8.76225
Placed	-8.76324
▁लोक	-8.76463
▁बाढ़	-8.76496
▁रुपये	-8.76498
▁West	-8.766
k	-8.77192
▁five	-8.77713
▁विजय	-8.77725
▁filed	-8.78336
▁steps	-8.78405
▁कल	-8.78612
▁bring	-8.78717
▁Affairs	-8.78946
▁होगी	-8.7895
▁things	-8.79099
▁seats	-8.79263
▁kind	-8.79361
▁system	-8.79376
▁Section	-8.79424
▁समस्या	-8.79563
▁Congress	-8.7958
▁धन्यवाद	-8.79605
▁प्रति	-8.79698
▁These	-8.79731
▁stage	-8.79884
▁next	-8.80189
▁उसका	-8.80231
▁26	-8.80288
▁words	-8.80311
▁days	-8.80488
▁नह	-8.80613
▁clause	-8.80644
▁नोटिस	-8.80818
▁करेंगे	-8.80836
▁केवल	-8.80894
▁राम	-8.8118
▁serious	-8.81442
▁संख्या	-8.81497
▁stand	-8.81633
▁पार्टी	-8.82075
▁laid	-8.82088
▁Kerala	-8.8209
▁How	-8.82127
▁हमने	-8.82237
स	-8.82601
a	-8.82681
▁various	-8.82732
▁जाति	-8.82749
▁हमारी	-8.82764
▁vs	-8.82785
▁able	-8.83093
Amendment	-8.83914
▁संबंध	-8.83952
▁`	-8.83999
▁पूरे	-8.84024
5	-8.84048
▁coming	-8.84055
▁own	-8.84118
▁लगभग	-8.84677
▁किए	-8.84863
▁got	-8.8499
▁help	-8.85073
▁उ	-8.85135
▁petitioner	-8.8515
▁इसी	-8.85189
I	-8.85276
▁रघुवंश	-8.85337
▁पूरी	-8.85338
▁few	-8.85342
▁आपकी	-8.85485
▁CPIO	-8.85512
ÉÉ	-8.85787
▁गये	-8.86016
▁thing	-8.86029
▁both	-8.86556
▁जानकारी	-8.86667
▁प्राप्त	-8.86672
▁Chief	-8.86679
▁उत्पादन	-8.86681
▁राज्यों	-8.8674
म	-8.87043
▁Board	-8.87146
▁जल	-8.87313
▁since	-8.87324
▁समाप्त	-8.87327
▁while	-8.87362
▁केन्द्रीय	-8.87393
▁Then	-8.87719
▁ds	-8.8794
▁Governments	-8.87965
▁लाइन	-8.87987
▁matters	-8.88161
▁मध्य	-8.88567
▁SINGH	-8.88692
▁nothing	-8.88707
▁मल्होत्रा	-8.88708
▁पी	-8.88723
▁came	-8.88969
▁find	-8.89154
▁level	-8.89183
▁Do	-8.89341
▁सवाल	-8.89362
▁आग्रह	-8.89377
▁Opposition	-8.8938
▁¤	-8.89421
▁श्रीमती	-8.89635
▁economic	-8.89858
▁person	-8.89926
▁कह	-8.90007
▁poor	-8.90056
▁security	-8.9007
▁करे	-8.90165
▁continue	-8.90528
▁रिपोर्ट	-8.90754
▁मौका	-8.9076
▁above	-8.90761
▁Business	-8.90763
▁happened	-8.90769
▁जाएगा	-8.90772
▁मामले	-8.90793
[	-8.91159
▁चल	-8.91253
▁four	-8.91415
▁जैसे	-8.91488
▁उनका	-8.91496
▁ई	-8.91897
▁appellant	-8.91967
▁हर	-8.92107
▁points	-8.92147
▁सहायता	-8.92162
▁बड़ी	-8.92167
▁G	-8.9243
▁Rule	-8.92685
ly	-8.92813
▁फिर	-8.9285
▁anything	-8.9288
▁growth	-8.92881
▁प्रधान	-8.92902
▁सदस्यों	-8.92904
▁rise	-8.93344
▁One	-8.93348
▁education	-8.93365
▁p	-8.935
▁जांच	-8.93578
▁proper	-8.93578
▁Clock	-8.93588
▁जाती	-8.93608
▁शिक्षा	-8.9364
▁अपना	-8.93738
▁re	-8.93752
▁amount	-8.94102
▁clear	-8.9424
▁rate	-8.94314
▁जिसके	-8.94329
▁अनुसूचित	-8.94369
.	-8.94474
▁After	-8.94515
▁call	-8.94799
▁पूर्व	-8.94865
▁मदद	-8.95032
▁चाहूंगा	-8.95033
▁February	-8.95034
▁funds	-8.95094
▁persons	-8.95181
▁T	-8.95268
▁doing	-8.95358
▁problems	-8.9538
▁tax	-8.95656
▁ask	-8.95763
▁financial	-8.95768
▁आने	-8.95798
▁each	-8.95801
▁moved	-8.95829
▁28	-8.96014
▁BÉE	-8.96178
▁Standing	-8.965
▁एस	-8.96505
▁hours	-8.96601
▁provisions	-8.96632
▁her	-8.96876
▁प्रतिवेदन	-8.97222
▁necessary	-8.97241
▁Discussion	-8.97317
▁1998	-8.97601
▁विभाग	-8.97977
▁duty	-8.97982
▁काफी	-8.97988
▁IN	-8.97992
▁look	-8.98515
▁हजार	-8.98687
▁कदम	-8.98751
4	-8.98751
▁stated	-8.98779
▁including	-8.98834
▁नई	-8.98846
▁increase	-8.9924
▁Union	-8.99275
▁बिजली	-8.99494
▁Maharashtra	-8.99512
▁working	-8.99558
▁गांव	-8.99655
▁N	-8.99844
▁Tamil	-9.00046
े	-9.00082
▁रुपए	-9.00255
▁शुरू	-9.00255
▁Supreme	-9.00259
▁etc	-9.00259
▁ऐसी	-9.00272
▁जिसमें	-9.00274
▁prices	-9.0059
श्री	-9.00722
▁गरीब	-9.00962
E	-9.00966
▁विचार	-9.00994
▁great	-9.01002
▁निर्णय	-9.01006
▁देंगे	-9.01032
▁whole	-9.01038
▁asked	-9.01062
▁particular	-9.01592
▁'	-9.01651
▁पांच	-9.01707
▁पैसा	-9.018
▁जिला	-9.018
▁Development	-9.01804
▁added	-9.01806
▁behalf	-9.01809
▁ऐसे	-9.01817
▁दक	-9.01943
▁,	-9.01976
▁Ram	-9.02517
▁except	-9.02573
▁दिए	-9.02592
▁available	-9.02598
▁therefore	-9.02602
▁Yes	-9.02618
3	-9.02634
▁50	-9.02944
▁cases	-9.03117
▁amendment	-9.0319
▁Thank	-9.03198
▁अनुसार	-9.0337
▁भूमि	-9.03389
▁सुरक्षा	-9.03399
▁Demands	-9.03455
▁rules	-9.03551
t	-9.03694
▁nation	-9.03928
▁manner	-9.03946
▁Statement	-9.0397
▁thank	-9.03978
▁बंद	-9.04011
▁06	-9.0406
▁meet	-9.04139
▁उद्योग	-9.04145
▁कार्यवाही	-9.04182
▁29	-9.04506
▁27	-9.04525
▁rule	-9.04735
▁become	-9.04822
▁बोल	-9.04864
▁countries	-9.04965
▁possible	-9.04966
▁संबंधित	-9.04971
▁हाउस	-9.04992
y	-9.05028
▁My	-9.05042
▁position	-9.05658
▁o	-9.05665
▁गुजरात	-9.05743
h	-9.05762
▁Question	-9.05771
▁trying	-9.05785
▁इसकी	-9.05991
▁Is	-9.06005
▁complete	-9.06231
▁period	-9.06367
▁मिनट	-9.06575
▁SOMNATH	-9.06583
▁Even	-9.06598
▁सड़क	-9.07344
▁Gandhi	-9.07398
▁जवाब	-9.07401
▁affected	-9.07408
▁àÉå	-9.07421
▁members	-9.07593
▁used	-9.07603
▁assessee	-9.07997
▁Our	-9.08032
▁introduce	-9.08195
▁floor	-9.08228
▁brought	-9.08229
▁Page	-9.08353
▁31	-9.08392
▁यही	-9.08858
▁(1)	-9.0897
▁least	-9.09064
▁received	-9.09069
▁रोजगार	-9.09093
▁<	-9.0918
▁चार	-9.09182
▁BÉEä	-9.09214
________________	-9.0931
▁Ministers	-9.09345
D	-9.09677
▁दर	-9.09823
▁police	-9.09914
▁मार्ग	-9.09922
▁रखा	-9.09938
¶	-9.10474
▁project	-9.10542
▁STATE	-9.10748
▁पिछले	-9.10749
▁भाषण	-9.10749
▁small	-9.10757
8	-9.10781
▁man	-9.10795
▁discuss	-9.11546
▁कार्रवाई	-9.11606
▁required	-9.11613
▁हूँ	-9.1162
▁नीति	-9.11633
▁लिये	-9.11643
▁आर	-9.11745
▁agree	-9.12197
▁प्रश्न	-9.12448
▁Orissa	-9.12466
▁children	-9.12468
▁CHATTERJEE	-9.12468
▁past	-9.1247
▁immediately	-9.12474
▁started	-9.12488
▁workers	-9.12494
▁side	-9.12614
▁सकें	-9.12653
▁tell	-9.13044
▁service	-9.13203
▁मूल्य	-9.13336
▁स्थापना	-9.13347
▁together	-9.13349
▁PROF	-9.13387
▁E	-9.13396
▁रप	-9.13495
▁RTI	-9.1357
K	-9.13641
▁lot	-9.14025
€	-9.14187
▁राजमार्ग	-9.14187
▁कैसे	-9.14201
▁Introduction	-9.14234
▁months	-9.14289
▁आधार	-9.14309
▁use	-9.14771
▁lakh	-9.14925
▁AFFAIRS	-9.15099
▁MINISTRY	-9.15099
▁industry	-9.15099
▁gone	-9.15112
▁special	-9.15217
▁stands	-9.1565
▁read	-9.15777
▁वन	-9.1582
<	-9.15904
▁प्रभावित	-9.15973
▁लागू	-9.15989
▁Nadu	-9.15989
▁Yadav	-9.1599
▁agriculture	-9.15994
▁जाइए	-9.15998
▁From	-9.16007
▁सुमन	-9.16024
▁करनी	-9.1606
▁Madhya	-9.16102
▁court	-9.16688
▁letter	-9.16706
▁Prasad	-9.1681
▁Water	-9.16889
▁left	-9.16889
▁गांवों	-9.16912
▁महाराष्ट्र	-9.16987
▁lay	-9.17492
▁अलावा	-9.178
▁मुलायम	-9.17801
▁earlier	-9.17801
▁itself	-9.17813
▁Andhra	-9.1782
▁Presentation	-9.17822
▁00	-9.17953
▁start	-9.18472
▁Corporation	-9.18529
▁women	-9.1853
▁Leader	-9.1853
▁Department	-9.18579
▁प्रयास	-9.18699
▁वित्त	-9.18705
▁control	-9.18718
▁आरक्षण	-9.18737
▁Grants	-9.18743
▁total	-9.1887
▁Clause	-9.19457
▁सामने	-9.19643
▁बहस	-9.19648
▁Today	-9.1966
▁योजनाओं	-9.1966
▁08	-9.19935
▁hope	-9.20291
▁feel	-9.20341
▁sure	-9.20372
▁purpose	-9.20395
Zero	-9.20416
▁ध	-9.20479
▁U	-9.20532
▁गयी	-9.20576
▁learned	-9.20583
▁लेकर	-9.20594
▁भारी	-9.20597
▁नदी	-9.20623
▁measures	-9.20636
▁करती	-9.20644
▁कमी	-9.20726
6	-9.20762
▁संशोधन	-9.20791
▁02	-9.21125
▁07	-9.2115
▁scheme	-9.21336
▁programme	-9.21339
▁सुधार	-9.21412
▁उपयोग	-9.21485
▁Up	-9.21499
▁rural	-9.21521
▁business	-9.21521
▁कराने	-9.21538
▁North	-9.21542
▁जाते	-9.21557
▁रह	-9.21792
▁H	-9.22174
▁Commissioner	-9.22236
▁application	-9.22285
¤	-9.22351
▁Resolution	-9.2236
▁Amendment	-9.22367
▁ensure	-9.22435
▁MADAM	-9.22473
▁Rajya	-9.22473
▁getting	-9.22479
▁शीघ्र	-9.22482
▁facilities	-9.22495
▁she	-9.2265
▁General	-9.22733
▁पुल	-9.22749
n	-9.23055
▁Kashmir	-9.23386
▁high	-9.23409
▁बड़े	-9.23435
▁अनुमति	-9.23435
▁Limited	-9.23436
▁companies	-9.23437
▁तहत	-9.23439
▁वाला	-9.23474
▁wants	-9.2357
▁आपसे	-9.23593
▁#	-9.23966
▁mention	-9.24139
▁member	-9.24243
▁स्थान	-9.24327
▁खर्च	-9.24356
▁अंतर्गत	-9.24407
▁क्यों	-9.24419
▁non	-9.24869
▁Th	-9.24982
▁Appellant	-9.24988
▁Bank	-9.25097
▁बना	-9.25534
▁speaking	-9.25555
▁reasons	-9.25558
नत	-9.25704
▁sub	-9.25768
▁facts	-9.25815
▁consider	-9.25912
▁J	-9.26021
▁UPA	-9.26375
▁कमेटी	-9.26376
▁raising	-9.26391
▁told	-9.26764
▁1999	-9.26904
MR	-9.26972
▁leave	-9.27136
▁Centre	-9.27183
C	-9.27337
▁राशि	-9.27369
▁इतना	-9.27376
▁still	-9.27387
▁दूसरे	-9.27396
▁सबसे	-9.27397
▁सही	-9.2744
▁oÉä	-9.27512
▁दूर	-9.2764
▁मत	-9.2785
▁Session	-9.28195
▁submission	-9.28202
▁cost	-9.28218
$	-9.28274
▁discussed	-9.28414
▁तय	-9.28428
▁BÉEÉÒ	-9.28448
▁उसकी	-9.28451
▁संबंधी	-9.28485
▁ÉÊ	-9.28873
▁Council	-9.29181
▁provision	-9.29245
▁ऑफ	-9.29399
▁अच्छा	-9.29406
▁economy	-9.29407
▁constituency	-9.29409
▁REDDY	-9.2941
▁course	-9.2943
▁दोनों	-9.2945
▁सेवा	-9.29481
▁took	-9.29484
▁views	-9.29774
▁hear	-9.29901
▁04	-9.30058
ii	-9.3009
▁respond	-9.30122
▁®	-9.30164
▁जमीन	-9.30409
▁six	-9.30439
▁everybody	-9.3044
▁never	-9.30453
▁First	-9.30479
व	-9.30497
▁banks	-9.30536
...(	-9.30647
▁dh	-9.30662
▁projects	-9.30665
▁districts	-9.3077
अध्यक्ष	-9.31052
▁permission	-9.31254
▁document	-9.31297
▁wrong	-9.31467
▁production	-9.31482
▁life	-9.31483
▁really	-9.31486
▁food	-9.31498
▁बजे	-9.31524
▁वर्षों	-9.31552
▁जाएं	-9.31581
The	-9.32121
▁03	-9.32204
▁word	-9.32307
▁Public	-9.32438
▁तैयार	-9.32495
▁स्तर	-9.32512
▁आयोग	-9.32534
▁Tax	-9.32536
▁Prof	-9.32553
▁kindly	-9.3257
▁Under	-9.32592
▁1.	-9.32598
▁Lal	-9.32598
▁2.	-9.32615
▁Shrimati	-9.32627
▁incident	-9.32983
▁अपील	-9.33054
▁05	-9.33059
▁आम	-9.33388
▁बढ़	-9.33395
▁reason	-9.33406
▁meeting	-9.33446
▁ऊपर	-9.33548
▁listen	-9.33551
▁found	-9.3356
▁forward	-9.33597
▁importance	-9.33598
▁परियोजना	-9.33599
▁बड़ा	-9.33611
▁स्वास्थ्य	-9.33617
▁decided	-9.33629
▁BJP	-9.33635
▁Â	-9.33642
▁Castes	-9.33642
Not	-9.3365
▁relief	-9.3442
▁ट्रेन	-9.34601
▁private	-9.3466
▁cé	-9.34663
▁senior	-9.34669
▁People	-9.34671
▁प्रभुनाथ	-9.34672
▁whatever	-9.34674
▁Jammu	-9.34692
▁रहने	-9.34692
▁tomorrow	-9.34703
▁होनी	-9.34742
▁01	-9.35321
▁शहर	-9.35458
ं	-9.35546
▁wish	-9.35712
▁social	-9.35746
▁activities	-9.35759
▁Constituency	-9.3576
▁CIC	-9.3579
▁उक्त	-9.35802
▁उससे	-9.35806
▁आया	-9.35827
▁मुम्बई	-9.3587
▁SHRIMATI	-9.35939
▁Rules	-9.36041
▁2019	-9.36164
▁charge	-9.36661
▁w	-9.36748
▁Review	-9.3681
▁amend	-9.36828
▁साहब	-9.36854
▁sorry	-9.36856
▁basis	-9.36857
▁बढ़ाने	-9.36865
▁talking	-9.3688
▁held	-9.36882
▁3.	-9.36922
▁However	-9.36925
▁allowing	-9.36963
▁बन	-9.37381
▁09	-9.3745
▁Order	-9.37751
▁Station	-9.37772
▁पक	-9.37833
▁कनतप	-9.37896
▁international	-9.37959
▁गंभीर	-9.37959
▁always	-9.37968
▁प्रस्तुत	-9.37969
▁Authority	-9.37969
▁sought	-9.3797
▁सारे	-9.38014
▁एम	-9.38055
▁free	-9.38183
ट	-9.38201
▁common	-9.38342
▁parts	-9.38586
▁process	-9.38608
▁market	-9.3882
▁Scheme	-9.38896
▁correct	-9.3905
▁कोशिश	-9.39081
▁जरूरत	-9.39081
▁Financial	-9.39092
▁democracy	-9.39092
▁University	-9.39093
▁पड़ता	-9.39097
▁रामजीलाल	-9.39115
▁considered	-9.3912
▁अलग	-9.39133
▁means	-9.39215
▁once	-9.39393
▁end	-9.39706
▁construction	-9.40036
▁आदि	-9.40198
▁foreign	-9.4021
▁authority	-9.40229
▁future	-9.40229
▁referred	-9.40259
▁मुख्य	-9.40274
▁Appeal	-9.4051
­	-9.4085
st	-9.40896
7	-9.40946
▁फसल	-9.41328
▁अवसर	-9.41358
▁संसद	-9.41372
▁yet	-9.41376
▁निर्देश	-9.41391
▁Acharia	-9.41394
▁increased	-9.41434
▁नए	-9.41487
द	-9.41701
l	-9.41818
▁स्थापित	-9.42242
▁result	-9.42283
द्ृद्धड्ड	-9.42516
▁पुलिस	-9.4254
▁several	-9.4254
▁true	-9.4254
▁population	-9.42541
▁agricultural	-9.42542
▁परन्तु	-9.42544
▁co	-9.42547
▁employment	-9.42561
▁Karnataka	-9.42564
▁वृद्धि	-9.42599
▁कभी	-9.42676
▁services	-9.42789
▁डा	-9.43023
▁rights	-9.43207
▁ख	-9.43277
▁0	-9.43391
▁ruling	-9.43503
▁Fund	-9.43528
▁नश	-9.4355
ble	-9.43587
▁चुनाव	-9.43708
▁happy	-9.43715
▁वर्तमान	-9.43716
▁state	-9.43746
▁towards	-9.43779
At	-9.43799
▁oÉ	-9.44388
▁Gazette	-9.44774
▁though	-9.44852
▁घोषणा	-9.44863
▁large	-9.44866
▁near	-9.44884
▁Assam	-9.44905
▁PATIL	-9.44905
▁खिलाफ	-9.44905
▁जिलों	-9.44905
▁questions	-9.44907
▁Police	-9.44907
▁relating	-9.44907
▁रखने	-9.44919
▁...*	-9.44922
▁United	-9.44936
▁होते	-9.44953
▁उसी	-9.45095
▁इ	-9.45099
▁went	-9.45169
▁(2)	-9.45216
▁कीजिए	-9.4522
▁decide	-9.45866
B	-9.45916
▁income	-9.46032
▁Express	-9.46082
▁विश्वविद्यालय	-9.46095
▁published	-9.46112
▁बताया	-9.46117
▁particularly	-9.46129
▁जल्दी	-9.46133
▁हमारा	-9.46144
▁जबकि	-9.46148
▁Income	-9.46158
▁मोहन	-9.46181
▁एन	-9.46484
▁Date	-9.46577
o	-9.46613
▁करन	-9.46695
▁keep	-9.47098
▁कार्यक्रम	-9.47314
▁full	-9.47318
▁Set	-9.47319
▁June	-9.47328
▁यात्रियों	-9.47331
▁अंग्रेजी	-9.47333
▁आगे	-9.47358
▁देता	-9.47359
▁along	-9.47376
य	-9.47403
▁जिन	-9.47542
▁names	-9.47759
▁सूचना	-9.47773
▁quote	-9.48303
▁date	-9.48331
▁list	-9.48332
▁रख	-9.48334
▁Highway	-9.4838
▁High	-9.48549
▁Attention	-9.48566
▁सीमा	-9.48584
▁PAWAN	-9.48588
▁Agriculture	-9.48592
▁Accounts	-9.48637
▁heard	-9.48684
▁leaders	-9.48744
▁i	-9.49192
▁vote	-9.49508
▁answer	-9.49549
▁sitting	-9.49624
▁minute	-9.49629
â	-9.49792
▁अजमेर	-9.49813
▁enough	-9.49814
▁comes	-9.49814
▁बढ़ावा	-9.49816
▁बनाया	-9.49829
▁धन	-9.49835
▁submitted	-9.49838
▁£	-9.49843
▁4.	-9.49879
▁BÉEÉä	-9.49958
▁जीवन	-9.50038
▁away	-9.50085
▁amendments	-9.50111
▁crores	-9.50643
▁direct	-9.50756
▁Officer	-9.50946
▁अन	-9.51052
▁hand	-9.51062
▁पैदा	-9.51077
▁पेयजल	-9.51079
▁सिंचाई	-9.5108
▁BANSAL	-9.5108
▁SHIVRAJ	-9.51081
▁अधिकारियों	-9.51085
▁प्रधानमंत्री	-9.51087
▁Otherwise	-9.51108
▁वित्तीय	-9.5111
▁hearing	-9.51121
m	-9.51164
▁मिला	-9.51203
▁सुन	-9.51212
ä	-9.51419
▁CIT	-9.51912
▁open	-9.51992
प	-9.52036
▁account	-9.52098
▁ट	-9.52105
▁opinion	-9.52154
▁drought	-9.52155
c	-9.52156
▁ground	-9.52181
▁leader	-9.52204
▁हां	-9.52334
▁specific	-9.52357
▁उठाया	-9.52371
▁खेती	-9.5239
▁उक	-9.52407
▁O	-9.52418
▁figures	-9.52438
▁́É	-9.52586
▁|	-9.52671
▁needs	-9.52984
▁others	-9.53192
▁deal	-9.53373
▁concern	-9.53412
▁जगह	-9.53641
▁गांधी	-9.53658
▁Since	-9.53659
▁जयपुर	-9.53661
▁society	-9.53661
▁संविधान	-9.53661
▁Secretary	-9.53662
▁providing	-9.53663
▁सुविधाएं	-9.53664
▁स्वीकृति	-9.53666
▁स्पष्ट	-9.53683
▁company	-9.53688
▁employees	-9.5369
▁आयकर	-9.53691
▁trains	-9.5385
▁Second	-9.54189
▁pay	-9.54703
▁too	-9.54749
▁Road	-9.54781
▁proposal	-9.54789
▁happening	-9.54797
▁VIJAY	-9.54907
▁प्रावधान	-9.54959
▁खत्म	-9.54974
▁major	-9.54975
▁family	-9.54976
▁बच्चों	-9.54976
▁आकर्षित	-9.54977
▁Jharkhand	-9.54978
▁Construction	-9.54986
▁अच्छी	-9.55002
▁सुविधाओं	-9.55006
▁!	-9.55011
▁जन	-9.55032
▁झारखंड	-9.55057
▁$	-9.55164
▁vide	-9.55268
ÉÒ	-9.55465
▁train	-9.56125
▁चुका	-9.56295
▁सुझाव	-9.56299
▁वजह	-9.56306
▁कृपया	-9.56308
▁permitted	-9.56313
▁देते	-9.56318
▁रिकार्ड	-9.56337
▁गृह	-9.5636
▁जानी	-9.56364
▁कांग्रेस	-9.56388
▁%	-9.56966
कर	-9.57235
▁share	-9.5746
▁Tribunal	-9.57465
▁बी	-9.57488
▁Pakistan	-9.57536
▁address	-9.57595
▁urge	-9.5762
▁adequate	-9.57659
▁घोषित	-9.57659
▁Malhotra	-9.57662
▁Insurance	-9.57662
▁सामाजिक	-9.57663
▁व्यक्ति	-9.57663
▁जाएगी	-9.57667
▁relevant	-9.57667
▁Annual	-9.57688
▁2020	-9.57976
▁सर	-9.58236
▁Plan	-9.58742
▁ten	-9.58783
▁legislation	-9.58841
▁oil	-9.58866
▁mind	-9.5888
”	-9.59002
▁परिवार	-9.59017
▁Tags	-9.59028
▁East	-9.59028
▁आबादी	-9.59029
▁चाहती	-9.59031
▁जाइये	-9.59036
▁बोलना	-9.59039
▁expressed	-9.59047
▁proposed	-9.59048
▁करूंगा	-9.59051
▁छत्तीसगढ़	-9.5906
▁कहीं	-9.59068
▁asking	-9.59099
▁Special	-9.59116
-	-9.59149
▁road	-9.59169
▁best	-9.59675
▁She	-9.59733
▁notices	-9.59871
▁pass	-9.59898
▁डी	-9.59933
▁पा	-9.60105
▁chance	-9.60214
▁region	-9.60219
▁procedure	-9.6023
▁act	-9.60265
▁ड	-9.60272
▁बैंक	-9.60386
▁Company	-9.60419
▁granted	-9.60429
▁जायेगा	-9.6043
▁Food	-9.60445
▁पत्र	-9.60458
▁लेने	-9.60465
▁दक्षिण	-9.60467
▁Chennai	-9.60477
▁pending	-9.60493
▁institutions	-9.60524
▁try	-9.60659
▁2022	-9.60876
▁powers	-9.61026
▁office	-9.61593
▁station	-9.61668
▁पड़	-9.61694
श	-9.61731
▁withdraw	-9.61749
▁बाहर	-9.61785
▁human	-9.61796
▁अनेक	-9.61807
▁दूसरी	-9.61826
▁ADVANI	-9.61827
▁written	-9.61828
▁MALHOTRA	-9.61828
▁august	-9.61832
▁politics	-9.61832
▁जारी	-9.61912
▁नियम	-9.6195
▁राय	-9.62007
▁Some	-9.62239
ÉÉÒ	-9.62582
▁delay	-9.63024
▁Institute	-9.63028
▁Policy	-9.63256
▁अधिवेशन	-9.63256
▁yesterday	-9.63257
▁community	-9.63257
▁कर्मचारियों	-9.63258
▁responsibility	-9.63258
▁prepared	-9.63261
▁justice	-9.63266
▁रावत	-9.63266
▁पटल	-9.63269
▁implemented	-9.63272
▁रूपये	-9.63283
▁गलत	-9.63292
▁2021	-9.63305
▁Tribes	-9.63315
▁कोर्ट	-9.63322
▁Ex	-9.63425
▁wanted	-9.63477
▁समति	-9.63536
ता	-9.63607
G	-9.64049
▁form	-9.64279
▁Power	-9.64423
▁talk	-9.64458
▁step	-9.64557
▁महीने	-9.64704
▁Further	-9.64705
▁committed	-9.64707
▁दिशा	-9.64707
▁treated	-9.6471
▁कराया	-9.64728
▁properly	-9.64739
▁sent	-9.64839
▁requested	-9.64846
ज	-9.65124
▁उठा	-9.65303
▁प्र	-9.65655
1⁄2	-9.65822
▁agreement	-9.65984
▁respondent	-9.65995
▁reservation	-9.66
b	-9.66014
▁अधिकार	-9.66127
▁कृपा	-9.66151
▁अंदर	-9.66174
▁सिर्फ	-9.66174
▁Private	-9.66176
▁minority	-9.66176
▁Assistance	-9.66177
▁Calling	-9.66179
▁involved	-9.66184
▁Rural	-9.66204
▁Punjab	-9.66205
▁agreed	-9.66239
▁papers	-9.66267
▁sections	-9.66784
्स	-9.67044
▁records	-9.67424
▁week	-9.67477
▁hour	-9.67499
▁ऋण	-9.67597
ई	-9.67628
▁भाग	-9.67656
▁Address	-9.67657
▁conduct	-9.6766
▁else	-9.67665
▁gave	-9.67666
▁child	-9.67667
▁देखते	-9.67668
▁Assembly	-9.67669
▁terrorism	-9.67669
▁एक्सप्रेस	-9.67669
▁प्रार्थना	-9.67669
▁industries	-9.67669
▁based	-9.6767
▁assistance	-9.67671
▁संस्करण	-9.67673
▁anybody	-9.67674
▁योजनाएं	-9.67679
▁proceedings	-9.6768
▁लगाने	-9.67682
▁details	-9.67695
▁जनजाति	-9.67696
▁इंडिया	-9.67698
▁forces	-9.67815
▁elections	-9.6787
▁दस	-9.67968
▁सरकारों	-9.6823
▁100	-9.68592
▁draw	-9.68884
▁times	-9.68911
▁benefit	-9.68936
▁example	-9.68989
▁पिछड़े	-9.69183
▁राहत	-9.69184
▁चीनी	-9.69188
▁announced	-9.69194
▁तत्काल	-9.69208
▁हजारों	-9.69219
▁included	-9.69219
▁units	-9.69271
▁lives	-9.69287
▁main	-9.69347
▁महाराजगंज	-9.69373
▁किये	-9.69497
▁2018	-9.69624
▁plan	-9.69681
▁एव	-9.69897
▁note	-9.69945
▁suggestion	-9.70539
▁election	-9.70548
▁article	-9.70563
▁खराब	-9.70615
▁protect	-9.7066
▁evidence	-9.70702
▁comprehensive	-9.7071
▁आदमी	-9.70719
▁industrial	-9.70722
▁किलोमीटर	-9.70722
▁निर्धारित	-9.70722
▁single	-9.70723
▁निम्नलिखित	-9.70723
▁मिलेगा	-9.70726
▁responsible	-9.7073
▁stood	-9.70731
▁आते	-9.70731
▁later	-9.70767
▁half	-9.70784
▁introduced	-9.70823
▁हव	-9.70907
▁लगा	-9.71027
▁issued	-9.71073
▁च	-9.71359
▁Bills	-9.71414
▁attack	-9.72038
▁include	-9.72057
▁run	-9.72128
▁refer	-9.72182
▁लीजिए	-9.7228
▁उचित	-9.72282
▁SWAIN	-9.72282
▁JAIPAL	-9.72283
▁पर्यटन	-9.72283
▁KHARABELA	-9.72285
▁infrastructure	-9.72286
▁विरोध	-9.7231
▁certainly	-9.72315
▁passing	-9.72329
▁परिवर्तन	-9.72332
▁NDA	-9.72344
▁उसको	-9.72344
▁पारित	-9.72371
▁बाजार	-9.72379
▁suggestions	-9.72475
ग	-9.72598
ने	-9.72892
▁टी	-9.72965
▁Project	-9.73684
▁Law	-9.737
▁item	-9.73767
▁पंजाब	-9.73854
▁unfortunate	-9.73862
▁Cabinet	-9.73871
▁PARLIAMENTARY	-9.73873
▁लालू	-9.73876
▁better	-9.73877
▁paid	-9.73877
▁गाड़ी	-9.73882
▁सारी	-9.73908
▁दिनों	-9.73916
▁PAL	-9.73929
▁Only	-9.73953
▁recommendations	-9.73958
▁goes	-9.7403
▁schemes	-9.74185
M	-9.74377
▁places	-9.74764
▁सरकारी	-9.7515
▁allocation	-9.75292
▁किस	-9.7535
▁Take	-9.75442
▁जनपद	-9.75463
▁आदेश	-9.75475
▁care	-9.75476
▁Advani	-9.7548
▁छोटे	-9.75481
▁accused	-9.75487
▁higher	-9.75497
▁१५	-9.75518
▁बातें	-9.75576
▁completed	-9.75582
▁लें	-9.75631
▁officers	-9.75641
▁होकर	-9.75759
▁e	-9.76457
▁Respondent	-9.76573
▁payment	-9.76933
▁आए	-9.76978
▁anti	-9.77003
▁1,	-9.77005
▁Basu	-9.7712
▁समाधान	-9.77122
▁Will	-9.77122
▁Security	-9.77123
▁सार्वजनिक	-9.77124
▁especially	-9.77124
▁Adjournment	-9.77124
▁himself	-9.77126
▁मजदूरों	-9.77132
▁समाज	-9.77142
▁विस्तार	-9.77148
▁मनिस्टर	-9.77153
▁esa	-9.7716
▁मांगों	-9.77241
▁नगर	-9.77539
▁seek	-9.77676
es	-9.77886
▁हों	-9.77952
▁An	-9.77989
▁accept	-9.78485
▁protection	-9.78563
▁Office	-9.78588
▁extend	-9.78738
▁immediate	-9.7878
▁big	-9.78782
▁वितरण	-9.78788
▁बल्कि	-9.78788
▁October	-9.78789
▁इन्होंने	-9.7879
▁themselves	-9.7879
▁CHIDAMBARAM	-9.78791
▁loss	-9.78792
▁chosen	-9.78792
▁functioning	-9.78808
▁reduced	-9.78809
▁personal	-9.78811
▁aware	-9.78821
▁early	-9.78824
▁amended	-9.78829
▁स्थल	-9.78841
▁extended	-9.78845
▁भारतीय	-9.78854
▁around	-9.78855
▁Hindu	-9.78922
▁ररत	-9.7894
▁५०	-9.78961
▁requesting	-9.79011
F	-9.79273
▁known	-9.79359
▁कया	-9.79618
▁छ	-9.79781
▁un	-9.79794
▁BÉEÉ	-9.79913
▁60	-9.80227
▁believe	-9.8027
▁Fourteen	-9.80435
▁सहयोग	-9.80444
▁Bench	-9.80471
▁अतः	-9.80482
▁Between	-9.80484
▁Kolkata	-9.80484
▁शैलेन्द्र	-9.80485
▁YERRANNAIDU	-9.80485
▁विकसित	-9.80485
▁आचार्य	-9.80486
▁रखते	-9.80488
▁existing	-9.80489
▁लगाया	-9.80497
▁Many	-9.805
▁either	-9.80502
▁बनाई	-9.80513
▁निश्चित	-9.80518
▁पसतत	-9.80521
▁लिखा	-9.80548
▁मिले	-9.80598
▁programmes	-9.8082
▁कही	-9.80904
▁मिली	-9.81418
▁झा	-9.81488
▁mean	-9.81556
oÉ	-9.81584
▁show	-9.81921
▁create	-9.81976
u	-9.81988
▁Demand	-9.81998
▁40	-9.82016
S	-9.82096
▁cooperate	-9.82157
▁brief	-9.82166
▁welcome	-9.82167
▁अति	-9.82168
▁संसाधन	-9.8219
▁Out	-9.82203
▁current	-9.82203
▁अभाव	-9.82207
▁गन्ना	-9.82207
▁सामना	-9.82207
▁कौन	-9.82208
▁आदिवासी	-9.82208
▁इलाहाबाद	-9.82208
▁killed	-9.82213
▁दिये	-9.82216
▁उठाने	-9.82224
▁faced	-9.82238
▁showing	-9.82238
▁सुनिश्चित	-9.82244
▁गरीबों	-9.82246
▁जीरो	-9.82253
▁appropriate	-9.82254
▁products	-9.82257
▁below	-9.8227
▁List	-9.82282
▁भाषा	-9.82312
9	-9.824
▁items	-9.82406
▁बयान	-9.8246
▁t	-9.82471
▁(3)	-9.82475
▁u	-9.83114
▁Reports	-9.83341
▁c	-9.83456
▁submit	-9.83671
▁Nos	-9.83714
▁labour	-9.83741
▁reference	-9.83772
▁Price	-9.83777
▁appreciate	-9.83926
▁2023	-9.83929
▁निजी	-9.8396
▁खुराना	-9.83962
▁property	-9.83965
▁implementation	-9.83966
▁Being	-9.83968
▁accepted	-9.83992
▁संकट	-9.83992
▁informed	-9.83993
▁Appellate	-9.83998
▁outside	-9.8401
▁resources	-9.84011
▁discussing	-9.84026
▁fully	-9.84111
▁इनके	-9.84122
▁ग्राम	-9.84137
ÉÉè	-9.84212
▁Funds	-9.84238
Shri	-9.84245
▁goods	-9.84598
सभापति	-9.85147
▁assurance	-9.85542
▁Justice	-9.85553
▁credit	-9.85558
▁allegation	-9.85564
▁government	-9.8559
▁न्याय	-9.85685
▁seven	-9.85698
▁ARUN	-9.8574
▁local	-9.85744
▁अन्तर्गत	-9.85748
▁status	-9.85749
▁according	-9.85753
▁totally	-9.85773
▁medical	-9.85781
▁irrigation	-9.85822
▁seen	-9.85973
▁less	-9.8622
▁पद	-9.86263
ब	-9.87198
▁import	-9.87281
▁change	-9.87351
▁Item	-9.87358
▁उप	-9.87442
▁चुकी	-9.87564
▁Rajiv	-9.87565
▁little	-9.87565
▁gauge	-9.87565
▁GURUDAS	-9.87565
▁DASGUPTA	-9.87566
▁minorities	-9.87567
▁RADHAKRISHNAN	-9.87567
▁management	-9.87569
▁नीतियों	-9.87573
▁Audited	-9.87573
▁nature	-9.87575
▁third	-9.87601
▁चलने	-9.87603
▁देखा	-9.87605
▁created	-9.87607
महोदय	-9.87632
▁लाखों	-9.87661
▁बैठे	-9.87662
▁passengers	-9.87708
▁terms	-9.87721
▁२०	-9.87865
▁कराई	-9.88058
▁१०	-9.8899
हिन्दी	-9.89202
?...	-9.89216
▁Ordinance	-9.89223
▁विदेश	-9.89346
▁हिन्दुस्तान	-9.89371
▁वापस	-9.89375
▁जल्द	-9.8938
▁विवरण	-9.89395
al	-9.89408
▁basic	-9.89414
▁बिना	-9.89415
▁lwpuk	-9.89416
▁खड़े	-9.89416
▁THOMAS	-9.89416
▁Defence	-9.89417
▁inquiry	-9.89417
▁इतने	-9.89417
▁RUPCHAND	-9.89418
▁Advisory	-9.89419
▁लगता	-9.89421
▁दल	-9.89422
▁everything	-9.89422
▁रोकने	-9.89426
▁circumstances	-9.89435
▁दूसरा	-9.89453
▁स्थायी	-9.89466
▁His	-9.89833
▁बता	-9.90075
▁५	-9.90253
f	-9.90407
।"	-9.90653
on	-9.90835
▁short	-9.91019
▁associate	-9.91032
▁Due	-9.91048
▁objection	-9.91103
▁II	-9.91116
▁aspect	-9.91121
▁बोर्ड	-9.91236
▁among	-9.91296
▁increasing	-9.91298
▁scale	-9.91302
▁sugar	-9.91302
▁रासा	-9.91303
▁हिमाचल	-9.91303
▁Jaipur	-9.91303
▁Manipur	-9.91304
▁response	-9.91305
▁द्ृष्टि	-9.91306
▁definitely	-9.91311
▁role	-9.91323
▁related	-9.91344
▁पर्याप्त	-9.91347
▁देकर	-9.91367
▁थ	-9.91403
▁अध	-9.91513
▁घर	-9.91544
▁पता	-9.9159
▁चाहे	-9.91607
▁इसको	-9.9167
▁Deb	-9.9193
▁करीब	-9.91996
▁रर	-9.92022
▁lines	-9.92089
▁पेश	-9.92096
▁२	-9.92113
▁F	-9.9284
in	-9.92912
▁bank	-9.93008
▁Programme	-9.93013
▁Election	-9.93036
▁आय	-9.93052
▁off	-9.93073
▁officer	-9.93095
£	-9.93128
▁post	-9.93131
▁participate	-9.93192
▁sufficient	-9.93219
▁Education	-9.9322
▁Iraq	-9.93224
▁चुके	-9.93225
▁तरीके	-9.93225
▁Sayeed	-9.93226
▁Farmers	-9.93226
▁poverty	-9.93226
▁During	-9.93227
▁गंगा	-9.93229
▁जोड़ने	-9.93233
▁Nobody	-9.93233
▁essential	-9.93255
▁तौर	-9.93263
▁करेगा	-9.93267
▁कककक	-9.93283
▁उनमें	-9.93283
▁मिलने	-9.93303
▁laying	-9.9332
▁ls	-9.9332
▁5.	-9.93331
▁presented	-9.93372
▁ready	-9.93515
▁ली	-9.93602
▁आयु	-9.93807
ित	-9.93935
▁एल	-9.93967
▁करत	-9.94793
▁377	-9.9482
▁?	-9.94869
▁बनाए	-9.94976
▁friend	-9.94988
▁Notification	-9.94999
▁petition	-9.95003
▁रक्षा	-9.95039
▁बीमा	-9.95141
▁महत्व	-9.95156
▁caste	-9.95158
▁check	-9.95163
▁izkFkhZ	-9.95187
▁टेलीफोन	-9.95187
▁running	-9.95187
▁राजधानी	-9.95187
▁Dasmunsi	-9.95187
▁violence	-9.95187
▁महिलाओं	-9.95188
▁confidence	-9.95188
▁authorities	-9.95188
▁Hearing	-9.95189
▁सेवाओं	-9.95194
▁established	-9.95199
▁More	-9.95202
▁घटना	-9.95204
▁चौधरी	-9.95225
▁33	-9.95233
▁मदन	-9.95233
▁withdrawn	-9.95257
▁namely	-9.95264
▁jobs	-9.95356
▁खाद्य	-9.95359
▁ÉÊBÉE	-9.95373
▁aspects	-9.95392
▁टैक्स	-9.95422
▁विश्व	-9.9569
▁s	-9.96204
▁80	-9.96759
▁१	-9.96864
▁produce	-9.96878
▁effect	-9.96915
▁practice	-9.97
▁direction	-9.97008
▁express	-9.97112
▁disturb	-9.97132
TM	-9.97167
▁केंद्र	-9.97175
▁चालू	-9.97184
▁Every	-9.97185
▁Steps	-9.97185
▁China	-9.97185
▁समिति	-9.97186
▁Ensure	-9.97186
▁लगातार	-9.97187
▁यातायात	-9.97187
▁अविलम्ब	-9.97187
▁BANERJEE	-9.97187
▁backward	-9.97187
▁Registrar	-9.97187
▁नुकसान	-9.97188
▁Consideration	-9.97189
▁actually	-9.97192
▁might	-9.97193
▁सूखे	-9.97194
▁appointed	-9.97196
▁across	-9.97197
▁elected	-9.97204
▁जरूरी	-9.97208
▁connected	-9.9722
▁लेना	-9.97223
▁नियंत्रण	-9.97233
▁उनसे	-9.97233
▁Action	-9.97286
▁पड़ा	-9.97309
▁schools	-9.97309
▁Are	-9.97389
▁काल	-9.97435
ना	-9.97495
▁सव	-9.97784
▁अपन	-9.97917
▁interests	-9.97964
nd	-9.97985
ढ	-9.97999
▁सं	-9.98117
▁commitment	-9.98979
▁remain	-9.98985
ियों	-9.99031
▁million	-9.99035
▁Land	-9.99052
▁investment	-9.99119
clock	-9.99216
▁general	-9.99216
▁natural	-9.99217
▁MEMBER	-9.99219
▁stop	-9.99223
▁विद्युत	-9.99227
▁living	-9.99227
▁VARKALA	-9.99227
▁विभिन्न	-9.99227
▁Decision	-9.99228
▁देवेन्द्र	-9.99228
▁जानना	-9.9923
▁CBI	-9.9923
▁क्षमता	-9.9923
▁drinking	-9.99231
▁myself	-9.99234
▁रखता	-9.99243
▁यहाँ	-9.99244
▁आती	-9.99259
▁भेजा	-9.9926
▁स्थानों	-9.99269
▁unless	-9.99269
▁समस्याओं	-9.99269
▁sense	-9.99272
▁whose	-9.99295
▁गरीबी	-9.99362
▁रोड	-9.9939
▁vk	-9.99521
▁age	-9.99549
▁भर	-10.0012
▁बढ़ा	-10.0034
er	-10.0043
▁sports	-10.0051
▁नन	-10.0056
Mr	-10.0066
ि	-10.0081
▁target	-10.0104
▁force	-10.0108
▁फ	-10.011
▁Other	-10.0111
▁revenue	-10.0111
▁condition	-10.0112
▁River	-10.0112
▁village	-10.0112
▁flood	-10.0112
▁disinvestment	-10.0117
▁आतंकवाद	-10.0127
▁वी	-10.0127
▁health	-10.0129
▁kept	-10.0131
▁Joint	-10.0131
▁मुआवजा	-10.0131
▁Yojana	-10.0131
▁आडवाणी	-10.0131
▁Eastern	-10.0131
▁Country	-10.0131
▁रामदास	-10.0131
▁Employment	-10.0131
▁lost	-10.0131
▁Raghuvansh	-10.0131
▁पक्ष	-10.0132
▁जिम्मेदारी	-10.0133
▁seems	-10.0134
▁दाम	-10.0134
▁शहरों	-10.0134
▁विदेशी	-10.0135
▁safety	-10.0135
▁धारा	-10.0136
▁spoken	-10.0138
▁seriously	-10.0139
▁१२	-10.0142
▁लाना	-10.0144
▁पटना	-10.0144
▁RAM	-10.0148
▁inform	-10.0149
ए	-10.0186
•	-10.023
rd	-10.0248
ें	-10.0255
J	-10.0307
▁experience	-10.0314
▁met	-10.0315
▁send	-10.032
▁dispute	-10.0322
▁fund	-10.0323
▁term	-10.0324
▁month	-10.0324
▁job	-10.0325
▁implement	-10.0338
▁खाद	-10.034
▁declare	-10.034
▁छोटी	-10.0344
▁AIYAR	-10.0344
▁मालूम	-10.0344
▁बातचीत	-10.0344
▁मुद्दा	-10.0344
▁बसुदेव	-10.0344
▁Minimum	-10.0344
▁इतनी	-10.0344
▁Himachal	-10.0344
▁INFORMATION	-10.0344
▁खड़ा	-10.0344
▁technology	-10.0344
▁बोलेंगे	-10.0344
▁disposed	-10.0344
▁दूंगा	-10.0345
▁legs	-10.0346
▁कमीशन	-10.0349
▁आता	-10.0349
▁students	-10.035
▁पैसे	-10.0352
▁fair	-10.0353
▁करोड़ों	-10.0354
▁villages	-10.0367
▁Before	-10.037
▁बातों	-10.0377
▁आये	-10.0381
▁old	-10.0382
Q	-10.0413
~	-10.0437
▁193	-10.0512
▁चला	-10.0514
the	-10.0515
▁class	-10.0526
▁cd	-10.0526
▁visit	-10.0533
▁plaintiff	-10.0542
▁colleague	-10.0543
▁expenditure	-10.0544
▁Forest	-10.0547
▁स्वयं	-10.0553
▁हल	-10.0555
▁intervene	-10.0557
▁व्यक्त	-10.056
▁forest	-10.056
▁effective	-10.0561
▁नीचे	-10.0561
▁Army	-10.0561
▁इजाजत	-10.0561
▁रुपया	-10.0561
▁ठहराव	-10.0561
▁अखिलेश	-10.0561
▁huge	-10.0561
▁inflation	-10.0561
▁resume	-10.0561
▁दिलाना	-10.0561
▁MUKHERJEE	-10.0561
▁fixed	-10.0562
▁स्थानीय	-10.0562
▁विश्वास	-10.0562
▁कहते	-10.0562
▁हालत	-10.0563
▁लाईन	-10.0564
▁बैंकों	-10.0564
▁clearly	-10.0564
▁मिलता	-10.0565
▁seeking	-10.0565
▁developed	-10.0568
▁शासन	-10.0568
▁विद्यालय	-10.0568
▁telling	-10.0569
▁जायें	-10.057
▁morning	-10.0579
▁पावर	-10.0582
▁२००५	-10.0583
▁placed	-10.0588
▁charges	-10.0599
Ç	-10.0643
▁राज	-10.066
▁nor	-10.0661
▁real	-10.0758
▁survey	-10.0762
▁doubt	-10.0763
▁profit	-10.0764
▁tribal	-10.0765
▁terrorist	-10.0765
▁river	-10.0765
▁यात्रा	-10.0768
▁Eleven	-10.0778
▁difficult	-10.0781
▁ढंग	-10.0783
▁Reddy	-10.0783
▁quite	-10.0783
▁subsidy	-10.0783
▁Adequate	-10.0783
▁families	-10.0783
▁capacity	-10.0783
▁व्यापक	-10.0783
▁आपूर्ति	-10.0783
▁facing	-10.0784
▁वभिन्न	-10.0784
▁नदियों	-10.0784
▁वेतन	-10.0784
▁सिफारिशों	-10.0784
▁बाकी	-10.0784
▁internal	-10.0785
▁alongwith	-10.0785
▁करेगी	-10.0785
▁largest	-10.0785
▁tonnes	-10.0787
▁रहता	-10.0787
▁setting	-10.0787
▁एकड़	-10.0787
▁इन्हें	-10.0788
▁Medical	-10.0788
▁shown	-10.0789
▁स्पीकर	-10.0792
▁गय	-10.0792
▁directed	-10.0792
▁Problems	-10.0792
▁efforts	-10.0792
▁late	-10.0793
▁नेशनल	-10.0795
▁इनको	-10.0795
▁While	-10.0797
▁standing	-10.0804
▁ago	-10.0812
▁pointed	-10.0814
▁knows	-10.0814
▁war	-10.0825
▁educational	-10.0854
),	-10.0882
▁Who	-10.0912
▁Your	-10.0914
▁happen	-10.0986
▁lack	-10.0987
▁Force	-10.0994
▁thought	-10.1004
▁review	-10.1005
MSOffice	-10.1009
▁Somnath	-10.101
▁peace	-10.101
▁MAMATA	-10.101
▁रघुनाथ	-10.101
▁beyond	-10.1011
▁अत्यंत	-10.1011
▁चाहिये	-10.1011
▁इन्हीं	-10.1011
▁minimum	-10.1011
▁MAHAJAN	-10.1011
▁YASHWANT	-10.1011
▁लागत	-10.1011
▁priority	-10.1011
▁extent	-10.1011
▁assessment	-10.1011
▁Year	-10.1011
▁additional	-10.1011
▁via	-10.1012
▁शब्दों	-10.1012
▁सत्र	-10.1015
▁parliamentary	-10.1015
▁majority	-10.1015
▁अधिकारी	-10.1017
▁urgent	-10.1017
▁स्टेशनों	-10.1018
▁listed	-10.1023
▁लाने	-10.1025
▁allegations	-10.1035
▁respondents	-10.104
▁Vijay	-10.1048
▁courts	-10.1058
▁lakhs	-10.1059
▁documents	-10.1061
▁वैशाली	-10.1063
cd	-10.1081
▁demands	-10.1083
▁६	-10.113
▁कष्ट	-10.1159
▁inter	-10.1177
▁जे	-10.1192
▁View	-10.1222
▁roads	-10.1223
▁Governor	-10.1224
kr	-10.1228
▁बोलिए	-10.1233
▁उठाए	-10.1242
▁favour	-10.1243
▁ऑवर	-10.1243
▁अनाज	-10.1243
▁separate	-10.1243
▁xÉcÉÓ	-10.1243
▁सुषमा	-10.1243
▁Kindly	-10.1243
▁behind	-10.1243
▁भविष्य	-10.1243
▁replied	-10.1243
▁Marg	-10.1243
▁धार्मिक	-10.1243
▁वक्तव्य	-10.1243
▁जानते	-10.1243
▁allotted	-10.1243
▁compensation	-10.1243
▁entitled	-10.1243
▁respective	-10.1244
▁सहित	-10.1244
▁assembled	-10.1244
▁कितना	-10.1244
▁बैठिए	-10.1244
▁स्टेट	-10.1245
▁पैकेज	-10.1247
▁संरक्षण	-10.1248
▁रखी	-10.125
▁पीने	-10.1252
▁diseases	-10.1253
▁supporting	-10.1263
▁terrorists	-10.1263
▁कार्यों	-10.1264
▁floods	-10.1264
▁KUMARI	-10.1265
▁incidents	-10.1284
ÉxÉ	-10.1321
▁पहुंच	-10.1343
▁लगे	-10.136
▁l	-10.1413
री	-10.1417
V	-10.1421
ड	-10.1434
▁improve	-10.1448
ख	-10.1454
▁conversion	-10.1456
▁Work	-10.1457
▁judgement	-10.1459
▁type	-10.1462
▁passenger	-10.1463
▁observation	-10.1463
▁आध	-10.1465
▁legal	-10.1465
▁bridge	-10.1468
▁Declare	-10.1476
▁spoke	-10.1476
▁35	-10.1477
▁वर्ग	-10.1481
▁स्थित	-10.1481
▁प्रक्रिया	-10.1481
▁कोयला	-10.1481
▁आठवले	-10.1481
▁जम्मू	-10.1481
▁गैस	-10.1481
▁मुद्दे	-10.1481
▁almost	-10.1481
▁भुगतान	-10.1481
▁अनधकरर	-10.1481
▁आश्वासन	-10.1481
▁स्वीकार	-10.1481
▁Various	-10.1481
▁Expedite	-10.1481
▁वर्मा	-10.1481
▁consensus	-10.1481
▁commodities	-10.1481
▁administration	-10.1481
▁Mohan	-10.1481
▁कोल	-10.1482
▁राष्ट्रपति	-10.1482
▁भावना	-10.1482
▁चलाने	-10.1483
▁visited	-10.1484
▁पेंशन	-10.1484
▁सामान्य	-10.1486
▁Supplementary	-10.1486
▁फायदा	-10.1487
▁अनुदानों	-10.1487
▁हन	-10.1488
▁यात्री	-10.1491
▁चले	-10.1492
▁ITA	-10.1506
▁2017	-10.1506
▁नेता	-10.1512
▁पन	-10.1518
▁Ka	-10.1547
▁जनहित	-10.1553
▁2,	-10.1592
▁१४	-10.1593
▁सम	-10.1642
▁k	-10.1643
▁३	-10.165
या	-10.1662
Éä	-10.1688
▁follow	-10.17
▁face	-10.1705
▁occasion	-10.1706
▁orders	-10.171
▁nt	-10.171
▁Group	-10.1714
▁develop	-10.172
▁release	-10.1722
▁strong	-10.1723
▁v	-10.1724
▁recent	-10.1724
▁scope	-10.1725
▁भर्ती	-10.1725
▁थोड़ा	-10.1725
▁धर्म	-10.1725
▁गन्ने	-10.1725
▁महाजन	-10.1725
▁सम्मिलित	-10.1725
▁simple	-10.1725
▁insurance	-10.1725
▁निम्नलखित	-10.1725
▁Parties	-10.1725
▁Coal	-10.1725
▁लग	-10.1725
▁assure	-10.1725
▁जोशी	-10.1725
▁रखना	-10.1726
▁nobody	-10.1726
▁Gram	-10.1726
▁बनाना	-10.1726
▁रहते	-10.1727
▁कृष्ण	-10.1729
▁US	-10.1729
▁जातियों	-10.1729
▁PRAMOD	-10.173
▁Health	-10.173
▁कर्मचारी	-10.173
▁विधान	-10.173
▁changed	-10.173
▁cÉä	-10.1732
▁citizens	-10.1733
▁rupees	-10.1734
▁unemployment	-10.1735
▁सात	-10.1736
▁comments	-10.1738
▁observations	-10.1744
▁friends	-10.1748
Appellant	-10.176
N	-10.1761
▁मानव	-10.1773
▁गति	-10.1774
▁purposes	-10.1774
▁बनी	-10.1795
▁laws	-10.182
▁माल	-10.182
w	-10.185
▁congratulate	-10.1945
▁limit	-10.195
▁claim	-10.1954
▁permit	-10.1954
▁wait	-10.1955
▁language	-10.1955
▁institution	-10.1958
▁bound	-10.1964
▁Krishna	-10.1965
▁Open	-10.1971
▁cross	-10.1973
▁उल्लेख	-10.1974
▁अन्दर	-10.1975
▁गेहूं	-10.1975
▁अच्छे	-10.1975
▁fiscal	-10.1975
▁वाजपेयी	-10.1975
▁हरियाणा	-10.1975
▁प्रणाली	-10.1975
▁Economic	-10.1975
▁उपरोक्त	-10.1975
▁Those	-10.1975
▁Nandigram	-10.1975
▁Technology	-10.1975
▁Similarly	-10.1975
▁dismissed	-10.1975
▁दौरान	-10.1976
▁ननध	-10.1976
▁former	-10.1977
▁protected	-10.1979
▁declared	-10.1979
▁बाबा	-10.198
▁somebody	-10.1981
▁iÉÉä	-10.1982
▁Secondly	-10.1982
▁हाई	-10.1984
▁स्वीकृत	-10.1984
▁जैसा	-10.1985
▁जिसे	-10.1987
▁गठन	-10.1988
▁Baba	-10.1991
▁इनकी	-10.1992
▁rivers	-10.1997
▁लेंगे	-10.1999
▁central	-10.2004
▁ककक	-10.2007
▁राष्ट्र	-10.2023
▁using	-10.2024
▁(4)	-10.2029
▁२५	-10.2038
▁हित	-10.2073
ji	-10.2088
▁x	-10.2101
गर	-10.215
▁पुर	-10.2155
▁constitutional	-10.2193
▁budget	-10.2206
▁border	-10.2208
▁reach	-10.2212
▁addition	-10.2212
▁relation	-10.2213
▁Judge	-10.2214
▁live	-10.2214
▁भेज	-10.2215
▁individual	-10.2216
▁approach	-10.2224
▁trade	-10.2227
▁प्रभाव	-10.2227
▁मे	-10.2227
▁नेपाल	-10.2227
▁supply	-10.2228
▁निगम	-10.2229
▁admitted	-10.223
▁eight	-10.223
▁jute	-10.2231
▁SINHA	-10.2231
▁regime	-10.2231
▁हिस्सा	-10.2231
▁PRANAB	-10.2231
▁energy	-10.2231
▁स्वराज	-10.2231
▁rather	-10.2231
▁January	-10.2231
▁Mulayam	-10.2231
▁प्रारंभ	-10.2231
▁nuclear	-10.2231
▁दासमुंशी	-10.2231
▁alone	-10.2231
▁खोलने	-10.2231
▁tried	-10.2231
▁democratic	-10.2231
▁Chatterjee	-10.2231
▁communities	-10.2231
▁treatment	-10.2232
▁बैठिये	-10.2232
▁failed	-10.2232
▁attitude	-10.2232
▁Hence	-10.2232
▁recently	-10.2232
▁बढ़ाया	-10.2233
▁suggested	-10.2233
▁arising	-10.2234
▁holding	-10.2235
▁२००४	-10.2236
▁South	-10.2236
▁पासवान	-10.2236
▁quality	-10.2237
▁सड़कों	-10.2237
उपाध्यक्ष	-10.2237
▁Ors	-10.2241
▁BANKURA	-10.2242
▁Jodhpur	-10.2242
▁शंकर	-10.2243
▁कश्मीर	-10.2244
▁पूर्वी	-10.2244
ह	-10.2245
▁HON	-10.2257
Respondent	-10.2261
▁बिहारी	-10.2266
▁rest	-10.2272
▁नया	-10.2279
g	-10.2302
ण	-10.2315
▁उपाय	-10.2333
▁32	-10.2361
▁Vs	-10.2365
▁global	-10.2369
▁bad	-10.2372
▁ABÉE	-10.2392
▁son	-10.2396
▁शक्ति	-10.2413
▁ककय	-10.2438
▁b	-10.2443
▁file	-10.2466
▁defence	-10.247
▁Service	-10.2476
▁field	-10.2476
▁connection	-10.2476
▁house	-10.2488
▁expect	-10.2489
▁America	-10.249
पुर	-10.249
▁Schedule	-10.2491
Saka	-10.2493
......	-10.2494
▁Labour	-10.2494
▁Formula	-10.2494
▁Ganga	-10.2494
▁घंटे	-10.2494
▁NORTH	-10.2494
▁जैसी	-10.2494
▁agenda	-10.2494
▁प्रमुख	-10.2494
▁Enacting	-10.2495
▁External	-10.2495
▁moment	-10.2495
▁राजेश	-10.2495
▁aforesaid	-10.2495
▁सर्वेक्षण	-10.2495
▁spent	-10.2495
▁electricity	-10.2495
▁पड़ेगा	-10.2495
▁wheat	-10.2495
▁engaged	-10.2495
▁SHANKAR	-10.2495
▁रहती	-10.2496
▁राजनीतिक	-10.2497
▁जोड़ा	-10.2498
▁opposed	-10.2498
▁प्रस्तावित	-10.2498
▁महिला	-10.2499
▁Taken	-10.2502
▁जिनमें	-10.2502
▁Right	-10.2503
▁कुंवर	-10.2505
▁quoted	-10.2508
▁याद	-10.2509
▁reported	-10.2509
▁खरीद	-10.2512
▁Ld	-10.2512
▁media	-10.2513
▁रोक	-10.252
▁मंडल	-10.2529
▁टन	-10.2537
▁W	-10.2542
▁rice	-10.2543
▁submissions	-10.2544
▁पूर्ण	-10.255
▁तेल	-10.2555
▁rates	-10.2563
?...(	-10.261
P	-10.2645
ion	-10.2672
▁जस	-10.2697
▁thereon	-10.2699
▁Human	-10.2718
▁join	-10.2722
iÉ	-10.2733
▁Line	-10.2745
▁operation	-10.2747
▁पाकिस्तान	-10.276
▁fight	-10.2761
▁remember	-10.2762
▁sell	-10.2763
▁illegal	-10.2763
▁final	-10.2764
▁आलू	-10.2764
▁एंड	-10.2765
▁carried	-10.2765
▁Haryana	-10.2765
▁welfare	-10.2765
▁agencies	-10.2765
▁vf	-10.2765
▁सर्वे	-10.2766
▁strongly	-10.2766
▁होंगे	-10.2768
▁प्रकाश	-10.2768
▁सौ	-10.2769
▁मिलना	-10.2769
▁आवागमन	-10.277
▁गोरखपुर	-10.277
▁meaning	-10.277
▁Hyderabad	-10.277
▁1997	-10.2771
▁rightly	-10.2773
▁cause	-10.2774
▁नये	-10.2788
▁Control	-10.2793
▁कहां	-10.2793
▁conditions	-10.2795
p	-10.2796
▁benefits	-10.2803
▁जान	-10.2815
▁८	-10.2818
▁h	-10.2821
▁कत	-10.2838
is	-10.2842
▁Dy	-10.2843
▁बढ	-10.2852
O	-10.2888
▁सज	-10.2923
▁ओ	-10.2956
▁नियमित	-10.2985
▁Can	-10.3011
▁oppose	-10.3015
▁intention	-10.3021
▁counsel	-10.3021
▁judgment	-10.3023
▁hold	-10.3026
▁explain	-10.3037
▁Accord	-10.3039
▁उदाहरण	-10.304
▁कार्यालय	-10.304
▁positive	-10.3041
▁GDP	-10.3042
▁२००६	-10.3042
▁Lunch	-10.3042
▁समुचित	-10.3042
▁SOUTH	-10.3042
▁धनराशि	-10.3042
▁Ranjan	-10.3042
▁इस्तेमाल	-10.3042
▁September	-10.3043
▁mechanism	-10.3043
▁Consolidated	-10.3043
▁प्राथमिकता	-10.3043
▁मिलेगी	-10.3043
▁Though	-10.3043
▁corruption	-10.3043
▁innocent	-10.3043
▁referring	-10.3043
▁achieve	-10.3043
▁merely	-10.3043
▁उठाना	-10.3043
▁दरटन	-10.3043
▁किन्तु	-10.3044
▁yourself	-10.3044
▁growing	-10.3044
▁ददल	-10.3044
▁MANI	-10.3045
▁limited	-10.3045
▁mining	-10.3046
▁alleged	-10.3047
▁निम्न	-10.3048
▁medicines	-10.3048
▁जिसकी	-10.3048
▁उद्योगों	-10.3049
▁trial	-10.3051
▁एच	-10.3054
▁considering	-10.3054
▁Air	-10.3054
▁Sri	-10.3055
▁Papers	-10.3056
▁थीं	-10.3056
▁loans	-10.3058
▁dks	-10.306
▁crop	-10.3062
▁Reported	-10.3064
▁आदे	-10.3066
▁grounds	-10.3083
▁मन	-10.3091
Cd	-10.3092
स्थापित	-10.3105
▁११	-10.3114
an	-10.3125
▁कब	-10.3127
च	-10.3138
▁समझ	-10.3144
▁led	-10.3175
▁48	-10.3187
िक	-10.3288
▁book	-10.3301
▁rail	-10.3305
▁Revenue	-10.3306
▁belonging	-10.3307
▁Part	-10.3307
▁sale	-10.3315
▁hands	-10.3322
▁save	-10.3324
▁सांसद	-10.3325
▁शब्द	-10.3326
▁अनुदान	-10.3326
▁WTO	-10.3328
▁vihy	-10.3328
▁Ltd	-10.3328
▁पटेल	-10.3328
▁२००२	-10.3328
▁proud	-10.3328
▁बच्चे	-10.3328
▁fnukad	-10.3328
▁KISHORE	-10.3328
▁उत्पन्न	-10.3328
▁completion	-10.3328
▁protest	-10.3328
▁ANANTH	-10.3328
▁knowledge	-10.3328
▁performance	-10.3328
▁Independence	-10.3328
▁thankful	-10.3328
▁history	-10.3328
▁judicial	-10.3328
▁Rail	-10.3328
▁exchange	-10.3328
▁विद्युतीकरण	-10.3328
▁परियोजनाओं	-10.3329
▁Press	-10.3329
▁बताना	-10.3329
▁वालों	-10.3329
▁coal	-10.3329
▁sanctioned	-10.333
▁accordingly	-10.333
▁expected	-10.3331
▁died	-10.3331
▁closed	-10.3332
▁मात्रा	-10.3332
▁बनने	-10.3332
▁सुधारने	-10.3333
▁कितने	-10.3334
▁Welfare	-10.3334
▁air	-10.3334
वां	-10.3335
▁keeping	-10.3335
▁बिलासपुर	-10.334
▁साधन	-10.3342
▁Indo	-10.3342
▁उर्वरक	-10.3344
BÉEÉ	-10.3344
▁बोला	-10.3345
▁ORDER	-10.3345
कि	-10.335
▁dk	-10.3351
▁colleagues	-10.3353
▁जाकर	-10.3361
▁वही	-10.3414
▁soon	-10.3416
▁देख	-10.3427
▁thereto	-10.3445
▁योग्य	-10.3489
▁men	-10.3494
U	-10.355
▁अभ	-10.3555
▁सपोर्ट	-10.3562
▁70	-10.357
▁Here	-10.3572
▁वव	-10.3576
at	-10.3586
▁suggest	-10.3589
▁Q	-10.3591
▁privilege	-10.3593
▁function	-10.3599
▁generation	-10.36
▁package	-10.3601
▁strike	-10.3601
▁burden	-10.3603
▁n	-10.3603
▁clarification	-10.3604
▁विपक्ष	-10.3607
No	-10.3611
▁examine	-10.362
▁वंचित	-10.362
▁मुख्यालय	-10.362
▁गम्भीर	-10.3621
▁Check	-10.3622
▁Gauge	-10.3622
▁Priya	-10.3622
▁crisis	-10.3622
▁अधिकांश	-10.3622
▁deficit	-10.3622
▁FINANCE	-10.3622
▁अथवा	-10.3622
▁प्रसारण	-10.3622
▁तारीख	-10.3622
▁cooperation	-10.3622
▁quoting	-10.3622
▁पूछना	-10.3622
▁NAIK	-10.3622
▁witnesses	-10.3623
▁Day	-10.3623
▁हुयी	-10.3623
▁kilometres	-10.3623
▁removed	-10.3624
▁Lalu	-10.3624
▁text	-10.3624
▁व्यय	-10.3626
▁दर्जा	-10.3626
▁movement	-10.3627
▁constituted	-10.3627
▁Vajpayee	-10.3628
▁उपभोक्ता	-10.3628
▁सुरक्षित	-10.3628
▁Re	-10.3629
ष	-10.3629
▁ek	-10.3629
▁आवर	-10.3629
▁सूची	-10.363
▁माना	-10.3631
▁रंजन	-10.3631
▁सहमति	-10.3634
▁Muslims	-10.3636
▁followed	-10.3637
▁crops	-10.3641
▁Rights	-10.3643
▁प्लांट	-10.3646
▁45	-10.3649
▁directions	-10.365
▁मारे	-10.3652
।">	-10.3674
▁fd	-10.3694
Railways	-10.3703
▁d	-10.3705
▁f	-10.3745
▁unit	-10.3774
▁कुल	-10.3855
लम	-10.389
▁de	-10.3894
▁export	-10.3899
▁makes	-10.3899
▁grant	-10.3901
▁measure	-10.3901
▁propose	-10.3904
▁criminal	-10.3905
▁stock	-10.3906
▁school	-10.3906
▁३०	-10.3907
▁head	-10.3911
▁commission	-10.3918
_______________	-10.3918
आप	-10.3919
▁परेशान	-10.3921
▁reduce	-10.3921
▁पर्यटक	-10.3922
▁अनंत	-10.3925
▁staff	-10.3925
▁110067	-10.3925
▁instead	-10.3925
▁दिसम्बर	-10.3925
▁आकृष्ट	-10.3925
▁औद्योगिक	-10.3925
▁Allahabad	-10.3925
▁प्रियरंजन	-10.3925
▁महंगाई	-10.3925
▁university	-10.3925
▁Legislative	-10.3925
▁creating	-10.3925
▁intervention	-10.3925
▁जनसंख्या	-10.3925
▁Authenticated	-10.3925
▁दिनांक	-10.3925
▁otherwise	-10.3926
▁संभव	-10.3926
▁Suman	-10.3926
▁supposed	-10.3926
▁recommended	-10.3926
▁growers	-10.3926
▁unfortunately	-10.3927
▁पालन	-10.3927
▁कानपुर	-10.3928
▁प्रबंधन	-10.3928
▁signed	-10.3928
▁directly	-10.3928
▁वि	-10.3929
▁पाया	-10.3929
▁एफ	-10.3932
▁कहने	-10.3933
▁लाया	-10.3933
▁sums	-10.3936
▁reading	-10.3936
▁सम्मान	-10.3937
▁Just	-10.3937
▁दलित	-10.3941
▁Services	-10.3947
▁Situation	-10.395
▁हई	-10.3953
▁body	-10.3959
▁stations	-10.3966
▁nine	-10.3981
▁उसक	-10.3982
▁Copy	-10.3995
▁नहर	-10.4005
▁reports	-10.4027
▁नत	-10.403
▁500	-10.4047
▁४	-10.4049
nt	-10.4147
▁बह	-10.4155
▁statements	-10.4158
▁Pal	-10.4162
▁suit	-10.4211
▁billion	-10.4213
▁Bridge	-10.4216
▁material	-10.4218
▁newspaper	-10.4219
▁farmer	-10.4219
▁figure	-10.4219
▁death	-10.4219
▁cut	-10.4226
▁add	-10.4227
▁जरूर	-10.423
▁मजदूर	-10.4231
▁आकर	-10.4232
▁बंगाल	-10.4233
▁Construct	-10.4233
▁व्यापार	-10.4233
▁विवाद	-10.4236
▁खैरे	-10.4237
▁Implementation	-10.4237
▁जितनी	-10.4238
▁विनती	-10.4238
▁नौकरी	-10.4238
▁Nehru	-10.4238
▁SURESH	-10.4238
▁duties	-10.4238
▁कल्याण	-10.4238
▁गंगवार	-10.4238
▁भार्गव	-10.4238
▁योगदान	-10.4238
▁context	-10.4238
▁पाण्डेय	-10.4238
▁समीक्षा	-10.4238
▁SHOURIE	-10.4238
▁previous	-10.4238
▁Athawale	-10.4238
▁Management	-10.4238
▁beginning	-10.4238
▁Everybody	-10.4238
▁universities	-10.4238
▁opportunities	-10.4238
▁सब्सिडी	-10.4238
▁आजादी	-10.4238
▁बढ़ती	-10.4238
▁समझता	-10.4238
▁बोलते	-10.4238
▁संतोष	-10.4238
▁जायेगी	-10.4239
▁हत्या	-10.424
▁बनाकर	-10.4241
▁प्रयोग	-10.4241
▁आभारी	-10.4241
▁DEO	-10.4242
H	-10.4242
▁disturbing	-10.4242
▁रोका	-10.4243
▁शायद	-10.4243
▁राजीव	-10.4244
▁RAIGANJ	-10.4244
▁रूपए	-10.4244
▁Atal	-10.4245
▁आठ	-10.425
▁बत	-10.4252
▁bringing	-10.4253
▁spite	-10.4253
▁RAO	-10.4254
▁speakers	-10.426
▁honour	-10.4262
▁२००३	-10.4263
▁मान्यवर	-10.4263
▁self	-10.427
उप	-10.4284
ns	-10.4288
▁कर्ज	-10.4301
v	-10.431
▁takes	-10.4311
▁सद	-10.432
▁Into	-10.4366
▁youth	-10.4386
▁37	-10.4429
ध	-10.4444
▁Account	-10.4447
▁असर	-10.4462
▁ji	-10.4516
am	-10.4517
▁condemn	-10.4531
▁resignation	-10.4536
▁challenge	-10.4538
▁pressure	-10.4539
▁टाइम	-10.4544
▁building	-10.4544
▁loan	-10.4547
▁complaint	-10.4548
▁double	-10.4556
▁expedite	-10.4556
▁study	-10.4557
▁speaker	-10.4557
▁solve	-10.4558
▁fast	-10.456
▁चिन्ता	-10.456
▁Proper	-10.456
▁izFke	-10.456
▁तुरंत	-10.456
▁Thomas	-10.456
▁उड़ीसा	-10.456
▁दुनिया	-10.456
▁बावजूद	-10.456
▁Nagpur	-10.456
▁SCINDIA	-10.456
▁अधनियम	-10.456
▁अतरिक्त	-10.456
▁गिरधारी	-10.456
▁परिवहन	-10.456
▁CALCUTTA	-10.456
▁पर्यावरण	-10.456
▁Mandal	-10.456
▁MADHAVRAO	-10.456
▁compulsory	-10.456
▁possession	-10.456
▁Radhakrishnan	-10.456
▁रावले	-10.456
▁ourselves	-10.456
▁highest	-10.4561
▁चलेगा	-10.4561
▁MEMBERS	-10.4561
▁framed	-10.4562
▁रास्ता	-10.4564
▁परिवारों	-10.4564
▁राजस्व	-10.4566
▁Alleged	-10.4566
▁moving	-10.4567
▁जाएंगे	-10.4568
▁Where	-10.4572
▁जिसका	-10.4573
▁Suresh	-10.4573
▁प्रसिद्ध	-10.4574
▁dealing	-10.4574
▁श्रम	-10.4574
▁माह	-10.4574
▁understanding	-10.458
▁Y	-10.4582
▁बने	-10.4586
▁गर	-10.4587
▁Reservation	-10.4587
▁अद	-10.4587
▁ordered	-10.4596
▁मर	-10.4605
▁देशों	-10.4608
or	-10.4612
▁Clauses	-10.4633
▁दद	-10.4637
▁करा	-10.4639
वीं	-10.4696
▁traffic	-10.4698
▁gets	-10.4726
▁return	-10.4728
▁यू	-10.4761
to	-10.4767
▁mi	-10.4778
▁200	-10.4778
▁सन्	-10.4812
ये	-10.4818
/;	-10.4845
▁maintain	-10.4862
▁react	-10.4867
▁defendant	-10.4869
▁instance	-10.4875
▁belong	-10.4876
▁उत्पाद	-10.4879
▁access	-10.4889
▁balance	-10.4889
▁wind	-10.489
▁Early	-10.4892
▁Gupta	-10.4892
▁Steel	-10.4892
▁heavy	-10.4892
▁परंतु	-10.4892
▁Faced	-10.4892
▁Patil	-10.4892
▁daily	-10.4892
▁Women	-10.4892
▁जितने	-10.4892
▁BRAJA	-10.4892
▁ADHIR	-10.4893
▁उपस्थित	-10.4893
▁हुये	-10.4893
▁विगत	-10.4893
▁बजाय	-10.4893
▁मीटिंग	-10.4893
▁comment	-10.4893
▁About	-10.4893
▁दिखाई	-10.4893
▁विलास	-10.4893
ो	-10.4893
▁Chandra	-10.4893
▁BOLPUR	-10.4893
▁सिस्टम	-10.4893
▁प्रमोद	-10.4893
▁Industry	-10.4893
▁despite	-10.4893
▁facility	-10.4893
▁TRIPATHY	-10.4893
▁deceased	-10.4893
▁kerosene	-10.4893
▁Arunachal	-10.4894
▁Additional	-10.4894
▁Release	-10.4894
▁revised	-10.4894
▁Convention	-10.4894
▁Chhattisgarh	-10.4894
▁Electricity	-10.4894
▁आदिवासियों	-10.4894
▁नियुक्ति	-10.4894
▁pertaining	-10.4894
▁contained	-10.4894
▁objectionable	-10.4894
▁गैर	-10.4894
▁satisfied	-10.4895
▁allocated	-10.4895
▁मात्र	-10.4896
▁बेरोजगारी	-10.4896
▁foodgrains	-10.4896
▁examined	-10.4898
▁developing	-10.4898
▁achieved	-10.4898
▁released	-10.4899
▁ब्रिज	-10.4899
▁assured	-10.4899
▁purchase	-10.49
▁इतिहास	-10.49
▁introduction	-10.49
▁Lucknow	-10.49
▁विशेषकर	-10.49
▁reached	-10.49
▁paying	-10.49
▁हाल	-10.4902
▁आना	-10.4906
▁cooperative	-10.4907
▁thus	-10.491
▁wise	-10.4912
▁operations	-10.4917
▁मरम्मत	-10.4919
▁bridges	-10.492
▁happens	-10.4921
▁disputes	-10.4923
▁समान	-10.4928
▁shows	-10.4929
वें	-10.4938
▁34	-10.4945
▁Highways	-10.4945
▁r	-10.4949
▁जुड़े	-10.4955
▁देवरिया	-10.4957
▁low	-10.4975
▁53	-10.4984
▁सेना	-10.4999
▁NO	-10.5043
▁सा	-10.5058
▁Houses	-10.5076
able	-10.5099
▁पाल	-10.5133
▁सन	-10.5137
iii	-10.516
re	-10.5175
▁VÉÉä	-10.5187
▁exercise	-10.5214
▁suicide	-10.5217
▁killing	-10.5218
▁paper	-10.5221
▁failure	-10.5223
▁recommendation	-10.5226
▁accord	-10.5231
▁finish	-10.5233
▁छूट	-10.5234
▁मंदिर	-10.5234
▁आभार	-10.5234
▁मैम्बर	-10.5235
▁दर्ज	-10.5235
▁हाथ	-10.5236
▁परिणाम	-10.5236
it	-10.5236
▁Develop	-10.5237
▁व्यवसाय	-10.5237
▁संस्थान	-10.5237
▁KIRIT	-10.5237
▁SHARAD	-10.5237
▁SUDIP	-10.5237
▁Support	-10.5237
▁freight	-10.5237
▁message	-10.5237
▁अत्यधिक	-10.5237
▁सुप्रीम	-10.5237
▁LPG	-10.5237
▁Pension	-10.5237
▁समाचार	-10.5237
▁इलाके	-10.5237
▁२००१	-10.5237
▁JPC	-10.5237
kdkjh	-10.5237
▁Swain	-10.5238
▁observed	-10.5238
▁बचाने	-10.5238
▁Gangnath	-10.5238
▁Rupchand	-10.5238
▁domestic	-10.5238
▁CHOWDHURY	-10.5238
▁sugarcane	-10.5238
▁Ahmedabad	-10.5238
▁emerging	-10.5238
▁percentage	-10.5238
▁Agricultural	-10.5238
▁rehabilitation	-10.5238
▁चलते	-10.5238
▁संचार	-10.5239
▁चलाई	-10.5239
▁व्यक्तियों	-10.5239
▁लिस्ट	-10.5239
▁cities	-10.5241
▁throughout	-10.5241
▁ahead	-10.5241
▁approval	-10.5242
▁became	-10.5243
▁reforms	-10.5243
▁उपलब्धता	-10.5243
▁सुबह	-10.5245
▁Ayodhya	-10.5245
▁तभी	-10.5245
▁चायल	-10.5245
▁produced	-10.5245
▁लेखा	-10.5246
▁joint	-10.5249
▁speeches	-10.5249
▁Bihari	-10.5252
▁looking	-10.5253
▁जनजातियों	-10.5253
▁ever	-10.5254
▁aÉc	-10.5255
▁route	-10.5259
▁भाव	-10.5259
▁Civil	-10.5259
▁शिमला	-10.5267
▁houses	-10.5267
▁बनाये	-10.5267
▁states	-10.5271
▁culture	-10.5272
▁Projects	-10.5278
▁2011	-10.5285
▁Their	-10.5297
and	-10.5298
▁Leaders	-10.5309
▁Sub	-10.5325
▁तर	-10.5362
▁मद	-10.538
▁नय	-10.5411
ती	-10.5539
▁object	-10.5563
▁sheet	-10.5574
▁cover	-10.5574
▁Director	-10.5575
▁religion	-10.5575
▁contribution	-10.5575
▁group	-10.5576
▁pre	-10.5579
▁American	-10.558
▁organisation	-10.5583
▁fall	-10.5586
▁Arun	-10.5587
▁चीज	-10.5587
सी	-10.5591
▁interrupt	-10.5591
▁walk	-10.5591
▁आत्महत्या	-10.5592
▁स्कीम	-10.5592
▁traditional	-10.5594
▁आरोप	-10.5594
▁Author	-10.5594
▁उच्च	-10.5594
▁BANATWALLA	-10.5594
▁Irrigation	-10.5594
▁Munirka	-10.5594
▁Procedure	-10.5594
▁SOMAIYA	-10.5594
▁bodies	-10.5594
▁grateful	-10.5594
▁अनुसंधान	-10.5594
▁ऐतिहासिक	-10.5594
▁कार्यान्वयन	-10.5594
▁निरंतर	-10.5594
▁बिल्कुल	-10.5594
▁ब्याज	-10.5594
▁शुरु	-10.5594
▁हिसाब	-10.5594
▁improving	-10.5594
▁फिल्म	-10.5594
▁neither	-10.5594
▁spirit	-10.5594
▁रोटी	-10.5594
▁Jute	-10.5594
▁filter	-10.5594
▁रास्ते	-10.5594
▁PAWAR	-10.5594
▁चौहान	-10.5594
▁अगले	-10.5594
▁filing	-10.5595
▁बोलिये	-10.5595
▁आंदोलन	-10.5595
▁Indira	-10.5595
▁dead	-10.5595
▁बुलाया	-10.5595
▁outset	-10.5595
▁jurisdiction	-10.5595
▁BANDYOPADHYAY	-10.5595
▁अंतर्राष्ट्रीय	-10.5595
▁entered	-10.5596
▁Ramji	-10.5596
▁लेते	-10.5596
▁सांसदों	-10.5597
▁According	-10.5597
▁personally	-10.5597
▁पूछा	-10.5597
▁tourism	-10.5598
▁covered	-10.5598
▁परेशानी	-10.5599
▁session	-10.5599
▁तमाम	-10.56
▁रहेगा	-10.5601
▁becoming	-10.5601
▁associated	-10.5602
▁हिन्दू	-10.5602
▁Whatever	-10.5603
▁CHANDRA	-10.5603
▁concerning	-10.5603
▁आयात	-10.5603
▁011	-10.5605
▁नियमों	-10.5606
▁gives	-10.5607
▁तैयारी	-10.5607
▁पंजीयक	-10.561
▁२०००	-10.561
▁Facilities	-10.561
▁requires	-10.561
▁चरण	-10.5612
▁चन्द्र	-10.5613
▁Raj	-10.5615
▁representatives	-10.5618
▁पुन	-10.5621
्	-10.5622
▁tribals	-10.5625
▁Also	-10.5625
▁योगी	-10.5628
▁कोटा	-10.5628
▁प्रदेशों	-10.5632
▁सागर	-10.564
▁ु	-10.5641
▁उपर	-10.5642
▁communal	-10.5645
के	-10.5681
▁becomes	-10.5682
xÉä	-10.5686
▁¶	-10.5702
▁waste	-10.5716
▁लय	-10.5728
▁जय	-10.5775
▁mistake	-10.5872
▁́Éä	-10.5901
२	-10.5918
▁सजा	-10.5925
▁modern	-10.5937
▁link	-10.5938
▁affect	-10.5939
▁Article	-10.5943
▁Agreement	-10.5944
▁announcement	-10.5944
▁committee	-10.5944
▁advantage	-10.5945
▁pension	-10.5945
▁receipt	-10.5945
▁turn	-10.5947
▁structure	-10.5947
▁sort	-10.5952
▁राजनीति	-10.5961
▁स्कूल	-10.5962
▁संकल्प	-10.5963
▁Memorandum	-10.5965
▁excise	-10.5965
▁prosecution	-10.5965
▁religious	-10.5965
▁प्रत्येक	-10.5965
▁प्राकृतिक	-10.5965
▁मृत्यु	-10.5965
▁लखनऊ	-10.5965
▁World	-10.5965
▁legislative	-10.5965
▁समझौता	-10.5965
▁संदर्भ	-10.5965
▁WEST	-10.5965
▁extension	-10.5965
▁policies	-10.5965
▁जिन्हें	-10.5965
▁वाटर	-10.5965
▁unprecedented	-10.5965
▁Ramdas	-10.5965
▁बंसल	-10.5965
▁definition	-10.5965
▁concluding	-10.5965
▁Over	-10.5965
▁reality	-10.5965
▁खाली	-10.5965
▁बचाया	-10.5966
▁बन्द	-10.5966
▁औरंगाबाद	-10.5966
▁प्रथम	-10.5966
▁बरेली	-10.5966
▁independent	-10.5966
▁approved	-10.5966
▁absolutely	-10.5966
▁Requested	-10.5967
▁truth	-10.5967
▁Govt	-10.5967
▁सारा	-10.5968
▁हवाई	-10.5969
▁कृपाल	-10.597
▁Jain	-10.597
▁पिछड़ा	-10.597
▁talked	-10.5971
▁improved	-10.5971
▁addressed	-10.5971
▁undertakings	-10.5972
▁मी	-10.5972
▁तुलना	-10.5972
▁बांदा	-10.5972
▁कंपनी	-10.5973
▁नागपुर	-10.5973
▁Port	-10.5973
▁whom	-10.5976
▁सालों	-10.5976
▁Have	-10.5978
▁बांध	-10.5978
▁Bodoland	-10.5981
▁training	-10.5981
x	-10.5986
▁newspapers	-10.5987
▁(5)	-10.5995
▁likely	-10.6003
▁proposals	-10.6018
▁देर	-10.602
▁concerns	-10.6022
▁commercial	-10.6022
▁लक	-10.6028
ते	-10.6036
▁उपज	-10.6039
▁बदले	-10.6042
▁civil	-10.6057
▁गत	-10.6069
▁́ÉÉ	-10.6078
▁शहरी	-10.6085
▁रेखा	-10.6113
T	-10.6114
ठ्ठह	-10.6119
▁news	-10.6165
▁SC	-10.6166
Th	-10.6179
ओं	-10.6283
ation	-10.6287
▁१००	-10.6303
▁sanction	-10.632
▁serve	-10.632
▁convey	-10.6321
▁examination	-10.6325
▁lead	-10.6325
▁threat	-10.6329
▁accident	-10.6331
▁Muslim	-10.6331
▁Paper	-10.6331
▁highway	-10.6331
▁operate	-10.6332
▁objective	-10.6333
▁पढ़	-10.6334
▁argument	-10.6338
ÉÉÊiÉ	-10.6342
▁repeat	-10.6344
▁बराबर	-10.6346
he	-10.6346
▁अत्याचार	-10.6347
▁पीड़ित	-10.6347
▁finding	-10.6348
▁Left	-10.6348
▁similar	-10.6348
▁clock	-10.6348
▁strength	-10.6348
▁season	-10.6349
▁दुर्घटना	-10.6349
▁compel	-10.6349
▁Patna	-10.6349
▁BIKRAM	-10.6349
▁Backward	-10.6349
▁CHAKRABORTY	-10.6349
▁KINJARAPU	-10.6349
▁Rajsamand	-10.6349
▁diesel	-10.6349
▁explanation	-10.6349
▁silence	-10.6349
▁कंपनियों	-10.6349
▁किंतु	-10.6349
▁चित्रकूट	-10.6349
▁थोड़ी	-10.6349
▁प्राइवेट	-10.6349
▁भ्रष्टाचार	-10.6349
▁सप्ताह	-10.6349
▁International	-10.6349
▁Master	-10.6349
▁secularism	-10.6349
▁Salim	-10.6349
▁creation	-10.6349
▁Drinking	-10.6349
▁संस्थाओं	-10.6349
▁primary	-10.6349
▁लोकतंत्र	-10.6349
▁उत्तरांचल	-10.635
▁recovery	-10.635
€“	-10.635
▁whenever	-10.635
▁Include	-10.635
▁अटल	-10.635
▁खासकर	-10.635
▁Rawat	-10.635
▁rejected	-10.635
▁expunged	-10.6351
▁Employees	-10.6351
▁availability	-10.6351
▁आमान	-10.6351
द्वड्ढ	-10.6351
▁suspended	-10.6351
▁नेताओं	-10.6352
▁imposed	-10.6352
▁रबल	-10.6352
▁norms	-10.6353
▁देती	-10.6353
▁JOS	-10.6353
▁initiated	-10.6353
▁caused	-10.6354
▁टीम	-10.6354
▁thereafter	-10.6355
▁overall	-10.6355
▁बढ़ने	-10.6355
▁participated	-10.6357
▁MPs	-10.6357
▁लम्बित	-10.6357
▁शिवराज	-10.6357
▁वार्षिक	-10.6357
▁Dasgupta	-10.6358
▁Pradhan	-10.6358
▁Chairperson	-10.6358
▁reasonable	-10.6359
▁इसलिये	-10.636
▁चन्द्रपुर	-10.6361
▁आवास	-10.6361
▁ककककक	-10.6362
▁कराना	-10.6363
▁urban	-10.6366
▁Areas	-10.6366
▁Matters	-10.6371
▁continued	-10.6373
▁clarifications	-10.6374
▁ITAT	-10.6374
▁बनाम	-10.6375
▁शेष	-10.6379
▁Forces	-10.6382
▁remains	-10.6385
▁thinking	-10.6386
भ	-10.6388
▁तथ	-10.6392
▁young	-10.6392
▁फंड	-10.6393
▁कीमत	-10.6401
▁कुमारी	-10.6415
▁36	-10.6429
▁Thanks	-10.6443
▁बस	-10.6445
▁ननर	-10.6466
DR	-10.6517
▁घ	-10.6519
▁numbers	-10.6538
▁appeals	-10.6552
▁58	-10.6576
▁मान	-10.6611
▁ways	-10.6643
▁Dal	-10.6643
ity	-10.665
▁environment	-10.6681
यह	-10.6702
▁attempt	-10.6723
▁confusion	-10.6724
▁advance	-10.6725
▁shortage	-10.6725
▁Trust	-10.6727
▁Request	-10.6728
▁applicant	-10.6729
▁violation	-10.673
▁initiative	-10.673
▁suffering	-10.6733
▁offence	-10.6734
▁Panchayat	-10.6734
▁operative	-10.6735
▁ex	-10.6741
▁बेहतर	-10.6743
▁consent	-10.6747
▁हत	-10.6747
▁दिक्कत	-10.6747
▁अस्पताल	-10.6748
▁सतना	-10.6748
▁normal	-10.6748
▁सहमत	-10.6749
▁broad	-10.6749
▁Ashok	-10.6749
▁BALASORE	-10.6749
▁CHANDRAPPAN	-10.6749
▁Companies	-10.6749
▁Conference	-10.6749
▁Metro	-10.6749
▁POTA	-10.6749
▁SRIKAKULAM	-10.6749
▁TECHNOLOGY	-10.6749
▁VERSUS	-10.6749
▁acquisition	-10.6749
▁manufacturing	-10.6749
▁petrol	-10.6749
▁pollution	-10.6749
▁trouble	-10.6749
▁अंतर्विष्ट	-10.6749
▁गारंटी	-10.6749
▁जालौन	-10.6749
▁भयंकर	-10.6749
▁मतलब	-10.6749
▁महसूस	-10.6749
▁लघु	-10.6749
▁Bangalore	-10.6749
▁Shankar	-10.6749
▁अत्यन्त	-10.6749
▁आर्डर	-10.6749
▁जनजातीय	-10.6749
▁recruitment	-10.6749
▁मार्च	-10.6749
▁Shivraj	-10.6749
▁faith	-10.6749
▁Capital	-10.6749
▁perusal	-10.6749
▁coaches	-10.6749
▁grave	-10.6749
▁calamity	-10.6749
▁Status	-10.675
▁प्रतिवर्ष	-10.675
▁difficulties	-10.675
▁circulated	-10.675
▁भीषण	-10.675
▁stating	-10.675
▁retired	-10.675
▁exactly	-10.675
▁Pune	-10.675
▁Accordingly	-10.6751
▁नागरिकों	-10.6751
▁मोशन	-10.6751
▁सकेगा	-10.6751
▁पवन	-10.6752
▁एक्ट	-10.6753
▁difficulty	-10.6753
▁Rao	-10.6754
▁नयी	-10.6754
▁highly	-10.6754
▁fighting	-10.6754
▁victims	-10.6754
▁completely	-10.6755
▁conducted	-10.6755
▁आतंकवादी	-10.6756
▁सबको	-10.6757
▁CPI	-10.6757
▁वहीं	-10.6757
▁reserves	-10.6757
▁चूंकि	-10.6757
▁Urban	-10.6757
▁thirty	-10.6758
▁इंदिरा	-10.6758
▁Two	-10.6758
▁संयंत्र	-10.6758
▁applicable	-10.6758
▁बीज	-10.6758
▁Nations	-10.6758
▁भावनाओं	-10.6759
▁remarks	-10.676
▁पड़े	-10.676
▁ÉÊãÉA	-10.676
▁fire	-10.6761
▁कार्यक्रमों	-10.6764
▁USA	-10.6765
▁thousands	-10.6765
▁RSS	-10.6766
▁Cd	-10.6768
▁therewith	-10.6769
Éå	-10.6772
▁इनका	-10.6773
▁Has	-10.6774
▁occasions	-10.6781
▁deaths	-10.6782
▁Kumari	-10.6782
▁heart	-10.6788
▁बम	-10.6789
▁city	-10.679
▁47	-10.6795
▁संस्कृति	-10.6807
▁Zero	-10.6809
▁कार्ड	-10.6815
▁establish	-10.6818
L	-10.6824
▁बाल	-10.6833
▁letters	-10.6835
as	-10.684
▁मार	-10.6861
शन	-10.6903
▁निकाल	-10.6959
▁provides	-10.6976
ली	-10.7031
▁Indians	-10.7042
▁Mani	-10.706
ÉÚ	-10.7066
▁कराए	-10.7068
▁90	-10.7113
▁150	-10.7126
िए	-10.714
▁resolution	-10.7141
▁idea	-10.7144
▁Reference	-10.7145
▁judge	-10.7145
▁arrangement	-10.7146
▁Science	-10.7146
▁hundred	-10.7147
▁Caste	-10.7147
▁network	-10.715
▁पहल	-10.7155
▁Plant	-10.716
▁strengthen	-10.7162
▁town	-10.7162
▁बर्बाद	-10.7162
▁चुना	-10.7162
की	-10.7165
▁solution	-10.7165
▁शून्य	-10.7166
▁secular	-10.7166
▁Conduct	-10.7166
▁Doordarshan	-10.7166
▁Friday	-10.7166
▁Guarantee	-10.7166
▁KHANDURI	-10.7166
▁MAHTAB	-10.7166
▁Mahatma	-10.7166
▁NITISH	-10.7166
▁PUBLIC	-10.7166
▁Statutory	-10.7166
▁Stoppage	-10.7166
▁Universities	-10.7166
▁activity	-10.7166
▁guidance	-10.7166
▁अफीम	-10.7166
▁आदित्यनाथ	-10.7166
▁इटावा	-10.7166
▁चिट्ठी	-10.7166
▁थर्मल	-10.7166
▁नालंदा	-10.7166
▁प्रारम्भ	-10.7166
▁मथुरा	-10.7166
▁रिकॉर्ड	-10.7166
▁साबित	-10.7166
▁ौलए	-10.7166
▁लिमिटेड	-10.7166
▁समस्तीपुर	-10.7166
▁Unless	-10.7166
▁until	-10.7166
▁गोयल	-10.7166
▁मुरली	-10.7166
▁Bansal	-10.7166
▁डिस्कशन	-10.7166
▁distribution	-10.7166
▁penalty	-10.7166
▁लाए	-10.7166
▁बुनियादी	-10.7166
▁मामलों	-10.7166
▁Gurudas	-10.7166
▁Assistant	-10.7166
▁विशिष्ट	-10.7166
▁स्टेटमेंट	-10.7166
▁delegation	-10.7166
▁simply	-10.7166
▁दूरदर्शन	-10.7166
▁जुड़ा	-10.7166
▁Protection	-10.7166
▁leadership	-10.7166
▁producing	-10.7166
▁AJOY	-10.7166
▁खनन	-10.7166
▁व्यापारियों	-10.7167
▁कहूंगा	-10.7167
▁छात्रों	-10.7167
▁पाठक	-10.7167
▁शरद	-10.7167
▁बदलने	-10.7167
▁देखकर	-10.7167
▁improvement	-10.7168
▁राजो	-10.7168
▁मंत्रियों	-10.7168
▁saw	-10.7168
▁compared	-10.7168
▁Benches	-10.7169
▁इसीलिए	-10.7169
▁voting	-10.7169
▁feeling	-10.7169
▁denied	-10.717
▁कार्यरत	-10.717
▁पहली	-10.717
▁रहना	-10.7171
▁customs	-10.7172
▁sold	-10.7173
▁अन्याय	-10.7174
▁भगवान	-10.7174
▁कैबिनेट	-10.7175
▁झंझारपुर	-10.7175
▁Such	-10.7175
▁perhaps	-10.7175
▁indicated	-10.7175
▁Another	-10.7175
▁हमला	-10.7175
▁आसन	-10.7176
▁लाइनों	-10.7177
▁writing	-10.7178
▁larger	-10.718
▁sources	-10.7183
▁निवेश	-10.7184
▁मगर	-10.7184
▁दूरी	-10.7184
▁6.	-10.7184
▁मिलों	-10.7186
▁SCs	-10.7186
▁accidents	-10.7186
▁groups	-10.7188
▁विषयों	-10.7189
▁needed	-10.7191
▁Smt	-10.7192
▁लैंड	-10.7193
▁मान्यता	-10.7195
▁forget	-10.7196
ra	-10.7201
▁वाया	-10.7202
▁plant	-10.721
▁हिन्दी	-10.7212
▁दनांक	-10.7218
▁dis	-10.7235
▁ratio	-10.7237
▁अपर	-10.7253
▁sides	-10.7255
▁upto	-10.7263
X	-10.7295
▁२२	-10.731
▁१७	-10.7319
▁decisions	-10.7348
Motion	-10.736
▁42	-10.7383
▁सुना	-10.739
ÉÖ	-10.7392
▁जमा	-10.7394
ies	-10.7398
▁41	-10.7487
ÉxÉä	-10.7572
▁telephone	-10.7574
▁damage	-10.7577
▁rank	-10.7579
▁division	-10.758
▁official	-10.7581
▁disease	-10.7582
▁Tribe	-10.7582
▁page	-10.7587
▁appointment	-10.7589
▁consultation	-10.759
▁representative	-10.7591
▁Khan	-10.7592
▁close	-10.7593
▁जंगल	-10.7595
▁adjourn	-10.7595
▁arrest	-10.7596
▁मौजूद	-10.7596
▁Give	-10.7597
▁७	-10.7597
▁carry	-10.7598
▁तहसील	-10.7598
▁लक्ष्य	-10.7599
▁मेट्रो	-10.7599
▁खुद	-10.76
▁plead	-10.76
▁प्वाइंट	-10.76
▁सफल	-10.76
▁संभावना	-10.7601
▁Commonwealth	-10.7601
▁JUSTICE	-10.7601
▁KAPIL	-10.7601
▁KESHARI	-10.7601
▁Kunwar	-10.7601
▁SIBAL	-10.7601
▁Survey	-10.7601
▁Uttarakhand	-10.7601
▁administrative	-10.7601
▁campaign	-10.7601
▁clarify	-10.7601
▁column	-10.7601
▁connectivity	-10.7601
▁quintal	-10.7601
▁registration	-10.7601
▁research	-10.7601
▁territory	-10.7601
▁अहीर	-10.7601
▁उर्फ	-10.7601
▁गवर्नमेंट	-10.7601
▁जोधपुर	-10.7601
▁तुरन्त	-10.7601
▁पप्पू	-10.7601
▁फरवरी	-10.7601
▁Janata	-10.7601
▁RAMESH	-10.7601
▁Sinha	-10.7601
▁अनुभव	-10.7601
▁नियंत्रित	-10.7601
▁प्रतदिन	-10.7601
▁व्याप्त	-10.7601
▁स्वागत	-10.7601
▁भागलपुर	-10.7601
▁रिजर्वेशन	-10.7601
▁Mantri	-10.7601
▁जुलाई	-10.7601
▁harmony	-10.7601
▁impact	-10.7601
▁stopped	-10.7601
▁प्रकट	-10.7601
▁अनुसूची	-10.7601
▁सीमित	-10.7601
▁djus	-10.7601
▁खड़ी	-10.7601
▁everywhere	-10.7601
▁ममता	-10.7601
▁अकाल	-10.7601
▁Moreover	-10.7602
▁मुख्यमंत्री	-10.7602
▁prevailing	-10.7602
:"	-10.7602
▁pulses	-10.7602
▁delivered	-10.7602
▁MOHAN	-10.7602
▁appeared	-10.7602
▁देगी	-10.7603
▁Thereafter	-10.7603
▁condemned	-10.7604
▁वोट	-10.7604
▁continuing	-10.7604
▁संसाधनों	-10.7605
▁पश्चिम	-10.7606
▁शांति	-10.7606
▁teachers	-10.7606
▁plots	-10.7607
▁implementing	-10.7607
▁hectares	-10.7607
▁पाई	-10.7607
▁leading	-10.7607
▁जिनके	-10.7607
▁waiting	-10.7607
▁ओवर	-10.7609
▁ANIL	-10.7609
▁सोमनाथ	-10.7609
▁वाराणसी	-10.761
▁àÉcÉänaÉ	-10.761
▁unparliamentary	-10.761
▁1995	-10.761
▁Moved	-10.761
▁2015	-10.7611
▁decades	-10.7611
▁selling	-10.7611
▁मिलकर	-10.7613
▁looked	-10.7614
▁खून	-10.7618
▁पंढरपुर	-10.7619
▁scheduled	-10.762
▁feelings	-10.7621
▁तीनों	-10.7622
▁ददन	-10.7622
▁मीटर	-10.7626
▁core	-10.7626
▁कठिनाई	-10.7626
▁challenges	-10.7626
▁उपयोगी	-10.7627
▁supported	-10.7628
▁फिरोजाबाद	-10.7628
sf	-10.7629
▁notification	-10.7637
▁कारणों	-10.7639
▁ठ	-10.7644
▁FAA	-10.7658
▁talks	-10.766
▁Banks	-10.7687
▁पे	-10.769
▁बच	-10.7694
▁उठाये	-10.7697
▁agrees	-10.7701
▁सका	-10.7702
▁बल	-10.7704
▁amounts	-10.7718
▁table	-10.7731
ु	-10.7734
▁1986	-10.7736
▁55	-10.7746
ÉÉä	-10.7758
▁वास्तविक	-10.7759
हम	-10.776
▁1993	-10.7761
▁1991	-10.7771
ers	-10.7772
▁works	-10.7794
▁capital	-10.7805
▁75	-10.7822
▁X	-10.7825
ीय	-10.7867
▁iz	-10.7907
िंग	-10.7928
ÉMÉ	-10.7998
▁खान	-10.8003
▁sentence	-10.8029
▁Division	-10.8029
▁desire	-10.803
▁require	-10.8032
▁principle	-10.8032
▁Unit	-10.8033
▁father	-10.8035
▁Legislature	-10.8035
▁Christian	-10.8036
▁crime	-10.8037
▁portion	-10.8038
मैं	-10.8044
▁track	-10.8045
▁प्रबंध	-10.8047
▁construct	-10.8049
▁proceed	-10.805
▁मोहम्मद	-10.8051
▁Bangladesh	-10.8051
▁बेरोजगार	-10.8051
▁विज्ञान	-10.8051
▁सम्बन्ध	-10.8051
▁जिम्मेदार	-10.8051
▁spread	-10.8052
▁arise	-10.8053
▁initiate	-10.8053
▁Admitted	-10.8054
▁revision	-10.8055
▁lower	-10.8055
▁Transport	-10.8055
▁प्रदर्शन	-10.8055
▁genuine	-10.8055
▁GANDHI	-10.8055
▁Appropriation	-10.8055
▁Banatwalla	-10.8055
▁Compensation	-10.8055
▁Industries	-10.8055
▁JAITLEY	-10.8055
▁Khurana	-10.8055
▁System	-10.8055
▁Unfortunately	-10.8055
▁category	-10.8055
▁freedom	-10.8055
▁humble	-10.8055
▁maximum	-10.8055
▁monsoon	-10.8055
▁personnel	-10.8055
▁salary	-10.8055
▁·	-10.8055
▁अशोक	-10.8055
▁जिन्होंने	-10.8055
▁निरीक्षण	-10.8055
▁प्रदूषण	-10.8055
▁यमुना	-10.8055
▁सलेमपुर	-10.8055
▁स्पीच	-10.8055
▁हमेशा	-10.8055
▁Chandigarh	-10.8055
▁Jaipal	-10.8055
▁Northern	-10.8055
▁agency	-10.8055
▁decree	-10.8055
▁presence	-10.8055
▁मनोहर	-10.8055
▁हंसराज	-10.8055
▁machinery	-10.8055
▁reduction	-10.8055
▁अहमदाबाद	-10.8055
▁कटाव	-10.8055
▁कठिनाइयों	-10.8055
▁दूध	-10.8055
▁Surat	-10.8055
▁फैसला	-10.8055
▁tragedy	-10.8055
▁Aiyar	-10.8056
▁दबाव	-10.8056
▁ultimately	-10.8056
▁Whenever	-10.8056
▁यूनियन	-10.8056
▁Monitoring	-10.8056
▁कम्पनी	-10.8056
▁suitable	-10.8056
▁specifically	-10.8056
▁मैम्बर्स	-10.8056
▁सोनिया	-10.8056
▁Trade	-10.8056
▁दोषी	-10.8056
▁सकेंगे	-10.8057
▁पहुंचाने	-10.8057
▁represented	-10.8057
▁Made	-10.8057
▁played	-10.8057
▁बदलाव	-10.8057
▁तेजी	-10.8057
▁UTI	-10.8057
▁sentiments	-10.8058
▁चीजों	-10.8058
▁arrested	-10.8058
▁बीमारी	-10.8058
▁हितों	-10.8058
▁headed	-10.8059
▁desired	-10.8059
▁नष्ट	-10.806
▁चलता	-10.806
▁greater	-10.806
▁करिये	-10.8061
▁खेल	-10.8062
▁sad	-10.8062
▁attacked	-10.8062
▁slogans	-10.8062
▁Pay	-10.8062
▁लोन	-10.8062
▁benefited	-10.8062
▁कमपन	-10.8063
▁बाबू	-10.8063
▁mills	-10.8063
▁Through	-10.8064
▁PRASAD	-10.8064
▁Rashtriya	-10.8064
▁Industrial	-10.8064
▁Extraordinary	-10.8065
▁worth	-10.8065
▁DMK	-10.8066
▁गाड़ियों	-10.8067
▁Allowances	-10.8068
▁सूखा	-10.8068
▁mentioning	-10.807
▁प्रगति	-10.807
▁anyone	-10.8071
▁बोले	-10.8071
▁merits	-10.8071
▁Supply	-10.8074
▁whereas	-10.8074
▁principles	-10.8074
▁interested	-10.8077
▁calling	-10.8078
▁àÉé	-10.8078
▁रेट	-10.8078
▁progress	-10.8082
▁rain	-10.8085
▁served	-10.8085
▁concluded	-10.8092
▁राव	-10.8096
▁middle	-10.8097
▁मई	-10.8098
▁includes	-10.8112
▁1961	-10.8164
ू	-10.8187
▁clauses	-10.8196
▁64	-10.8198
▁गण	-10.8216
▁1⁄2	-10.8219
▁Districts	-10.8221
रा	-10.8224
▁बीस	-10.8225
▁actions	-10.8245
▁1996	-10.8249
▁वक	-10.8259
▁càÉ	-10.8281
▁जाम	-10.8295
▁ण	-10.8304
▁38	-10.8305
१	-10.8305
Second	-10.8315
गा	-10.8316
▁।"	-10.833
▁सोच	-10.833
▁2003,	-10.8354
▁Non	-10.8356
▁sum	-10.8379
▁पाए	-10.8389
▁१८	-10.8392
़	-10.8397
ness	-10.8413
जी	-10.8416
▁इच्छा	-10.842
नी	-10.8447
इस	-10.8467
—	-10.8493
▁sex	-10.8502
▁enable	-10.8503
▁break	-10.8504
▁conclusion	-10.8507
▁trend	-10.8507
▁transfer	-10.8509
▁School	-10.8509
‍	-10.8509
▁contention	-10.8511
▁difference	-10.8512
▁thousand	-10.8513
▁requirement	-10.8513
▁effort	-10.8513
▁depend	-10.8513
▁home	-10.8514
▁गेज	-10.8519
▁पम	-10.8522
▁मजबूर	-10.8528
▁impose	-10.8528
▁माफ	-10.8528
▁जज	-10.8528
▁नागरिक	-10.8529
▁मकान	-10.853
▁permanent	-10.853
▁annual	-10.853
▁peaceful	-10.853
▁actual	-10.8531
▁प्रोजेक्ट	-10.8531
▁Distribution	-10.8532
▁KURIEN	-10.8532
▁Sugarcane	-10.8532
▁Urged	-10.8532
▁concrete	-10.8532
▁demolition	-10.8532
▁identified	-10.8532
▁izLrqr	-10.8532
▁necessity	-10.8532
▁quorum	-10.8532
▁ऊर्जा	-10.8532
▁कटौती	-10.8532
▁चन्द्रकांत	-10.8532
▁तरीकों	-10.8532
▁निर्वाचन	-10.8532
▁नीतीश	-10.8532
▁पलायन	-10.8532
▁पाटील	-10.8532
▁प्राधिकरण	-10.8532
▁बधाई	-10.8532
▁मुंबई	-10.8532
▁पूंजी	-10.8532
▁revival	-10.8532
▁अंतिम	-10.8532
▁परिणामस्वरूप	-10.8532
▁reducing	-10.8532
▁चेयरमैन	-10.8532
▁Magistrate	-10.8532
▁transferred	-10.8532
▁गंगनाथ	-10.8532
▁housing	-10.8532
▁Having	-10.8532
▁पुरानी	-10.8532
▁extremely	-10.8532
▁घटनाओं	-10.8532
▁punished	-10.8532
▁अवधि	-10.8532
▁Games	-10.8532
▁Workers	-10.8532
▁वैसे	-10.8532
▁बुरी	-10.8532
▁repeatedly	-10.8532
▁settled	-10.8532
▁Border	-10.8532
▁team	-10.8533
▁assets	-10.8534
▁Bharati	-10.8534
▁देखने	-10.8534
▁spending	-10.8535
▁चलाया	-10.8535
▁चाहें	-10.8535
▁रहेंगे	-10.8535
▁RE	-10.8536
▁wages	-10.8537
▁remained	-10.8537
▁understood	-10.8538
▁पत्रों	-10.8538
▁taxes	-10.8539
▁tribes	-10.8539
▁ट्रेनों	-10.854
▁relates	-10.854
▁कहता	-10.854
▁Instead	-10.8541
▁Tripura	-10.8541
▁Regulatory	-10.8541
▁पाने	-10.8542
▁अपीलाथ	-10.8544
▁Most	-10.8548
▁हावड़ा	-10.8551
▁respected	-10.8551
▁निर्धारण	-10.8551
▁officials	-10.8552
▁PIO	-10.8555
▁लेन	-10.8555
▁organisations	-10.8557
▁शुल्क	-10.8559
▁drawn	-10.8564
▁यथ	-10.8565
▁claims	-10.8571
▁हज	-10.8581
▁changes	-10.8582
▁vision	-10.8587
▁वर्षा	-10.8593
▁केर्	-10.8603
▁accounts	-10.8603
Bill	-10.8624
▁Speech	-10.8632
▁________	-10.8642
▁g	-10.8648
▁noted	-10.8661
▁cÉÒ	-10.8661
▁GEN	-10.8675
▁49	-10.8684
BÉE	-10.8686
▁MD	-10.8725
▁शिकायत	-10.8725
▁incidental	-10.8729
▁gas	-10.8756
▁मक	-10.8792
cä	-10.8806
Date	-10.881
▁Basic	-10.8818
▁करवा	-10.8826
ार	-10.8834
▁nä	-10.8843
äãÉ	-10.8869
▁j	-10.8873
▁43	-10.8873
।[	-10.8892
▁रन	-10.8942
▁खंड	-10.8944
▁बदल	-10.8954
▁tea	-10.8956
▁बुला	-10.8958
▁earn	-10.8959
▁mother	-10.8979
▁writ	-10.8983
▁bear	-10.8984
Sir	-10.8987
▁Export	-10.9007
▁value	-10.9008
▁apprehension	-10.9009
▁substance	-10.9009
▁tradition	-10.9011
▁contract	-10.9011
▁investigation	-10.9011
▁exemption	-10.9011
▁representation	-10.9012
▁vehicle	-10.9013
▁hospital	-10.9013
▁Shiv	-10.9026
▁Reserve	-10.9027
▁promote	-10.9028
▁यूपीए	-10.9028
▁apply	-10.9028
▁न्यायालय	-10.9029
▁उद्देश्य	-10.9029
▁technical	-10.903
▁श्रमिक	-10.903
▁significant	-10.903
▁substantial	-10.9031
▁एरिया	-10.9031
▁Last	-10.9031
▁bail	-10.9031
}	-10.9032
▁AHAMED	-10.9032
▁CHOWDHARY	-10.9032
▁Cauvery	-10.9032
▁Comptroller	-10.9032
▁Conversion	-10.9032
▁Essential	-10.9032
▁Foreign	-10.9032
▁FÉäjÉ	-10.9032
▁HOME	-10.9032
▁Jaswant	-10.9032
▁Kendriya	-10.9032
▁Kripal	-10.9032
▁Manager	-10.9032
▁SALIM	-10.9032
▁VAIKO	-10.9032
▁Yerrannaidu	-10.9032
▁coconut	-10.9032
▁integrity	-10.9032
▁lhihvkbZvks	-10.9032
▁paddy	-10.9032
▁picture	-10.9032
▁recognition	-10.9032
▁अध्ययन	-10.9032
▁इलाकों	-10.9032
▁कारपोरेशन	-10.9032
▁पैमाने	-10.9032
▁फतेहपुर	-10.9032
▁लमिटेड	-10.9032
▁BAALU	-10.9032
▁Shailendra	-10.9032
▁discrimination	-10.9032
▁जौनपुर	-10.9032
▁वीरेन्द्र	-10.9032
▁सम्बद्ध	-10.9032
▁existence	-10.9032
▁unnecessarily	-10.9032
▁Jawaharlal	-10.9032
▁Babri	-10.9032
▁Monday	-10.9032
▁इलाका	-10.9032
▁deprived	-10.9032
▁distinguished	-10.9032
▁किनारे	-10.9032
▁आक्रोश	-10.9032
▁पीछे	-10.9032
▁सीनियर	-10.9032
▁Assessee	-10.9032
▁चार्ज	-10.9032
▁Madurai	-10.9032
▁आगामी	-10.9032
▁plight	-10.9032
▁Pandit	-10.9032
▁Trial	-10.9032
▁medium	-10.9032
▁worst	-10.9032
▁Block	-10.9032
▁Code	-10.9032
▁competent	-10.9032
▁फ्री	-10.9032
▁surprised	-10.9032
▁registered	-10.9032
▁Sonia	-10.9032
▁जून	-10.9032
▁neglected	-10.9032
▁destroyed	-10.9032
▁Tea	-10.9032
▁बेचने	-10.9032
▁Passing	-10.9032
▁पड़ती	-10.9032
▁चीजें	-10.9033
▁PDS	-10.9033
▁परिस्थिति	-10.9033
▁putting	-10.9033
▁वहाँ	-10.9033
▁Auditor	-10.9033
▁average	-10.9034
▁suffered	-10.9034
▁Das	-10.9034
▁deleted	-10.9034
▁vegetables	-10.9034
▁बढ़ाकर	-10.9034
▁representing	-10.9034
▁monitoring	-10.9034
▁तकनीकी	-10.9034
▁दलितों	-10.9034
▁transport	-10.9035
▁maintained	-10.9035
▁६०	-10.9035
▁रखकर	-10.9036
▁Patents	-10.9036
▁BY	-10.9036
▁दलों	-10.9037
▁centre	-10.9037
▁code	-10.9038
▁night	-10.9041
▁अमेरिका	-10.9041
▁कर्नाटक	-10.9041
▁बीकानेर	-10.9041
▁मिनिस्टर	-10.9041
▁अतिरिक्त	-10.9041
▁Vigilance	-10.9041
▁लगी	-10.9041
▁डीजल	-10.9041
▁Divisional	-10.9042
▁proved	-10.9043
▁पश	-10.9045
▁कार्यो	-10.9046
▁appears	-10.9047
▁नौ	-10.9047
▁पड़ी	-10.9047
▁light	-10.9049
▁क्षति	-10.905
▁negligence	-10.9052
▁findings	-10.9056
▁इनमें	-10.9058
▁कयों	-10.9059
▁Howrah	-10.9062
▁CHANDIGARH	-10.9063
▁relations	-10.9069
▁बैठक	-10.907
▁types	-10.9072
▁केन्द्रों	-10.9075
▁wherein	-10.9077
▁replying	-10.9078
j	-10.9079
▁Nagar	-10.9083
▁articles	-10.9094
▁offices	-10.9102
▁votes	-10.9109
▁पाइंट	-10.9109
▁site	-10.9148
ar	-10.9153
▁behave	-10.9157
▁आपस	-10.9177
का	-10.9187
It	-10.9205
▁path	-10.9218
▁1984	-10.9241
▁lok	-10.9252
०००	-10.9253
▁होम	-10.9256
▁टर	-10.9264
▁99	-10.9264
▁जोन	-10.9268
▁पूछ	-10.9269
▁para	-10.9291
▁सेंटर	-10.9295
▁सत	-10.9314
▁मै	-10.9321
▁round	-10.9335
▁सत्ता	-10.9339
Ministers	-10.937
▁vis	-10.9408
ाा	-10.9411
hÉ	-10.9422
▁Hindi	-10.9439
जन	-10.945
▁देव	-10.9455
▁Ji	-10.9456
▁82	-10.9502
iv	-10.9515
▁धान	-10.9518
▁enter	-10.9527
▁suffer	-10.953
▁hard	-10.953
▁endeavour	-10.953
▁play	-10.9531
▁potential	-10.9533
▁stay	-10.9533
▁spend	-10.9536
▁१३	-10.9538
▁airport	-10.9538
▁tourist	-10.9539
▁animal	-10.9539
▁rupee	-10.9539
▁debt	-10.954
▁prevent	-10.9544
▁learn	-10.9545
▁crossing	-10.9545
▁kg	-10.9549
▁Lanka	-10.9553
▁encourage	-10.9554
▁मंजूर	-10.9554
▁आशा	-10.9554
▁levy	-10.9554
▁वक्त	-10.9555
▁resign	-10.9555
▁अधध	-10.9556
▁सैनिक	-10.9556
▁ऑफिस	-10.9556
▁इंडस्ट्री	-10.9557
▁unanimous	-10.9557
▁Natural	-10.9557
▁लीडर	-10.9557
▁व्यवहार	-10.9558
▁Implement	-10.9558
▁प्रशासन	-10.9558
окумент	-10.9558
▁Ajmer	-10.9558
▁Akhilesh	-10.9558
▁CHENNITHALA	-10.9558
▁Credit	-10.9558
▁DELHI	-10.9558
▁Detailed	-10.9558
▁George	-10.9558
▁JASWANT	-10.9558
▁Jaitley	-10.9558
▁MADHUSUDAN	-10.9558
▁RAJESH	-10.9558
▁UNDER	-10.9558
▁aggression	-10.9558
▁amenities	-10.9558
▁behaviour	-10.9558
▁erosion	-10.9558
▁felt	-10.9558
▁impugned	-10.9558
▁इत्यादि	-10.9558
▁उम्मीद	-10.9558
▁कौशाम्बी	-10.9558
▁गवर्नमैंट	-10.9558
▁जसवंत	-10.9558
▁निर्यात	-10.9558
▁प्रोत्साहन	-10.9558
▁साढ़े	-10.9558
▁स्थगित	-10.9558
▁Prabhunath	-10.9558
▁Recruitment	-10.9558
▁suspension	-10.9558
▁कोयले	-10.9558
▁जायसवाल	-10.9558
▁ठोस	-10.9558
▁निर्भर	-10.9558
▁FCI	-10.9558
▁पनतशत	-10.9558
▁causing	-10.9558
▁दर्शाने	-10.9558
▁supplied	-10.9558
▁military	-10.9558
▁दस्तावेज़	-10.9558
▁उपयुक्त	-10.9558
▁स्वतंत्रता	-10.9558
▁अमरीका	-10.9558
▁मतदान	-10.9558
▁चावल	-10.9558
▁PANDA	-10.9558
▁पुराने	-10.9558
▁इधर	-10.9558
▁अधीन	-10.9558
▁sabha	-10.9558
▁निपटने	-10.9558
▁adjournment	-10.9558
▁Pawan	-10.9558
▁गंगाराम	-10.9558
▁आपत्ति	-10.9558
▁Mission	-10.9558
▁गीते	-10.9558
▁tune	-10.9558
▁obtained	-10.9559
▁जातियां	-10.9559
▁task	-10.9559
▁fuel	-10.9559
▁आएगा	-10.9559
▁promulgated	-10.9559
▁estimated	-10.9559
▁hike	-10.9559
▁everyday	-10.9559
▁focus	-10.956
▁collected	-10.956
▁चलती	-10.956
▁परसेंट	-10.956
▁constructed	-10.9561
▁negatived	-10.9561
▁yielding	-10.9561
▁घाटा	-10.9561
▁पंचायत	-10.9561
▁hence	-10.9561
▁आधारित	-10.9561
▁corporate	-10.9561
▁depending	-10.9561
▁गंभीरता	-10.9561
▁patience	-10.9562
▁́Éc	-10.9562
▁पश्चिमी	-10.9562
▁affecting	-10.9562
▁Recommendations	-10.9563
▁wishes	-10.9563
▁blasts	-10.9564
▁भेजे	-10.9564
▁अधिकारों	-10.9564
▁imported	-10.9565
▁भवन	-10.9566
▁ग्रहण	-10.9566
▁भूमिका	-10.9566
▁कहें	-10.9567
▁avoid	-10.9567
▁Life	-10.9568
▁नवादा	-10.9568
▁Guard	-10.9568
▁आदरणीय	-10.9568
▁MAJ	-10.9568
▁prove	-10.9568
▁RBI	-10.9569
▁determined	-10.957
▁खुशी	-10.957
▁wide	-10.957
▁Area	-10.9573
▁भागों	-10.9574
▁forced	-10.9574
▁playing	-10.9575
▁रीवा	-10.9578
▁Goa	-10.9578
▁ज्ञान	-10.9579
▁Iran	-10.9586
ksa	-10.9587
▁चली	-10.9588
▁complaints	-10.9589
▁रत	-10.9589
▁Whether	-10.959
▁पकक	-10.9591
▁आग	-10.9593
▁केबल	-10.9598
▁बचा	-10.9601
▁डक	-10.9602
▁Conservation	-10.9602
▁छोड़	-10.9603
▁castes	-10.961
▁unity	-10.9612
▁हे	-10.9613
▁NT	-10.9617
▁खास	-10.9623
ry	-10.9624
▁minds	-10.963
▁top	-10.9635
▁सरकारें	-10.9639
▁reads	-10.9669
पत	-10.967
▁equal	-10.9692
डा	-10.9693
▁मैटर	-10.9701
▁बज	-10.9706
▁ld	-10.9721
▁54	-10.9745
▁वष	-10.9758
▁सीट	-10.9759
xÉÉ	-10.9762
ला	-10.9764
▁board	-10.9775
▁forth	-10.9781
गढ़	-10.979
▁रात	-10.983
श्रीमती	-10.9881
▁Nath	-10.9909
▁भू	-10.9918
▁communication	-10.9959
▁एकल	-11.0012
▁नि	-11.0015
li	-11.0024
▁Committees	-11.0042
गंज	-11.0046
▁IT	-11.0047
▁grow	-11.0061
▁car	-11.0067
▁Co	-11.0068
▁blame	-11.0084
Dr	-11.0085
▁disaster	-11.0089
▁Level	-11.0089
▁female	-11.0091
▁concept	-11.0091
▁eye	-11.0094
▁precedent	-11.0096
▁ना	-11.0099
▁cyclone	-11.0102
▁Ground	-11.0104
▁remind	-11.0107
▁announce	-11.0107
▁cast	-11.0108
▁monitor	-11.0108
▁गणेश	-11.0109
▁Audit	-11.011
▁Look	-11.011
▁substitute	-11.011
▁length	-11.0111
▁Four	-11.0111
▁चैनल	-11.0111
▁खनिज	-11.0112
▁Vaiko	-11.0112
▁मौत	-11.0112
▁संगठन	-11.0112
▁original	-11.0112
▁Environment	-11.0112
▁डिमांड	-11.0113
▁Region	-11.0113
▁प्रोजैक्ट	-11.0113
▁वास्तव	-11.0113
▁प्लीज	-11.0113
▁फाइनेंस	-11.0113
‚	-11.0113
▁Adopted	-11.0113
▁Affected	-11.0113
▁Application	-11.0113
▁BROADCASTING	-11.0113
▁Bhopal	-11.0113
▁Census	-11.0113
▁Chandrappan	-11.0113
▁Commerce	-11.0113
▁DEVELOPMENT	-11.0113
▁Inquiry	-11.0113
▁Irregularities	-11.0113
▁Nagarpalika	-11.0113
▁Parishad	-11.0113
▁RULE	-11.0113
▁Relevant	-11.0113
▁Relief	-11.0113
▁Scindia	-11.0113
▁Seattle	-11.0113
▁Social	-11.0113
▁Spices	-11.0113
▁biggest	-11.0113
▁built	-11.0113
▁criteria	-11.0113
▁electrification	-11.0113
▁maintenance	-11.0113
▁productivity	-11.0113
▁translation	-11.0113
▁vkosnu	-11.0113
▁अम्बेडकर	-11.0113
▁अयोध्या	-11.0113
▁आंकड़ों	-11.0113
▁आबंटित	-11.0113
▁आश्वस्त	-11.0113
▁उत्तराखंड	-11.0113
▁कोलकाता	-11.0113
▁प्लेटफार्म	-11.0113
▁बाईपास	-11.0113
▁मेगावाट	-11.0113
▁संचालन	-11.0113
▁Representation	-11.0113
▁dedicated	-11.0113
▁silk	-11.0113
▁vacancies	-11.0113
▁प्रशिक्षण	-11.0113
▁महात्मा	-11.0113
▁मिट्टी	-11.0113
▁संवेदनशील	-11.0113
▁समझौते	-11.0113
▁Administration	-11.0113
▁Devendra	-11.0113
▁Neeraj	-11.0113
▁livelihood	-11.0113
▁cultivation	-11.0113
▁निदान	-11.0113
▁black	-11.0113
▁घंटों	-11.0113
▁मोहले	-11.0113
▁dignity	-11.0113
▁sensitive	-11.0113
▁procurement	-11.0113
▁Green	-11.0114
▁Finally	-11.0114
▁Sadak	-11.0114
▁छावनी	-11.0114
▁त्रिपाठी	-11.0114
▁serial	-11.0114
▁खतरा	-11.0114
▁जनरल	-11.0114
▁ववरद	-11.0114
▁punishment	-11.0114
▁categorically	-11.0114
▁Sector	-11.0114
▁आएगी	-11.0114
▁बताइए	-11.0114
▁आउट	-11.0114
▁Long	-11.0114
▁सामान	-11.0114
▁SBI	-11.0114
▁Tourism	-11.0114
▁stoppage	-11.0114
▁Measures	-11.0114
▁Arising	-11.0114
▁Regional	-11.0114
▁Eighth	-11.0114
▁Very	-11.0114
▁travel	-11.0114
▁controlled	-11.0114
▁दिलाने	-11.0114
▁Sports	-11.0114
▁detailed	-11.0115
▁2024	-11.0115
▁accountability	-11.0115
▁श्रमिकों	-11.0115
▁Devi	-11.0115
▁लगाना	-11.0116
▁fault	-11.0116
▁Total	-11.0116
▁Asian	-11.0116
▁classes	-11.0116
▁ररज	-11.0117
▁सूरत	-11.0117
▁रोजी	-11.0117
▁drugs	-11.0117
▁मिलनी	-11.0118
▁Addresses	-11.0118
▁sign	-11.0119
▁बची	-11.0119
▁पदों	-11.0119
▁स्थलों	-11.0119
▁बोलें	-11.012
▁Does	-11.0122
▁handed	-11.0123
▁AIIMS	-11.0124
▁किताब	-11.0124
▁OBCs	-11.0125
▁opening	-11.0127
▁गलती	-11.0128
▁dam	-11.0129
▁listening	-11.013
▁सुरेश	-11.0131
▁animals	-11.0133
▁Third	-11.0134
▁formed	-11.0135
▁woman	-11.0135
▁सीतामढ़ी	-11.0136
▁JUDICIAL	-11.0136
▁contrary	-11.0136
▁Personnel	-11.0136
▁Uttaranchal	-11.0136
▁dealt	-11.0141
▁demanding	-11.0143
▁instances	-11.0145
▁खाने	-11.0146
▁disputed	-11.0147
▁चकित्सा	-11.0148
▁Train	-11.0149
▁grants	-11.015
▁PW	-11.015
▁उसने	-11.0153
▁thereby	-11.0154
▁individuals	-11.0155
ksx	-11.0159
▁Complainant	-11.016
▁चेयर	-11.0164
▁mere	-11.0165
▁कन	-11.0167
▁Hindus	-11.0176
▁इकाई	-11.0177
▁जायेंगे	-11.0194
Z	-11.0205
▁environmental	-11.0209
▁meetings	-11.0216
▁ending	-11.022
▁ववव	-11.0222
▁मजबूत	-11.0225
▁hit	-11.0243
▁अपराध	-11.0264
▁Boards	-11.0276
सूचना	-11.0278
एक	-11.028
▁formation	-11.0283
▁systems	-11.029
ÉiÉ	-11.0297
▁जम	-11.0302
▁51	-11.0308
▁नस	-11.0322
▁**	-11.0357
▁९	-11.0365
▁1990	-11.0378
▁उतर	-11.0381
ment	-11.0398
▁पथ	-11.0402
▁ि	-11.0417
▁मा	-11.0448
डॉ	-11.0468
ÉE	-11.0486
cÉ	-11.0488
AG	-11.0497
2]	-11.0506
▁पस	-11.0514
▁discussions	-11.0546
▁पहुंचा	-11.0551
▁popular	-11.0577
▁2005,	-11.0585
ak	-11.0609
गण	-11.0639
▁केस	-11.0656
यों	-11.066
▁receive	-11.0666
▁flow	-11.0666
▁represent	-11.0676
▁yield	-11.0676
▁Crop	-11.0678
▁Issue	-11.0679
▁danger	-11.0679
▁storage	-11.068
▁equipment	-11.068
▁Airport	-11.0681
▁litre	-11.0681
▁voice	-11.0681
▁cylinder	-11.0682
▁establishment	-11.0682
▁girl	-11.0683
▁bomb	-11.0683
▁citizen	-11.0683
▁standard	-11.0683
३	-11.0692
▁Consumer	-11.0693
▁Dam	-11.0693
▁collect	-11.0695
▁सूख	-11.0696
▁यूनिट	-11.0696
▁vital	-11.0697
▁massacre	-11.0697
▁tackle	-11.0698
▁revive	-11.0698
▁build	-11.0698
▁Direct	-11.0698
▁प्रतिबंध	-11.0699
▁constitute	-11.0699
▁आफ	-11.07
▁अखबार	-11.07
▁stretch	-11.07
▁multi	-11.0702
ó	-11.0702
°	-11.0702
ô	-11.0702
▁APPELLATE	-11.0702
▁Chidambaram	-11.0702
▁Circle	-11.0702
▁Commodities	-11.0702
▁Mukherjee	-11.0702
▁Nalanda	-11.0702
▁Research	-11.0702
▁Sanction	-11.0702
▁Sharad	-11.0702
▁Shimla	-11.0702
▁Somaiya	-11.0702
▁Telephone	-11.0702
▁Tourist	-11.0702
▁challenging	-11.0702
▁conspiracy	-11.0702
▁disposal	-11.0702
▁fishermen	-11.0702
▁frfFk	-11.0702
▁inclusion	-11.0702
▁iznku	-11.0702
▁journey	-11.0702
▁petroleum	-11.0702
▁pursuance	-11.0702
▁remunerative	-11.0702
▁scenario	-11.0702
▁tobacco	-11.0702
▁vulnerable	-11.0702
▁अनिवार्य	-11.0702
▁अभियान	-11.0702
▁इंतजाम	-11.0702
▁गुणवत्ता	-11.0702
▁ठाकुर	-11.0702
▁निरन्तर	-11.0702
▁परिवर्तित	-11.0702
▁बाहुल्य	-11.0702
▁भोपाल	-11.0702
▁मोबाइल	-11.0702
▁रांची	-11.0702
▁विस्तृत	-11.0702
▁श्रेणी	-11.0702
▁हमीरपुर	-11.0702
▁Maruti	-11.0702
▁Okay	-11.0702
▁Thermal	-11.0702
▁unemployed	-11.0702
▁मायावती	-11.0702
▁विदर्भ	-11.0702
▁सार्थक	-11.0702
▁हानि	-11.0702
▁Patel	-11.0702
▁crude	-11.0702
▁कॉटन	-11.0702
▁जहाँ	-11.0702
▁फीसदी	-11.0702
▁सुशील	-11.0702
▁Twenty	-11.0702
▁philosophy	-11.0702
▁pronounced	-11.0702
▁settlement	-11.0702
▁प्रकोप	-11.0702
▁प्रयत्न	-11.0702
▁खेद	-11.0702
▁SAHU	-11.0702
▁unfair	-11.0702
▁पुनः	-11.0702
▁impression	-11.0702
▁Panda	-11.0702
▁ÉÊBÉEaÉÉ	-11.0702
▁फैक्ट्री	-11.0702
▁trading	-11.0702
▁accordance	-11.0702
▁VÉÉaÉä	-11.0702
▁अर्थव्यवस्था	-11.0702
▁Masjid	-11.0702
▁असुविधा	-11.0702
▁Kanpur	-11.0702
▁judice	-11.0702
▁losing	-11.0702
▁vast	-11.0702
▁सीधे	-11.0702
▁कारगर	-11.0702
▁भागीदारी	-11.0702
▁छोटा	-11.0702
▁however	-11.0702
▁controlling	-11.0702
▁Tenth	-11.0702
▁deemed	-11.0702
▁वाहनों	-11.0702
▁basically	-11.0702
▁Mahajan	-11.0702
▁जार्ज	-11.0702
▁Vilas	-11.0702
▁affairs	-11.0702
▁expenses	-11.0702
▁clearance	-11.0702
▁कितनी	-11.0702
▁लिखकर	-11.0703
▁कयोंकि	-11.0703
▁beedi	-11.0703
▁सहारा	-11.0703
▁उपकरणों	-11.0703
▁किशोर	-11.0703
▁seriousness	-11.0703
▁forum	-11.0703
▁रूल	-11.0703
▁active	-11.0703
▁पकरर	-11.0703
▁संगठनों	-11.0704
▁कराये	-11.0704
ce	-11.0704
▁defined	-11.0704
▁Madan	-11.0704
▁repeated	-11.0704
▁factory	-11.0704
▁regional	-11.0705
man	-11.0705
▁दारा	-11.0705
▁लगाई	-11.0705
▁channels	-11.0707
▁पढ़ा	-11.0707
▁विदेशों	-11.0707
▁अंत	-11.0708
▁located	-11.0708
▁dependent	-11.0708
▁challenged	-11.0709
▁परिषद	-11.0709
▁fruits	-11.0709
▁चयन	-11.0709
▁शोषण	-11.0709
▁temporary	-11.071
▁TAX	-11.0712
▁Safety	-11.0712
▁धरती	-11.0712
▁extending	-11.0713
▁justified	-11.0713
▁accepting	-11.0713
▁Petroleum	-11.0713
▁व्यक्तिगत	-11.0713
▁listened	-11.0714
▁विरोधी	-11.0716
▁गोवा	-11.0716
▁obligations	-11.0717
▁marketing	-11.0718
▁Fertilizers	-11.0718
▁बैठकर	-11.072
▁आधे	-11.072
▁Anr	-11.072
▁Thus	-11.0721
▁standards	-11.0721
▁Maoists	-11.0721
▁नधि	-11.0721
▁Ban	-11.0722
▁answered	-11.0722
▁कानूनों	-11.0723
▁Gas	-11.0723
▁कककककक	-11.0723
▁test	-11.0724
▁१९९९	-11.0725
▁begin	-11.0725
▁कु	-11.0726
▁1500	-11.0727
▁meant	-11.0728
▁pilgrims	-11.0729
▁करिए	-11.073
▁objectives	-11.0731
▁worked	-11.0731
▁४०	-11.0733
▁hospitals	-11.0735
▁RETD	-11.0737
▁Shiksha	-11.0739
▁राजस्थानी	-11.0743
▁deep	-11.0746
▁profits	-11.0753
▁रहें	-11.0755
▁Treated	-11.0764
▁VÉÉÒ	-11.0772
▁attacks	-11.0775
▁reservations	-11.078
▁regions	-11.0786
▁shares	-11.0787
▁front	-11.0787
▁STs	-11.0789
▁Officers	-11.0793
▁नही	-11.0794
▁ON	-11.0796
▁dates	-11.0805
▁Stations	-11.0809
▁Contd	-11.0816
▁event	-11.0816
▁gÉÉÒ	-11.0826
ीकरण	-11.0838
▁रण	-11.0845
?"	-11.0869
कक	-11.0872
मत	-11.0873
▁Or	-11.0893
▁debates	-11.0905
▁VÉÉ	-11.0907
एं	-11.092
एस	-11.0925
▁Inter	-11.0927
▁सक	-11.0937
pur	-11.0941
We	-11.0942
▁Sr	-11.0974
gi	-11.0979
ÉÉÊ	-11.0983
▁sectors	-11.1014
▁Head	-11.1022
ous	-11.103
▁phone	-11.103
01	-11.1051
▁रद	-11.1055
▁Courts	-11.106
▁रखे	-11.1074
▁39	-11.1077
▁उद्यम	-11.1078
▁ला	-11.1084
▁noon	-11.1091
▁बताएं	-11.1124
▁अनधक	-11.1154
▁250	-11.1169
iÉä	-11.1185
▁रखें	-11.1192
In	-11.124
▁•	-11.1285
से	-11.1288
▁atmosphere	-11.1302
▁disclosure	-11.1302
▁kilogram	-11.1302
▁appear	-11.1302
▁finance	-11.1303
▁collection	-11.1306
▁inspection	-11.1306
▁truck	-11.1307
▁mark	-11.1307
▁’	-11.1308
▁Resource	-11.1308
▁constitution	-11.1308
▁occupation	-11.1312
▁counter	-11.1313
▁gS	-11.132
▁तकनीक	-11.1321
▁शिकार	-11.1323
▁decline	-11.1323
▁confine	-11.1323
▁attract	-11.1325
kjk	-11.1325
▁प्राथमिक	-11.1326
▁definite	-11.1326
▁अपीलकता	-11.1326
▁corrupt	-11.1326
▁परम्परा	-11.1326
▁uniform	-11.1326
▁प्रताप	-11.1327
▁गोपाल	-11.1327
▁Import	-11.1327
▁Resident	-11.1327
▁ACCOUNTANT	-11.1327
▁ANADI	-11.1327
▁ARJUN	-11.1327
▁Abhiyan	-11.1327
▁Ambedkar	-11.1327
▁Bhargava	-11.1327
▁Combined	-11.1327
▁Confidence	-11.1327
▁DEFENCE	-11.1327
▁GOWDA	-11.1327
▁HANNAN	-11.1327
▁Keonjhar	-11.1327
▁MOLLAH	-11.1327
▁Paswan	-11.1327
▁Prakash	-11.1327
▁Reasons	-11.1327
▁TRIBUNAL	-11.1327
▁Yashwant	-11.1327
▁Yojna	-11.1327
▁absence	-11.1327
▁adjudication	-11.1327
▁atrocities	-11.1327
▁blood	-11.1327
▁doubling	-11.1327
▁encouraging	-11.1327
▁lafpdk	-11.1327
▁lanHkZ	-11.1327
▁starvation	-11.1327
▁strategy	-11.1327
▁tribunal	-11.1327
▁ugha	-11.1327
▁अपहरण	-11.1327
▁अभिभाषण	-11.1327
▁अरुण	-11.1327
▁आवंटन	-11.1327
▁कृपलानी	-11.1327
▁जिक्र	-11.1327
▁ठप्प	-11.1327
▁डिबेट	-11.1327
▁नेतृत्व	-11.1327
▁पत्थर	-11.1327
▁मंदसौर	-11.1327
▁श्रीचन्द	-11.1327
▁सैंट्रल	-11.1327
▁स्पेशल	-11.1327
▁हस्तक्षेप	-11.1327
▁defaulters	-11.1327
▁equity	-11.1327
▁इश्यू	-11.1327
▁एयरपोर्ट	-11.1327
▁प्लान	-11.1327
▁यथाशीघ्र	-11.1327
▁जितना	-11.1327
▁Silk	-11.1327
▁stability	-11.1327
▁JOSHI	-11.1327
▁occurred	-11.1327
▁दोहरीकरण	-11.1327
▁Manmohan	-11.1327
▁आसपास	-11.1327
▁कंट्रोल	-11.1327
▁टिकट	-11.1327
▁प्रवेश	-11.1327
▁अफसोस	-11.1327
▁planning	-11.1327
▁कारखाने	-11.1327
▁Ramesh	-11.1327
▁Khanna	-11.1327
▁allotment	-11.1327
▁ऑर्डर	-11.1327
▁चांस	-11.1327
▁planned	-11.1327
▁अलवर	-11.1327
▁tokc	-11.1327
▁रूलिंग	-11.1327
▁डैम	-11.1327
▁प्रतिदिन	-11.1327
▁LAW	-11.1327
▁Start	-11.1327
▁Providing	-11.1327
▁Payment	-11.1327
▁SETHI	-11.1327
▁अनुमान	-11.1327
▁लड़ाई	-11.1327
▁नम्बर	-11.1327
▁arms	-11.1327
▁सोचना	-11.1327
▁suddenly	-11.1327
▁carefully	-11.1327
▁केंद्रीय	-11.1327
▁लगेगा	-11.1327
▁principal	-11.1328
▁massive	-11.1328
▁समस्याएं	-11.1328
▁treat	-11.1328
▁speed	-11.1328
▁Mathura	-11.1328
▁Canal	-11.1328
▁गम्भीरता	-11.1328
▁आयेगा	-11.1328
▁असम	-11.1329
▁witnessed	-11.1329
▁घाटे	-11.1329
▁exact	-11.1329
▁sometimes	-11.1329
▁पढ़ने	-11.1329
▁labourers	-11.133
▁effectively	-11.133
▁PER	-11.133
▁Without	-11.133
▁misused	-11.133
▁withdrawal	-11.133
▁friendly	-11.133
▁कीमतों	-11.133
▁मिलती	-11.1331
▁mainly	-11.1331
▁rich	-11.1331
▁headquarters	-11.1331
▁returned	-11.1331
▁encouraged	-11.1331
▁पाता	-11.1331
▁वर्गों	-11.1331
▁माफी	-11.1332
▁press	-11.1333
▁जिनकी	-11.1333
▁रमन	-11.1334
▁मजदूरी	-11.1334
▁जगहों	-11.1335
▁prior	-11.1336
▁competence	-11.1336
▁funding	-11.1336
▁remaining	-11.1336
▁sending	-11.1336
▁developmental	-11.1337
▁fresh	-11.1337
▁Dinesh	-11.1338
▁barrel	-11.1338
▁अमरेली	-11.1338
▁Energy	-11.1338
▁कलकत्ता	-11.1338
▁probably	-11.1338
▁entirely	-11.1338
▁oÉÉ	-11.1338
▁नासिक	-11.1338
▁PRAKASH	-11.1339
▁mobile	-11.1339
▁Lastly	-11.1339
▁solved	-11.1339
▁izfr	-11.134
▁विभागों	-11.1342
▁Had	-11.1344
▁resulting	-11.1344
▁halt	-11.1344
▁८०	-11.1344
▁methods	-11.1345
▁अनय	-11.1348
▁क्षेत्रीय	-11.1349
▁झांसी	-11.1351
▁Rajesh	-11.1351
▁Maintenance	-11.1352
▁requirements	-11.1352
पर	-11.1358
▁option	-11.1359
▁bit	-11.1362
▁Christians	-11.1364
▁पह	-11.1365
▁causes	-11.1366
▁जन्म	-11.1367
▁गईं	-11.1376
▁देवी	-11.1378
Y	-11.1378
▁sales	-11.1379
▁follows	-11.1379
▁posts	-11.1386
▁खबर	-11.1393
▁कलम	-11.1393
▁raw	-11.1394
▁Prices	-11.1396
▁पार	-11.1399
सू	-11.1409
▁weeks	-11.1409
▁procedures	-11.1415
▁legislations	-11.1417
▁aside	-11.1418
▁२८	-11.1422
▁सम्भल	-11.1433
ां	-11.1434
▁74	-11.1442
▁Corporations	-11.1462
▁साथी	-11.1475
less	-11.1491
▁काट	-11.1491
▁रि	-11.1498
ally	-11.1508
▁petitioners	-11.1517
▁rti	-11.1549
▁अव	-11.1558
िया	-11.1583
▁thereof	-11.1584
▁Youth	-11.1592
ठ	-11.1597
▁मूल	-11.1607
▁78	-11.1612
▁SA	-11.1617
le	-11.1647
▁हटा	-11.1655
▁68	-11.1664
▁1992	-11.1665
ड्ढद	-11.1668
▁सर्व	-11.1672
▁जव	-11.1675
▁लॉ	-11.1688
▁मल	-11.1699
""	-11.1753
▁Go	-11.1758
est	-11.1763
अपील	-11.1767
▁87	-11.177
|	-11.1771
▁title	-11.1773
▁__________	-11.1802
▁600	-11.1824
ur	-11.184
▁दर्शन	-11.1853
Appeal	-11.1854
▁department	-11.1865
▁पहुंचे	-11.1886
▁सह	-11.1917
______________	-11.1922
▁दिखा	-11.1938
▁quota	-11.1944
ve	-11.1946
▁professional	-11.1946
▁ऐ	-11.1949
▁२६	-11.1951
▁लिख	-11.1955
आ	-11.1957
6]	-11.1958
▁Common	-11.1968
▁declaration	-11.1969
▁shortfall	-11.1969
▁Kendra	-11.1969
▁facilitate	-11.197
▁promise	-11.197
▁Chamber	-11.1972
▁outlay	-11.1973
▁product	-11.1974
▁method	-11.1974
▁Zone	-11.1974
▁Fertilizer	-11.1974
▁Grant	-11.1974
▁student	-11.1975
▁resource	-11.1975
▁quarter	-11.1976
▁dream	-11.1977
▁mine	-11.1982
▁Building	-11.1985
▁room	-11.1985
▁59	-11.1986
▁विमान	-11.1987
▁suspend	-11.1988
▁tender	-11.1988
▁frame	-11.1989
▁fish	-11.1989
▁mandate	-11.1989
▁criticise	-11.1989
▁evolve	-11.1989
▁investigate	-11.1989
▁resolve	-11.199
▁allocate	-11.199
▁restore	-11.199
▁compare	-11.199
▁Book	-11.199
▁रोज	-11.1991
▁formulate	-11.1991
▁खाद्यान्न	-11.1991
▁authorise	-11.1991
▁घायल	-11.1991
▁प्रोग्राम	-11.1992
▁पार्लियामेंट	-11.1993
▁नवीन	-11.1993
▁प्रचार	-11.1993
बचदा	-11.1993
▁Afghanistan	-11.1993
▁Bokaro	-11.1993
▁Children	-11.1993
▁Completion	-11.1993
▁Earlier	-11.1993
▁Etawah	-11.1993
▁HANDIQUE	-11.1993
▁Institutions	-11.1993
▁KURUP	-11.1993
▁Kandhamal	-11.1993
▁MANOHAR	-11.1993
▁MURLI	-11.1993
▁Mistry	-11.1993
▁Organisation	-11.1993
▁PANSKURA	-11.1993
▁Pollution	-11.1993
▁Southern	-11.1993
▁Treasury	-11.1993
▁YADAV	-11.1993
▁afraid	-11.1993
▁aÉÉäVÉxÉÉ	-11.1993
▁boost	-11.1993
▁dialogue	-11.1993
▁izkIr	-11.1993
▁judiciary	-11.1993
▁opposing	-11.1993
▁privatisation	-11.1993
▁quantum	-11.1993
▁retail	-11.1993
▁straight	-11.1993
▁unorganised	-11.1993
▁wisdom	-11.1993
▁आवंटित	-11.1993
▁झारखण्ड	-11.1993
▁दृष्टिकोण	-11.1993
▁नालन्दा	-11.1993
▁न्यूनतम	-11.1993
▁पिछली	-11.1993
▁पुरःस्थापित	-11.1993
▁प्राचीन	-11.1993
▁बनातवाला	-11.1993
▁मलेरिया	-11.1993
▁मुताबिक	-11.1993
▁मुल्क	-11.1993
▁संकेत	-11.1993
▁संज्ञान	-11.1993
▁सम्पर्क	-11.1993
▁हिंदुस्तान	-11.1993
▁हुसैन	-11.1993
▁हेक्टेयर	-11.1993
▁हैक्टेयर	-11.1993
▁COMMITTEE	-11.1993
▁calamities	-11.1993
▁फलस्वरूप	-11.1993
▁ऐलान	-11.1993
▁सम्पूर्ण	-11.1993
▁Pathak	-11.1993
▁external	-11.1993
▁खन्ना	-11.1993
▁डेढ़	-11.1993
▁नितीय	-11.1993
▁सीमावर्ती	-11.1993
▁Assessing	-11.1993
▁Installment	-11.1993
▁चित्तौड़गढ़	-11.1993
▁उपबंध	-11.1993
▁travelling	-11.1993
▁àÉVÉ	-11.1993
▁Chakraborty	-11.1993
▁Nagaland	-11.1993
▁Pawar	-11.1993
▁achieving	-11.1993
▁ÉÊnaÉÉ	-11.1993
▁वायदा	-11.1993
▁संयुक्त	-11.1993
▁Salempur	-11.1993
▁अवगत	-11.1993
▁विनय	-11.1993
▁Gaya	-11.1993
▁́ÉÆ	-11.1993
▁पार्टियों	-11.1993
▁बकाया	-11.1993
▁transparency	-11.1994
▁इस्तीफा	-11.1994
▁budgetary	-11.1994
▁पहाड़ी	-11.1994
▁factories	-11.1994
▁बनायी	-11.1994
▁guilty	-11.1994
▁सीधी	-11.1994
▁Western	-11.1994
▁preferred	-11.1994
▁risk	-11.1994
▁उपभोक्ताओं	-11.1994
▁Recently	-11.1994
▁अर्थ	-11.1994
▁बिछाने	-11.1994
▁धरना	-11.1994
▁Armed	-11.1994
▁vius	-11.1994
▁Approval	-11.1994
▁FAO	-11.1994
▁निवासियों	-11.1994
▁घटनाएं	-11.1994
▁मानते	-11.1994
▁Again	-11.1994
▁Five	-11.1994
▁नंबर	-11.1994
▁सीधा	-11.1994
▁हाईवे	-11.1994
▁Objects	-11.1994
▁आएंगे	-11.1994
▁Free	-11.1994
▁outstanding	-11.1994
▁selected	-11.1994
▁burnt	-11.1994
▁Should	-11.1994
▁furnished	-11.1994
▁acquired	-11.1994
▁neighbouring	-11.1995
▁प्रकाशित	-11.1995
▁Passed	-11.1995
▁originally	-11.1995
▁Whose	-11.1995
▁कय	-11.1995
▁unable	-11.1995
▁लगाए	-11.1995
▁injunction	-11.1995
▁पढ़कर	-11.1995
▁उधर	-11.1995
▁whichever	-11.1996
▁Chand	-11.1996
▁closure	-11.1996
▁utilised	-11.1996
▁बनानी	-11.1996
▁vested	-11.1996
▁respectively	-11.1996
▁naturally	-11.1997
▁उत्पादों	-11.1997
▁restored	-11.1997
▁amongst	-11.1997
▁बढ़ाई	-11.1997
▁declined	-11.1997
▁gSA	-11.1998
▁losses	-11.1998
▁शेयर	-11.1998
▁जिनको	-11.1998
▁नलए	-11.1999
▁walking	-11.1999
▁सड़कें	-11.1999
▁damaged	-11.1999
▁Sikhs	-11.1999
▁Prasar	-11.1999
▁वोटर	-11.1999
▁courage	-11.2
▁healthy	-11.2
▁निवास	-11.2001
▁passes	-11.2001
▁liability	-11.2002
▁लंबित	-11.2002
▁linked	-11.2003
▁camps	-11.2003
▁भेजी	-11.2003
▁data	-11.2004
▁BPL	-11.2005
▁छपरा	-11.2005
▁संघ	-11.2005
▁संवैधानिक	-11.2005
▁कटिहार	-11.2005
▁जबलपुर	-11.2005
▁Godhra	-11.2005
▁अधिनियम	-11.2005
▁Calcutta	-11.2005
▁चन्द्रशेखर	-11.2005
▁CHIRAYINKIL	-11.2005
▁Well	-11.2006
▁Provident	-11.2006
▁cold	-11.2007
▁Thousands	-11.2007
▁lying	-11.2008
▁कपड़ा	-11.2008
▁india	-11.2009
▁opened	-11.2011
▁मिलें	-11.2011
▁goal	-11.2011
▁तार	-11.2011
▁Resources	-11.2014
▁linking	-11.2016
▁experienced	-11.2017
▁vehicles	-11.2019
▁dear	-11.2019
▁NREGA	-11.2019
▁demanded	-11.202
▁Yesterday	-11.202
▁centres	-11.2021
▁hundreds	-11.2024
▁helping	-11.2026
▁Requests	-11.2026
▁रू	-11.2026
▁५००	-11.2032
▁functions	-11.2038
▁हमको	-11.2039
▁fields	-11.2043
▁slow	-11.2044
▁पृष्ठ	-11.2048
▁67	-11.205
▁plaintiffs	-11.2053
▁evening	-11.2056
▁चिंता	-11.2057
▁निकट	-11.2058
▁practices	-11.2059
▁Notifications	-11.206
▁heads	-11.206
▁Assessment	-11.2064
▁एम्स	-11.2066
▁अनध	-11.2066
▁rains	-11.2074
▁एकता	-11.2075
▁seeks	-11.2076
▁runs	-11.2077
▁डे	-11.2082
▁56	-11.2089
▁नं	-11.2094
▁अहम	-11.21
▁penal	-11.2103
▁fear	-11.211
▁मणि	-11.212
▁कोट	-11.2128
▁starts	-11.2141
▁Geeta	-11.2155
▁acts	-11.2157
▁emphasis	-11.2167
▁छात्र	-11.2176
ÉÊ	-11.2208
▁Sections	-11.2212
▁नल	-11.2229
▁गं	-11.2254
▁52	-11.2262
▁subjects	-11.2266
▁lands	-11.2271
▁महान	-11.2275
5]	-11.2303
▁योग्यता	-11.231
▁खोले	-11.2322
)[	-11.2341
▁consumer	-11.2341
▁ban	-11.2342
▁अस	-11.2344
la	-11.2367
▁1994	-11.2375
▁1985	-11.2376
▁93	-11.2377
▁won	-11.2391
▁मग	-11.2396
en	-11.2412
iÉÉ	-11.2421
▁5,	-11.2431
BÉD	-11.245
▁Pha	-11.2455
▁ब्रजेश	-11.246
यो	-11.249
▁4,	-11.2498
▁Apart	-11.2498
▁44	-11.2515
▁trust	-11.2518
ियां	-11.2542
▁remark	-11.2553
ky	-11.2556
▁advise	-11.264
▁कार्यकाल	-11.2645
▁संस्था	-11.2651
▁मूव	-11.2652
▁connect	-11.267
▁elect	-11.2679
▁85	-11.268
▁Cantonment	-11.2683
▁safeguard	-11.2685
▁alternative	-11.2686
▁Collector	-11.2686
▁Inspector	-11.2686
▁achievement	-11.2686
▁feet	-11.2686
▁Naga	-11.2686
▁paragraph	-11.2687
▁Tribal	-11.2687
_	-11.2687
▁affidavit	-11.2688
▁Proposal	-11.2688
▁expression	-11.2688
▁fertilizer	-11.2688
▁platform	-11.2688
▁obligation	-11.2689
▁write	-11.2693
▁map	-11.2693
▁couple	-11.2697
▁deliver	-11.27
▁witness	-11.2701
▁worker	-11.2702
▁शांत	-11.2702
▁Enhance	-11.2703
▁नोट	-11.2703
▁enhance	-11.2704
▁आज़ाद	-11.2704
▁Connect	-11.2704
▁firm	-11.2704
▁negative	-11.2704
▁compliment	-11.2704
▁misuse	-11.2704
▁deny	-11.2705
▁insert	-11.2705
▁चीन	-11.2705
▁highlight	-11.2705
▁अदालत	-11.2706
▁influence	-11.2706
▁efficient	-11.2706
▁instant	-11.2706
▁उपकरण	-11.2707
▁लम्बा	-11.2707
▁severe	-11.2707
▁Mamata	-11.2707
हद्व	-11.2707
▁Village	-11.2707
▁rubber	-11.2707
▁sovereign	-11.2707
▁confident	-11.2708
▁आश्चर्य	-11.2708
▁पेट्रोल	-11.2708
▁EAST	-11.2708
▁AZAD	-11.2708
▁Acquisition	-11.2708
▁Australia	-11.2708
▁Aviation	-11.2708
▁BENCH	-11.2708
▁Besides	-11.2708
▁British	-11.2708
▁Fernandes	-11.2708
▁Heeralal	-11.2708
▁Hotel	-11.2708
▁MISTRY	-11.2708
▁MUMBAI	-11.2708
▁Madhavrao	-11.2708
▁Owaisi	-11.2708
▁PALANIMANICKAM	-11.2708
▁PILOT	-11.2708
▁PRABODH	-11.2708
▁RASHID	-11.2708
▁SEVERAL	-11.2708
▁Salary	-11.2708
▁Solve	-11.2708
▁choice	-11.2708
▁earliest	-11.2708
▁fashion	-11.2708
▁identity	-11.2708
▁irrespective	-11.2708
▁literacy	-11.2708
▁receiving	-11.2708
▁statistics	-11.2708
▁verdict	-11.2708
▁अप्रैल	-11.2708
▁इंडियन	-11.2708
▁खजुराहो	-11.2708
▁तिवारी	-11.2708
▁धीमी	-11.2708
▁पंचवर्षीय	-11.2708
▁परभनी	-11.2708
▁फैजाबाद	-11.2708
▁भौगोलिक	-11.2708
▁मुहैया	-11.2708
▁मूलभूत	-11.2708
▁साम्प्रदायिक	-11.2708
▁सेंट्रल	-11.2708
▁Verma	-11.2708
▁although	-11.2708
▁chargesheet	-11.2708
▁steel	-11.2708
▁डेवलपमेंट	-11.2708
▁रिप्लाई	-11.2708
▁रेवती	-11.2708
▁हरिकेवल	-11.2708
▁Banerjee	-11.2708
▁incurred	-11.2708
▁oÉàÉaÉ	-11.2708
▁पुरजोर	-11.2708
▁पेट्रोलियम	-11.2708
▁राजनैतिक	-11.2708
▁governance	-11.2708
▁इकाइयों	-11.2708
▁declaring	-11.2708
▁statistical	-11.2708
▁पालिसी	-11.2708
▁भरूच	-11.2708
▁specified	-11.2708
▁Because	-11.2708
▁buy	-11.2708
▁́ÉcÉÆ	-11.2708
▁Planning	-11.2708
▁Mehta	-11.2708
▁क्वैश्चन	-11.2708
▁determination	-11.2708
▁injured	-11.2708
▁prescribed	-11.2708
▁प्रौद्योगिकी	-11.2708
▁मेहता	-11.2708
द्धद्ध	-11.2708
▁दैनिक	-11.2708
▁operating	-11.2708
▁ãÉÉäMÉÉå	-11.2708
▁Already	-11.2708
▁compelled	-11.2708
▁Naik	-11.2708
▁पड़ेगी	-11.2708
▁ववपक	-11.2708
▁परिस्थितियों	-11.2708
▁प्रसारित	-11.2708
▁VRS	-11.2708
▁Golden	-11.2708
▁Actually	-11.2708
▁लोकसभा	-11.2708
▁burning	-11.2708
▁आठवीं	-11.2708
▁डबल	-11.2708
▁सफाई	-11.2708
▁1981	-11.2708
▁आगरा	-11.2708
▁reflected	-11.2708
▁धनबाद	-11.2708
▁sustained	-11.2708
▁करायी	-11.2708
▁instructions	-11.2708
▁BÉEÉàÉ	-11.2709
▁लाभकारी	-11.2709
▁issuing	-11.2709
▁50,000	-11.2709
▁intended	-11.2709
▁shouting	-11.2709
▁Cess	-11.2709
▁हटाया	-11.2709
▁abroad	-11.2709
▁deeply	-11.2709
▁agitated	-11.2709
▁hardly	-11.2709
▁born	-11.2709
▁MÉaÉÉ	-11.2709
▁false	-11.2709
▁Daman	-11.2709
▁Advaniji	-11.2709
▁Setting	-11.2709
▁besides	-11.2709
▁Both	-11.2709
▁holy	-11.2709
▁भोजपुरी	-11.271
▁converted	-11.271
▁कालेज	-11.271
▁नाते	-11.271
▁farming	-11.271
▁Pending	-11.271
▁quiet	-11.271
▁Educational	-11.271
▁2012	-11.2711
▁rF	-11.2711
▁करवाने	-11.2711
▁लिखे	-11.2711
▁partners	-11.2711
▁divided	-11.2711
▁proceeded	-11.2711
▁doctors	-11.2711
▁कराकर	-11.2712
▁signal	-11.2712
▁पवार	-11.2713
▁लगने	-11.2713
▁सम्बन्धी	-11.2713
▁पंक्ति	-11.2714
▁bearing	-11.2714
▁Chemicals	-11.2714
▁dollars	-11.2714
▁nearly	-11.2714
▁Panchayati	-11.2715
▁Hindustan	-11.2715
▁godowns	-11.2715
▁purchased	-11.2716
▁Once	-11.2716
▁कागज	-11.2716
▁normally	-11.2716
▁undertaken	-11.2716
▁सुनने	-11.2716
▁aspirations	-11.2717
▁देनी	-11.2717
▁पहला	-11.2717
▁यानी	-11.2717
▁1982	-11.2717
▁वैज्ञानिक	-11.2717
▁prevention	-11.2719
▁Gramin	-11.2719
▁जिसको	-11.2719
▁फसलों	-11.2719
▁माग	-11.2719
▁पोटा	-11.272
▁स्थगन	-11.272
▁संजय	-11.272
▁१९९८	-11.272
▁पशु	-11.272
▁नजर	-11.272
▁opium	-11.272
▁Repeal	-11.272
▁critical	-11.272
▁उदयपुर	-11.272
▁सपष	-11.272
▁Salem	-11.272
▁Everything	-11.2721
▁पकरण	-11.2721
▁restrictions	-11.2721
▁Thirdly	-11.2721
▁आतंकवादियों	-11.2722
▁Did	-11.2723
▁ट्रैक	-11.2723
▁घाटी	-11.2723
▁Eleventh	-11.2724
▁कारखाना	-11.2727
▁processing	-11.2728
▁longer	-11.273
▁विलम्ब	-11.273
▁inclusive	-11.273
▁रहत	-11.2734
▁मुरादाबाद	-11.2736
▁print	-11.2736
▁elaborate	-11.2737
▁concessions	-11.2738
▁तट	-11.2741
▁sufferings	-11.2742
▁maybe	-11.2743
▁आपदा	-11.2747
▁VHP	-11.2751
▁Judicial	-11.2751
▁criminals	-11.2754
▁III	-11.2756
▁historical	-11.2757
▁भाई	-11.2759
▁Parts	-11.2761
▁Rivers	-11.2775
▁seed	-11.2781
▁Shipping	-11.2783
सर	-11.2785
▁सु	-11.2792
ंस	-11.2796
▁imports	-11.2797
▁none	-11.2797
▁Bharat	-11.28
▁निकल	-11.2834
▁inside	-11.2839
▁costs	-11.2845
▁लूट	-11.285
/1	-11.2857
▁Annex	-11.286
▁De	-11.287
▁दंगे	-11.2875
▁door	-11.2878
▁tu	-11.2882
▁१९	-11.2885
▁dt	-11.2887
▁iÉ	-11.2913
▁calls	-11.2913
▁levels	-11.2917
▁finds	-11.2918
▁दृष्टि	-11.2922
ÉxÉÉ	-11.2931
▁सेल	-11.2954
ÉÉiÉ	-11.2965
▁रोग	-11.298
▁Md	-11.3012
▁Major	-11.3016
दो	-11.3024
▁आद	-11.305
▁वल	-11.3054
we	-11.3073
▁Motions	-11.3081
▁7,	-11.3082
▁VÉ	-11.3113
▁लो	-11.3123
▁84	-11.3125
▁वर	-11.3129
▁२३	-11.3134
▁मो	-11.3143
▁हि	-11.3148
▁4)	-11.3176
00	-11.3179
nÚ	-11.3209
▁उठ	-11.3224
’,	-11.323
▁मु	-11.3233
CPIO	-11.3235
RTI	-11.3242
General	-11.3243
४	-11.325
▁xÉ	-11.3257
ma	-11.3268
टर	-11.3273
▁देखें	-11.329
▁72	-11.3295
cÉÒ	-11.3297
▁appoint	-11.3314
▁सश	-11.3319
▁अवस्था	-11.3324
▁हक	-11.3327
▁Rama	-11.3353
▁3,	-11.3353
▁दि	-11.3371
▁UN	-11.3374
xÉ	-11.3375
▁regular	-11.3381
▁willing	-11.3395
▁super	-11.3423
▁2008,	-11.3433
▁कराएं	-11.3433
▁invite	-11.3451
▁interpretation	-11.3453
▁Post	-11.3455
▁murder	-11.3455
▁Vidyalaya	-11.3456
▁allowance	-11.3456
▁temple	-11.3456
▁bill	-11.3457
▁certificate	-11.3457
▁marriage	-11.3457
▁grievance	-11.3457
▁concession	-11.3458
▁game	-11.3458
▁decade	-11.3458
▁gap	-11.3461
▁३१	-11.3463
▁convert	-11.347
▁throw	-11.347
▁zone	-11.3471
Mum	-11.3471
▁repeal	-11.3471
▁divide	-11.3471
▁fix	-11.3472
▁खेत	-11.3472
▁बहाल	-11.3473
▁drain	-11.3474
▁remove	-11.3474
ÉÉoÉ	-11.3474
▁प्रखंड	-11.3475
▁पेड़	-11.3475
▁आंकड़े	-11.3475
▁indigenous	-11.3476
▁नियुक्त	-11.3476
▁unilateral	-11.3476
▁आन्दोलन	-11.3477
▁ãÉÉäMÉ	-11.3477
▁proportion	-11.3477
▁हिस्से	-11.3477
BLE	-11.3477
▁ज्ञात	-11.3477
अिभ	-11.3477
▁143(3)	-11.3477
▁ANBUMANI	-11.3477
▁BASIRHAT	-11.3477
▁BWISWMUTHIARY	-11.3477
▁Bajrang	-11.3477
▁Faizabad	-11.3477
▁Family	-11.3477
▁Gorakhpur	-11.3477
▁HOOGLY	-11.3477
▁Kottayam	-11.3477
▁MUVATTUPUZHA	-11.3477
▁PANDIAN	-11.3477
▁RAMADOSS	-11.3477
▁SIRPOTDAR	-11.3477
▁Samariya	-11.3477
▁Sarva	-11.3477
▁Sriganganagar	-11.3477
▁SÉÉÉÊcA	-11.3477
▁UMMAREDDY	-11.3477
▁Vanaja	-11.3477
▁Volcker	-11.3477
▁WATER	-11.3477
▁beneficiaries	-11.3477
▁birth	-11.3477
▁oriented	-11.3477
▁routine	-11.3477
▁science	-11.3477
▁subsidiary	-11.3477
▁अनुपूरक	-11.3477
▁अर्जुन	-11.3477
▁आबंटन	-11.3477
▁आशंका	-11.3477
▁उज्जैन	-11.3477
▁उद्घाटन	-11.3477
▁उन्नाव	-11.3477
▁एसोसिएट	-11.3477
▁ग्रुप	-11.3477
▁जर्जर	-11.3477
▁डिस्टर्ब	-11.3477
▁नियोजन	-11.3477
▁निर्वाचित	-11.3477
▁पवित्र	-11.3477
▁फूड	-11.3477
▁भांति	-11.3477
▁मािणत	-11.3477
▁मुद्दों	-11.3477
▁मुस्लिम	-11.3477
▁लक्ष्मीनारायण	-11.3477
▁शैक्षणिक	-11.3477
▁संक्षेप	-11.3477
▁संचालित	-11.3477
▁साहिब	-11.3477
▁सुमित्रा	-11.3477
▁सैयद	-11.3477
▁Although	-11.3477
▁KRISHNADAS	-11.3477
▁MANISHANKAR	-11.3477
▁Maharajganj	-11.3477
▁Nepal	-11.3477
▁conservation	-11.3477
▁easy	-11.3477
▁irregularities	-11.3477
▁stamp	-11.3477
▁सुन्दर	-11.3477
▁Promotion	-11.3477
▁advice	-11.3477
▁expansion	-11.3477
▁ownership	-11.3477
▁कम्पनियों	-11.3477
▁लेखापरीक्षित	-11.3477
▁शैडयूल्ड	-11.3477
▁Basudeb	-11.3477
▁competition	-11.3477
▁enquiry	-11.3477
▁opposition	-11.3477
▁शाहनवाज़	-11.3477
▁Natwar	-11.3477
▁urgency	-11.3477
▁फर्नान्डीज़	-11.3477
▁बुलाऊंगा	-11.3477
▁Bhutan	-11.3477
▁INCOME	-11.3477
▁distance	-11.3477
▁identify	-11.3477
▁अनुरूप	-11.3477
▁शुगर	-11.3477
▁Kirit	-11.3477
▁Sunil	-11.3477
▁criticism	-11.3477
▁lunch	-11.3477
▁retirement	-11.3477
▁electoral	-11.3477
▁pleasure	-11.3477
▁scientific	-11.3477
▁leaving	-11.3477
▁दोबारा	-11.3477
▁खतरे	-11.3477
▁२००७	-11.3477
▁स्िथति	-11.3477
▁164641	-11.3477
▁entry	-11.3477
▁lady	-11.3477
▁चपेट	-11.3477
▁BILL	-11.3477
▁Raipur	-11.3477
▁Sarna	-11.3477
▁Gulf	-11.3477
▁partition	-11.3477
▁purchasing	-11.3477
▁Understanding	-11.3477
▁कार्यसूची	-11.3477
▁मीडिया	-11.3477
▁Raised	-11.3477
▁तुंत	-11.3477
▁तबाह	-11.3477
▁मोदी	-11.3477
▁Suzuki	-11.3477
▁interim	-11.3477
▁model	-11.3477
▁सप्लाई	-11.3477
▁सकारात्मक	-11.3477
▁Fair	-11.3477
▁दवाओं	-11.3477
CBIND	-11.3477
▁Rajput	-11.3477
▁RESOURCES	-11.3477
▁नेटवर्क	-11.3477
▁deliberately	-11.3477
▁weaker	-11.3478
▁Three	-11.3478
▁भाषाओं	-11.3478
▁1951	-11.3478
▁appropriation	-11.3478
▁समझते	-11.3478
▁organised	-11.3478
▁सीमेंट	-11.3478
▁लेखे	-11.3478
▁Haj	-11.3478
▁exceeding	-11.3478
▁wherever	-11.3478
▁Considering	-11.3478
▁सम्मानित	-11.3478
▁पाएगा	-11.3478
▁बुनकरों	-11.3478
▁equally	-11.3478
▁attended	-11.3479
▁गेट	-11.3479
▁रायपुर	-11.3479
▁involving	-11.3479
▁माता	-11.3479
▁अखबारों	-11.3479
▁misleading	-11.3479
▁पंचायतों	-11.3479
▁anywhere	-11.348
▁2014	-11.348
▁शाम	-11.348
▁लगाये	-11.348
▁viable	-11.348
▁चलाना	-11.348
▁driven	-11.348
▁आवश्यकताओं	-11.348
▁acres	-11.348
▁employed	-11.3481
▁scientists	-11.3481
▁tanks	-11.3481
▁Rasa	-11.3481
▁Dalit	-11.3481
▁लिखी	-11.3481
▁confined	-11.3481
▁पर्यटकों	-11.3482
▁रहेगी	-11.3482
▁रवि	-11.3482
▁Till	-11.3483
▁योजनाएँ	-11.3483
▁interrupting	-11.3483
▁VÉÉA	-11.3483
▁जेल	-11.3483
▁notified	-11.3484
▁indicates	-11.3484
▁inadequate	-11.3484
▁NH	-11.3484
▁indian	-11.3485
▁सैशन	-11.3485
▁recall	-11.3485
▁targeted	-11.3485
▁साफ	-11.3485
▁व्यापारी	-11.3486
▁देगा	-11.3487
▁मुश्किल	-11.3488
▁valid	-11.3488
▁consequences	-11.3488
▁संबद्ध	-11.3489
▁पान	-11.349
▁cadres	-11.349
▁अगस्त	-11.349
▁strategic	-11.349
▁Sikkim	-11.349
▁निर्मित	-11.349
▁Sanjay	-11.349
▁Cooperative	-11.349
▁Based	-11.3491
▁जटिया	-11.3491
▁स्वामी	-11.3491
▁IPC	-11.3491
▁सल	-11.3491
▁सैनिकों	-11.3491
▁patients	-11.3491
KMR	-11.3491
▁बलिया	-11.3492
▁economically	-11.3492
▁वर्षो	-11.3492
▁onwards	-11.3493
▁७५	-11.3494
▁forwarded	-11.3494
▁grains	-11.3494
▁parents	-11.3494
▁contents	-11.3494
▁addressing	-11.3495
▁Posts	-11.3495
▁factors	-11.3496
▁Fourth	-11.3497
▁claimed	-11.3498
▁mines	-11.3498
▁consumers	-11.3498
▁हआ	-11.3499
▁kms	-11.35
▁cleared	-11.3502
▁girls	-11.3502
▁1000	-11.3505
▁charged	-11.3505
▁corrected	-11.3506
▁values	-11.3507
▁ग्वालियर	-11.3507
▁राज्यपाल	-11.3508
▁depends	-11.3508
▁erred	-11.3511
▁बताई	-11.3511
▁Upon	-11.3516
▁ruled	-11.3517
▁apart	-11.3519
▁AO	-11.3523
▁belongs	-11.3523
▁सेवानिवृत्त	-11.3524
▁fourth	-11.3532
▁Was	-11.3532
▁Bankura	-11.3541
▁बेगूसराय	-11.3541
▁77	-11.3541
▁76	-11.355
▁दिल	-11.3552
▁AIDS	-11.3557
▁इंदौर	-11.3558
▁subsidies	-11.3558
▁(2008	-11.3559
▁presenting	-11.356
▁षर	-11.3561
▁yes	-11.3562
▁20,000	-11.3565
▁Elections	-11.357
िन	-11.357
▁allocations	-11.3572
▁noticed	-11.3582
▁बे	-11.3596
▁तथ्य	-11.3603
▁port	-11.3605
▁Published	-11.3628
▁knowing	-11.3628
▁Sessions	-11.363
▁कोच	-11.3636
3]	-11.3638
गांव	-11.3664
▁देशी	-11.3669
▁2000/	-11.3674
▁nations	-11.3695
▁पेट	-11.37
▁98	-11.3701
मा	-11.3709
6"	-11.3725
▁पसत	-11.3732
fd	-11.3732
▁71	-11.3737
ÉãÉ	-11.3757
ेगा	-11.377
▁anguish	-11.3772
▁St	-11.3785
ज़	-11.3792
▁लन	-11.3796
▁complex	-11.3805
इए	-11.3807
▁बा	-11.3811
▁110	-11.3813
द्ध	-11.3819
▁regards	-11.3822
▁railways	-11.3825
▁४५	-11.3859
▁69	-11.3868
▁Hat	-11.3869
▁marginal	-11.3874
""""	-11.389
Éc	-11.3899
गत	-11.391
Fd	-11.3914
▁हैड	-11.3917
▁commend	-11.3923
There	-11.3943
ले	-11.3962
▁1980	-11.397
age	-11.3982
▁Along	-11.3993
▁बुद्ध	-11.4014
▁रे	-11.4038
▁समझा	-11.4047
of	-11.4054
▁ित	-11.4072
संशोधन	-11.4075
▁गिर	-11.4075
▁stress	-11.4077
▁400	-11.409
▁700	-11.4111
ंग	-11.4118
▁खर	-11.4124
यक	-11.4151
▁Global	-11.4157
/2017	-11.4184
▁रसायन	-11.4194
डी	-11.4208
▁Improve	-11.4213
▁2000,	-11.4227
▁ha	-11.4231
▁extra	-11.425
छ	-11.4261
▁संत	-11.4268
▁interfere	-11.428
▁repair	-11.4285
▁Federation	-11.4286
▁Temple	-11.4286
▁Point	-11.4286
▁spot	-11.4288
▁convention	-11.4288
▁drawback	-11.4288
▁FIR	-11.4289
▁Team	-11.4289
▁Professor	-11.4289
▁occur	-11.429
▁plantation	-11.429
▁saving	-11.429
▁content	-11.4291
▁Flood	-11.4291
▁expert	-11.4291
▁employee	-11.4292
को	-11.4293
▁consult	-11.4295
▁piece	-11.4299
▁25,000	-11.4301
▁डूब	-11.4303
▁adopt	-11.4304
▁defend	-11.4304
▁Pandey	-11.4305
▁मिश्र	-11.4305
▁fnYyh	-11.4306
▁विस्फोट	-11.4306
▁rescue	-11.4306
▁हिमालय	-11.4306
▁बेकार	-11.4307
▁assist	-11.4307
▁Introduce	-11.4307
▁replace	-11.4307
▁prepare	-11.4307
▁delete	-11.4307
▁सिफारिश	-11.4308
▁Make	-11.4308
▁अनुबंध	-11.4308
▁मापदंड	-11.4308
▁दायित्व	-11.4308
▁Political	-11.4309
▁Oil	-11.4309
▁Immediate	-11.4309
▁tremendous	-11.4309
▁Withdraw	-11.431
▁मनिस्ट्री	-11.431
▁लाइसेंस	-11.431
▁discretion	-11.431
▁पुस्तक	-11.431
▁लक्ष्मण	-11.431
Insertion	-11.431
▁ALVA	-11.431
▁Agency	-11.431
▁BALCO	-11.431
▁COMMISSION	-11.431
▁Church	-11.431
▁Excellency	-11.431
▁Extend	-11.431
▁GEORGE	-11.431
▁GOPAL	-11.431
▁Geete	-11.431
▁Guwahati	-11.431
▁JAGANNATH	-11.431
▁KHUNGGUR	-11.431
▁KIRTI	-11.431
▁Kanyakumari	-11.431
▁Kerosene	-11.431
▁Kutch	-11.431
▁MADHUKAR	-11.431
▁MARGARET	-11.431
▁MAVELIKARA	-11.431
▁Maheshwari	-11.431
▁Mangalore	-11.431
▁Minority	-11.431
▁Mizoram	-11.431
▁Particularly	-11.431
▁Quadrilateral	-11.431
▁Radio	-11.431
▁SANSUMA	-11.431
▁Sushma	-11.431
▁THANGKABALU	-11.431
▁TRICHUR	-11.431
▁Territory	-11.431
▁Varkala	-11.431
▁ancient	-11.431
▁consumption	-11.431
▁delimitation	-11.431
▁evident	-11.431
▁gksdj	-11.431
▁hawkers	-11.431
▁insurgency	-11.431
▁irrelevant	-11.431
▁irresponsible	-11.431
▁liberty	-11.431
▁magnitude	-11.431
▁memorandum	-11.431
▁phenomenon	-11.431
▁secret	-11.431
▁studied	-11.431
▁vkSj	-11.431
▁अग्रवाल	-11.431
▁अध्यादेश	-11.431
▁अनुच्छेद	-11.431
▁अपितु	-11.431
▁अवश्य	-11.431
▁अविनाश	-11.431
▁इराक	-11.431
▁उत्पीड़न	-11.431
▁कीर्ति	-11.431
▁चीफ	-11.431
▁ज़ीरो	-11.431
▁तकलीफ	-11.431
▁त्राहि	-11.431
▁पुनर्वास	-11.431
▁प्रखण्ड	-11.431
▁फ़िरोज़ाबाद	-11.431
▁बढ़ोत्तरी	-11.431
▁मस्जिद	-11.431
▁मुगलसराय	-11.431
▁मेहरबानी	-11.431
▁रवीन्द्र	-11.431
▁लम्बे	-11.431
▁लाभान्वित	-11.431
▁वातावरण	-11.431
▁वापिस	-11.431
▁विपरीत	-11.431
▁साजिश	-11.431
▁सितम्बर	-11.431
▁compliance	-11.431
▁space	-11.431
▁एक्सप्रैस	-11.431
▁क्रमांक	-11.431
▁दयनीय	-11.431
▁पॉलिसी	-11.431
▁बरसात	-11.431
▁महावीर	-11.431
▁सईद	-11.431
▁सत्यनारायण	-11.431
▁Pronouncement	-11.431
▁Rajkot	-11.431
▁आदमियों	-11.431
▁भोजन	-11.431
▁शिक्षण	-11.431
▁सलीम	-11.431
▁Japanese	-11.431
▁Murli	-11.431
▁copies	-11.431
▁निरसन	-11.431
▁सर्वसम्मति	-11.431
▁Estimates	-11.431
▁injury	-11.431
▁menace	-11.431
▁situated	-11.431
▁Airlines	-11.431
▁Interim	-11.431
▁interference	-11.431
▁Nasik	-11.431
▁Shortage	-11.431
▁इलाज	-11.431
▁श्रद्धालुओं	-11.431
▁advertisement	-11.431
▁क्षतिग्रस्त	-11.431
▁स्टील	-11.431
▁Room	-11.431
▁imposition	-11.431
▁पर्वतीय	-11.431
▁महीनों	-11.431
▁रोजाना	-11.431
▁स्टेटमैंट	-11.431
▁आधुनिकीकरण	-11.431
▁१९३	-11.431
▁pride	-11.431
▁́ÉvÉÉxÉ	-11.431
▁टेबल	-11.431
▁पूर्वांचल	-11.431
▁Republic	-11.431
▁FkhA	-11.431
▁जरिए	-11.431
▁century	-11.431
▁socio	-11.431
▁शादी	-11.431
▁sovereignty	-11.431
▁dangerous	-11.431
▁European	-11.431
▁प्राइमरी	-11.431
▁Floor	-11.431
▁properties	-11.431
▁छः	-11.431
▁described	-11.431
▁regulatory	-11.431
▁समक्ष	-11.431
▁MATTERS	-11.431
▁विरुद्ध	-11.4311
▁मुकदमा	-11.4311
▁दिवस	-11.4311
▁Like	-11.4311
▁confirmed	-11.4311
▁आयोजित	-11.4311
▁quickly	-11.4311
▁SOME	-11.4311
▁milk	-11.4311
▁SONIA	-11.4311
▁अंडर	-11.4311
▁पैदावार	-11.4311
▁निजीकरण	-11.4311
▁रद्द	-11.4311
▁व्यापारिक	-11.4311
▁घोर	-11.4311
▁देखिए	-11.4311
▁salaries	-11.4311
▁सम्बन्धित	-11.4311
▁सस्ती	-11.4311
▁परमीशन	-11.4311
▁आदश	-11.4311
▁नौजवानों	-11.4311
▁Anil	-11.4311
▁Formulate	-11.4311
▁संदेश	-11.4311
▁उत्पादकों	-11.4312
▁अल्पसंख्यकों	-11.4312
▁कीमतें	-11.4312
▁छोड़कर	-11.4312
▁Called	-11.4312
▁Budgetary	-11.4312
▁shifting	-11.4312
▁Ananth	-11.4312
▁खेतों	-11.4312
▁10,000	-11.4312
▁acceptable	-11.4312
▁मानना	-11.4312
32]	-11.4312
▁dividend	-11.4312
▁2016	-11.4313
▁touched	-11.4313
▁सेवाएं	-11.4313
▁payable	-11.4313
▁incorporated	-11.4313
▁2013	-11.4313
▁रोको	-11.4313
▁निकालने	-11.4313
▁finally	-11.4313
▁avoided	-11.4314
▁latest	-11.4314
▁separately	-11.4314
▁proof	-11.4314
▁निर्देशित	-11.4314
▁स्कूलों	-11.4314
22]	-11.4314
▁आयुक्त	-11.4315
▁जानता	-11.4315
▁भीतर	-11.4315
▁strengthened	-11.4315
▁trees	-11.4315
▁आजकल	-11.4315
▁आहत	-11.4315
▁conveyed	-11.4315
▁समझने	-11.4315
▁लगाकर	-11.4316
▁riots	-11.4316
▁असव	-11.4316
▁spreading	-11.4316
▁मुक्त	-11.4316
▁एयर	-11.4317
▁adequately	-11.4317
▁सुनकर	-11.4317
▁repeating	-11.4317
▁story	-11.4317
▁explained	-11.4317
▁injustice	-11.4318
▁approached	-11.4318
▁residence	-11.4318
▁लाकर	-11.4318
▁whereby	-11.4319
▁everyone	-11.4319
▁निकाला	-11.4319
▁जनपदों	-11.432
▁disclosed	-11.432
▁गाड	-11.4321
▁touch	-11.4322
▁behaving	-11.4322
▁Deo	-11.4322
▁soft	-11.4322
▁Regulation	-11.4323
""""""""""""""""	-11.4324
▁BAC	-11.4324
▁delayed	-11.4324
▁valuable	-11.4324
▁चिमूर	-11.4324
▁बोकारो	-11.4324
▁Sangh	-11.4324
▁queries	-11.4324
▁Tsunami	-11.4324
▁अल्मोड़ा	-11.4324
▁primarily	-11.4324
▁Disinvestment	-11.4325
▁57	-11.4325
▁Constitutional	-11.4325
▁factor	-11.4325
▁पाती	-11.4327
▁unions	-11.4327
▁FA	-11.4328
▁experts	-11.4329
▁responded	-11.433
▁खुश	-11.4331
▁sir	-11.4331
▁fares	-11.4333
▁153	-11.4335
▁Fourteenth	-11.4335
▁व्यवस्थापन	-11.4335
▁borne	-11.4336
▁MP	-11.4337
▁माने	-11.4337
▁स्वरूप	-11.4337
▁Gate	-11.4338
▁लखित	-11.4338
▁फोन	-11.4338
▁घट	-11.4339
▁trained	-11.4341
▁male	-11.4341
▁बढ़ी	-11.4342
तक	-11.4342
▁पेपर	-11.4343
▁लोकल	-11.4343
▁RAILWAYS	-11.4343
▁सबके	-11.4344
▁differences	-11.4344
▁केरल	-11.4348
▁outcome	-11.4349
▁subjected	-11.435
▁कबज	-11.4351
▁Panchayats	-11.4352
ओ	-11.4356
▁religions	-11.4356
्री	-11.4357
▁lies	-11.4357
▁353	-11.4358
▁Swami	-11.4359
▁marks	-11.4362
▁पदश	-11.4363
▁जरा	-11.4367
दन	-11.4369
▁Acts	-11.437
▁offer	-11.4371
▁79	-11.4375
▁मिशन	-11.4376
ेंगे	-11.4377
▁limits	-11.4377
रन	-11.4378
▁अहमद	-11.4379
▁गुजर	-11.4381
▁फल	-11.4383
▁appealing	-11.4384
▁Any	-11.4384
▁सच	-11.4389
▁effects	-11.4395
रों	-11.4397
kA	-11.4399
▁Prevention	-11.4399
▁Its	-11.44
▁(6)	-11.4413
▁घाट	-11.4416
▁laca	-11.4424
▁Kol	-11.4433
▁महाराज	-11.4434
▁Roads	-11.4438
▁departmental	-11.4448
ेशन	-11.4457
▁recommend	-11.446
▁बतल	-11.4473
▁शत	-11.4483
▁Rd	-11.4484
बी	-11.4486
▁विनम्र	-11.4494
å	-11.45
▁१६	-11.4509
टी	-11.451
▁Sh	-11.4525
▁Placed	-11.4526
▁समुदाय	-11.453
▁रा	-11.4536
oa	-11.4571
▁३३	-11.4585
▁२४	-11.4587
▁खुल	-11.4589
नगर	-11.459
us	-11.4598
▁टक	-11.4599
▁deposit	-11.4604
▁ठहर	-11.4604
▁अनुपात	-11.4621
▁par	-11.4649
▁developments	-11.4669
▁character	-11.4692
▁डाल	-11.4695
६	-11.4722
hi	-11.4733
▁बुरा	-11.4734
kar	-11.4752
ÉÇ	-11.4753
▁जोड़	-11.4788
▁इनसे	-11.4789
UR	-11.4792
आर	-11.4823
▁३५	-11.4829
heli	-11.4839
ny	-11.4847
▁सरल	-11.4861
▁patent	-11.4873
What	-11.4877
▁हद	-11.4878
िये	-11.4882
▁73	-11.4883
W	-11.4893
▁नक	-11.4911
▁10,	-11.4914
▁81	-11.4919
▁बेच	-11.4925
te	-11.4926
▁_______________	-11.4933
पी	-11.4937
चौदहवीं	-11.4959
▁Commissions	-11.4982
मुिनरका	-11.4987
contd	-11.4991
हिंदी	-11.4993
वैशाली	-11.4999
▁पहचान	-11.5003
Copy	-11.5003
▁दुख	-11.5019
▁सरक	-11.505
सा	-11.5056
▁नर	-11.5076
ãÉ	-11.5094
ng	-11.5095
घ	-11.5103
▁इंटर	-11.512
▁चाह	-11.5128
▁7.	-11.5136
▁Sa	-11.5143
▁92	-11.5151
रत	-11.5156
1]	-11.5166
▁habit	-11.5167
▁ill	-11.5179
)...	-11.5181
▁ष	-11.5186
▁Bal	-11.5191
▁Repair	-11.5195
▁approve	-11.5196
▁reserve	-11.5197
▁claimant	-11.5198
▁fabric	-11.5198
ri	-11.5199
▁parcel	-11.5199
▁version	-11.52
▁medicine	-11.5201
▁interview	-11.5202
▁generate	-11.5204
▁die	-11.5208
▁Israel	-11.5209
▁चौक	-11.521
▁रक	-11.5212
▁exempt	-11.5213
▁afford	-11.5213
▁कट	-11.5214
▁Thirteen	-11.5214
▁उग्रवाद	-11.5215
▁guarantee	-11.5215
▁accommodate	-11.5215
▁argue	-11.5215
▁pursue	-11.5215
▁inquire	-11.5215
▁utilise	-11.5215
▁सख्त	-11.5216
▁manage	-11.5216
▁mislead	-11.5216
▁draft	-11.5217
▁समूह	-11.5217
▁यूनिवर्सिटी	-11.5217
▁बुनकर	-11.5217
▁extensive	-11.5218
▁physical	-11.5218
▁keen	-11.5218
▁इंस्टीटयूट	-11.5219
▁ताकत	-11.5219
▁बंगला	-11.5219
▁सूर्य	-11.5219
▁alert	-11.5219
▁success	-11.5219
▁Manohar	-11.5219
▁प्रतनधि	-11.5219
▁निधि	-11.5219
▁आधुनिक	-11.5219
▁रिजर्व	-11.5219
▁पुन्नू	-11.5219
▁युवा	-11.5219
▁धीरे	-11.5219
▁Shanker	-11.5219
▁carbon	-11.5219
▁iqfyl	-11.5219
▁AJIT	-11.5219
▁BIJOY	-11.5219
▁Bikaner	-11.5219
▁CIVIL	-11.5219
▁COMMERCE	-11.5219
▁CUTTACK	-11.5219
▁Chinese	-11.5219
▁Disapproval	-11.5219
▁Electrification	-11.5219
▁FRANCIS	-11.5219
▁Hannan	-11.5219
▁Integrated	-11.5219
▁Jaunpur	-11.5219
▁Judiciary	-11.5219
▁KYNDIAH	-11.5219
▁Katihar	-11.5219
▁Kharabela	-11.5219
▁Kishore	-11.5219
▁MAYILADUTURAI	-11.5219
▁Mishra	-11.5219
▁NARAYANASAMY	-11.5219
▁NAVEEN	-11.5219
▁Nanavati	-11.5219
▁Nitish	-11.5219
▁Nuclear	-11.5219
▁Prabodh	-11.5219
▁RAJIV	-11.5219
▁RAMADASS	-11.5219
▁RENUKA	-11.5219
▁Rajdhani	-11.5219
▁Refinery	-11.5219
▁SUBBARAMI	-11.5219
▁Secretariat	-11.5219
▁Societies	-11.5219
▁TRANSPORT	-11.5219
▁Tripathy	-11.5219
▁VILAS	-11.5219
▁Valley	-11.5219
▁Virudhunagar	-11.5219
▁appellate	-11.5219
▁applied	-11.5219
▁categories	-11.5219
▁composite	-11.5219
▁comprising	-11.5219
▁disabled	-11.5219
▁lafLFkr	-11.5219
▁mainstream	-11.5219
▁outbreak	-11.5219
▁panchayat	-11.5219
▁perspective	-11.5219
▁possibility	-11.5219
▁preliminary	-11.5219
▁silent	-11.5219
▁societies	-11.5219
▁statutory	-11.5219
▁stipulated	-11.5219
▁stringent	-11.5219
▁surplus	-11.5219
▁twice	-11.5219
▁unorganized	-11.5219
▁àÉÉxÉxÉÉÒaÉ	-11.5219
▁ãÉÉJÉ	-11.5219
▁ãÉäÉÊBÉExÉ	-11.5219
▁अटैंशन	-11.5219
▁आधिकारिक	-11.5219
▁उत्थान	-11.5219
▁उपेक्षा	-11.5219
▁उल्लिखित	-11.5219
▁कतिपय	-11.5219
▁खिलवाड़	-11.5219
▁गेहलोत	-11.5219
▁घाघरा	-11.5219
▁चंद्रकांत	-11.5219
▁चतुर्भुज	-11.5219
▁चम्पारण	-11.5219
▁जिलाधिकारी	-11.5219
▁ज्ञापन	-11.5219
▁थावरचन्द	-11.5219
▁दुरुपयोग	-11.5219
▁नर्मदा	-11.5219
▁नवम्बर	-11.5219
▁पम्प	-11.5219
▁प्रहलाद	-11.5219
▁बनासकांठा	-11.5219
▁महराजगंज	-11.5219
▁महामहिम	-11.5219
▁रिलीफ	-11.5219
▁रिसर्च	-11.5219
▁व्यावसायिक	-11.5219
▁संतुलित	-11.5219
▁सोमैया	-11.5219
▁हरदोई	-11.5219
▁हालांकि	-11.5219
▁Bilaspur	-11.5219
▁BÉEÉaÉÇ	-11.5219
▁Executive	-11.5219
▁Moradabad	-11.5219
▁Palanpur	-11.5219
▁Relating	-11.5219
▁complainant	-11.5219
▁convenience	-11.5219
▁degree	-11.5219
▁havoc	-11.5219
▁चाहूंगी	-11.5219
▁भेदभाव	-11.5219
▁मामूली	-11.5219
▁शताब्दी	-11.5219
ÉcÖiÉ	-11.5219
▁Ahir	-11.5219
▁KARUNAKARAN	-11.5219
▁blockade	-11.5219
▁contractual	-11.5219
▁edible	-11.5219
▁नरेन्द्र	-11.5219
▁शुद्ध	-11.5219
▁सिन्हा	-11.5219
▁Sugar	-11.5219
▁combination	-11.5219
▁participation	-11.5219
▁अधिग्रहण	-11.5219
▁तरीका	-11.5219
▁सैक्रेटरी	-11.5219
▁indeed	-11.5219
▁query	-11.5219
▁अधिसूचना	-11.5219
▁क्रासिंग	-11.5219
▁बालाघाट	-11.5219
▁heritage	-11.5219
▁पाटिल	-11.5219
▁स्थाई	-11.5219
▁approximately	-11.5219
▁changing	-11.5219
▁distinction	-11.5219
▁hurt	-11.5219
▁अपेक्षित	-11.5219
▁एडजर्नमेंट	-11.5219
▁चुनौती	-11.5219
▁रेडियो	-11.5219
▁Coimbatore	-11.5219
▁Joshi	-11.5219
▁vacant	-11.5219
▁एजेंसी	-11.5219
▁सलाह	-11.5219
▁Trichy	-11.5219
▁अतएव	-11.5219
▁असंतोष	-11.5219
▁Bharatiya	-11.5219
▁Probably	-11.5219
▁variety	-11.5219
▁Tehelka	-11.5219
▁terminal	-11.5219
▁anniversary	-11.5219
▁globalisation	-11.5219
▁राजेन्द्र	-11.5219
▁committing	-11.5219
▁नीतियाँ	-11.5219
▁सचिव	-11.5219
▁drop	-11.5219
▁पुष्कर	-11.5219
▁Goyal	-11.5219
▁Mirzapur	-11.5219
▁जनवरी	-11.5219
▁commentary	-11.5219
▁राजभर	-11.522
▁Panel	-11.522
▁तमिलनाडु	-11.522
▁प्राइस	-11.522
▁मालिकों	-11.522
▁महाले	-11.522
▁Broad	-11.522
▁आरक्षित	-11.522
▁सम्पत्ति	-11.522
▁gq	-11.522
▁strictly	-11.522
▁संशोधित	-11.522
▁Classes	-11.522
▁Presiding	-11.522
▁दासगुप्त	-11.522
▁पूछिए	-11.522
▁चाहेंगे	-11.522
▁संपूर्ण	-11.522
▁उतनी	-11.522
▁1949	-11.522
▁Khaire	-11.522
▁जाधव	-11.522
▁तर्ज	-11.522
▁ईस्ट	-11.522
▁Marketing	-11.522
▁कगार	-11.522
▁Kota	-11.522
▁किरीट	-11.522
▁subsequently	-11.522
▁आलोक	-11.522
▁powerful	-11.522
▁गौरव	-11.522
▁विशेषज्ञों	-11.522
▁तेज	-11.522
▁Customs	-11.522
▁Laluji	-11.522
▁मुसलमानों	-11.522
▁पालनपुर	-11.522
▁Coming	-11.522
▁empowered	-11.522
▁दिलाया	-11.5221
▁guided	-11.5221
▁TRAI	-11.5221
▁subsidised	-11.5221
▁जोड़कर	-11.5221
▁verify	-11.5221
▁सजीवन	-11.5221
▁bothered	-11.5221
▁न्यायिक	-11.5221
▁सफलता	-11.5221
▁enacted	-11.5221
▁Drought	-11.5221
▁गुजरने	-11.5221
▁iÉBÉE	-11.5221
▁उठाते	-11.5221
▁दिखाया	-11.5221
▁substantially	-11.5221
▁Ward	-11.5221
▁भारतवर्ष	-11.5221
▁fallen	-11.5221
▁teaching	-11.5221
▁अपीलीय	-11.5221
▁offered	-11.5222
▁शिव	-11.5222
▁cultivators	-11.5222
▁Minutes	-11.5222
▁guidelines	-11.5222
▁हटाने	-11.5222
▁पाते	-11.5222
▁आसानी	-11.5222
▁badly	-11.5223
▁Housing	-11.5223
▁बीना	-11.5223
▁witnessing	-11.5223
▁करवाया	-11.5224
▁Undertakings	-11.5224
▁advised	-11.5224
▁आरा	-11.5225
▁formulated	-11.5225
▁ITDP	-11.5225
▁हिंसा	-11.5225
्ष	-11.5225
▁turned	-11.5225
▁मील	-11.5225
▁भेजने	-11.5225
▁briefly	-11.5225
▁elements	-11.5226
▁implications	-11.5226
▁urea	-11.5226
▁रामजी	-11.5226
▁City	-11.5226
▁tabled	-11.5226
▁honoured	-11.5226
▁TV	-11.5227
▁मिलाकर	-11.5227
▁features	-11.5228
▁Package	-11.5228
ÉäVÉ	-11.5228
▁घरों	-11.5228
▁बनकर	-11.5229
▁regulations	-11.5229
▁negotiations	-11.5229
▁alia	-11.523
▁गुना	-11.523
▁reaching	-11.5231
▁राशिद	-11.5231
▁components	-11.5231
▁Working	-11.5232
▁involves	-11.5232
▁1,000	-11.5233
▁कश्मीरी	-11.5233
▁flights	-11.5233
▁कहकर	-11.5234
▁mid	-11.5234
▁MURTHI	-11.5234
▁KHAN	-11.5234
▁GUPTA	-11.5234
▁BIFR	-11.5234
▁सरोज	-11.5234
▁NSFDC	-11.5234
▁शाजापुर	-11.5234
▁Annexure	-11.5235
▁famous	-11.5235
▁गोपालगंज	-11.5235
▁दकय	-11.5236
▁बीत	-11.5236
▁करानी	-11.5237
▁कॉलेज	-11.5237
▁एक्शन	-11.5237
▁घटा	-11.5237
▁adding	-11.5238
▁कड़ी	-11.5239
▁appreciated	-11.524
▁ALI	-11.524
▁०६	-11.5242
▁zones	-11.5242
▁उपचार	-11.5242
▁वनों	-11.5243
▁डदन	-11.5243
4]	-11.5244
▁सुनी	-11.5245
▁जिसने	-11.5245
▁projected	-11.5245
▁seeds	-11.5246
▁चाय	-11.5248
▁वाक	-11.5249
▁मपन	-11.5251
▁बैठने	-11.5252
▁Trains	-11.5252
▁eyes	-11.5253
▁tourists	-11.5253
▁amending	-11.5254
▁GENERAL	-11.5255
▁MIDNAPORE	-11.5255
▁cultural	-11.5255
▁65	-11.5256
▁नगरी	-11.5257
▁अपेक्षा	-11.5257
àÉä	-11.5258
▁व्यास	-11.5259
▁farm	-11.5264
▁initiatives	-11.5264
▁error	-11.5265
▁विपक्षी	-11.5268
▁न्यूज	-11.5273
▁Be	-11.5273
▁JM	-11.5275
▁कहे	-11.5275
▁(2007	-11.5279
▁ou	-11.5282
▁घटन	-11.5287
▁named	-11.5293
▁तीय	-11.5293
▁seeing	-11.5296
▁voluntary	-11.5296
xÉÉÒ	-11.5301
▁Rajendra	-11.5302
13]	-11.5303
▁कानूनी	-11.5304
▁300	-11.5305
▁Dated	-11.5308
▁millions	-11.531
कार	-11.531
▁Within	-11.5311
ised	-11.5311
▁वपत	-11.5312
▁Am	-11.5314
▁पार्क	-11.5315
मी	-11.5323
▁creates	-11.5328
▁cess	-11.534
ÉA	-11.5341
]®	-11.5357
▁speaks	-11.5363
▁भूख	-11.5366
▁often	-11.5369
ic	-11.5371
▁उत्तरी	-11.5373
रण	-11.538
▁Schemes	-11.5384
▁पल	-11.5399
में	-11.5407
▁Centres	-11.5408
▁Resolutions	-11.5415
▁nÚ	-11.5436
▁आवाज	-11.5458
▁looks	-11.5471
▁___________	-11.5474
वान	-11.5484
▁continues	-11.5494
Need	-11.5502
▁वहन	-11.5504
▁दा	-11.5512
OL	-11.5535
▁परव	-11.5544
▁भरे	-11.5561
▁खा	-11.557
▁दु	-11.5588
▁उच	-11.559
▁दवा	-11.5596
▁fit	-11.5605
अ	-11.562
▁350	-11.5622
bi	-11.5625
ant	-11.5649
▁परि	-11.5651
▁RAVI	-11.5657
बर	-11.5672
▁th	-11.5677
This	-11.5678
1⁄4	-11.568
करण	-11.5686
▁130	-11.5688
▁मह	-11.5691
▁fo	-11.5706
▁Nil	-11.5713
10	-11.5727
▁aid	-11.5736
५	-11.5737
åMÉä	-11.5751
▁omit	-11.576
▁रुक	-11.5766
▁sea	-11.5775
▁award	-11.5783
)"	-11.5793
द्रठ्ठ	-11.5801
माननीय	-11.5802
▁thinks	-11.5804
VÉÉ	-11.581
▁fine	-11.5816
▁Front	-11.5828
साथ	-11.5833
▁;	-11.5838
▁_______	-11.5869
▁86	-11.5887
ÉVÉ	-11.5892
▁टेस्ट	-11.5916
rs	-11.592
▁God	-11.592
्ड	-11.5926
ै	-11.5931
▁जोर	-11.594
▁2001,	-11.5941
दी	-11.5942
**	-11.5952
▁62	-11.5971
/2019	-11.5978
▁Multi	-11.5984
▁बढ़ता	-11.5986
CIT	-11.5993
▁cash	-11.6
Annex	-11.6006
▁२९	-11.6008
द्धठ्ठ	-11.6072
▁notes	-11.6091
▁gains	-11.6099
Ch	-11.6106
▁requests	-11.6107
▁महा	-11.6119
थ	-11.6125
एँ	-11.6131
▁mis	-11.6157
▁iron	-11.6165
▁गो	-11.6172
▁शोध	-11.6173
▁attend	-11.618
नन	-11.618
▁design	-11.6192
▁fail	-11.6193
▁exist	-11.6193
।(	-11.6194
▁Bodo	-11.6194
▁agitation	-11.6195
▁ordinance	-11.6195
▁deduction	-11.6195
▁fundamental	-11.6197
▁Channel	-11.6197
▁Principal	-11.6197
हत	-11.6197
▁detail	-11.6198
▁candidate	-11.6199
▁Standard	-11.6199
▁Passenger	-11.6199
▁Hundred	-11.6199
▁Nation	-11.62
▁restriction	-11.62
▁Problem	-11.6201
▁merit	-11.6201
▁exception	-11.6202
▁undertaking	-11.6203
▁master	-11.6204
▁union	-11.6205
▁dj	-11.6207
▁plea	-11.6208
▁तीर्थ	-11.6209
▁वसूल	-11.621
▁enjoy	-11.6213
▁distress	-11.6213
▁Increase	-11.6214
▁सुनवाई	-11.6214
▁Protect	-11.6215
▁Bhojpur	-11.6215
▁rape	-11.6215
▁Allocate	-11.6215
▁authenticate	-11.6215
▁discharge	-11.6216
▁cite	-11.6216
▁determine	-11.6217
▁अल्पसंख्यक	-11.6217
▁blind	-11.6218
▁Certain	-11.6218
▁constructive	-11.6218
▁continuous	-11.6218
▁Anant	-11.6218
▁RAILWAY	-11.6218
▁careful	-11.6218
▁recollect	-11.6219
▁ठेकेदार	-11.6219
▁conscious	-11.6219
▁सुरेन्द्र	-11.6219
▁कठिन	-11.6219
▁दुर्भाग्य	-11.6219
▁एडजर्न	-11.6219
▁safe	-11.6219
▁करवाये	-11.6219
GARHWAL	-11.6219
▁AGRICULTURE	-11.6219
▁AJNALA	-11.6219
▁ALLEPPEY	-11.6219
▁Absence	-11.6219
▁Ajoy	-11.6219
▁Ambassador	-11.6219
▁Amreli	-11.6219
▁Aurangabad	-11.6219
▁Baalu	-11.6219
▁BÉEÉxÉÚxÉ	-11.6219
▁Champaran	-11.6219
▁Chowdhary	-11.6219
▁Complete	-11.6219
▁Criminal	-11.6219
▁Fatehpur	-11.6219
▁Gowda	-11.6219
▁Growers	-11.6219
▁HIGHWAYS	-11.6219
▁JALAPPA	-11.6219
▁Jabalpur	-11.6219
▁Language	-11.6219
▁Lpg	-11.6219
▁MANMOHAN	-11.6219
▁MANOJ	-11.6219
▁Minorities	-11.6219
▁Narmada	-11.6219
▁PARANJPE	-11.6219
▁PATHAK	-11.6219
▁PRABHU	-11.6219
▁PRIME	-11.6219
▁Processing	-11.6219
▁RATTAN	-11.6219
▁ROAD	-11.6219
▁Raghunath	-11.6219
▁Remunerative	-11.6219
▁Trivandrum	-11.6219
▁VISAKHAPATNAM	-11.6219
▁Yamuna	-11.6219
▁averred	-11.6219
▁choose	-11.6219
▁commencing	-11.6219
▁evaluation	-11.6219
▁ftyk	-11.6219
▁independence	-11.6219
▁injuries	-11.6219
▁intelligence	-11.6219
▁okafNr	-11.6219
▁plenty	-11.6219
▁remedy	-11.6219
▁sponsored	-11.6219
▁thrust	-11.6219
▁twenty	-11.6219
▁upgradation	-11.6219
▁virtue	-11.6219
▁vuqlkj	-11.6219
▁अय्यर	-11.6219
▁अस्तित्व	-11.6219
▁आरंभ	-11.6219
▁इंश्योरेंस	-11.6219
▁इलियास	-11.6219
▁उन्हीं	-11.6219
▁ऊंची	-11.6219
▁कच्चे	-11.6219
▁खारबेल	-11.6219
▁गतवधियों	-11.6219
▁चटर्जी	-11.6219
▁तादाद	-11.6219
▁दामोदर	-11.6219
▁नधपनत	-11.6219
▁निर्दोष	-11.6219
▁नौकरियों	-11.6219
▁परामर्श	-11.6219
▁बिजनेस	-11.6219
▁बिश्नोई	-11.6219
▁भुखमरी	-11.6219
▁मिनिमम	-11.6219
▁यशवंत	-11.6219
▁रिक्वैस्ट	-11.6219
▁लम्बी	-11.6219
▁विकल्प	-11.6219
▁शिलान्यास	-11.6219
▁शेखपुरा	-11.6219
▁शौचालय	-11.6219
▁संपर्क	-11.6219
▁सत्यव्रत	-11.6219
▁सर्वोच्च	-11.6219
▁सांस्कृतिक	-11.6219
▁सैंकड़ों	-11.6219
▁सोमवार	-11.6219
▁हरिद्वार	-11.6219
▁हार्दिक	-11.6219
▁Administrative	-11.6219
▁Computerised	-11.6219
▁Hansraj	-11.6219
▁Killing	-11.6219
▁Swaraj	-11.6219
▁cattle	-11.6219
▁climate	-11.6219
▁contended	-11.6219
▁entities	-11.6219
▁indulgence	-11.6219
▁purview	-11.6219
▁rajya	-11.6219
▁जीविका	-11.6219
▁धमकी	-11.6219
▁मनमाड	-11.6219
▁शिवनकर	-11.6219
▁Caused	-11.6219
▁Community	-11.6219
▁HARIN	-11.6219
▁Judev	-11.6219
▁Suspension	-11.6219
▁चंडीगढ़	-11.6219
▁तलाश	-11.6219
▁दूरसंचार	-11.6219
▁स्वर्णिम	-11.6219
▁Ninth	-11.6219
▁coalition	-11.6219
▁कठोर	-11.6219
▁बीपीएल	-11.6219
▁cancer	-11.6219
▁cotton	-11.6219
▁शाखा	-11.6219
▁cheaper	-11.6219
▁निजात	-11.6219
▁बढ़ोतरी	-11.6219
▁Revised	-11.6219
▁belief	-11.6219
▁dropped	-11.6219
▁अनधवक	-11.6219
▁Sometimes	-11.6219
▁patient	-11.6219
▁retarded	-11.6219
▁अलीगढ़	-11.6219
▁मार्केटिंग	-11.6219
▁सुविधायें	-11.6219
▁chamber	-11.6219
▁normalcy	-11.6219
▁नदियां	-11.6219
▁मृतक	-11.6219
▁associating	-11.6219
▁सब्जी	-11.6219
▁Jalaun	-11.6219
▁supplementary	-11.6219
▁Population	-11.6219
▁entrusted	-11.6219
▁अतधक	-11.6219
▁dynamic	-11.6219
▁hunger	-11.6219
▁फाईल	-11.6219
▁darkness	-11.6219
▁inflicted	-11.6219
▁दावा	-11.6219
▁पद्धति	-11.6219
▁tenure	-11.6219
▁violating	-11.6219
▁दर्शाता	-11.6219
▁participating	-11.6219
▁उल्लंघन	-11.6219
▁Ruling	-11.6219
▁ensuring	-11.6219
▁porters	-11.6219
▁background	-11.622
▁पुराना	-11.622
▁हथकरघा	-11.622
▁गुजरती	-11.622
▁दौरा	-11.622
▁सरसों	-11.622
▁launched	-11.622
▁Would	-11.622
▁मेजर	-11.622
▁mentally	-11.622
▁disallowed	-11.622
▁बताएंगे	-11.622
▁selection	-11.622
▁Barq	-11.622
▁Sorry	-11.622
▁बीड़ी	-11.622
▁iÉlÉÉ	-11.622
▁माफिया	-11.622
▁Agarwal	-11.622
▁बस्ती	-11.622
▁transportation	-11.622
▁प्रशासनिक	-11.622
▁तत्कालीन	-11.622
▁SHIV	-11.622
▁recognized	-11.622
▁सस्ते	-11.622
▁Mollah	-11.622
▁महतो	-11.622
▁violated	-11.622
▁बहुल	-11.622
▁मलियन	-11.622
▁चोरी	-11.622
▁सुनूंगा	-11.622
▁Task	-11.622
▁सुनिये	-11.622
▁Lord	-11.622
▁राजगढ़	-11.622
▁facie	-11.622
▁esteemed	-11.622
▁fought	-11.622
▁obviously	-11.622
▁successfully	-11.622
▁Vice	-11.622
▁adversely	-11.622
▁earnestly	-11.622
▁Tomorrow	-11.622
▁assigned	-11.622
▁restricted	-11.622
▁refused	-11.622
▁परियोजनाएं	-11.622
▁सुविधाएँ	-11.622
▁agriculturists	-11.622
▁mixed	-11.6221
▁कटियार	-11.6221
▁regularly	-11.6221
▁recognised	-11.6221
▁विहार	-11.6221
▁उठकर	-11.6221
▁बनेगा	-11.6221
▁पिछड़ी	-11.6221
▁पैरा	-11.6221
▁लेबर	-11.6221
▁सकेगी	-11.6221
▁एकमात्र	-11.6221
▁शर्मा	-11.6221
▁busy	-11.6221
▁levelled	-11.6221
▁Laying	-11.6221
▁देखना	-11.6221
▁unanimously	-11.6221
▁communicated	-11.6221
19]	-11.6221
▁समानता	-11.6221
▁एग्रीमेंट	-11.6222
▁मानता	-11.6222
▁Been	-11.6222
▁lose	-11.6222
▁plaint	-11.6222
▁Col	-11.6222
▁Sec	-11.6222
▁forged	-11.6222
▁delivery	-11.6222
▁Mines	-11.6222
12]	-11.6223
▁Kurup	-11.6223
▁auction	-11.6223
▁भवनों	-11.6223
▁ignored	-11.6223
▁खेलों	-11.6223
24]	-11.6223
▁मेले	-11.6223
▁ऐस	-11.6223
TMS	-11.6223
▁कहती	-11.6224
▁Chairmen	-11.6224
▁ordinary	-11.6224
▁connecting	-11.6224
▁pressing	-11.6224
▁lesser	-11.6224
23]	-11.6224
▁reserved	-11.6224
▁invited	-11.6224
▁pharmaceuticals	-11.6224
▁घटी	-11.6224
▁चरणों	-11.6224
▁Cola	-11.6225
▁resolved	-11.6225
▁entering	-11.6225
▁thrown	-11.6225
▁उपजस	-11.6225
▁करायें	-11.6225
▁खरीदने	-11.6225
▁अवल	-11.6226
▁ट्रेनें	-11.6226
▁मिलते	-11.6226
▁refugees	-11.6226
▁व्यवस्थित	-11.6227
▁चलना	-11.6228
▁होंगी	-11.6228
▁बताने	-11.6228
▁किलो	-11.6228
▁अन्यथा	-11.6228
10]	-11.6229
▁fees	-11.6229
▁residing	-11.6229
▁advanced	-11.6229
▁correctly	-11.6229
▁condemning	-11.6229
▁grown	-11.623
▁Mahal	-11.623
▁load	-11.6231
▁टेक	-11.6232
▁anger	-11.6232
▁admit	-11.6232
▁एशिया	-11.6232
▁inputs	-11.6232
▁cards	-11.6233
▁LAL	-11.6233
▁ABÉD	-11.6233
▁प्राप्ति	-11.6233
▁सरदार	-11.6233
▁फुट	-11.6234
▁aims	-11.6234
▁डब्ल्यू	-11.6234
▁एवम	-11.6235
▁लेता	-11.6235
▁deserves	-11.6235
▁मिलाने	-11.6235
▁चुरू	-11.6235
▁मैडम	-11.6235
▁यािपत	-11.6236
▁Which	-11.6236
▁मुंगेर	-11.6236
▁मिर्जापुर	-11.6236
▁कपास	-11.6236
▁दुर्घटनाएं	-11.6236
▁educated	-11.6236
▁earnings	-11.6236
▁colleges	-11.6237
▁बीमार	-11.6237
▁cÚÆ	-11.6237
▁admissible	-11.6238
▁Maybe	-11.6239
▁राइट	-11.624
▁पनत	-11.624
▁joined	-11.6241
▁rally	-11.6241
▁finished	-11.6241
▁राजमार्गों	-11.6241
▁presentation	-11.6241
▁Profit	-11.6242
▁visiting	-11.6242
▁प्रतिस्थापित	-11.6242
▁सिद्ध	-11.6242
▁कायम	-11.6244
▁साथियों	-11.6244
▁०२	-11.6244
▁grievances	-11.6245
▁प्रतिवेदनों	-11.6245
▁रकम	-11.6245
▁Share	-11.6246
▁भीड़	-11.6246
▁platforms	-11.6247
▁fertilizers	-11.6247
▁checked	-11.6247
▁Zones	-11.6249
▁दरों	-11.6249
▁राजा	-11.6249
▁ननक	-11.6249
▁someone	-11.6251
▁responding	-11.6252
▁represents	-11.6255
▁helped	-11.6256
▁मालेगांव	-11.6258
▁भूल	-11.626
▁Old	-11.626
▁towns	-11.6262
▁ongoing	-11.6264
▁arises	-11.6266
▁Deve	-11.6267
▁पूर्ति	-11.627
▁attempts	-11.627
ÉBÉEä	-11.627
▁sorts	-11.6271
▁1956:	-11.6272
▁बोली	-11.6273
▁सूचित	-11.6273
▁survive	-11.6276
▁affects	-11.6277
▁AC	-11.6281
▁materials	-11.6284
▁औ	-11.6287
▁खत	-11.6287
,1998	-11.6288
▁Per	-11.6296
▁कामों	-11.63
▁(7)	-11.6305
▁बैठी	-11.6306
11]	-11.6308
▁शुरूआत	-11.631
▁गहरा	-11.631
▁बर	-11.6311
▁insist	-11.6315
▁अवस्थित	-11.6319
17	-11.6324
ive	-11.6328
▁timely	-11.6329
▁Ordinances	-11.6329
▁dry	-11.633
▁Justices	-11.6334
▁references	-11.6336
▁वधि	-11.6337
▁sat	-11.6338
▁Offices	-11.6347
▁payments	-11.6348
▁खोज	-11.6349
▁गज	-11.6353
▁examples	-11.6354
▁5%	-11.6363
▁भारती	-11.6377
ors	-11.6378
▁recording	-11.6391
कल	-11.64
▁धकरण	-11.6405
▁२१	-11.6419
▁Rani	-11.6422
▁लैटर	-11.6429
▁stake	-11.643
8]	-11.6433
ia	-11.6444
▁mentions	-11.6456
▁पोस्ट	-11.6464
▁46	-11.6474
राम	-11.6475
ड़	-11.6479
▁contd	-11.648
ण्ड	-11.648
▁à	-11.649
As	-11.6491
▁जुड़	-11.6494
▁particulars	-11.6495
उ	-11.6496
▁thanks	-11.6496
▁वाई	-11.6507
▁oÉBÉEä	-11.652
▁______________	-11.6525
।...	-11.6529
▁y	-11.6532
▁9,	-11.6542
वह	-11.6551
▁स्	-11.6558
▁इं	-11.656
▁kinds	-11.6564
▁स्व	-11.6584
▁2(	-11.6586
वी	-11.6597
०	-11.6599
▁DG	-11.6599
▁Ba	-11.66
▁sa	-11.6602
▁visual	-11.6605
ka	-11.6608
▁1998,	-11.6628
▁दिला	-11.6651
▁mill	-11.666
▁ीय	-11.6663
▁वत	-11.6678
▁आयोजन	-11.6682
ति	-11.6689
▁AR	-11.6693
▁भम	-11.6712
▁सोन	-11.6722
ÉaÉ	-11.6724
▁आस	-11.6736
▁lease	-11.6749
▁2007,	-11.6763
▁फैल	-11.6765
▁83	-11.6776
▁पति	-11.6784
land	-11.68
वल	-11.6818
▁दश	-11.6838
▁61	-11.6842
▁षव	-11.6852
▁चक्र	-11.6862
se	-11.6863
▁मि	-11.6885
▁fu	-11.6897
nä	-11.69
▁ho	-11.6926
all	-11.6939
▁"(	-11.6941
▁Ms	-11.6949
▁फोर्स	-11.6954
sh	-11.6961
If	-11.6969
▁1976	-11.6979
▁1989	-11.6979
है	-11.6983
सस	-11.6983
▁पड	-11.6995
▁रणनीति	-11.7011
▁_________	-11.7047
Fld	-11.7088
▁se	-11.7108
देवरिया	-11.7111
Published	-11.7113
Contd	-11.7114
▁JHA	-11.7124
MÉÉÊ	-11.7144
▁800	-11.7156
यथ	-11.7157
वर	-11.7161
7]	-11.7165
।”	-11.7167
▁Al	-11.7168
▁di	-11.7175
▁कोने	-11.7186
ul	-11.7187
▁upset	-11.719
सिं	-11.7197
िव	-11.7204
▁सो	-11.721
▁कार	-11.7213
▁समब	-11.7218
▁862	-11.7231
▁वो	-11.724
▁1963	-11.726
▁margin	-11.7263
▁सि	-11.7265
▁1956	-11.7272
▁मांगें	-11.7276
ंगी	-11.7279
▁aam	-11.728
▁feed	-11.7281
▁nå	-11.7295
▁commit	-11.7296
▁nÉä	-11.7297
▁prohibit	-11.7301
▁contain	-11.7303
ÉxÉÉÒ	-11.7303
▁textile	-11.7306
▁conflict	-11.7306
▁prayer	-11.7306
▁relate	-11.7308
▁circular	-11.7309
▁foundation	-11.7309
▁signature	-11.7309
▁sphere	-11.731
▁Interest	-11.731
ाई	-11.731
▁device	-11.731
ÉÉn	-11.731
▁limitation	-11.731
▁extremist	-11.731
▁multinational	-11.7311
▁daughter	-11.7311
▁wagon	-11.7311
▁employer	-11.7311
▁cadre	-11.7311
▁Tata	-11.7311
▁college	-11.7312
▁tonne	-11.7312
▁tribe	-11.7312
▁Case	-11.7313
▁driver	-11.7314
▁गौर	-11.7317
▁pathetic	-11.7318
▁earning	-11.7318
▁corner	-11.7318
▁drive	-11.7322
कारी	-11.7322
▁define	-11.7322
▁Bhawan	-11.7324
▁15,000	-11.7324
▁reject	-11.7325
▁Sixteen	-11.7325
▁match	-11.7326
ance	-11.7326
▁नक्सलवाद	-11.7326
▁बरबाद	-11.7326
▁अनुकूल	-11.7326
▁explosive	-11.7326
▁खुशहाल	-11.7326
▁disclose	-11.7327
▁dispose	-11.7327
▁combat	-11.7327
▁BIHAR	-11.7327
▁realise	-11.7327
▁Present	-11.7328
▁enlighten	-11.7328
▁ignore	-11.7328
▁फाटक	-11.7328
▁exploit	-11.7328
▁आसान	-11.7328
▁अंचल	-11.7328
▁बनाएं	-11.7329
▁डॉक्टर	-11.7329
▁subsequent	-11.7329
▁adverse	-11.7329
▁regulate	-11.7329
▁sudden	-11.7329
▁तीव्र	-11.7329
▁earnest	-11.733
▁अमेंडमेंट	-11.733
▁पश्चात	-11.733
▁incorporate	-11.733
▁अनुशंसा	-11.733
▁गिरफ्तार	-11.733
▁supreme	-11.733
▁PREM	-11.733
▁beautiful	-11.733
▁cricket	-11.733
▁परसेन्ट	-11.733
▁स्वर्ण	-11.733
▁AIADMK	-11.733
▁Acute	-11.733
▁Arjun	-11.733
▁BANGALORE	-11.733
▁BANGARAPPA	-11.733
▁BERHAMPORE	-11.733
▁Beedi	-11.733
▁Bhubaneshwar	-11.733
▁Century	-11.733
▁Chattisgarh	-11.733
▁Chouhan	-11.733
▁Churu	-11.733
▁Contained	-11.733
▁DASMUNSHI	-11.733
▁DHANANJAYA	-11.733
▁DURGAPUR	-11.733
▁DUSHYANT	-11.733
▁Effective	-11.733
▁Either	-11.733
▁Encephalitis	-11.733
▁FDI	-11.733
▁Fundamental	-11.733
▁Girdhari	-11.733
▁Half	-11.733
▁Heavy	-11.733
▁INDUSTRY	-11.733
▁Intelligence	-11.733
▁Investment	-11.733
▁Jagannath	-11.733
▁Jalpaiguri	-11.733
▁Jhansi	-11.733
▁Judgment	-11.733
▁Kalyan	-11.733
▁Kolhapur	-11.733
▁Kyoto	-11.733
▁Local	-11.733
▁MIRYALGUDA	-11.733
▁Madhusudan	-11.733
▁Mahurkar	-11.733
▁Malaria	-11.733
▁Manamadurai	-11.733
▁Narendra	-11.733
▁Ownership	-11.733
▁PASWAN	-11.733
▁PETITION	-11.733
▁PRATAP	-11.733
▁Proposed	-11.733
▁Protocol	-11.733
▁SABHA	-11.733
▁SENGUPTA	-11.733
▁SWAMY	-11.733
▁Saheb	-11.733
▁Santosh	-11.733
▁Shourie	-11.733
▁Summit	-11.733
▁TIRUNELVELI	-11.733
▁Ultimately	-11.733
▁VENKATESWARLU	-11.733
▁Varanasi	-11.733
▁Written	-11.733
▁apologise	-11.733
▁backlog	-11.733
▁compulsion	-11.733
▁conscience	-11.733
▁constituencies	-11.733
▁custody	-11.733
▁derogatory	-11.733
▁disciplinary	-11.733
▁discriminatory	-11.733
▁driving	-11.733
▁eligible	-11.733
▁emergency	-11.733
▁enormous	-11.733
▁episode	-11.733
▁exemplary	-11.733
▁extremism	-11.733
▁fifth	-11.733
▁fraud	-11.733
▁guillotine	-11.733
▁ideology	-11.733
▁imperative	-11.733
▁imposing	-11.733
▁indulging	-11.733
▁juncture	-11.733
▁languishing	-11.733
▁mandatory	-11.733
▁obliged	-11.733
▁pattern	-11.733
▁prestige	-11.733
▁relevance	-11.733
▁restoration	-11.733
▁satisfy	-11.733
▁southern	-11.733
▁transparent	-11.733
▁अकेले	-11.733
▁अचानक	-11.733
▁अविलंब	-11.733
▁उर्दू	-11.733
▁एनडीए	-11.733
▁कच्चा	-11.733
▁कब्जा	-11.733
▁कर्तव्य	-11.733
▁कि०मी०	-11.733
▁क्रियान्वित	-11.733
▁क्वालिटी	-11.733
▁खतरनाक	-11.733
▁गरिडीह	-11.733
▁चेन्नई	-11.733
▁टूरिज्म	-11.733
▁डिसकशन	-11.733
▁डुमरियागंज	-11.733
▁डेयरी	-11.733
▁तालुका	-11.733
▁देखभाल	-11.733
▁देवराजभाई	-11.733
▁ध्वस्त	-11.733
▁नागभीड़	-11.733
▁नेहरू	-11.733
▁पुनर्गठन	-11.733
▁प्रोत्साहित	-11.733
▁प्रोवीजन	-11.733
▁बनर्जी	-11.733
▁बहिर्गमन	-11.733
▁बीएसएनएल	-11.733
▁बैसीमुथियारी	-11.733
▁भरपाई	-11.733
▁भावनाबेन	-11.733
▁मद्देनजर	-11.733
▁मित्रसेन	-11.733
▁रिलीज	-11.733
▁वगैरह	-11.733
▁वाकआउट	-11.733
▁वैक्सीन	-11.733
▁वैश्विक	-11.733
▁व्यतीत	-11.733
▁शैक्षिक	-11.733
▁श्रीगंगानगर	-11.733
▁सबसिडी	-11.733
▁सम्मेलन	-11.733
▁सर्वाधिक	-11.733
▁सामग्री	-11.733
▁हरीभाऊ	-11.733
μ	-11.733
▁Closure	-11.733
▁acute	-11.733
▁painful	-11.733
▁struck	-11.733
▁teeth	-11.733
▁अवकाश	-11.733
▁आर्टिकल	-11.733
▁कांतिलाल	-11.733
▁बेल्लारी	-11.733
▁मर्जी	-11.733
▁महादेवराव	-11.733
▁मीणा	-11.733
▁रेवाड़ी	-11.733
▁सुखदेव	-11.733
▁Amarnath	-11.733
▁requisite	-11.733
▁ओवरब्रिज	-11.733
▁ट्रांसमिशन	-11.733
▁भानु	-11.733
▁मुख्यमंत्रियों	-11.733
responsibilities	-11.733
▁RUDY	-11.733
▁perishable	-11.733
▁rainfall	-11.733
▁उपलबध	-11.733
▁फरूखाबाद	-11.733
▁Duty	-11.733
▁liabilities	-11.733
▁उम्र	-11.733
▁गरिमा	-11.733
▁ट्रैक्टर	-11.733
▁सक्षम	-11.733
▁Gopal	-11.733
▁Raniganj	-11.733
▁ekax	-11.733
▁गतिविधियों	-11.733
▁बोझ	-11.733
▁Suratgarh	-11.733
▁प्रोसेसिंग	-11.733
▁सम्राट	-11.733
▁infrastructural	-11.733
▁अलवी	-11.733
▁दागी	-11.733
▁समस्यायें	-11.733
▁Coalfields	-11.733
▁nLrkostksa	-11.733
▁फास्ट	-11.733
▁Except	-11.733
▁नांदेड़	-11.733
▁पहाड़ियों	-11.733
▁बोरिंग	-11.733
▁dwellers	-11.733
▁अर्जित	-11.733
▁कौशल	-11.733
▁चिंतित	-11.733
▁शिवहर	-11.733
▁हासिल	-11.733
▁Next	-11.7331
▁baseless	-11.7331
▁warming	-11.7331
▁बिलकुल	-11.7331
▁मण्डल	-11.7331
▁समस्त	-11.7331
ÉoÉÆ	-11.7331
▁relaxation	-11.7331
▁संस्थाएं	-11.7331
▁Sardar	-11.7331
▁assumption	-11.7331
▁बहुमत	-11.7331
▁Prabhu	-11.7331
▁prima	-11.7331
▁seamen	-11.7331
▁Ajit	-11.7331
▁memory	-11.7331
▁productive	-11.7331
▁पशुओं	-11.7331
▁Rashtrapatiji	-11.7331
▁Srinagar	-11.7331
▁dumping	-11.7331
▁Number	-11.7331
▁आज़मी	-11.7331
▁oÉÉlÉ	-11.7331
▁कार्यक्षमता	-11.7331
▁गठित	-11.7331
▁recession	-11.7331
▁elsewhere	-11.7331
▁अड्डे	-11.7331
▁जेटली	-11.7331
▁डाउन	-11.7331
▁Buddha	-11.7331
▁size	-11.7331
▁scam	-11.7331
▁simultaneously	-11.7331
▁जहाज	-11.7331
▁Rajnath	-11.7331
▁प्लीज़	-11.7331
▁paise	-11.7331
▁alarming	-11.7331
▁PURI	-11.7331
▁तत्वों	-11.7331
▁सब्जैक्ट	-11.7331
▁immense	-11.7331
▁GOI	-11.7331
▁पूजा	-11.7331
▁Sagar	-11.7331
▁जरुरत	-11.7331
▁Karia	-11.7331
▁Servicemen	-11.7331
▁deployed	-11.7331
▁गार्ड	-11.7331
▁executed	-11.7331
▁Everyday	-11.7331
▁adoption	-11.7331
▁oath	-11.7331
▁waiver	-11.7331
▁शिक्षकों	-11.7331
▁manned	-11.7331
▁Notaries	-11.7331
▁footing	-11.7331
▁आस्था	-11.7331
▁शुक्ला	-11.7331
▁Navy	-11.7331
▁tkjh	-11.7331
▁earmarked	-11.7331
▁schedule	-11.7331
▁विस्थापितों	-11.7331
▁Agra	-11.7331
▁राशन	-11.7331
▁obey	-11.7331
▁prone	-11.7331
▁लीडर्स	-11.7331
▁शर्तों	-11.7332
▁meantime	-11.7332
▁Anna	-11.7332
▁Bush	-11.7332
▁villagers	-11.7332
▁Rifles	-11.7332
▁चुने	-11.7332
▁attached	-11.7332
▁निषाद	-11.7332
▁उतना	-11.7332
▁demolished	-11.7332
▁flying	-11.7332
▁nationalised	-11.7332
▁वनिवेश	-11.7332
▁cutting	-11.7332
▁broken	-11.7332
▁borrowing	-11.7332
▁servicemen	-11.7332
▁contributed	-11.7332
▁widely	-11.7332
▁manufactured	-11.7332
▁kill	-11.7333
▁619	-11.7333
▁सुनते	-11.7333
▁नरेगा	-11.7333
▁Naturally	-11.7333
▁डालने	-11.7333
30]	-11.7333
33]	-11.7333
▁तथ्यों	-11.7333
▁जेलों	-11.7333
▁reform	-11.7333
▁बचाव	-11.7333
▁सौदा	-11.7333
▁fate	-11.7333
▁हरिन	-11.7333
▁insisting	-11.7334
▁वाद	-11.7334
▁पूछने	-11.7334
▁Drugs	-11.7334
▁contractors	-11.7334
▁failing	-11.7334
▁सीटों	-11.7334
▁answerable	-11.7334
21]	-11.7335
▁invested	-11.7335
▁बनती	-11.7335
▁cited	-11.7335
▁Harin	-11.7335
▁positively	-11.7335
▁Indore	-11.7335
▁जंगलों	-11.7335
▁managed	-11.7335
14]	-11.7335
▁जाएंगी	-11.7335
▁prevented	-11.7335
▁बेकारी	-11.7336
▁अस्पतालों	-11.7336
▁overcome	-11.7336
▁मारने	-11.7336
▁Mining	-11.7336
▁तबाही	-11.7336
▁हाथों	-11.7336
▁enhanced	-11.7337
▁अमल	-11.7337
▁शरण	-11.7337
▁निवासी	-11.7337
▁essentially	-11.7337
▁नधा	-11.7337
▁shortly	-11.7337
▁promised	-11.7337
▁rolling	-11.7337
▁learning	-11.7338
▁उठाई	-11.7338
▁सर्विस	-11.7338
▁ख्याल	-11.7338
▁Motors	-11.7338
▁NGOs	-11.7338
▁PSUs	-11.7338
▁रोज़	-11.7339
▁substituted	-11.7339
▁arresting	-11.7339
▁carrying	-11.7339
▁agro	-11.7339
▁pertains	-11.7339
▁नाले	-11.7339
▁ककककककक	-11.7339
▁FOR	-11.7339
▁वषक	-11.7339
▁हरित	-11.7339
▁brothers	-11.734
▁बालक	-11.734
▁weapons	-11.7341
▁कनतपनत	-11.7341
▁गिना	-11.7341
▁निराशा	-11.7341
▁waited	-11.7341
▁Mills	-11.7341
▁सोचा	-11.7342
▁जोगी	-11.7342
▁undertake	-11.7342
▁reviewed	-11.7342
▁Times	-11.7342
▁मेडिकल	-11.7342
▁जिनका	-11.7343
▁granting	-11.7343
▁lawyers	-11.7343
▁estimates	-11.7343
▁exercised	-11.7343
▁disturbed	-11.7344
▁saved	-11.7345
▁green	-11.7345
▁पड़ने	-11.7345
▁constraints	-11.7345
▁10,000/	-11.7345
▁अनेकों	-11.7345
▁observes	-11.7346
▁सुझावों	-11.7346
▁lacking	-11.7346
▁prayed	-11.7346
▁greatly	-11.7347
▁भूतपूर्व	-11.7347
▁progressive	-11.7347
▁महोदयः	-11.7347
▁प्रभावी	-11.7348
▁Tehsil	-11.7348
▁efficiency	-11.7348
▁युद्ध	-11.7348
▁जवाहर	-11.7348
▁Fifth	-11.7348
▁BSNL	-11.7348
▁कश्यप	-11.7348
▁राजकीय	-11.7348
▁सीबीआई	-11.7348
▁BEFORE	-11.7348
▁बेतिया	-11.7348
▁Kannur	-11.7349
▁àÉÆjÉÉÒ	-11.7349
▁होशियारपुर	-11.7349
▁स्टैंडिंग	-11.7349
▁मार्क	-11.7349
▁वोटिंग	-11.7349
▁Uday	-11.735
▁wagons	-11.735
▁खोला	-11.735
▁whoever	-11.7351
▁अन्त	-11.7351
▁mostly	-11.7352
▁deserve	-11.7352
▁importing	-11.7352
▁ननगर	-11.7353
▁allegedly	-11.7353
▁HIV	-11.7355
▁conducting	-11.7355
▁drawing	-11.7355
▁Rate	-11.7355
▁आयी	-11.7355
▁356	-11.7357
▁Floods	-11.7357
▁Regulations	-11.7357
▁withdrawing	-11.7357
▁criticize	-11.7358
▁कास्ट	-11.736
ship	-11.736
▁क्लास	-11.736
▁answering	-11.736
▁सस	-11.7361
▁tests	-11.7361
वा	-11.7361
▁cow	-11.7362
▁Petitions	-11.7362
▁publicly	-11.7363
▁promises	-11.7364
▁जाली	-11.7365
▁specially	-11.7367
▁dhA	-11.7368
▁मास्टर	-11.7368
▁quarters	-11.7368
▁bus	-11.737
,...(	-11.737
▁०७	-11.7371
▁crossings	-11.7373
▁वायु	-11.7373
▁१९९७	-11.7373
▁नैशनल	-11.7373
▁किराए	-11.7373
▁दरभंगा	-11.7373
▁Complaint	-11.7374
▁महाविद्यालय	-11.7374
▁reconsider	-11.7374
▁agreeing	-11.7374
▁साहेब	-11.7375
▁TO	-11.7375
▁mothers	-11.7375
▁homes	-11.7375
▁धपर	-11.7377
▁मंडी	-11.7377
▁(14	-11.7377
्ल	-11.7378
▁crimes	-11.7379
▁damages	-11.7383
▁लाई	-11.7383
▁plants	-11.7385
▁owned	-11.7386
(1)(	-11.7386
▁violations	-11.7387
▁भिन्न	-11.7387
▁AY	-11.7388
▁highways	-11.739
▁wasted	-11.7395
▁pages	-11.7399
ty	-11.7399
▁needy	-11.74
▁BaÉ	-11.7402
▁aim	-11.7403
▁बारिश	-11.7403
▁Introduced	-11.7405
▁विधि	-11.7409
▁debated	-11.7411
▁judgments	-11.7412
▁holds	-11.7414
▁borders	-11.7419
▁सहायक	-11.7425
▁हमसे	-11.7428
▁ररक	-11.7431
▁thoughts	-11.7431
▁1%	-11.7435
▁forests	-11.7438
▁revenues	-11.744
▁investments	-11.7441
▁Others	-11.7443
▁shop	-11.7444
▁गव	-11.7446
▁उनक	-11.7455
▁objections	-11.7455
▁credits	-11.7457
▁governments	-11.7458
▁PAN	-11.7481
▁interruptions	-11.7485
▁रोड़	-11.7486
▁७०	-11.749
▁ship	-11.7493
▁लि	-11.7496
▁Tribunals	-11.7501
▁Taj	-11.7502
▁रटन	-11.751
vi	-11.7511
▁पू	-11.7511
▁sittings	-11.7516
▁रियासत	-11.7518
ST	-11.7524
▁मशीन	-11.7526
▁बारी	-11.7535
▁deals	-11.7535
▁z	-11.7556
▁बै	-11.7561
▁मांगा	-11.7581
lidation	-11.7583
▁Amendments	-11.7585
▁सिटी	-11.7586
▁AN	-11.7592
ेंट	-11.7595
▁Jal	-11.7596
ारा	-11.7601
▁Departments	-11.7604
▁Sena	-11.7604
SS	-11.7609
ाह	-11.7616
▁०	-11.7631
ही	-11.7635
▁plane	-11.7638
धकरण	-11.7648
वार	-11.767
▁6,	-11.7676
▁पित	-11.7688
DEP	-11.7708
▁gain	-11.7709
▁brings	-11.7716
▁gun	-11.7727
▁125	-11.773
ted	-11.773
me	-11.7731
▁TH	-11.7737
र्स	-11.775
ाव	-11.7751
ated	-11.7751
ूंगा	-11.7764
99	-11.7765
▁ends	-11.7781
सम	-11.7783
नाथ	-11.7786
▁बारह	-11.7789
▁1100	-11.7811
ÉÉVÉ	-11.7818
31	-11.7834
▁àÉc	-11.7857
▁invest	-11.7858
न्स	-11.7859
▁कम्प्यूटर	-11.7882
▁355	-11.7901
India	-11.7902
र्	-11.7906
ent	-11.7907
▁दशा	-11.7924
ts	-11.7924
elecommunication	-11.7928
ir	-11.7933
▁ÉÊàÉãÉ	-11.7935
wa	-11.7943
ary	-11.7948
वाई	-11.8004
▁बद	-11.8005
▁Ma	-11.8014
▁रहन	-11.8019
han	-11.8036
You	-11.8038
▁wing	-11.8042
▁झ	-11.8043
फर	-11.8043
िस	-11.8049
▁Ito	-11.8058
for	-11.8059
▁xÉä	-11.806
▁Z	-11.8062
7,	-11.8065
▁शम	-11.8083
06	-11.8097
ll	-11.8115
▁पप	-11.8118
▁स्टे	-11.8134
▁डि	-11.8159
▁Meh	-11.8187
बिहार	-11.8218
AT	-11.822
पूर्ण	-11.8221
▁Su	-11.8226
▁सकी	-11.8232
मेरा	-11.8243
▁वाक्य	-11.8243
▁Kar	-11.8248
ौ	-11.8255
lh	-11.8255
▁Rai	-11.8257
▁ãÉMÉ	-11.8262
बार	-11.8267
▁km	-11.8269
मेरे	-11.8269
▁26,	-11.8275
▁DEV	-11.8281
▁66	-11.8286
RAIL	-11.8297
(1)	-11.8299
Laid	-11.8302
▁हा	-11.8306
▁बाधा	-11.8307
▁कर्जा	-11.8311
hereinafter	-11.8315
वभागीय	-11.832
SHRIMATI	-11.8333
One	-11.8335
ऐ	-11.8338
that	-11.8341
CMA	-11.8348
ends	-11.8355
ling	-11.8356
Vijay	-11.8356
अपीलाथ	-11.8359
ˆ	-11.836
CSA	-11.8363
सम्भल	-11.8363
▁बाग	-11.8375
▁निकाले	-11.8388
गी	-11.8392
▁2006,	-11.8398
▁वेस्ट	-11.8411
जा	-11.8411
▁पाये	-11.8418
▁pro	-11.8451
▁camp	-11.8474
▁profession	-11.8485
SA	-11.8494
▁सत्य	-11.8497
▁flag	-11.8504
▁दह	-11.8507
▁एक्स	-11.8513
तल	-11.852
तन	-11.8522
ta	-11.8525
▁Jha	-11.8531
▁सुख	-11.8538
▁red	-11.854
▁command	-11.8553
▁promotion	-11.8555
▁finger	-11.8556
▁preparation	-11.8556
▁Attack	-11.8556
▁jail	-11.8557
▁Meeting	-11.8557
▁warning	-11.8558
▁reaction	-11.8559
▁resort	-11.8559
▁Association	-11.8559
▁Sale	-11.856
▁custom	-11.856
▁motive	-11.8561
▁consequence	-11.8561
▁flight	-11.8561
▁slogan	-11.8561
▁hectare	-11.8561
▁Matter	-11.8562
▁Maoist	-11.8562
▁Notice	-11.8562
▁boy	-11.8562
▁Dev	-11.8563
▁plot	-11.8563
▁grain	-11.8563
▁ideal	-11.8563
▁आधा	-11.8564
▁logic	-11.8566
▁टूट	-11.8567
▁bio	-11.8567
▁covering	-11.8567
▁source	-11.8567
▁Shah	-11.8569
▁Asansol	-11.8569
▁पच	-11.8571
▁discipline	-11.8573
▁spoil	-11.8574
▁enact	-11.8574
▁शान्त	-11.8574
▁destroy	-11.8575
▁deliberate	-11.8575
▁expand	-11.8575
▁̃	-11.8576
▁tolerate	-11.8576
▁concede	-11.8576
▁arrive	-11.8576
▁defray	-11.8576
▁गड़बड़	-11.8577
▁भोजपुर	-11.8577
▁Undertake	-11.8577
ÉvaÉFÉ	-11.8577
▁secure	-11.8577
▁fell	-11.8577
▁prevail	-11.8577
▁expunge	-11.8577
▁एग्रीकल्चर	-11.8578
▁दौर	-11.8578
▁दस्तावेज	-11.8578
▁व्याख्या	-11.8578
▁suppress	-11.8578
▁curb	-11.8578
▁हथियार	-11.8578
▁निष्कर्ष	-11.8578
▁Hari	-11.8578
▁fulfil	-11.8579
▁नौजवान	-11.8579
▁मित्र	-11.8579
▁कामगार	-11.8579
ÉEÉÒ	-11.8579
▁फॉर	-11.8579
▁branch	-11.8579
▁apparent	-11.8579
▁teach	-11.8579
▁obvious	-11.8579
▁successful	-11.8579
▁compete	-11.8579
▁fill	-11.858
▁RESOURCE	-11.858
▁असमर्थ	-11.858
▁प्रसार	-11.858
▁पपपप	-11.858
▁एतराज	-11.858
▁संरचना	-11.858
▁नश्िचत	-11.858
▁Surendra	-11.858
▁Japan	-11.858
▁भुवन	-11.858
▁cloth	-11.858
▁लोहरदगा	-11.858
Phalguna	-11.858
▁Addl	-11.858
▁BARAMATI	-11.858
▁BARAN	-11.858
▁Banaskantha	-11.858
▁Bangarappa	-11.858
▁Bofors	-11.858
▁CENTRAL	-11.858
▁Category	-11.858
▁Chandrakant	-11.858
▁Communist	-11.858
▁Coolum	-11.858
▁Countries	-11.858
▁Definitely	-11.858
▁Dhubri	-11.858
▁EXTERNAL	-11.858
▁Enterprises	-11.858
▁Excise	-11.858
▁FERNANDES	-11.858
▁Factory	-11.858
▁Families	-11.858
▁HOOGHLY	-11.858
▁HUMAN	-11.858
▁Hospital	-11.858
▁Hussain	-11.858
▁IDUKKI	-11.858
▁Idukki	-11.858
▁Incidents	-11.858
▁JANARDHANA	-11.858
▁Junction	-11.858
▁KASHIRAM	-11.858
▁Khasra	-11.858
▁Korba	-11.858
▁LATUR	-11.858
▁Laxminarayan	-11.858
▁Maritime	-11.858
▁Musharraf	-11.858
▁NATCHIAPPAN	-11.858
▁ONGC	-11.858
▁PATEL	-11.858
▁PLANNING	-11.858
▁PONNANI	-11.858
▁PRAFUL	-11.858
▁PRASANNA	-11.858
▁PRAVIN	-11.858
▁RASHTRAPAL	-11.858
▁Ranchi	-11.858
▁SHANKER	-11.858
▁SHIPPING	-11.858
▁SONTOSH	-11.858
▁SUDARSANA	-11.858
▁Sachin	-11.858
▁Samastipur	-11.858
▁Separate	-11.858
▁Several	-11.858
▁Sharma	-11.858
▁Succession	-11.858
▁Surface	-11.858
▁TOPDAR	-11.858
▁Tehsildar	-11.858
▁Telugu	-11.858
▁Treaty	-11.858
▁Trinamool	-11.858
▁Tuesday	-11.858
▁VINOD	-11.858
▁admissibility	-11.858
▁affiliation	-11.858
▁blaming	-11.858
▁brilliant	-11.858
▁bureaucracy	-11.858
▁colonies	-11.858
▁crucial	-11.858
▁crux	-11.858
▁declining	-11.858
▁decorum	-11.858
▁denial	-11.858
▁eastern	-11.858
▁excellent	-11.858
▁foeticide	-11.858
▁gandhi	-11.858
▁imprisonment	-11.858
▁indicating	-11.858
▁mRrjh	-11.858
▁manifesto	-11.858
▁minimising	-11.858
▁occurrence	-11.858
▁paucity	-11.858
▁peasants	-11.858
▁prerogative	-11.858
▁quantity	-11.858
▁remote	-11.858
▁removal	-11.858
▁split	-11.858
▁technologies	-11.858
▁tragic	-11.858
▁utilisation	-11.858
▁varxZr	-11.858
▁vuqikyu	-11.858
▁ÉÊnããÉÉÒ	-11.858
▁́ÉänxÉ	-11.858
▁अफेयर्स	-11.858
▁अवैध	-11.858
▁असंगठित	-11.858
▁आदर्श	-11.858
▁आधारभूत	-11.858
▁इश्यु	-11.858
▁उत्खनन	-11.858
▁कार्यान्वित	-11.858
▁क्िंवटल	-11.858
▁खीरी	-11.858
▁चार्जशीट	-11.858
▁चाहूँगा	-11.858
▁जहानाबाद	-11.858
▁डिपार्टमेंट	-11.858
▁ढींडसा	-11.858
▁धंधे	-11.858
▁निगरानी	-11.858
▁पन्द्रह	-11.858
▁पुणे	-11.858
▁पुष्टि	-11.858
▁प्रकल्प	-11.858
▁प्रकृति	-11.858
▁प्रेरणा	-11.858
▁फाइनेंशियल	-11.858
▁बंगलौर	-11.858
▁बर्खास्त	-11.858
▁बहिष्कार	-11.858
▁बिजनौर	-11.858
▁ब्यौरा	-11.858
▁माणिकराव	-11.858
▁मुर्मू	-11.858
▁मोतिहारी	-11.858
▁रतिलाल	-11.858
▁राधाकृष्णन	-11.858
▁रिपील	-11.858
▁रॉयल्टी	-11.858
▁रोकथाम	-11.858
▁रोज़गार	-11.858
▁लातूर	-11.858
▁वनियामक	-11.858
▁वितरित	-11.858
▁विपणन	-11.858
▁वीरप्पन	-11.858
▁शाक्य	-11.858
▁शारदा	-11.858
▁शुरुआत	-11.858
▁षडयंत्र	-11.858
▁साझेदारी	-11.858
▁सामरिक	-11.858
▁सिंहभूम	-11.858
▁सिक्योरिटी	-11.858
▁सिलेंडर	-11.858
▁सीरियस	-11.858
▁सुबोध	-11.858
▁स्टाफ	-11.858
▁स्वाईं	-11.858
▁स्वाभाविक	-11.858
▁हड़ताल	-11.858
▁हफ्ते	-11.858
▁हैदराबाद	-11.858
▁हैल्थ	-11.858
▁िसंह	-11.858
▁Agenda	-11.858
▁Baliram	-11.858
▁Colony	-11.858
▁Ministries	-11.858
▁Potable	-11.858
▁Pvt	-11.858
▁disapproval	-11.858
▁dissatisfied	-11.858
▁gratitude	-11.858
▁livestock	-11.858
▁अनावश्यक	-11.858
▁अन्तर्राष्ट्रीय	-11.858
▁अवलोकन	-11.858
▁इंतजार	-11.858
▁कम्युनिस्ट	-11.858
▁केसिज	-11.858
▁गुरुदास	-11.858
▁मार्बल	-11.858
▁रघुराज	-11.858
▁विशाल	-11.858
▁संग्रहालय	-11.858
▁सचिवालय	-11.858
▁सुभाष	-11.858
▁हिन्दुओं	-11.858
▁Arora	-11.858
▁Bhavnagar	-11.858
▁Malda	-11.858
▁Parmar	-11.858
▁TARIT	-11.858
▁barred	-11.858
▁khasra	-11.858
▁shameful	-11.858
▁transmission	-11.858
▁चन्देल	-11.858
▁धुले	-11.858
▁पैट्रोलियम	-11.858
▁बिक्री	-11.858
▁मर्यादा	-11.858
▁महोबा	-11.858
▁मांझी	-11.858
▁वर्धा	-11.858
▁सरप्लस	-11.858
▁साक्ष्य	-11.858
▁सुलभ	-11.858
▁adulteration	-11.858
▁applies	-11.858
▁automatically	-11.858
▁narrow	-11.858
▁shape	-11.858
▁कम्युनिटी	-11.858
▁कौशलेन्द्र	-11.858
▁मेहसाणा	-11.858
▁लिंक	-11.858
▁विश्लेषण	-11.858
▁सुखाड़	-11.858
▁१९९६	-11.858
ÉVÉãÉÉÒ	-11.858
▁Death	-11.858
▁Mysore	-11.858
▁capable	-11.858
▁coordination	-11.858
▁आर्मी	-11.858
▁Bhagalpur	-11.858
▁Udhampur	-11.858
▁miserable	-11.858
▁साक्षरता	-11.858
Eighty	-11.858
▁generating	-11.858
▁maiden	-11.858
▁१९८०	-11.858
▁diversity	-11.858
▁scrutiny	-11.858
▁टीकाकरण	-11.858
▁Anybody	-11.858
▁Bombay	-11.858
▁admission	-11.858
▁framework	-11.858
▁thermal	-11.858
▁worried	-11.858
▁गोंदिया	-11.858
▁जरिये	-11.858
▁MOHD	-11.858
▁प्रसंस्करण	-11.858
▁Lives	-11.858
▁devolution	-11.858
▁महेश्वर	-11.858
▁सीताराम	-11.858
▁उद्योगपतियों	-11.858
▁उपधारा	-11.858
▁भूमिहीन	-11.858
▁FOOD	-11.8581
▁File	-11.8581
▁absent	-11.8581
▁कॉलिंग	-11.8581
▁humanitarian	-11.8581
▁युवकों	-11.8581
▁Facts	-11.8581
▁Vision	-11.8581
▁लाभप्रद	-11.8581
▁फीट	-11.8581
▁अमीर	-11.8581
▁सबमिशन	-11.8581
▁Ramchandra	-11.8581
▁अनुमोदन	-11.8581
▁Functioning	-11.8581
▁examining	-11.8581
▁संखया	-11.8581
▁Oath	-11.8581
▁छात्राओं	-11.8581
▁Paul	-11.8581
▁intervening	-11.8581
▁preparing	-11.8581
▁viz	-11.8581
▁आपदाओं	-11.8581
▁Modi	-11.8581
▁Tibetan	-11.8581
▁CGHS	-11.8581
▁CHARAN	-11.8581
▁भूरिया	-11.8581
▁considerably	-11.8581
▁जंक्शन	-11.8581
nkf	-11.8581
▁110001	-11.8581
▁agitating	-11.8581
▁motivated	-11.8581
▁comprised	-11.8581
▁इरादा	-11.8581
▁संवर्धन	-11.8581
▁reconstruction	-11.8581
▁329283	-11.8581
▁Laning	-11.8581
▁Asia	-11.8581
▁भंडारण	-11.8581
▁चिकित्सा	-11.8581
▁रोष	-11.8581
▁Ahamed	-11.8581
▁Haldia	-11.8581
▁खुदाई	-11.8581
▁Coca	-11.8581
▁precisely	-11.8581
▁हाल्ट	-11.8581
▁बनवाने	-11.8581
▁माइन्स	-11.8581
▁हालात	-11.8581
▁announcing	-11.8581
▁courtesy	-11.8581
▁propriety	-11.8581
▁हत्याएं	-11.8581
▁plus	-11.8581
▁विष्णु	-11.8581
▁ककतस	-11.8581
▁introducing	-11.8581
▁टहल	-11.8581
▁eradicate	-11.8581
▁वर्णन	-11.8581
▁Near	-11.8581
▁́ÉÉãÉä	-11.8581
▁आंखों	-11.8581
▁प्रांतों	-11.8581
▁टावर	-11.8581
▁shocking	-11.8581
▁हादसा	-11.8581
▁acceptance	-11.8581
▁पासपोर्ट	-11.8581
▁duly	-11.8581
▁समपार	-11.8581
▁कमजोर	-11.8581
▁Brar	-11.8581
▁Bachi	-11.8581
▁consistently	-11.8581
▁polluted	-11.8581
▁key	-11.8581
▁क्षेत्रफल	-11.8581
▁काश्तकारों	-11.8581
▁रामराव	-11.8581
▁weather	-11.8581
▁Waterways	-11.8581
▁प्रश्नकाल	-11.8581
▁खुदरा	-11.8581
▁मंदी	-11.8581
▁सिफारिशें	-11.8581
▁Constitute	-11.8581
▁revealed	-11.8581
▁rectify	-11.8581
▁प्रोजैक्ट्स	-11.8582
▁सुनेंगे	-11.8582
▁मसला	-11.8582
▁लीटर	-11.8582
▁ज्यादातर	-11.8582
▁passage	-11.8582
▁Presidential	-11.8582
▁Adhir	-11.8582
▁PMO	-11.8582
▁continuously	-11.8582
▁agents	-11.8582
▁television	-11.8582
▁फर्क	-11.8582
▁Products	-11.8582
▁Submissions	-11.8582
▁परीक्षण	-11.8582
▁compartments	-11.8582
▁engineering	-11.8582
▁physically	-11.8582
▁अधिकतर	-11.8582
▁Hills	-11.8582
▁टैकस	-11.8582
▁buses	-11.8582
▁बढ़ेगा	-11.8582
▁मौतें	-11.8582
▁1921	-11.8582
▁Immediately	-11.8582
▁बनेंगे	-11.8582
▁बाबरी	-11.8582
▁Closed	-11.8582
▁diverted	-11.8582
▁शिकायतें	-11.8582
▁Doda	-11.8582
▁bold	-11.8582
▁बगल	-11.8582
▁ट्रेनिंग	-11.8582
▁Bible	-11.8582
▁Bring	-11.8582
▁दसवीं	-11.8582
▁filled	-11.8582
▁binding	-11.8583
▁करूं	-11.8583
▁distributed	-11.8583
▁दखल	-11.8583
▁कहेंगे	-11.8583
▁fulfilling	-11.8583
▁Against	-11.8583
50]	-11.8583
▁जलगांव	-11.8583
▁Swayam	-11.8583
▁रैली	-11.8583
▁furnishing	-11.8583
▁awarded	-11.8583
▁रोड्स	-11.8583
▁दशक	-11.8583
▁Cell	-11.8583
▁सुश्री	-11.8584
▁officially	-11.8584
▁केंद्रित	-11.8584
▁poorest	-11.8584
▁Goods	-11.8584
▁पढ़ाई	-11.8584
▁Doha	-11.8584
▁iÉaÉ	-11.8584
▁deliberations	-11.8584
▁aspersions	-11.8584
▁investors	-11.8584
▁''	-11.8585
▁फैली	-11.8585
▁पेय	-11.8585
▁सीजन	-11.8585
▁वसूली	-11.8585
▁postal	-11.8585
▁बढ़ाना	-11.8585
▁realised	-11.8585
▁taxation	-11.8585
▁yielded	-11.8586
▁Behar	-11.8586
▁marked	-11.8586
▁inquired	-11.8586
▁pursued	-11.8586
▁argued	-11.8586
▁guaranteed	-11.8586
▁throwing	-11.8586
▁वचन	-11.8586
16]	-11.8586
▁श्रीप्रकाश	-11.8586
▁perused	-11.8586
▁SCC	-11.8586
▁कराते	-11.8587
▁दराज	-11.8587
▁सलए	-11.8587
▁mutual	-11.8587
▁pattas	-11.8587
▁awareness	-11.8587
▁मानकर	-11.8587
▁संस्थानों	-11.8587
▁रखती	-11.8588
▁शेखर	-11.8588
▁minister	-11.8588
▁MÉ	-11.8588
▁Training	-11.8588
▁करेंगी	-11.8588
▁investigated	-11.8588
▁कार्यकरण	-11.8588
▁evolved	-11.8588
▁authorised	-11.8588
▁फसलें	-11.8588
▁रहिए	-11.8588
▁Via	-11.8589
▁निर्वाह	-11.8589
▁MLAs	-11.8589
▁Diseases	-11.859
▁Communications	-11.859
▁mountains	-11.859
▁दर्द	-11.859
▁constructing	-11.859
▁weekly	-11.859
▁traders	-11.859
▁promoted	-11.8591
▁reflects	-11.8591
▁Iron	-11.8591
▁openly	-11.8591
▁falling	-11.8591
▁RANA	-11.8591
▁Mid	-11.8592
▁आदर	-11.8592
▁rid	-11.8592
▁crossed	-11.8592
▁केंद्रों	-11.8592
▁objecting	-11.8593
▁tape	-11.8593
▁बनता	-11.8593
▁पकट	-11.8594
▁Places	-11.8594
▁पकड़ा	-11.8594
▁arisen	-11.8594
▁Mother	-11.8594
▁compensate	-11.8594
▁comply	-11.8594
▁5000	-11.8595
▁NPAs	-11.8595
▁corridors	-11.8595
▁necessarily	-11.8595
▁उत्पादक	-11.8595
▁०१	-11.8595
▁shri	-11.8595
▁honourable	-11.8596
▁खरीदा	-11.8596
▁बोडो	-11.8596
▁indirect	-11.8596
▁minerals	-11.8597
▁politicians	-11.8597
▁Call	-11.8598
▁२००	-11.8598
▁occupied	-11.8598
▁प्रावधानों	-11.8599
बा	-11.8599
▁एण्ड	-11.8599
▁Tool	-11.8599
▁1/2	-11.8599
▁currently	-11.8599
▁oÉÖÉÊ	-11.86
▁nutrition	-11.86
▁perform	-11.86
▁Notices	-11.86
▁Sales	-11.86
▁memo	-11.86
▁बुवाई	-11.8601
▁डिप्टी	-11.8601
▁परमाणु	-11.8601
▁isolated	-11.8601
▁नैनीताल	-11.8601
▁स्टोरेज	-11.8601
▁क्रिकेट	-11.8601
▁५७	-11.8601
▁Extension	-11.8601
▁देखेंगे	-11.8601
▁RPF	-11.8602
▁banking	-11.8603
▁daughters	-11.8603
▁CHAND	-11.8603
ha	-11.8603
MENT	-11.8603
▁booking	-11.8604
▁sincere	-11.8604
▁intervened	-11.8604
krr	-11.8605
­]	-11.8606
▁प्रयासों	-11.8607
▁exists	-11.8607
▁Thirteenth	-11.8608
▁approves	-11.8609
▁patents	-11.8609
▁50%	-11.861
▁gate	-11.861
▁cement	-11.8612
▁games	-11.8612
▁incentives	-11.8614
▁सदर	-11.8615
▁लाएं	-11.8616
▁दक्षिणी	-11.8617
▁निंदा	-11.8619
▁hereby	-11.862
ललन	-11.862
▁मेल	-11.862
▁urged	-11.862
▁संतुष्ट	-11.8621
▁Ali	-11.8622
▁bombs	-11.8622
▁pure	-11.8622
▁diplomatic	-11.8622
▁wealth	-11.8623
वारा	-11.8623
▁establishments	-11.8624
▁yields	-11.8624
*...(	-11.8627
▁loot	-11.8627
▁ननव	-11.8627
▁universal	-11.8628
▁events	-11.8628
▁push	-11.8628
▁airports	-11.8629
▁उपर्युक्त	-11.8629
मेंट	-11.863
▁मोटर	-11.8631
▁traditions	-11.8633
un	-11.8635
▁video	-11.8639
▁Units	-11.8639
▁३७७	-11.8639
▁trucks	-11.8641
▁रूपया	-11.8642
▁Sciences	-11.8642
▁offences	-11.8645
ंगे	-11.8645
▁खर्चा	-11.8646
▁threats	-11.8646
▁falls	-11.8649
▁(9)	-11.865
▁मध	-11.8654
▁acting	-11.8655
▁पचास	-11.8655
▁killings	-11.8655
▁महारा	-11.8656
▁चतरा	-11.8658
▁जह	-11.8661
▁पुरी	-11.8662
▁94	-11.8662
▁stocks	-11.8666
▁अनस	-11.8667
▁interesting	-11.8669
▁मांगने	-11.867
▁fn	-11.8673
▁sleep	-11.8675
ीन	-11.8677
▁उत	-11.8678
▁connections	-11.868
▁मांगे	-11.8683
▁None	-11.8685
▁~	-11.8687
▁रायगढ़	-11.8689
▁Sam	-11.8695
▁14,	-11.87
▁wards	-11.8715
▁अभभ	-11.8716
▁राजे	-11.8717
▁Expunged	-11.8717
▁किशन	-11.8719
▁संग्रह	-11.872
▁Nd	-11.873
▁हए	-11.8735
ions	-11.8744
▁Par	-11.8749
▁फोर	-11.8752
▁rent	-11.8752
▁करो	-11.8754
▁agreements	-11.876
▁ma	-11.8774
▁happenings	-11.8781
▁Amar	-11.8782
▁386	-11.8783
▁मुकदमे	-11.8785
no	-11.8787
▁30,000	-11.8795
▁ra	-11.8801
ks	-11.8803
ÉÉMÉ	-11.8807
▁CSA	-11.8808
ेज	-11.8811
▁results	-11.8811
▁decides	-11.8812
▁lists	-11.8815
▁constructions	-11.8817
▁questioning	-11.8818
▁13,	-11.8822
nagar	-11.8828
▁शोर	-11.8831
q	-11.8843
▁caution	-11.8846
▁पट	-11.8847
▁मझ	-11.8853
मल	-11.8855
▁बसा	-11.8866
▁feels	-11.8871
▁2002,	-11.8876
▁theory	-11.8882
_____________	-11.889
▁कोष	-11.8891
▁2004,	-11.8901
▁हैंड	-11.8901
▁beings	-11.8914
▁जर	-11.8916
▁ad	-11.8916
14	-11.8921
▁Lo	-11.8921
20	-11.8939
▁sons	-11.8944
▁àÉ	-11.8949
▁३६	-11.8955
▁economics	-11.8973
▁probe	-11.8974
▁फार्म	-11.8987
▁दंगा	-11.8991
▁धाम	-11.9003
्‍	-11.9006
▁उन्नत	-11.9025
▁रिक्त	-11.9029
ंद	-11.9034
▁sh	-11.9047
way	-11.905
ाओं	-11.9053
▁अंतर	-11.9075
▁_____________	-11.908
▁पो	-11.9081
▁वैल	-11.9085
बल	-11.9086
▁बचत	-11.9086
▁रूट	-11.9087
▁weak	-11.9096
▁card	-11.9104
▁dues	-11.9116
▁breach	-11.9122
▁furnish	-11.9133
▁140	-11.9134
na	-11.9135
▁//	-11.9148
ाबाद	-11.9164
aram	-11.9173
IN	-11.9199
▁मना	-11.9207
▁considerations	-11.9211
▁97	-11.9211
▁नव	-11.9211
bru	-11.9223
▁१५०	-11.9227
▁Pr	-11.9251
▁8,	-11.9275
▁क्त	-11.928
▁Ra	-11.9285
▁इसक	-11.9292
07	-11.9294
Members	-11.9308
▁194	-11.9317
▁́ÉxÉ	-11.9336
▁casual	-11.9341
▁28,	-11.9352
िट	-11.9353
▁Mrs	-11.9354
Title	-11.9354
्य	-11.9358
(2)	-11.9359
यर	-11.9367
▁डिस	-11.9391
टा	-11.9403
नस	-11.942
ÉàÉ	-11.9432
cit	-11.9433
▁पव	-11.9451
सिंह	-11.9459
▁1600	-11.9467
▁तोड़	-11.9472
स्	-11.9491
ting	-11.9494
००	-11.9501
ja	-11.9512
▁उन्नति	-11.9519
▁242	-11.952
▁यथा	-11.953
▁audit	-11.954
▁123	-11.9546
▁Man	-11.9547
Member	-11.9549
▁रु	-11.9556
्र	-11.957
WL	-11.9573
kZ	-11.9575
ey	-11.9604
ter	-11.9616
▁अदा	-11.9621
▁Traffic	-11.9625
कत	-11.9631
▁1972	-11.9633
▁दव	-11.9635
▁352	-11.9646
not	-11.9647
▁नद	-11.9649
▁1954	-11.9649
ाम	-11.9653
Let	-11.9657
▁Gond	-11.9657
▁1971	-11.9657
मुझे	-11.9658
▁९००	-11.9669
जल	-11.967
▁टू	-11.9675
जद	-11.9682
▁intend	-11.9683
so	-11.9709
shed	-11.9718
Why	-11.9721
Page	-11.9748
िटी	-11.9766
▁करण	-11.9772
▁निकले	-11.9777
central	-11.9781
Speech	-11.9783
▁रंग	-11.9783
▁दाल	-11.9787
zero	-11.9788
,000	-11.9797
il	-11.9811
▁2011,	-11.9815
▁Jai	-11.9816
"#	-11.9826
ÉÆ	-11.9827
STs	-11.983
▁डाक	-11.9837
OF	-11.9844
▁ताल्लुक	-11.9846
▁mega	-11.986
▁lift	-11.9863
▁slum	-11.9882
ate	-11.9883
▁29,	-11.9886
▁en	-11.9897
कों	-11.9898
▁उपलब्धि	-11.9905
▁2009)	-11.9913
▁symbol	-11.9926
लूंगा	-11.993
03	-11.9933
ड़ी	-11.9935
be	-11.9935
▁बदला	-11.994
▁165	-11.9948
▁झेल	-11.9949
▁Short	-11.9959
मय	-11.996
▁historic	-11.9962
द्र	-11.9966
़ा	-11.9967
▁सेतु	-11.9969
▁"1	-11.997
▁दुकान	-11.9975
ad	-11.9983
▁involve	-11.9984
▁shelter	-11.9984
▁chemical	-11.9985
▁litigation	-11.9985
▁Vishwa	-11.9985
▁observe	-11.9985
▁defection	-11.9985
▁Deposit	-11.9985
▁Mineral	-11.9985
▁film	-11.9986
▁क्रम	-11.9988
▁score	-11.9988
▁shout	-11.9989
▁Textile	-11.9989
▁licence	-11.9989
▁politician	-11.9989
▁mineral	-11.9989
▁constraint	-11.999
▁component	-11.999
▁aspiration	-11.999
▁fruit	-11.999
▁contact	-11.999
▁teacher	-11.9991
▁मेन	-11.9991
▁Park	-11.9992
▁height	-11.9993
▁Gu	-11.9995
पन	-11.9999
▁पाठ	-12.0003
▁contest	-12.0003
▁गोंड	-12.0003
▁neglect	-12.0003
▁shift	-12.0003
▁pan	-12.0004
▁श्याम	-12.0004
▁परिवाद	-12.0005
▁procure	-12.0005
▁Moti	-12.0005
▁engage	-12.0005
▁कत्ल	-12.0005
▁streamline	-12.0005
▁suppose	-12.0005
▁prompt	-12.0005
▁accuse	-12.0005
▁occupy	-12.0005
▁detect	-12.0006
▁worry	-12.0006
▁praise	-12.0006
▁BÉEà	-12.0006
▁माइन	-12.0006
▁phrase	-12.0007
▁नलकूप	-12.0007
▁विकलांग	-12.0007
▁विधायक	-12.0007
▁तटबंध	-12.0007
▁पंडित	-12.0007
▁आश्रित	-12.0007
▁मुसलमान	-12.0007
▁Record	-12.0007
▁academic	-12.0007
▁range	-12.0007
▁Eight	-12.0008
▁डयूटी	-12.0008
▁consequent	-12.0008
▁जानवर	-12.0008
▁practical	-12.0008
▁extreme	-12.0008
▁MPLAD	-12.0008
ष्ट्र	-12.0008
▁ट्राइबल	-12.0008
▁husband	-12.0009
▁BANSA	-12.0009
▁Jadhav	-12.0009
▁sick	-12.0009
▁cruel	-12.0009
▁श्रद्धालु	-12.0009
▁आतंक	-12.0009
▁26180514	-12.0009
▁ARAMBAGH	-12.0009
▁ASADUDDIN	-12.0009
▁Aggrieved	-12.0009
▁Ajnala	-12.0009
▁BADAGARA	-12.0009
▁BENGAL	-12.0009
▁BHARDWAJ	-12.0009
▁Baxla	-12.0009
▁Bharuch	-12.0009
▁Bhubaneswar	-12.0009
▁Bishnoi	-12.0009
▁Bureau	-12.0009
▁BÉDaÉÉåÉÊBÉE	-12.0009
▁BÉEcÉÓ	-12.0009
▁CHATURVEDI	-12.0009
▁CHEMICALS	-12.0009
▁COMMUNICATIONS	-12.0009
▁CONSUMER	-12.0009
▁Complex	-12.0009
▁Computerized	-12.0009
▁Cooch	-12.0009
▁DEPARTMENT	-12.0009
▁DHENKANAL	-12.0009
▁DISCUSSION	-12.0009
▁DISTRIBUTION	-12.0009
▁Dehradun	-12.0009
▁Delegation	-12.0009
▁Delimitation	-12.0009
▁Diesel	-12.0009
▁Dilip	-12.0009
▁Dissatisfied	-12.0009
▁Diversion	-12.0009
▁Ernakulam	-12.0009
▁Erode	-12.0009
▁Explanatory	-12.0009
▁FAMILY	-12.0009
▁FERTILIZERS	-12.0009
▁Freedom	-12.0009
▁Gadchiroli	-12.0009
▁HEALTH	-12.0009
▁John	-12.0009
▁KOTTAYAM	-12.0009
▁Kalaignar	-12.0009
▁Kandla	-12.0009
▁Kannada	-12.0009
▁Karunanidhi	-12.0009
▁LAID	-12.0009
▁LAKSHMAN	-12.0009
▁MAHABUBNAGAR	-12.0009
▁MATHUR	-12.0009
▁MNCs	-12.0009
▁Malaysia	-12.0009
▁Merchant	-12.0009
▁Monsoon	-12.0009
▁Murthy	-12.0009
▁NABARD	-12.0009
▁NSTFDC	-12.0009
▁Nikhil	-12.0009
▁ORISSA	-12.0009
▁OWAISI	-12.0009
▁Ocean	-12.0009
▁Overseas	-12.0009
▁PANDIYAN	-12.0009
▁PANJA	-12.0009
▁PATNAIK	-12.0009
▁PRADHAN	-12.0009
▁PREMAJAM	-12.0009
▁Pondicherry	-12.0009
▁Ponnuswamy	-12.0009
▁RESOLUTION	-12.0009
▁ROY	-12.0009
▁Rahman	-12.0009
▁Rawale	-12.0009
▁Registration	-12.0009
▁Retired	-12.0009
▁Revival	-12.0009
▁Russia	-12.0009
▁SATPATHY	-12.0009
▁SHYAMA	-12.0009
▁SIMRANJIT	-12.0009
▁SIVAKASI	-12.0009
▁SUNIL	-12.0009
▁SWARAJ	-12.0009
▁Salaries	-12.0009
▁Saurashtra	-12.0009
▁Secretaries	-12.0009
▁Shafiqur	-12.0009
▁Signed	-12.0009
▁Singhbhum	-12.0009
▁Sumitra	-12.0009
▁Sunderbans	-12.0009
▁TATHAGATA	-12.0009
▁TENALI	-12.0009
▁Terrorism	-12.0009
▁Thursday	-12.0009
▁Tobacco	-12.0009
▁Treatment	-12.0009
▁Twelfth	-12.0009
▁Udaipur	-12.0009
▁Voting	-12.0009
▁WELFARE	-12.0009
▁Warming	-12.0009
▁accusing	-12.0009
▁aggrieved	-12.0009
▁beneficial	-12.0009
▁beneficiary	-12.0009
▁bottom	-12.0009
▁carnage	-12.0009
▁census	-12.0009
▁clarified	-12.0009
▁condolences	-12.0009
▁conferencing	-12.0009
▁controversy	-12.0009
▁departure	-12.0009
▁easily	-12.0009
▁enabling	-12.0009
▁enhancing	-12.0009
▁entries	-12.0009
▁explanatory	-12.0009
▁fledged	-12.0009
▁foHkkx	-12.0009
▁ftlesa	-12.0009
▁humbly	-12.0009
▁identification	-12.0009
▁inconvenience	-12.0009
▁invitation	-12.0009
▁kilometers	-12.0009
▁levied	-12.0009
▁lquokbZ	-12.0009
▁maritime	-12.0009
▁meagre	-12.0009
▁oÉàÉoaÉÉ	-12.0009
▁paramilitary	-12.0009
▁pertinent	-12.0009
▁replacing	-12.0009
▁ritual	-12.0009
▁satisfaction	-12.0009
▁satisfactory	-12.0009
▁securities	-12.0009
▁stopping	-12.0009
▁succumb	-12.0009
▁sympathy	-12.0009
▁tariff	-12.0009
▁twelve	-12.0009
▁unmanned	-12.0009
▁unusual	-12.0009
▁victory	-12.0009
▁wrote	-12.0009
▁xcå	-12.0009
▁́ÉolÉÉ	-12.0009
▁आंतरिक	-12.0009
▁आईएसआई	-12.0009
▁आकाशवाणी	-12.0009
▁इण्डस्ट्रीज	-12.0009
▁इस्पात	-12.0009
▁उन्नयन	-12.0009
▁ऊंचे	-12.0009
▁एजेंसियां	-12.0009
▁ओलावृष्टि	-12.0009
▁करुणा	-12.0009
▁कांगड़ा	-12.0009
▁किल्लत	-12.0009
▁केमिकल	-12.0009
▁खरीफ	-12.0009
▁गाजियाबाद	-12.0009
▁चतुर्वेदी	-12.0009
▁झुग्गी	-12.0009
▁टर्म	-12.0009
▁टेक्नोलॉजी	-12.0009
▁ततपश	-12.0009
▁दुश्मन	-12.0009
▁दृष्िट	-12.0009
▁दोपहर	-12.0009
▁धंधा	-12.0009
▁निकोबार	-12.0009
▁निर्वहन	-12.0009
▁पत्नी	-12.0009
▁पीठासीन	-12.0009
▁पृथक	-12.0009
▁प्रदूषित	-12.0009
▁प्रेरित	-12.0009
▁बांकुरा	-12.0009
▁बुंदेलखंड	-12.0009
▁बैकवर्ड	-12.0009
▁बौद्ध	-12.0009
▁भयानक	-12.0009
▁भाजपा	-12.0009
▁मनसुखभाई	-12.0009
▁महालेखापरीक्षक	-12.0009
▁मुद्रा	-12.0009
▁याचिका	-12.0009
▁युग	-12.0009
▁रिक्वेस्ट	-12.0009
▁रिजैक्ट	-12.0009
▁रिवोल्युशन	-12.0009
▁लिमिट	-12.0009
▁वर्कशाप	-12.0009
▁वसावा	-12.0009
▁विमर्श	-12.0009
▁सप्लीमेंट्री	-12.0009
▁सब्जियों	-12.0009
▁सवीकार	-12.0009
▁सुचारू	-12.0009
▁हन्नान	-12.0009
▁हरिभाऊ	-12.0009
▁हेमलाल	-12.0009
▁हैंडपम्प	-12.0009
▁होडल्या	-12.0009
▁१९९१	-12.0009
▁Empowerment	-12.0009
▁Katwa	-12.0009
▁Pandian	-12.0009
▁Penal	-12.0009
▁Senior	-12.0009
▁Subsequently	-12.0009
▁Thirty	-12.0009
▁Tiwari	-12.0009
▁VaÉÉnÉ	-12.0009
▁Vyas	-12.0009
▁acquitted	-12.0009
▁dispensaries	-12.0009
▁executive	-12.0009
▁forgotten	-12.0009
▁peculiar	-12.0009
▁photograph	-12.0009
▁ratified	-12.0009
▁valuation	-12.0009
▁अनुपालन	-12.0009
▁कावेरी	-12.0009
▁कुल्लू	-12.0009
▁ठक्कर	-12.0009
▁दर्शाया	-12.0009
▁प्रणालियों	-12.0009
▁प्रतक्रिया	-12.0009
▁बाबागंगनाथमाग	-12.0009
▁मुजफ्फरनगर	-12.0009
▁रेड्डी	-12.0009
▁सम्पदा	-12.0009
▁सांगवान	-12.0009
▁सिवनी	-12.0009
▁Cotton	-12.0009
▁Daily	-12.0009
▁Delta	-12.0009
▁Legal	-12.0009
▁MARAN	-12.0009
▁Palghat	-12.0009
▁Primary	-12.0009
▁TABLE	-12.0009
▁Vinay	-12.0009
▁aircraft	-12.0009
▁conference	-12.0009
▁verified	-12.0009
▁अनुसरण	-12.0009
▁ऑयल	-12.0009
▁गावित	-12.0009
▁निराकरण	-12.0009
▁बरौनी	-12.0009
▁वकतव्य	-12.0009
▁विवाह	-12.0009
▁शाहाबाद	-12.0009
▁तत्पश्चात्	-12.0009
▁नाईक	-12.0009
▁Cooperation	-12.0009
▁appreciation	-12.0009
▁vicious	-12.0009
▁प्रमोशन	-12.0009
▁मंशा	-12.0009
▁शकधर	-12.0009
▁Durgapur	-12.0009
▁White	-12.0009
▁altogether	-12.0009
▁elementary	-12.0009
▁harassment	-12.0009
▁oÉBÉEiÉÉ	-12.0009
▁rFkk	-12.0009
▁प्रोरोग	-12.0009
▁हसनपुर	-12.0009
▁Announcement	-12.0009
▁duration	-12.0009
▁मंहगाई	-12.0009
▁Desam	-12.0009
▁Raigarh	-12.0009
▁oÉnoaÉ	-12.0009
▁uncertainty	-12.0009
▁गंडक	-12.0009
▁Child	-12.0009
▁Clearance	-12.0009
▁liberalisation	-12.0009
▁आकलन	-12.0009
▁एग्रो	-12.0009
▁साधारण	-12.0009
▁आरम्भ	-12.0009
▁जन्मभूमि	-12.0009
▁शीघ्रातिशीघ्र	-12.0009
▁hazardous	-12.0009
▁उरई	-12.0009
▁वर्णित	-12.0009
oÉÉÊãÉA	-12.0009
▁Maldives	-12.0009
▁टर्मिनल	-12.0009
▁मोल्लाह	-12.0009
▁संघर्ष	-12.0009
▁सिंधिया	-12.0009
▁सिरसा	-12.0009
▁Petrol	-12.0009
▁reassembled	-12.0009
▁समूचे	-12.0009
▁ितवादीगण	-12.0009
▁Each	-12.0009
▁Ganesh	-12.0009
▁Nodal	-12.0009
▁coast	-12.0009
▁millennium	-12.0009
▁घोसी	-12.0009
▁विक्रय	-12.0009
▁सीएजी	-12.0009
/2014	-12.0009
▁Alwar	-12.0009
▁Winter	-12.0009
▁classified	-12.0009
▁बिन्दुओं	-12.0009
▁caught	-12.0009
▁अतिशीघ्र	-12.0009
▁बुलाएंगे	-12.0009
▁मनीष	-12.0009
▁रुपयों	-12.0009
▁copra	-12.0009
▁एकाउंट	-12.0009
▁दूसरों	-12.0009
▁BERHAMP	-12.0009
▁undisputed	-12.0009
▁Movement	-12.0009
▁अर्थात्	-12.0009
▁तीसरा	-12.0009
▁दादा	-12.0009
▁लास्ट	-12.0009
▁Mundaji	-12.0009
▁priorities	-12.0009
▁परिचालन	-12.0009
▁मिलावट	-12.0009
▁astrology	-12.0009
▁successive	-12.0009
▁मेहनत	-12.0009
▁सिग्नल	-12.0009
▁शैड	-12.0009
▁civilisation	-12.0009
▁cÉäMÉÉ	-12.0009
▁नियंत्रक	-12.0009
▁फैसले	-12.0009
▁सीमान्त	-12.0009
▁भत्ता	-12.0009
▁अजीत	-12.0009
▁शून्यकाल	-12.0009
▁लैड	-12.0009
▁downtrodden	-12.0009
▁चौबे	-12.0009
▁जलस्तर	-12.0009
▁NICD	-12.0009
▁उपयोगिता	-12.0009
▁डिवीजन	-12.0009
▁Mayawati	-12.0009
▁behest	-12.0009
▁oÉnxÉ	-12.0009
▁कॉमन	-12.0009
▁Palani	-12.0009
▁उललख	-12.0009
▁सम्माननीय	-12.0009
▁LTTE	-12.0009
▁टेलीविजन	-12.0009
▁परिसर	-12.0009
▁स्टोन	-12.0009
▁Chittoor	-12.0009
▁taught	-12.0009
▁Katpadi	-12.0009
▁तलब	-12.0009
▁बिंदुओं	-12.0009
▁Showing	-12.0009
▁beaten	-12.0009
▁deleting	-12.0009
▁preventive	-12.0009
▁चौथा	-12.0009
▁प्लानिंग	-12.0009
▁लाठी	-12.0009
▁गुस्सा	-12.0009
▁ÉÊBÉEoÉÉÒ	-12.0009
▁गरौठा	-12.0009
▁मुनाफा	-12.0009
▁यूरिया	-12.0009
▁provocation	-12.0009
▁अड्डा	-12.0009
▁पततव	-12.0009
▁Acharya	-12.0009
▁debating	-12.0009
▁Street	-12.0009
▁cholera	-12.0009
▁depth	-12.0009
▁प्रतिपक्ष	-12.0009
▁inflationary	-12.0009
▁चुनकर	-12.0009
▁lodged	-12.0009
▁बढ़ेगी	-12.0009
▁आशय	-12.0009
▁convicted	-12.0009
▁transacted	-12.0009
▁Slaughter	-12.001
▁Kalu	-12.001
▁creed	-12.001
▁बर्क	-12.001
▁ANWAR	-12.001
▁Increasing	-12.001
▁relied	-12.001
▁bona	-12.001
▁ALVI	-12.001
▁fascist	-12.001
▁माहौल	-12.001
▁manpower	-12.001
▁रेलगाड़ी	-12.001
▁govt	-12.001
▁समाजवादी	-12.001
▁लोधी	-12.001
▁coastal	-12.001
▁शकुनी	-12.001
▁जवानों	-12.001
▁बनेगी	-12.001
▁rendered	-12.001
▁सोचते	-12.001
▁Pope	-12.001
▁overrun	-12.001
▁महंगी	-12.001
▁càÉå	-12.001
▁एवम्	-12.001
▁singh	-12.001
▁horticulture	-12.001
▁प्रक्रियाओं	-12.001
▁Including	-12.001
▁Workmen	-12.001
▁recovered	-12.001
▁लड़की	-12.001
▁1953	-12.001
▁धाराओं	-12.001
▁placing	-12.001
▁निकासी	-12.001
▁धरने	-12.001
▁dying	-12.001
▁firing	-12.001
▁आनशक	-12.001
▁प्रतिभा	-12.001
▁1962	-12.001
▁reverse	-12.001
▁प्रहर	-12.001
▁calculation	-12.001
▁पट्टी	-12.001
▁डेटा	-12.001
▁नखिल	-12.001
▁succeeded	-12.001
▁upheld	-12.001
▁Jos	-12.001
▁निकलता	-12.001
▁मागग	-12.0011
▁मौके	-12.0011
▁DEVE	-12.0011
▁मज़दूरों	-12.0011
▁Certainly	-12.0011
▁ऑन	-12.0011
▁लाये	-12.0011
▁भीलवाड़ा	-12.0011
▁block	-12.0011
▁indicators	-12.0011
▁उपसस	-12.0011
▁तीर्थस्थल	-12.0011
▁respectfully	-12.0011
▁bought	-12.0011
▁बेनी	-12.0011
▁Vajpayeeji	-12.0011
▁मसले	-12.0011
▁दर्जनों	-12.0011
▁mathematics	-12.0011
टिप्पणियां	-12.0011
▁Respected	-12.0011
▁divert	-12.0011
39]	-12.0011
▁1970	-12.0011
▁मित्रों	-12.0011
▁humanity	-12.0011
▁बताते	-12.0011
▁oversee	-12.0011
▁prime	-12.0011
▁करूंगी	-12.0011
▁डालकर	-12.0011
▁Somnathji	-12.0011
▁domain	-12.0011
38]	-12.0011
▁Rise	-12.0011
▁इंडस्ट्रीज	-12.0012
▁सतनामी	-12.0012
▁abused	-12.0012
▁lending	-12.0012
▁कार्पोरेशन	-12.0012
▁organization	-12.0012
▁reiterated	-12.0012
▁stable	-12.0012
▁1924	-12.0012
▁profitable	-12.0012
▁1923	-12.0012
▁लेवी	-12.0012
▁रचना	-12.0012
▁Later	-12.0012
▁समुदायों	-12.0012
▁Seventh	-12.0012
▁रोकना	-12.0012
▁Everyone	-12.0012
▁सदियों	-12.0012
▁निकलने	-12.0012
29]	-12.0012
ÉäoÉ	-12.0012
▁exposed	-12.0012
▁Sixth	-12.0012
▁AMAR	-12.0013
▁expanding	-12.0013
▁रखिए	-12.0013
34]	-12.0013
▁consulted	-12.0013
▁Yet	-12.0013
▁कौल	-12.0013
▁performing	-12.0013
▁printed	-12.0013
▁बनाते	-12.0013
▁sq	-12.0013
▁बैठेंगे	-12.0013
▁देखता	-12.0013
▁Sittings	-12.0014
56]	-12.0014
▁averments	-12.0014
▁translates	-12.0014
▁strange	-12.0014
▁sake	-12.0014
▁sportspersons	-12.0014
▁वादा	-12.0014
▁चैनलों	-12.0014
▁पायलट	-12.0014
▁workmen	-12.0014
▁admi	-12.0014
▁मानवता	-12.0014
20]	-12.0014
▁Persons	-12.0014
▁टोल	-12.0014
▁Gita	-12.0014
▁जमाने	-12.0015
▁जुड़ी	-12.0015
▁washed	-12.0015
▁लगना	-12.0015
▁बताता	-12.0015
▁Loan	-12.0015
▁भेजकर	-12.0015
Asstt	-12.0015
▁818	-12.0015
17]	-12.0016
26]	-12.0016
▁75%	-12.0016
▁कमाने	-12.0016
▁lacs	-12.0016
▁replaced	-12.0016
▁BSF	-12.0016
▁hotels	-12.0017
▁modifications	-12.0017
▁sharp	-12.0017
▁treating	-12.0017
▁लेती	-12.0017
▁machines	-12.0017
▁alive	-12.0017
▁generally	-12.0017
▁इनकम	-12.0017
▁बैठकों	-12.0017
iÉxÉÉ	-12.0017
▁players	-12.0017
▁यापन	-12.0017
▁interrupted	-12.0018
▁staying	-12.0018
▁glad	-12.0018
▁भले	-12.0018
▁उमा	-12.0018
▁साधनों	-12.0019
▁naming	-12.0019
▁reflection	-12.0019
▁बिन्दु	-12.0019
▁कथन	-12.0019
▁objected	-12.0019
▁booths	-12.0019
▁segments	-12.002
▁Exchanges	-12.002
▁parameters	-12.002
▁मंजूरी	-12.002
▁उठाकर	-12.002
▁Forty	-12.002
▁strengthening	-12.0021
▁मंत्रिमंडल	-12.0021
▁establishing	-12.0021
▁percent	-12.0021
▁Da	-12.0022
▁प्रयोजन	-12.0022
▁jump	-12.0022
▁मार्गो	-12.0022
▁Lankan	-12.0023
▁जगत	-12.0023
र्ट	-12.0024
▁maintaining	-12.0024
▁बराबरी	-12.0024
▁Ha	-12.0024
▁smaller	-12.0025
▁मौजूदा	-12.0025
▁बनें	-12.0025
▁घी	-12.0026
▁Taxes	-12.0026
▁suggesting	-12.0026
▁spell	-12.0027
▁expedited	-12.0028
▁joining	-12.0028
▁रहित	-12.0028
▁Branch	-12.0028
▁ररप	-12.0028
▁certified	-12.0029
▁organizations	-12.0029
▁intends	-12.0029
▁rare	-12.003
▁ÉÊoÉ	-12.003
▁shops	-12.003
▁रहकर	-12.0031
▁मबनध	-12.0031
▁वस्तु	-12.0031
▁पैदल	-12.0032
▁IDPL	-12.0032
▁minor	-12.0032
▁वाणिज्य	-12.0032
▁सम्पन्न	-12.0032
▁कार्मिक	-12.0032
▁SUSHMA	-12.0032
▁सच्चाई	-12.0032
▁मुननरका	-12.0032
▁सलूम्बर	-12.0032
▁कालिंग	-12.0032
▁मैनपुरी	-12.0032
▁Satyam	-12.0032
▁Chaudhary	-12.0032
▁Recovery	-12.0032
▁pilgrimage	-12.0032
▁प्रान्त	-12.0032
▁Adra	-12.0033
▁४००	-12.0033
▁membership	-12.0033
▁Same	-12.0033
▁Lakhs	-12.0033
▁अवसरों	-12.0034
▁expressing	-12.0034
▁Powered	-12.0034
▁गर्मी	-12.0034
▁गाड़ियां	-12.0034
▁xÉBÉEä	-12.0034
▁कामगारों	-12.0034
▁लैण्ड	-12.0034
▁डॉक्टरों	-12.0034
▁multinationals	-12.0035
▁Broadcasting	-12.0035
▁charging	-12.0035
▁निदेशक	-12.0035
▁रखत	-12.0036
▁contains	-12.0036
▁हमले	-12.0036
▁खादी	-12.0037
▁भार	-12.0038
▁Hundreds	-12.0038
▁नगरीय	-12.0038
▁Passengers	-12.0038
▁ककककककककक	-12.0038
▁secondly	-12.0039
▁पुलों	-12.0039
iruvananthapuram	-12.0039
▁Anand	-12.0039
9#	-12.004
▁प्रैस	-12.004
▁attacking	-12.004
▁parcels	-12.0041
▁protecting	-12.0041
▁मूल्यों	-12.0042
▁चारों	-12.0042
▁प्रश्नों	-12.0042
▁cater	-12.0043
▁rose	-12.0044
▁Abu	-12.0045
▁गला	-12.0045
ंट	-12.0045
▁ITO	-12.0046
▁271	-12.0046
▁बि	-12.0047
▁thereunder	-12.0048
▁MSP	-12.0048
▁firms	-12.0049
▁ships	-12.005
▁Proposals	-12.005
▁safeguards	-12.005
▁हनन	-12.005
▁seem	-12.0051
▁काटे	-12.0051
ol	-12.0051
▁ब्राडगेज	-12.0052
▁seventh	-12.0052
िकरण	-12.0053
▁dreams	-12.0053
•"	-12.0055
▁newly	-12.0055
▁phones	-12.0056
▁देरी	-12.0059
▁Site	-12.0059
▁cylinders	-12.0059
▁Consumers	-12.0059
▁सबने	-12.006
▁rising	-12.006
▁presently	-12.006
▁allies	-12.006
मंडल	-12.0061
▁Grounds	-12.0062
▁Amend	-12.0063
▁Shed	-12.0063
84	-12.0064
▁starting	-12.0064
▁firstly	-12.0064
▁सख	-12.0064
▁बांका	-12.0065
▁lie	-12.0065
▁Fast	-12.0066
▁णजसक	-12.0066
▁wasting	-12.0069
▁स्तरीय	-12.007
▁वार्ता	-12.0072
▁ensured	-12.0074
▁ककस	-12.0075
▁Legislatures	-12.0075
▁कोइ	-12.0077
▁दण	-12.0077
▁९९	-12.0078
▁7,000	-12.0078
▁8.	-12.0079
▁Awas	-12.008
▁cents	-12.0081
▁fide	-12.0083
▁16%	-12.0085
▁love	-12.0086
▁जानें	-12.0087
▁arrangements	-12.0087
▁arguments	-12.0087
▁strict	-12.0088
▁थाना	-12.0088
▁receipts	-12.009
▁representations	-12.009
▁89	-12.0091
▁covers	-12.0093
▁Bengali	-12.0094
PT	-12.0095
▁leads	-12.0096
▁wage	-12.0097
▁youths	-12.0099
▁emphasize	-12.0099
▁SMP	-12.0099
▁returns	-12.0101
▁ones	-12.0102
▁सरत	-12.0104
▁aged	-12.0109
▁8%	-12.0112
▁books	-12.0115
▁हू	-12.0119
▁backing	-12.0119
+0	-12.012
▁risen	-12.0121
घाट	-12.0123
▁input	-12.0124
▁चारा	-12.0127
▁282	-12.0129
▁languages	-12.0131
▁खसर	-12.0133
▁Fifty	-12.0133
▁बसे	-12.0134
▁(8)	-12.0135
▁Governors	-12.0136
▁दज	-12.0141
▁faces	-12.0143
hat	-12.0146
▁रेज	-12.0154
▁गढ़वाल	-12.0162
da	-12.0162
▁जाय	-12.0165
▁बैठा	-12.0166
▁टिप्पणियों	-12.0168
▁अनु	-12.0171
9]	-12.0172
▁lathi	-12.0173
kd	-12.0174
▁petitions	-12.0181
▁संभाग	-12.0183
war	-12.0189
▁AM	-12.019
à	-12.0196
Va	-12.0196
▁blow	-12.0197
Ind	-12.0199
▁Laws	-12.0201
▁ability	-12.0215
25	-12.022
द्रठ्ठद्	-12.0224
धठ्ठ	-12.0224
फ	-12.0225
our	-12.0226
▁निकला	-12.0226
कया	-12.0233
▁करव	-12.0235
▁bother	-12.0236
▁खाना	-12.0237
पा	-12.0242
▁ended	-12.0245
ाद	-12.0248
▁hi	-12.0255
हा	-12.0263
ारी	-12.0266
सन	-12.0272
▁forms	-12.0281
▁Sl	-12.0282
..."	-12.0295
0/	-12.0307
ÉÎ	-12.0321
▁जजस	-12.0322
▁confer	-12.0327
09	-12.0333
).	-12.0334
ाया	-12.0334
­­	-12.0334
▁́ÉÉÆ	-12.0337
▁:::	-12.0343
▁99,	-12.0349
▁!,	-12.0368
▁काला	-12.0369
▁Municipal	-12.037
''	-12.0377
ऩ	-12.0379
खय	-12.0387
▁यत	-12.0394
ंड	-12.0397
▁positions	-12.0397
▁इक	-12.0402
ाएं	-12.0403
▁Sai	-12.0409
िं	-12.0422
▁खुले	-12.0452
13	-12.0456
▁appellants	-12.0457
ont	-12.0481
▁813	-12.0487
▁बहने	-12.0513
▁victim	-12.0521
पति	-12.0526
▁don	-12.0536
यां	-12.0543
BÉEä	-12.0551
ान	-12.0555
्ट	-12.0555
क्स	-12.0556
▁240	-12.0559
tra	-12.056
ात	-12.0593
▁Pa	-12.0598
ः	-12.06
▁ought	-12.0614
ine	-12.0641
▁Ko	-12.0643
ादन	-12.0659
लए	-12.0663
▁17,	-12.0672
▁sets	-12.0681
ाल	-12.0685
▁AIR	-12.0688
35	-12.0691
z	-12.0696
मंत्री	-12.0704
▁SH	-12.0707
▁103	-12.0713
▁आव	-12.0725
तत	-12.0728
red	-12.074
जो	-12.0741
ÉhÉ	-12.0758
el	-12.0762
▁अन्तर	-12.0782
▁lo	-12.0786
ानी	-12.0786
▁Revolution	-12.0791
11	-12.0794
▁kh	-12.0797
▁Vi	-12.08
▁1999,	-12.0819
गन	-12.0826
▁cr	-12.0831
▁eco	-12.0835
वे	-12.0838
▁करार	-12.0845
ÉiÉÉ	-12.0862
▁रज	-12.0876
rk	-12.0879
▁Ph	-12.088
▁pa	-12.0885
▁98,	-12.0888
ism	-12.0897
▁Mor	-12.0904
isation	-12.0914
▁tri	-12.0914
">	-12.0918
▁Mh	-12.0924
▁"...	-12.0926
▁बोर	-12.0942
àÉ	-12.0944
▁àÉÖ	-12.0964
▁situations	-12.0981
sa	-12.0992
▁आल	-12.1001
ात्मक	-12.1002
ory	-12.1007
रे	-12.1008
pa	-12.102
▁चौ	-12.1023
000	-12.1024
▁motions	-12.1043
30	-12.1049
▁RAJA	-12.1066
up	-12.1066
ram	-12.1066
▁कहिए	-12.1074
▁गौ	-12.1076
▁अर	-12.1081
nyway	-12.1107
▁देखे	-12.1135
▁५१	-12.1139
▁1986,	-12.1144
▁mal	-12.1148
ाइए	-12.1164
ku	-12.1173
ÉaÉä	-12.1174
वहां	-12.1175
ganj	-12.119
▁अपराधी	-12.1206
▁बिन्द	-12.121
Now	-12.1212
▁हट	-12.1214
▁22,	-12.1218
▁डायरेक्ट	-12.1221
▁बैंच	-12.1231
THE	-12.125
▁पार्ट	-12.125
▁63	-12.125
▁मचा	-12.1255
इ	-12.126
▁emphasise	-12.1262
▁कोआपरेट	-12.1263
▁650	-12.1278
▁sound	-12.1305
आपने	-12.1307
▁liberal	-12.1311
▁st	-12.1317
ेश्वर	-12.1323
▁Get	-12.1325
दय	-12.1326
▁1987	-12.1326
▁अरब	-12.133
▁pick	-12.1331
–	-12.1331
▁1973	-12.1338
मैंने	-12.1345
arq	-12.1348
àÉÉ	-12.1359
त्र	-12.1361
मैन	-12.1367
1)	-12.1368
नों	-12.1369
यदि	-12.1372
▁मख	-12.1384
▁डर	-12.1384
ग्रस्त	-12.1387
including	-12.1388
▁503	-12.139
▁Pra	-12.139
हमने	-12.139
कम	-12.1397
Madhya	-12.1404
▁अल	-12.1408
Agrahayana	-12.1408
50	-12.141
▁oÉBÉEÉ	-12.1411
राज	-12.1412
▁Sen	-12.1416
▁incomplete	-12.1419
ti	-12.1421
▁318	-12.1421
रटन	-12.1424
महाराजगंज	-12.1428
▁फोरम	-12.1428
My	-12.144
Before	-12.1441
So	-12.1444
PAN	-12.1445
True	-12.1446
Ex	-12.1447
सागर	-12.1453
▁९०	-12.1454
ग्राम	-12.1456
ÉÉÎ	-12.1457
route	-12.1459
▁गु	-12.146
▁तन	-12.1465
▁ours	-12.1467
▁प्रत	-12.1469
दनांक	-12.1469
चन	-12.1481
▁____________	-12.1497
Dy	-12.1501
▁अपमान	-12.1501
▁उठायें	-12.1511
▁substantiate	-12.1515
खर	-12.1516
/2018	-12.1516
▁मब	-12.1527
FB	-12.1531
▁गहर	-12.1533
oÉÉÒ	-12.1536
८	-12.1539
▁Term	-12.1541
▁वद	-12.1542
77	-12.1546
▁Put	-12.155
▁20,	-12.1558
ाएंगे	-12.1558
▁खस	-12.1561
▁Petition	-12.1579
ण्	-12.1586
▁115	-12.1588
मैंट	-12.1601
▁Consequent	-12.1607
by	-12.1616
fo	-12.162
58	-12.1622
▁Kanti	-12.1627
one	-12.1628
than	-12.1637
▁collapse	-12.1648
▁empower	-12.1648
▁neighbour	-12.1651
▁Comrade	-12.1651
▁concentrate	-12.1651
▁Catholic	-12.1651
▁scholarship	-12.1651
▁relationship	-12.1652
▁Select	-12.1652
▁lapse	-12.1652
▁scene	-12.1653
▁estimate	-12.1653
▁perception	-12.1654
▁conviction	-12.1654
▁hardship	-12.1654
▁Sainik	-12.1655
▁leg	-12.1655
▁Observation	-12.1655
▁blast	-12.1655
▁Headquarter	-12.1656
▁VIP	-12.1656
▁College	-12.1656
▁Provision	-12.1656
▁Mitra	-12.1656
▁corridor	-12.1656
▁incentive	-12.1656
▁lawyer	-12.1656
▁regulation	-12.1656
▁NPA	-12.1657
▁electric	-12.1659
▁tribute	-12.1659
▁Time	-12.166
▁soap	-12.166
▁select	-12.1662
ड्ड	-12.1663
▁निदेश	-12.1665
▁moral	-12.1665
▁Move	-12.1665
▁godown	-12.1667
सत	-12.1667
▁repay	-12.1668
▁Mohammad	-12.1669
▁मज़दूर	-12.1669
▁Saroj	-12.1669
▁eleven	-12.167
▁Sushil	-12.167
▁register	-12.167
▁obtain	-12.167
▁Fifteen	-12.167
▁Kumbh	-12.167
▁deviate	-12.1671
▁भंडार	-12.1671
▁आंध्र	-12.1671
▁मुझ	-12.1671
▁जबरदस्त	-12.1671
▁Place	-12.1672
▁fulfill	-12.1672
▁आखिर	-12.1672
▁augment	-12.1672
▁Consider	-12.1672
▁justify	-12.1672
▁Broadcast	-12.1672
▁consolidate	-12.1673
▁expose	-12.1673
▁drink	-12.1673
▁promulgate	-12.1673
▁सैक्टर	-12.1673
▁शर्त	-12.1673
ल्लाह	-12.1673
▁Respect	-12.1673
▁demolish	-12.1673
▁तालाब	-12.1673
▁attach	-12.1673
▁किस्म	-12.1674
▁leak	-12.1674
▁Shakespeare	-12.1674
▁विशेषज्ञ	-12.1674
▁पदार्थो	-12.1674
▁quick	-12.1675
▁Similar	-12.1675
▁SCIENCE	-12.1675
▁consistent	-12.1675
▁कृषक	-12.1675
▁स्वच्छ	-12.1675
▁पपपपपप	-12.1675
▁महंगा	-12.1675
▁eloquent	-12.1675
▁प्रमाण	-12.1675
▁उत्साह	-12.1675
▁Pass	-12.1675
▁चिन्ह	-12.1675
▁Raw	-12.1675
▁कुमाऊं	-12.1675
▁ÉÊBÉEoÉÉxÉ	-12.1675
▁Rashtrapati	-12.1675
▁catch	-12.1675
▁चित्तौड़	-12.1675
▁Clear	-12.1676
▁Transfer	-12.1676
▁federal	-12.1676
▁प्राइम	-12.1676
ȣ	-12.1676
▁hydro	-12.1676
▁Bharti	-12.1676
▁Manoj	-12.1676
▁carriage	-12.1676
Retd	-12.1676
Vaisakha	-12.1676
ÉVÉMÉÆVÉ	-12.1676
▁AARON	-12.1676
▁ACHARYA	-12.1676
▁AMBEDKAR	-12.1676
▁ATHAWALE	-12.1676
▁AURANGABAD	-12.1676
▁Activities	-12.1676
▁Advocate	-12.1676
▁Alliance	-12.1676
▁Anniversary	-12.1676
▁Arrah	-12.1676
▁Assets	-12.1676
▁BADNORE	-12.1676
▁BHUBANESWAR	-12.1676
▁Bikram	-12.1676
▁Buxar	-12.1676
▁CHACKO	-12.1676
▁CHAOBA	-12.1676
▁CHAVAN	-12.1676
▁CHENNAI	-12.1676
▁CONVENTION	-12.1676
▁COOCHBEHAR	-12.1676
▁Centaur	-12.1676
▁Chhatisgarh	-12.1676
▁Chowdhury	-12.1676
▁Circular	-12.1676
▁Commencing	-12.1676
▁Compulsory	-12.1676
▁Constituencies	-12.1676
▁Continue	-12.1676
▁Convert	-12.1676
▁DOME	-12.1676
▁Dahyabhai	-12.1676
▁Damodar	-12.1676
▁Declaration	-12.1676
▁Democratic	-12.1676
▁Dibrugarh	-12.1676
▁Domestic	-12.1676
▁Elected	-12.1676
▁Emergency	-12.1676
▁Enquiry	-12.1676
▁Erosion	-12.1676
▁Expenditure	-12.1676
▁Film	-12.1676
▁Gandak	-12.1676
▁Giripar	-12.1676
▁Gratuity	-12.1676
▁Gwalior	-12.1676
▁HUSSAIN	-12.1676
▁Harbour	-12.1676
▁Historical	-12.1676
▁Investigate	-12.1676
▁Investigating	-12.1676
▁KALYAN	-12.1676
▁KANUNGO	-12.1676
▁Karunakaran	-12.1676
▁Kashyap	-12.1676
▁Katiyar	-12.1676
▁Kotdwar	-12.1676
▁Laxman	-12.1676
▁MANEKA	-12.1676
▁MANGALORE	-12.1676
▁MUNIYAPPA	-12.1676
▁Managing	-12.1676
▁Misrikh	-12.1676
▁MÉxxÉä	-12.1676
▁NATIONAL	-12.1676
▁NIKHIL	-12.1676
▁Nagbhid	-12.1676
▁Nigam	-12.1676
▁Obcs	-12.1676
▁Occasion	-12.1676
▁POTO	-12.1676
▁PRABHAKAR	-12.1676
▁PRITHVIRAJ	-12.1676
▁Pandiyan	-12.1676
▁Parbhani	-12.1676
▁Pramod	-12.1676
▁Prevailing	-12.1676
▁Proclamation	-12.1676
▁Procurement	-12.1676
▁Progress	-12.1676
▁Register	-12.1676
▁Rehabilitation	-12.1676
▁SARDAR	-12.1676
▁SIKDAR	-12.1676
▁Santhali	-12.1676
▁Saryu	-12.1676
▁Semiconductor	-12.1676
▁Shajapur	-12.1676
▁Shekhar	-12.1676
▁Smith	-12.1676
▁Society	-12.1676
▁Subhash	-12.1676
▁Supplied	-12.1676
▁Surinder	-12.1676
▁SÉÉcÚÆMÉÉ	-12.1676
▁TADA	-12.1676
▁TCPDF	-12.1676
▁TOURISM	-12.1676
▁TRILOCHAN	-12.1676
▁Tehalka	-12.1676
▁Tendulkar	-12.1676
▁Tirunelveli	-12.1676
▁Track	-12.1676
▁Transmitter	-12.1676
▁ULUBERIA	-12.1676
▁Vidarbha	-12.1676
▁Vidyutikaran	-12.1676
▁Vikas	-12.1676
▁Vinod	-12.1676
▁Violence	-12.1676
▁Vizhinjam	-12.1676
▁Wednesday	-12.1676
▁Wireless	-12.1676
▁accompanied	-12.1676
▁accusation	-12.1676
▁anomalies	-12.1676
▁arriving	-12.1676
▁artificial	-12.1676
▁bifurcation	-12.1676
▁centuries	-12.1676
▁chancellor	-12.1676
▁comparison	-12.1676
▁competitive	-12.1676
▁concurrence	-12.1676
▁constrained	-12.1676
▁contingency	-12.1676
▁corresponding	-12.1676
▁culprits	-12.1676
▁defamatory	-12.1676
▁deficiencies	-12.1676
▁demise	-12.1676
▁depreciation	-12.1676
▁dkjZokbZ	-12.1676
▁electronic	-12.1676
▁exclusion	-12.1676
▁fencing	-12.1676
▁fifteen	-12.1676
▁fourteen	-12.1676
▁gradually	-12.1676
▁ideological	-12.1676
▁inception	-12.1676
▁infectious	-12.1676
▁infructuous	-12.1676
▁integral	-12.1676
▁investigating	-12.1676
▁izfroknh	-12.1676
▁kidney	-12.1676
▁kisans	-12.1676
▁layXu	-12.1676
▁legitimate	-12.1676
▁malaria	-12.1676
▁mifLFkr	-12.1676
▁monetary	-12.1676
▁muslim	-12.1676
▁neigh	-12.1676
▁northern	-12.1676
▁overwhelming	-12.1676
▁oÉÉÊàÉÉÊiÉ	-12.1676
▁plurality	-12.1676
▁privatised	-12.1676
▁privatising	-12.1676
▁promoting	-12.1676
▁regret	-12.1676
▁remuneration	-12.1676
▁sophisticated	-12.1676
▁sorrow	-12.1676
▁substantive	-12.1676
▁superfast	-12.1676
▁systematic	-12.1676
▁technological	-12.1676
▁telecom	-12.1676
▁versus	-12.1676
▁अक्सर	-12.1676
▁अखंडता	-12.1676
▁अधिग्रहीत	-12.1676
▁अधूरे	-12.1676
▁अध्यापक	-12.1676
▁अमैंडमैंट	-12.1676
▁अवरुद्ध	-12.1676
▁अवैधािनक	-12.1676
▁अशांति	-12.1676
▁आकर्िषत	-12.1676
▁आजीविका	-12.1676
▁आरोग्य	-12.1676
▁इंकवायरी	-12.1676
▁इंक्वायरी	-12.1676
▁इंडस्ट्रियल	-12.1676
▁इमारतों	-12.1676
▁इलेक्शन	-12.1676
▁उन्मूलन	-12.1676
▁उ०प्र०	-12.1676
▁ओएनजीसी	-12.1676
▁कंपनियां	-12.1676
▁कमर्शियल	-12.1676
▁करप्शन	-12.1676
▁क़श्िचयन	-12.1676
▁कालोनियां	-12.1676
▁कुँवर	-12.1676
▁केबिनेट	-12.1676
▁कैन्टोनमैंट	-12.1676
▁कोडरमा	-12.1676
▁क्रमिनल	-12.1676
▁क्रियान्वयन	-12.1676
▁क्रॉसिंग	-12.1676
▁घंटा	-12.1676
▁चम्बल	-12.1676
▁चेतावनी	-12.1676
▁जगदम्बिका	-12.1676
▁जनगणना	-12.1676
▁जयाबेन	-12.1676
▁जलाशय	-12.1676
▁जानलेवा	-12.1676
▁ज्योति	-12.1676
▁ज्वाइंट	-12.1676
▁टैरेरिज्म	-12.1676
▁ट्राइब्स	-12.1676
▁ट्रैफिक	-12.1676
▁डिपार्टमैंट	-12.1676
▁डिब्बे	-12.1676
▁तम्बाकू	-12.1676
▁तानाशाही	-12.1676
▁तिरुवनंतपुरम	-12.1676
▁तूफ़ानी	-12.1676
▁त्रिपुरा	-12.1676
▁दािणडक	-12.1676
▁द्यण्ड्ढ	-12.1676
▁द्वितीय	-12.1676
▁द्ृष्टिकोण	-12.1676
▁धरोहर	-12.1676
▁धीरज	-12.1676
▁ध्यानाकर्षण	-12.1676
▁नगण्य	-12.1676
▁नजदीक	-12.1676
▁पंजीकार	-12.1676
▁परिसीमन	-12.1676
▁पिटाई	-12.1676
▁पीढ़ी	-12.1676
▁पैसेंजर	-12.1676
▁पौराणिक	-12.1676
▁प्रदर्शित	-12.1676
▁प्रशंसा	-12.1676
▁बंटवारे	-12.1676
▁बक्सर	-12.1676
▁बरकरार	-12.1676
▁बीजेपी	-12.1676
▁बूझकर	-12.1676
▁ब्रटिश	-12.1676
▁ब्रॉडगेज	-12.1676
▁भगोरा	-12.1676
▁मद्रास	-12.1676
▁मिसरिख	-12.1676
▁मुआवजे	-12.1676
▁मुकाबला	-12.1676
▁मुखर्जी	-12.1676
▁मेडीकल	-12.1676
▁मैडिकल	-12.1676
▁युनिवर्सिटी	-12.1676
▁रत्नागरि	-12.1676
▁रेणुका	-12.1676
▁विभाजन	-12.1676
▁शासकीय	-12.1676
▁शाहजहांपुर	-12.1676
▁शोलापुर	-12.1676
▁सईदुज्जमा	-12.1676
▁सरचार्ज	-12.1676
▁सामूहिक	-12.1676
▁सिलसिले	-12.1676
▁सुद्ृढ़	-12.1676
▁स्टॉपेज	-12.1676
▁हकीकत	-12.1676
▁१९४७	-12.1676
▁१९९३	-12.1676
pkp	-12.1676
▁Biju	-12.1676
▁Braja	-12.1676
▁Chambal	-12.1676
▁Choudhary	-12.1676
▁Citizenship	-12.1676
▁Crisis	-12.1676
▁Enough	-12.1676
▁Jantar	-12.1676
▁Naidu	-12.1676
▁Perhaps	-12.1676
▁Ratangarh	-12.1676
▁Route	-12.1676
▁Singapore	-12.1676
▁SÉÉciÉÉ	-12.1676
▁TAPAN	-12.1676
▁Tripathi	-12.1676
▁Urdu	-12.1676
▁annexure	-12.1676
▁battle	-12.1676
▁dairy	-12.1676
▁gender	-12.1676
▁generic	-12.1676
▁ladies	-12.1676
▁quack	-12.1676
▁surcharge	-12.1676
▁tackling	-12.1676
▁vaÉÉxÉ	-12.1676
▁असहाय	-12.1676
▁आइटम	-12.1676
▁आजमगढ़	-12.1676
▁इंफ्रास्ट्रक्चर	-12.1676
▁इंसाफ	-12.1676
▁कपिल	-12.1676
▁गावों	-12.1676
▁गुजारिश	-12.1676
▁जिंदगी	-12.1676
▁जितेन्द्र	-12.1676
▁जुल्म	-12.1676
▁त्यागपत्र	-12.1676
▁प्रतनधित्व	-12.1676
▁फांसी	-12.1676
▁मिल्क	-12.1676
▁मुंगेली	-12.1676
▁रात्रि	-12.1676
▁विरूद्ध	-12.1676
▁श्लोक	-12.1676
▁संस्थायें	-12.1676
▁सतयता	-12.1676
▁सिमरिया	-12.1676
▁स्टेंडिंग	-12.1676
▁IAEA	-12.1676
▁Maveli	-12.1676
▁Priority	-12.1676
▁Resort	-12.1676
▁Sheopur	-12.1676
▁Shops	-12.1676
▁WRIT	-12.1676
▁gentleman	-12.1676
▁infringement	-12.1676
▁intensive	-12.1676
▁pakistan	-12.1676
▁upliftment	-12.1676
▁एडमिट	-12.1676
▁कालीदास	-12.1676
▁चिखलिया	-12.1676
▁बंटवारा	-12.1676
▁मनोबल	-12.1676
▁मैनेजमेंट	-12.1676
▁रायबरेली	-12.1676
▁शरीर	-12.1676
▁हहसस	-12.1676
▁Datta	-12.1676
▁Delkar	-12.1676
▁Likewise	-12.1676
▁Quota	-12.1676
▁Revive	-12.1676
▁Spread	-12.1676
▁computerised	-12.1676
▁licensed	-12.1676
▁अर्पित	-12.1676
▁कुपोषण	-12.1676
▁गुलाम	-12.1676
▁झंडा	-12.1676
▁निन्दा	-12.1676
▁प्रतीत	-12.1676
▁बाधित	-12.1676
▁Baddi	-12.1676
▁Index	-12.1676
▁MANN	-12.1676
▁Pranab	-12.1676
▁Reduction	-12.1676
▁disbursement	-12.1676
▁intimation	-12.1676
▁promulgation	-12.1676
▁́ÉtÉÖiÉ	-12.1676
▁धारकों	-12.1676
▁संस्तुति	-12.1676
▁Copra	-12.1676
▁IPL	-12.1676
▁Swamy	-12.1676
▁Yuva	-12.1676
▁mix	-12.1676
▁replies	-12.1676
▁अमृतसर	-12.1676
▁एक्सपोर्ट	-12.1676
▁जनप्रतनधियों	-12.1676
▁सतपाल	-12.1676
▁KHANNA	-12.1676
▁Mantar	-12.1676
▁Overbridge	-12.1676
▁continuation	-12.1676
▁desirable	-12.1676
▁grass	-12.1676
▁penalties	-12.1676
▁premises	-12.1676
▁subordinate	-12.1676
▁चिंताजनक	-12.1676
▁संगठित	-12.1676
▁संवरा	-12.1676
▁healthcare	-12.1676
▁इंजीनियरिंग	-12.1676
▁महताब	-12.1676
▁महेन्द्र	-12.1676
▁heaven	-12.1676
▁polity	-12.1676
▁secrecy	-12.1676
▁रूकती	-12.1676
▁लड़कियों	-12.1676
▁१९८१	-12.1676
▁ÉËoÉc	-12.1676
▁Bsnl	-12.1676
▁Embassy	-12.1676
▁Restart	-12.1676
▁customary	-12.1676
▁nodal	-12.1676
▁इंटरस्ट	-12.1676
▁संगीन	-12.1676
▁untold	-12.1676
▁wholeheartedly	-12.1676
▁buck	-12.1676
▁innovative	-12.1676
snb	-12.1676
▁RAMDAS	-12.1676
▁Rajgarh	-12.1676
▁रूरल	-12.1676
▁साझा	-12.1676
▁CWP	-12.1676
▁Chatra	-12.1676
▁modernisation	-12.1676
▁आफिसर्स	-12.1676
▁मार्ग्रेट	-12.1676
▁dominated	-12.1676
▁urging	-12.1676
▁signalling	-12.1676
▁फूलपुर	-12.1676
▁बुकिंग	-12.1676
▁वस्तुओं	-12.1676
▁enforcement	-12.1676
▁possibly	-12.1676
▁IISCO	-12.1676
▁fabricated	-12.1676
▁quo	-12.1676
▁rebel	-12.1676
▁खदानों	-12.1676
▁विशेषाधिकार	-12.1676
▁Reang	-12.1676
▁mockery	-12.1676
▁morality	-12.1676
▁Vanaspati	-12.1676
▁अधिकारिता	-12.1676
▁चलायी	-12.1676
▁निरक्षरता	-12.1676
▁निर्माणाधीन	-12.1676
▁पैट्रोल	-12.1676
▁बदतर	-12.1676
▁सूखाग्रस्त	-12.1676
▁२०१०	-12.1676
▁Malegaon	-12.1676
▁disqualified	-12.1676
▁exhibited	-12.1676
▁settlers	-12.1676
▁अलोकेशन	-12.1676
▁जूट	-12.1676
▁राजपत्र	-12.1676
▁विदड्रा	-12.1676
▁Authorities	-12.1676
▁Birth	-12.1676
▁Sponsored	-12.1676
▁appreciating	-12.1676
▁analysis	-12.1676
▁deciding	-12.1676
▁series	-12.1676
▁सैंटर्स	-12.1676
▁involvement	-12.1676
▁जनजीवन	-12.1676
▁meaningful	-12.1676
▁Chavan	-12.1676
▁महेश	-12.1676
▁लीगल	-12.1676
▁exclusively	-12.1676
▁grid	-12.1676
▁योजनायें	-12.1676
▁cheating	-12.1676
▁कटान	-12.1676
▁attractive	-12.1676
▁नरसिंह	-12.1676
▁भूजल	-12.1676
▁विधानसभा	-12.1676
▁pensionary	-12.1676
▁तीसरी	-12.1676
▁Rabi	-12.1676
▁defying	-12.1676
▁चन्द्रनाथ	-12.1676
▁दीजिये	-12.1676
▁मुफ्त	-12.1676
▁djrs	-12.1676
▁आलोचना	-12.1676
▁eventually	-12.1676
▁factual	-12.1676
▁तनण	-12.1676
▁potable	-12.1676
▁प्रतनधियों	-12.1676
▁संवाद	-12.1676
▁ambit	-12.1676
▁obstruction	-12.1676
▁dismantled	-12.1676
▁eliminated	-12.1676
▁identical	-12.1676
▁लंबाई	-12.1676
▁aÉcÉÆ	-12.1676
▁exploitation	-12.1676
▁पॉवर	-12.1676
▁Anderson	-12.1676
▁regularized	-12.1676
▁knew	-12.1676
▁1988	-12.1676
▁Naval	-12.1676
▁nitro	-12.1676
▁homeless	-12.1676
▁पूर्वोत्तर	-12.1676
reporter	-12.1676
▁Babu	-12.1676
▁Sajjan	-12.1676
▁घोटाला	-12.1676
▁िदनांक	-12.1676
▁Lohardaga	-12.1676
▁dismissal	-12.1676
▁tortured	-12.1676
▁Himalayan	-12.1676
▁insured	-12.1676
▁बताइये	-12.1676
▁बुलाएं	-12.1676
▁Amount	-12.1676
▁400001	-12.1676
▁nomination	-12.1676
▁surrounding	-12.1676
▁restart	-12.1676
▁recess	-12.1676
▁सोनपुर	-12.1676
▁Bpl	-12.1676
▁postponed	-12.1676
▁पररसस	-12.1676
▁acknowledged	-12.1676
▁shocked	-12.1676
▁लायक	-12.1676
▁नियत	-12.1676
▁फायदे	-12.1676
▁अपर्याप्त	-12.1676
▁राजनाथ	-12.1676
▁Hunt	-12.1676
▁abundantly	-12.1676
▁ignoring	-12.1676
▁Bound	-12.1676
▁liable	-12.1676
▁sharing	-12.1676
▁HEA	-12.1676
▁Super	-12.1676
▁सुविधाजनक	-12.1676
▁affordable	-12.1676
▁breeding	-12.1676
▁discriminated	-12.1676
▁pained	-12.1676
▁Mela	-12.1676
▁नवयुवकों	-12.1676
▁Directorate	-12.1676
▁handling	-12.1676
▁qualifying	-12.1676
▁फौज	-12.1676
▁conserve	-12.1677
▁harvesting	-12.1677
▁expeditiously	-12.1677
▁बीमारियों	-12.1677
▁collectively	-12.1677
▁नागेश्वर	-12.1677
▁meaningless	-12.1677
▁उठाएंगे	-12.1677
▁मणिपुर	-12.1677
▁agony	-12.1677
▁देहरी	-12.1677
▁सुनामी	-12.1677
▁रेलगाड़ियों	-12.1677
▁army	-12.1677
▁struggle	-12.1677
▁चौड़ा	-12.1677
▁70,000	-12.1677
▁पीड़ा	-12.1677
▁मानसिंह	-12.1677
▁disinvested	-12.1677
▁साठ	-12.1677
▁decent	-12.1677
▁उत्पादकता	-12.1677
▁justification	-12.1677
▁दिलाता	-12.1677
▁CRS	-12.1677
▁Deora	-12.1677
▁VÉÉiÉÉ	-12.1677
▁१५००	-12.1677
▁approving	-12.1677
▁हरेक	-12.1677
▁masses	-12.1677
▁चलेगी	-12.1677
▁fairness	-12.1677
▁communicate	-12.1677
▁Keeping	-12.1677
▁इम्पोर्ट	-12.1677
▁स्टेज	-12.1677
▁FkkA	-12.1677
▁recruited	-12.1677
▁खनन्	-12.1677
▁पकड़े	-12.1677
▁consisting	-12.1677
▁relax	-12.1677
▁खण्ड	-12.1677
▁नकारात्मक	-12.1677
▁लाइम	-12.1677
▁अनुमानित	-12.1677
▁image	-12.1677
▁गुजरता	-12.1677
▁rationale	-12.1677
▁branches	-12.1677
▁Mps	-12.1677
▁व्यवसायिक	-12.1677
▁सं०	-12.1677
▁missing	-12.1677
▁ननवदन	-12.1677
▁Banda	-12.1677
▁पड़ेंगे	-12.1677
▁cÉäxÉä	-12.1677
▁मिनी	-12.1677
▁Akot	-12.1678
▁मण्डी	-12.1678
▁Rank	-12.1678
▁1589	-12.1678
▁convinced	-12.1678
▁अरबों	-12.1678
▁Crores	-12.1678
▁Gold	-12.1678
▁coupons	-12.1678
▁उठता	-12.1678
▁weavers	-12.1678
▁effluents	-12.1678
▁सौंपा	-12.1678
▁mindset	-12.1678
▁जानवरों	-12.1678
▁दुकानों	-12.1678
▁टूटने	-12.1678
▁भलए	-12.1678
▁रखेंगे	-12.1678
▁सीटें	-12.1678
▁phase	-12.1678
▁relying	-12.1678
▁पनतव	-12.1678
▁excess	-12.1678
▁1977	-12.1678
▁Making	-12.1678
▁टोका	-12.1678
▁fulfilled	-12.1678
▁firmly	-12.1678
▁दगसत	-12.1678
▁1922	-12.1678
▁बदलना	-12.1678
▁कम्प्यूटरीकृत	-12.1678
▁ननषक	-12.1678
▁कान्ति	-12.1678
▁sacrificed	-12.1678
▁Commander	-12.1678
▁छपा	-12.1678
▁Bond	-12.1679
▁aimed	-12.1679
▁मध्यप्रदेश	-12.1679
▁Cities	-12.1679
▁बताती	-12.1679
75]	-12.1679
▁policemen	-12.1679
▁compromised	-12.1679
▁बिगड़	-12.1679
▁घटाने	-12.1679
▁rehabilitated	-12.1679
▁seniority	-12.1679
▁पड़ते	-12.1679
▁बुलाकर	-12.1679
▁राशियों	-12.1679
▁restraint	-12.1679
▁PAC	-12.1679
▁brand	-12.1679
▁कलकत	-12.1679
▁कैम्प	-12.1679
▁खोली	-12.1679
▁Poor	-12.1679
▁इन्दौरा	-12.168
▁सस्ता	-12.168
36]	-12.168
▁स्टेट्स	-12.168
▁उल्लेखित	-12.168
51]	-12.168
▁curbing	-12.168
▁cremation	-12.168
▁consolidated	-12.168
▁दिखाने	-12.168
▁नकद	-12.168
▁Stand	-12.168
57]	-12.168
▁पहुंचाया	-12.168
▁सुल्तानपुर	-12.168
▁commanding	-12.168
▁existed	-12.168
▁sky	-12.168
▁performed	-12.168
43]	-12.168
Sravana	-12.168
▁Oram	-12.168
▁exempted	-12.168
▁वैज्ञानिकों	-12.168
▁handled	-12.168
▁जनमत	-12.168
mks	-12.168
न्	-12.168
▁procured	-12.168
[...]
